{
  "version": "1.0",
  "truncation": null,
  "padding": null,
  "added_tokens": [
    {
      "id": 0,
      "content": "[UNK]",
      "single_word": false,
      "lstrip": false,
      "rstrip": false,
      "normalized": false,
      "special": true
    },
    {
      "id": 1,
      "content": "[CLS]",
      "single_word": false,
      "lstrip": false,
      "rstrip": false,
      "normalized": false,
      "special": true
    },
    {
      "id": 2,
      "content": "[SEP]",
      "single_word": false,
      "lstrip": false,
      "rstrip": false,
      "normalized": false,
      "special": true
    },
    {
      "id": 3,
      "content": "[PAD]",
      "single_word": false,
      "lstrip": false,
      "rstrip": false,
      "normalized": false,
      "special": true
    },
    {
      "id": 4,
      "content": "[MASK]",
      "single_word": false,
      "lstrip": false,
      "rstrip": false,
      "normalized": false,
      "special": true
    }
  ],
  "normalizer": null,
  "pre_tokenizer": {
    "type": "Whitespace"
  },
  "post_processor": null,
  "decoder": null,
  "model": {
    "type": "BPE",
    "dropout": null,
    "unk_token": "[UNK]",
    "continuing_subword_prefix": null,
    "end_of_word_suffix": null,
    "fuse_unk": false,
    "byte_fallback": false,
    "ignore_merges": false,
    "vocab": {
      "[UNK]": 0,
      "[CLS]": 1,
      "[SEP]": 2,
      "[PAD]": 3,
      "[MASK]": 4,
      "!": 5,
      "\"": 6,
      "#": 7,
      "$": 8,
      "%": 9,
      "&": 10,
      "'": 11,
      "(": 12,
      ")": 13,
      "*": 14,
      "+": 15,
      ",": 16,
      "-": 17,
      ".": 18,
      "/": 19,
      "0": 20,
      "1": 21,
      "2": 22,
      "3": 23,
      "4": 24,
      "5": 25,
      "6": 26,
      "7": 27,
      "8": 28,
      "9": 29,
      ":": 30,
      ";": 31,
      "=": 32,
      "?": 33,
      "@": 34,
      "[": 35,
      "\\": 36,
      "]": 37,
      "^": 38,
      "_": 39,
      "`": 40,
      "a": 41,
      "b": 42,
      "c": 43,
      "d": 44,
      "e": 45,
      "f": 46,
      "g": 47,
      "h": 48,
      "i": 49,
      "j": 50,
      "k": 51,
      "l": 52,
      "m": 53,
      "n": 54,
      "o": 55,
      "p": 56,
      "q": 57,
      "r": 58,
      "s": 59,
      "t": 60,
      "u": 61,
      "v": 62,
      "w": 63,
      "x": 64,
      "y": 65,
      "z": 66,
      "{": 67,
      "|": 68,
      "}": 69,
      "~": 70,
      "": 71,
      "": 72,
      "¡": 73,
      "¢": 74,
      "£": 75,
      "¤": 76,
      "¥": 77,
      "¦": 78,
      "§": 79,
      "©": 80,
      "ª": 81,
      "«": 82,
      "­": 83,
      "®": 84,
      "¯": 85,
      "°": 86,
      "±": 87,
      "²": 88,
      "³": 89,
      "´": 90,
      "µ": 91,
      "¶": 92,
      "·": 93,
      "¸": 94,
      "¹": 95,
      "º": 96,
      "»": 97,
      "½": 98,
      "¿": 99,
      "×": 100,
      "ß": 101,
      "à": 102,
      "á": 103,
      "â": 104,
      "ã": 105,
      "ä": 106,
      "å": 107,
      "æ": 108,
      "ç": 109,
      "è": 110,
      "é": 111,
      "ê": 112,
      "ë": 113,
      "ì": 114,
      "í": 115,
      "î": 116,
      "ï": 117,
      "ñ": 118,
      "ò": 119,
      "ó": 120,
      "ô": 121,
      "õ": 122,
      "ö": 123,
      "÷": 124,
      "ø": 125,
      "ù": 126,
      "ú": 127,
      "û": 128,
      "ü": 129,
      "ý": 130,
      "ā": 131,
      "ă": 132,
      "ą": 133,
      "ć": 134,
      "č": 135,
      "ď": 136,
      "đ": 137,
      "ē": 138,
      "ĕ": 139,
      "ė": 140,
      "ę": 141,
      "ğ": 142,
      "ī": 143,
      "ı": 144,
      "ł": 145,
      "ń": 146,
      "ō": 147,
      "ő": 148,
      "œ": 149,
      "ŕ": 150,
      "ř": 151,
      "ś": 152,
      "ş": 153,
      "š": 154,
      "ť": 155,
      "ũ": 156,
      "ŭ": 157,
      "ź": 158,
      "ż": 159,
      "ž": 160,
      "ơ": 161,
      "ư": 162,
      "ƿ": 163,
      "ǐ": 164,
      "ə": 165,
      "ɢ": 166,
      "ɪ": 167,
      "ɴ": 168,
      "ʀ": 169,
      "ʏ": 170,
      "ʙ": 171,
      "ʜ": 172,
      "ʟ": 173,
      "ʰ": 174,
      "ʳ": 175,
      "ʷ": 176,
      "ʸ": 177,
      "ʻ": 178,
      "ʼ": 179,
      "˄": 180,
      "ˊ": 181,
      "ˋ": 182,
      "ˍ": 183,
      "˚": 184,
      "ˢ": 185,
      "̀": 186,
      "́": 187,
      "̃": 188,
      "̄": 189,
      "̇": 190,
      "̈": 191,
      "̉": 192,
      "̑": 193,
      "̣": 194,
      "̥": 195,
      "̩": 196,
      "̳": 197,
      "̵": 198,
      "̶": 199,
      "͈": 200,
      "͙": 201,
      "ά": 202,
      "έ": 203,
      "ή": 204,
      "ί": 205,
      "α": 206,
      "β": 207,
      "γ": 208,
      "δ": 209,
      "ε": 210,
      "ζ": 211,
      "η": 212,
      "θ": 213,
      "ι": 214,
      "κ": 215,
      "λ": 216,
      "μ": 217,
      "ν": 218,
      "ο": 219,
      "π": 220,
      "ρ": 221,
      "ς": 222,
      "σ": 223,
      "τ": 224,
      "υ": 225,
      "φ": 226,
      "χ": 227,
      "ψ": 228,
      "ω": 229,
      "ό": 230,
      "ύ": 231,
      "ώ": 232,
      "ϝ": 233,
      "а": 234,
      "б": 235,
      "в": 236,
      "г": 237,
      "д": 238,
      "е": 239,
      "ж": 240,
      "з": 241,
      "и": 242,
      "й": 243,
      "к": 244,
      "л": 245,
      "м": 246,
      "н": 247,
      "о": 248,
      "п": 249,
      "р": 250,
      "с": 251,
      "т": 252,
      "у": 253,
      "ф": 254,
      "х": 255,
      "ц": 256,
      "ч": 257,
      "ш": 258,
      "щ": 259,
      "ъ": 260,
      "ы": 261,
      "ь": 262,
      "э": 263,
      "ю": 264,
      "я": 265,
      "ё": 266,
      "ѕ": 267,
      "ғ": 268,
      "қ": 269,
      "،": 270,
      "؛": 271,
      "؟": 272,
      "ء": 273,
      "آ": 274,
      "أ": 275,
      "ؤ": 276,
      "إ": 277,
      "ئ": 278,
      "ا": 279,
      "ب": 280,
      "ة": 281,
      "ت": 282,
      "ث": 283,
      "ج": 284,
      "ح": 285,
      "خ": 286,
      "د": 287,
      "ذ": 288,
      "ر": 289,
      "ز": 290,
      "س": 291,
      "ش": 292,
      "ص": 293,
      "ض": 294,
      "ط": 295,
      "ظ": 296,
      "ع": 297,
      "غ": 298,
      "ـ": 299,
      "ف": 300,
      "ق": 301,
      "ك": 302,
      "ل": 303,
      "م": 304,
      "ن": 305,
      "ه": 306,
      "و": 307,
      "ى": 308,
      "ي": 309,
      "ً": 310,
      "ٌ": 311,
      "َ": 312,
      "ُ": 313,
      "ِ": 314,
      "ّ": 315,
      "ْ": 316,
      "ٓ": 317,
      "ٔ": 318,
      "٠": 319,
      "١": 320,
      "٢": 321,
      "٣": 322,
      "٦": 323,
      "٧": 324,
      "٨": 325,
      "٩": 326,
      "ٰ": 327,
      "ٹ": 328,
      "پ": 329,
      "چ": 330,
      "ڈ": 331,
      "ڑ": 332,
      "ک": 333,
      "گ": 334,
      "ں": 335,
      "ھ": 336,
      "ہ": 337,
      "ی": 338,
      "ے": 339,
      "۔": 340,
      "ۖ": 341,
      "ۚ": 342,
      "۞": 343,
      "۩": 344,
      "۴": 345,
      "۵": 346,
      "ँ": 347,
      "ं": 348,
      "ः": 349,
      "अ": 350,
      "आ": 351,
      "इ": 352,
      "ई": 353,
      "उ": 354,
      "ऊ": 355,
      "ऋ": 356,
      "ऍ": 357,
      "ए": 358,
      "ऐ": 359,
      "ऑ": 360,
      "ओ": 361,
      "औ": 362,
      "क": 363,
      "ख": 364,
      "ग": 365,
      "घ": 366,
      "ङ": 367,
      "च": 368,
      "छ": 369,
      "ज": 370,
      "झ": 371,
      "ञ": 372,
      "ट": 373,
      "ठ": 374,
      "ड": 375,
      "ढ": 376,
      "ण": 377,
      "त": 378,
      "थ": 379,
      "द": 380,
      "ध": 381,
      "न": 382,
      "प": 383,
      "फ": 384,
      "ब": 385,
      "भ": 386,
      "म": 387,
      "य": 388,
      "र": 389,
      "ऱ": 390,
      "ल": 391,
      "ळ": 392,
      "व": 393,
      "श": 394,
      "ष": 395,
      "स": 396,
      "ह": 397,
      "़": 398,
      "ा": 399,
      "ि": 400,
      "ी": 401,
      "ु": 402,
      "ू": 403,
      "ृ": 404,
      "ॅ": 405,
      "े": 406,
      "ै": 407,
      "ॉ": 408,
      "ो": 409,
      "ौ": 410,
      "्": 411,
      "ॐ": 412,
      "ॕ": 413,
      "क़": 414,
      "ख़": 415,
      "ज़": 416,
      "ड़": 417,
      "ढ़": 418,
      "फ़": 419,
      "।": 420,
      "॥": 421,
      "०": 422,
      "१": 423,
      "२": 424,
      "३": 425,
      "४": 426,
      "५": 427,
      "६": 428,
      "७": 429,
      "८": 430,
      "९": 431,
      "ঁ": 432,
      "ং": 433,
      "ঃ": 434,
      "অ": 435,
      "আ": 436,
      "ই": 437,
      "ঈ": 438,
      "উ": 439,
      "ঋ": 440,
      "এ": 441,
      "ও": 442,
      "ঔ": 443,
      "ক": 444,
      "খ": 445,
      "গ": 446,
      "ঘ": 447,
      "ঙ": 448,
      "চ": 449,
      "ছ": 450,
      "জ": 451,
      "ঝ": 452,
      "ঞ": 453,
      "ট": 454,
      "ঠ": 455,
      "ড": 456,
      "ঢ": 457,
      "ণ": 458,
      "ত": 459,
      "থ": 460,
      "দ": 461,
      "ধ": 462,
      "ন": 463,
      "প": 464,
      "ফ": 465,
      "ব": 466,
      "ভ": 467,
      "ম": 468,
      "য": 469,
      "র": 470,
      "ল": 471,
      "শ": 472,
      "ষ": 473,
      "স": 474,
      "হ": 475,
      "়": 476,
      "া": 477,
      "ি": 478,
      "ী": 479,
      "ু": 480,
      "ূ": 481,
      "ৃ": 482,
      "ে": 483,
      "ৈ": 484,
      "ো": 485,
      "ৌ": 486,
      "্": 487,
      "ৎ": 488,
      "ড়": 489,
      "ঢ়": 490,
      "য়": 491,
      "০": 492,
      "১": 493,
      "২": 494,
      "৩": 495,
      "৪": 496,
      "৫": 497,
      "৬": 498,
      "৭": 499,
      "৮": 500,
      "৯": 501,
      "ৰ": 502,
      "ৱ": 503,
      "৷": 504,
      "ਂ": 505,
      "ਅ": 506,
      "ਆ": 507,
      "ਇ": 508,
      "ਈ": 509,
      "ਉ": 510,
      "ਏ": 511,
      "ਓ": 512,
      "ਕ": 513,
      "ਖ": 514,
      "ਗ": 515,
      "ਚ": 516,
      "ਜ": 517,
      "ਝ": 518,
      "ਟ": 519,
      "ਡ": 520,
      "ਣ": 521,
      "ਤ": 522,
      "ਥ": 523,
      "ਦ": 524,
      "ਧ": 525,
      "ਨ": 526,
      "ਪ": 527,
      "ਫ": 528,
      "ਬ": 529,
      "ਭ": 530,
      "ਮ": 531,
      "ਯ": 532,
      "ਰ": 533,
      "ਲ": 534,
      "ਵ": 535,
      "ਸ਼": 536,
      "ਸ": 537,
      "ਹ": 538,
      "ਾ": 539,
      "ਿ": 540,
      "ੀ": 541,
      "ੁ": 542,
      "ੂ": 543,
      "ੇ": 544,
      "ੈ": 545,
      "ੋ": 546,
      "ੌ": 547,
      "੍": 548,
      "ਜ਼": 549,
      "ੜ": 550,
      "ੰ": 551,
      "ੱ": 552,
      "ં": 553,
      "ઃ": 554,
      "અ": 555,
      "આ": 556,
      "ઇ": 557,
      "ઈ": 558,
      "ઉ": 559,
      "ઊ": 560,
      "ઍ": 561,
      "એ": 562,
      "ઓ": 563,
      "ક": 564,
      "ખ": 565,
      "ગ": 566,
      "ઘ": 567,
      "ચ": 568,
      "છ": 569,
      "જ": 570,
      "ઝ": 571,
      "ઞ": 572,
      "ટ": 573,
      "ઠ": 574,
      "ડ": 575,
      "ઢ": 576,
      "ણ": 577,
      "ત": 578,
      "થ": 579,
      "દ": 580,
      "ધ": 581,
      "ન": 582,
      "પ": 583,
      "ફ": 584,
      "બ": 585,
      "ભ": 586,
      "મ": 587,
      "ય": 588,
      "ર": 589,
      "લ": 590,
      "ળ": 591,
      "વ": 592,
      "શ": 593,
      "ષ": 594,
      "સ": 595,
      "હ": 596,
      "ા": 597,
      "િ": 598,
      "ી": 599,
      "ુ": 600,
      "ૂ": 601,
      "ૃ": 602,
      "ે": 603,
      "ૈ": 604,
      "ૉ": 605,
      "ો": 606,
      "ૌ": 607,
      "્": 608,
      "૦": 609,
      "૧": 610,
      "૨": 611,
      "૩": 612,
      "૪": 613,
      "૫": 614,
      "૬": 615,
      "૭": 616,
      "૮": 617,
      "૯": 618,
      "ଁ": 619,
      "ଂ": 620,
      "ଃ": 621,
      "ଅ": 622,
      "ଆ": 623,
      "ଇ": 624,
      "ଉ": 625,
      "ଏ": 626,
      "ଓ": 627,
      "କ": 628,
      "ଖ": 629,
      "ଗ": 630,
      "ଘ": 631,
      "ଙ": 632,
      "ଚ": 633,
      "ଛ": 634,
      "ଜ": 635,
      "ଝ": 636,
      "ଞ": 637,
      "ଟ": 638,
      "ଠ": 639,
      "ଡ": 640,
      "ଢ": 641,
      "ଣ": 642,
      "ତ": 643,
      "ଥ": 644,
      "ଦ": 645,
      "ଧ": 646,
      "ନ": 647,
      "ପ": 648,
      "ଫ": 649,
      "ବ": 650,
      "ଭ": 651,
      "ମ": 652,
      "ଯ": 653,
      "ର": 654,
      "ଲ": 655,
      "ଳ": 656,
      "ଵ": 657,
      "ଶ": 658,
      "ଷ": 659,
      "ସ": 660,
      "ହ": 661,
      "଼": 662,
      "ା": 663,
      "ି": 664,
      "ୀ": 665,
      "ୁ": 666,
      "ୂ": 667,
      "ୃ": 668,
      "େ": 669,
      "ୈ": 670,
      "ୋ": 671,
      "ୌ": 672,
      "୍": 673,
      "ୟ": 674,
      "୦": 675,
      "୧": 676,
      "୨": 677,
      "ୱ": 678,
      "ஃ": 679,
      "அ": 680,
      "ஆ": 681,
      "இ": 682,
      "உ": 683,
      "ஊ": 684,
      "எ": 685,
      "ஏ": 686,
      "ஐ": 687,
      "ஒ": 688,
      "ஓ": 689,
      "ஔ": 690,
      "க": 691,
      "ங": 692,
      "ச": 693,
      "ஜ": 694,
      "ஞ": 695,
      "ட": 696,
      "ண": 697,
      "த": 698,
      "ந": 699,
      "ன": 700,
      "ப": 701,
      "ம": 702,
      "ய": 703,
      "ர": 704,
      "ற": 705,
      "ல": 706,
      "ள": 707,
      "ழ": 708,
      "வ": 709,
      "ஷ": 710,
      "ஸ": 711,
      "ஹ": 712,
      "ா": 713,
      "ி": 714,
      "ீ": 715,
      "ு": 716,
      "ூ": 717,
      "ெ": 718,
      "ே": 719,
      "ை": 720,
      "ொ": 721,
      "ோ": 722,
      "ௌ": 723,
      "்": 724,
      "௦": 725,
      "ం": 726,
      "అ": 727,
      "ఆ": 728,
      "ఇ": 729,
      "ఈ": 730,
      "ఉ": 731,
      "ఊ": 732,
      "ఎ": 733,
      "ఏ": 734,
      "ఐ": 735,
      "ఒ": 736,
      "ఓ": 737,
      "ఔ": 738,
      "క": 739,
      "ఖ": 740,
      "గ": 741,
      "ఘ": 742,
      "చ": 743,
      "ఛ": 744,
      "జ": 745,
      "ఞ": 746,
      "ట": 747,
      "ఠ": 748,
      "డ": 749,
      "ణ": 750,
      "త": 751,
      "థ": 752,
      "ద": 753,
      "ధ": 754,
      "న": 755,
      "ప": 756,
      "ఫ": 757,
      "బ": 758,
      "భ": 759,
      "మ": 760,
      "య": 761,
      "ర": 762,
      "ల": 763,
      "ళ": 764,
      "వ": 765,
      "శ": 766,
      "ష": 767,
      "స": 768,
      "హ": 769,
      "ా": 770,
      "ి": 771,
      "ీ": 772,
      "ు": 773,
      "ూ": 774,
      "ృ": 775,
      "ె": 776,
      "ే": 777,
      "ై": 778,
      "ొ": 779,
      "ో": 780,
      "ౌ": 781,
      "్": 782,
      "ಂ": 783,
      "ಅ": 784,
      "ಆ": 785,
      "ಇ": 786,
      "ಈ": 787,
      "ಉ": 788,
      "ಎ": 789,
      "ಏ": 790,
      "ಒ": 791,
      "ಓ": 792,
      "ಕ": 793,
      "ಖ": 794,
      "ಗ": 795,
      "ಘ": 796,
      "ಚ": 797,
      "ಛ": 798,
      "ಜ": 799,
      "ಞ": 800,
      "ಟ": 801,
      "ಠ": 802,
      "ಡ": 803,
      "ಣ": 804,
      "ತ": 805,
      "ಥ": 806,
      "ದ": 807,
      "ಧ": 808,
      "ನ": 809,
      "ಪ": 810,
      "ಫ": 811,
      "ಬ": 812,
      "ಭ": 813,
      "ಮ": 814,
      "ಯ": 815,
      "ರ": 816,
      "ಲ": 817,
      "ಳ": 818,
      "ವ": 819,
      "ಶ": 820,
      "ಷ": 821,
      "ಸ": 822,
      "ಹ": 823,
      "ಾ": 824,
      "ಿ": 825,
      "ೀ": 826,
      "ು": 827,
      "ೂ": 828,
      "ೃ": 829,
      "ೆ": 830,
      "ೇ": 831,
      "ೈ": 832,
      "ೊ": 833,
      "ೋ": 834,
      "ೌ": 835,
      "್": 836,
      "೯": 837,
      "ം": 838,
      "ഃ": 839,
      "അ": 840,
      "ആ": 841,
      "ഇ": 842,
      "ഈ": 843,
      "ഉ": 844,
      "ഊ": 845,
      "എ": 846,
      "ഏ": 847,
      "ഐ": 848,
      "ഒ": 849,
      "ഓ": 850,
      "ക": 851,
      "ഖ": 852,
      "ഗ": 853,
      "ഘ": 854,
      "ങ": 855,
      "ച": 856,
      "ജ": 857,
      "ഞ": 858,
      "ട": 859,
      "ഠ": 860,
      "ഡ": 861,
      "ണ": 862,
      "ത": 863,
      "ഥ": 864,
      "ദ": 865,
      "ധ": 866,
      "ന": 867,
      "പ": 868,
      "ഫ": 869,
      "ബ": 870,
      "ഭ": 871,
      "മ": 872,
      "യ": 873,
      "ര": 874,
      "റ": 875,
      "ല": 876,
      "ള": 877,
      "ഴ": 878,
      "വ": 879,
      "ശ": 880,
      "ഷ": 881,
      "സ": 882,
      "ഹ": 883,
      "ാ": 884,
      "ി": 885,
      "ീ": 886,
      "ു": 887,
      "ൂ": 888,
      "ൃ": 889,
      "െ": 890,
      "േ": 891,
      "ൈ": 892,
      "ൊ": 893,
      "ോ": 894,
      "ൌ": 895,
      "്": 896,
      "ൗ": 897,
      "ൺ": 898,
      "ൻ": 899,
      "ർ": 900,
      "ൽ": 901,
      "ൾ": 902,
      "ං": 903,
      "අ": 904,
      "ආ": 905,
      "ඇ": 906,
      "ඉ": 907,
      "ඊ": 908,
      "උ": 909,
      "එ": 910,
      "ඒ": 911,
      "ඔ": 912,
      "ඕ": 913,
      "ක": 914,
      "ඛ": 915,
      "ග": 916,
      "ඝ": 917,
      "ඟ": 918,
      "ච": 919,
      "ඡ": 920,
      "ජ": 921,
      "ට": 922,
      "ඨ": 923,
      "ඩ": 924,
      "ණ": 925,
      "ත": 926,
      "ථ": 927,
      "ද": 928,
      "ධ": 929,
      "න": 930,
      "ඳ": 931,
      "ප": 932,
      "ඵ": 933,
      "බ": 934,
      "භ": 935,
      "ම": 936,
      "ය": 937,
      "ර": 938,
      "ල": 939,
      "ව": 940,
      "ශ": 941,
      "ෂ": 942,
      "ස": 943,
      "හ": 944,
      "ළ": 945,
      "ෆ": 946,
      "්": 947,
      "ා": 948,
      "ැ": 949,
      "ෑ": 950,
      "ි": 951,
      "ී": 952,
      "ු": 953,
      "ූ": 954,
      "ෘ": 955,
      "ෙ": 956,
      "ේ": 957,
      "ෛ": 958,
      "ො": 959,
      "ෝ": 960,
      "ෲ": 961,
      "ก": 962,
      "ข": 963,
      "ค": 964,
      "ฆ": 965,
      "ง": 966,
      "จ": 967,
      "ฉ": 968,
      "ช": 969,
      "ซ": 970,
      "ญ": 971,
      "ฎ": 972,
      "ฏ": 973,
      "ฐ": 974,
      "ฑ": 975,
      "ฒ": 976,
      "ณ": 977,
      "ด": 978,
      "ต": 979,
      "ถ": 980,
      "ท": 981,
      "ธ": 982,
      "น": 983,
      "บ": 984,
      "ป": 985,
      "ผ": 986,
      "ฝ": 987,
      "พ": 988,
      "ฟ": 989,
      "ภ": 990,
      "ม": 991,
      "ย": 992,
      "ร": 993,
      "ฤ": 994,
      "ล": 995,
      "ว": 996,
      "ศ": 997,
      "ษ": 998,
      "ส": 999,
      "ห": 1000,
      "อ": 1001,
      "ฮ": 1002,
      "ะ": 1003,
      "ั": 1004,
      "า": 1005,
      "ำ": 1006,
      "ิ": 1007,
      "ี": 1008,
      "ึ": 1009,
      "ื": 1010,
      "ุ": 1011,
      "ู": 1012,
      "เ": 1013,
      "แ": 1014,
      "โ": 1015,
      "ใ": 1016,
      "ไ": 1017,
      "ๆ": 1018,
      "็": 1019,
      "่": 1020,
      "้": 1021,
      "๊": 1022,
      "๋": 1023,
      "์": 1024,
      "་": 1025,
      "༝": 1026,
      "ག": 1027,
      "པ": 1028,
      "བ": 1029,
      "ར": 1030,
      "ས": 1031,
      "ི": 1032,
      "ོ": 1033,
      "က": 1034,
      "ခ": 1035,
      "ဂ": 1036,
      "င": 1037,
      "စ": 1038,
      "ဆ": 1039,
      "ဇ": 1040,
      "ည": 1041,
      "ဌ": 1042,
      "တ": 1043,
      "ထ": 1044,
      "ဒ": 1045,
      "ဓ": 1046,
      "န": 1047,
      "ပ": 1048,
      "ဖ": 1049,
      "ဗ": 1050,
      "မ": 1051,
      "ယ": 1052,
      "ရ": 1053,
      "လ": 1054,
      "ဝ": 1055,
      "သ": 1056,
      "အ": 1057,
      "ါ": 1058,
      "ာ": 1059,
      "ိ": 1060,
      "ီ": 1061,
      "ု": 1062,
      "ူ": 1063,
      "ေ": 1064,
      "ဲ": 1065,
      "ံ": 1066,
      "့": 1067,
      "း": 1068,
      "္": 1069,
      "်": 1070,
      "ျ": 1071,
      "ြ": 1072,
      "ွ": 1073,
      "ှ": 1074,
      "၆": 1075,
      "၊": 1076,
      "။": 1077,
      "ሁ": 1078,
      "ህ": 1079,
      "ሆ": 1080,
      "ለ": 1081,
      "ሉ": 1082,
      "ሊ": 1083,
      "ላ": 1084,
      "ሌ": 1085,
      "ል": 1086,
      "ሎ": 1087,
      "ሐ": 1088,
      "መ": 1089,
      "ሙ": 1090,
      "ሚ": 1091,
      "ማ": 1092,
      "ም": 1093,
      "ሞ": 1094,
      "ረ": 1095,
      "ሪ": 1096,
      "ራ": 1097,
      "ር": 1098,
      "ሮ": 1099,
      "ሰ": 1100,
      "ሱ": 1101,
      "ሴ": 1102,
      "ስ": 1103,
      "ሶ": 1104,
      "ሺ": 1105,
      "ሼ": 1106,
      "ሽ": 1107,
      "ሿ": 1108,
      "ቀ": 1109,
      "ቁ": 1110,
      "ቂ": 1111,
      "ቃ": 1112,
      "ቄ": 1113,
      "ቅ": 1114,
      "በ": 1115,
      "ቢ": 1116,
      "ባ": 1117,
      "ቤ": 1118,
      "ብ": 1119,
      "ቪ": 1120,
      "ተ": 1121,
      "ቱ": 1122,
      "ታ": 1123,
      "ት": 1124,
      "ቶ": 1125,
      "ቸ": 1126,
      "ቻ": 1127,
      "ች": 1128,
      "ኃ": 1129,
      "ነ": 1130,
      "ኑ": 1131,
      "ኒ": 1132,
      "ና": 1133,
      "ን": 1134,
      "ኛ": 1135,
      "ኝ": 1136,
      "አ": 1137,
      "ኢ": 1138,
      "ኣ": 1139,
      "ኤ": 1140,
      "እ": 1141,
      "ከ": 1142,
      "ካ": 1143,
      "ክ": 1144,
      "ኮ": 1145,
      "ወ": 1146,
      "ው": 1147,
      "ዎ": 1148,
      "ዓ": 1149,
      "ዘ": 1150,
      "ዙ": 1151,
      "ዚ": 1152,
      "ዝ": 1153,
      "የ": 1154,
      "ያ": 1155,
      "ይ": 1156,
      "ዮ": 1157,
      "ደ": 1158,
      "ዲ": 1159,
      "ዳ": 1160,
      "ዴ": 1161,
      "ድ": 1162,
      "ጅ": 1163,
      "ገ": 1164,
      "ጋ": 1165,
      "ግ": 1166,
      "ጎ": 1167,
      "ጠ": 1168,
      "ጡ": 1169,
      "ጤ": 1170,
      "ጥ": 1171,
      "ጵ": 1172,
      "ጻ": 1173,
      "ፅ": 1174,
      "ፉ": 1175,
      "ፋ": 1176,
      "ፍ": 1177,
      "ፓ": 1178,
      "።": 1179,
      "፣": 1180,
      "ᐛ": 1181,
      "ᕕ": 1182,
      "ᕗ": 1183,
      "ᗜ": 1184,
      "ᗷ": 1185,
      "ក": 1186,
      "ខ": 1187,
      "គ": 1188,
      "ង": 1189,
      "ច": 1190,
      "ឆ": 1191,
      "ជ": 1192,
      "ញ": 1193,
      "ដ": 1194,
      "ឌ": 1195,
      "ណ": 1196,
      "ត": 1197,
      "ថ": 1198,
      "ទ": 1199,
      "ធ": 1200,
      "ន": 1201,
      "ប": 1202,
      "ផ": 1203,
      "ព": 1204,
      "ភ": 1205,
      "ម": 1206,
      "យ": 1207,
      "រ": 1208,
      "ល": 1209,
      "វ": 1210,
      "ស": 1211,
      "ហ": 1212,
      "ឡ": 1213,
      "អ": 1214,
      "ឬ": 1215,
      "ា": 1216,
      "ិ": 1217,
      "ី": 1218,
      "ឹ": 1219,
      "ុ": 1220,
      "ូ": 1221,
      "ួ": 1222,
      "ើ": 1223,
      "ៀ": 1224,
      "េ": 1225,
      "ែ": 1226,
      "ៃ": 1227,
      "ោ": 1228,
      "ៅ": 1229,
      "ំ": 1230,
      "ះ": 1231,
      "ៈ": 1232,
      "៉": 1233,
      "៊": 1234,
      "់": 1235,
      "៌": 1236,
      "៍": 1237,
      "័": 1238,
      "្": 1239,
      "។": 1240,
      "ៗ": 1241,
      "៛": 1242,
      "១": 1243,
      "ᴀ": 1244,
      "ᴄ": 1245,
      "ᴅ": 1246,
      "ᴇ": 1247,
      "ᴋ": 1248,
      "ᴍ": 1249,
      "ᴏ": 1250,
      "ᴘ": 1251,
      "ᴛ": 1252,
      "ᴜ": 1253,
      "ᴠ": 1254,
      "ᴡ": 1255,
      "ᴢ": 1256,
      "ᵈ": 1257,
      "ᵉ": 1258,
      "ᵍ": 1259,
      "ᵒ": 1260,
      "ᵗ": 1261,
      "ᵘ": 1262,
      "ᵛ": 1263,
      "ᵢ": 1264,
      "ᵣ": 1265,
      "ᵤ": 1266,
      "ᶿ": 1267,
      "ṛ": 1268,
      "ṣ": 1269,
      "ạ": 1270,
      "ả": 1271,
      "ấ": 1272,
      "ầ": 1273,
      "ẩ": 1274,
      "ẫ": 1275,
      "ậ": 1276,
      "ắ": 1277,
      "ằ": 1278,
      "ặ": 1279,
      "ẹ": 1280,
      "ẻ": 1281,
      "ẽ": 1282,
      "ế": 1283,
      "ề": 1284,
      "ể": 1285,
      "ễ": 1286,
      "ệ": 1287,
      "ỉ": 1288,
      "ị": 1289,
      "ọ": 1290,
      "ỏ": 1291,
      "ố": 1292,
      "ồ": 1293,
      "ổ": 1294,
      "ỗ": 1295,
      "ộ": 1296,
      "ớ": 1297,
      "ờ": 1298,
      "ở": 1299,
      "ỡ": 1300,
      "ợ": 1301,
      "ụ": 1302,
      "ủ": 1303,
      "ứ": 1304,
      "ừ": 1305,
      "ử": 1306,
      "ữ": 1307,
      "ự": 1308,
      "ỳ": 1309,
      "​": 1310,
      "‌": 1311,
      "‍": 1312,
      "‎": 1313,
      "‏": 1314,
      "‐": 1315,
      "‑": 1316,
      "‒": 1317,
      "–": 1318,
      "—": 1319,
      "―": 1320,
      "‖": 1321,
      "‘": 1322,
      "’": 1323,
      "‚": 1324,
      "“": 1325,
      "”": 1326,
      "„": 1327,
      "†": 1328,
      "•": 1329,
      "‣": 1330,
      "…": 1331,
      "‧": 1332,
      "‪": 1333,
      "‬": 1334,
      "‭": 1335,
      "″": 1336,
      "›": 1337,
      "※": 1338,
      "‼": 1339,
      "‾": 1340,
      "⁂": 1341,
      "⁄": 1342,
      "⁉": 1343,
      "⁙": 1344,
      "⁝": 1345,
      "⁞": 1346,
      "⁠": 1347,
      "⁣": 1348,
      "ⁱ": 1349,
      "⁻": 1350,
      "⁽": 1351,
      "⁾": 1352,
      "ⁿ": 1353,
      "₁": 1354,
      "₂": 1355,
      "₅": 1356,
      "₍": 1357,
      "₎": 1358,
      "ₐ": 1359,
      "ₑ": 1360,
      "ₒ": 1361,
      "ₖ": 1362,
      "ₘ": 1363,
      "ₙ": 1364,
      "ₛ": 1365,
      "₪": 1366,
      "€": 1367,
      "₹": 1368,
      "₿": 1369,
      "⃣": 1370,
      "ℂ": 1371,
      "℃": 1372,
      "ℎ": 1373,
      "ℓ": 1374,
      "№": 1375,
      "℗": 1376,
      "ℝ": 1377,
      "™": 1378,
      "ℭ": 1379,
      "ℹ": 1380,
      "ⅳ": 1381,
      "←": 1382,
      "↑": 1383,
      "→": 1384,
      "↓": 1385,
      "↔": 1386,
      "↖": 1387,
      "↗": 1388,
      "↘": 1389,
      "↙": 1390,
      "↡": 1391,
      "↤": 1392,
      "↦": 1393,
      "↩": 1394,
      "↪": 1395,
      "↬": 1396,
      "↳": 1397,
      "↴": 1398,
      "↷": 1399,
      "⇊": 1400,
      "⇒": 1401,
      "⇛": 1402,
      "⇢": 1403,
      "⇨": 1404,
      "⇩": 1405,
      "⇾": 1406,
      "∅": 1407,
      "∆": 1408,
      "∑": 1409,
      "−": 1410,
      "∗": 1411,
      "√": 1412,
      "∝": 1413,
      "∠": 1414,
      "∫": 1415,
      "∭": 1416,
      "∰": 1417,
      "∻": 1418,
      "∼": 1419,
      "≈": 1420,
      "≍": 1421,
      "≠": 1422,
      "≡": 1423,
      "⊙": 1424,
      "⊥": 1425,
      "⊳": 1426,
      "⊶": 1427,
      "⋅": 1428,
      "⋆": 1429,
      "⌁": 1430,
      "⌒": 1431,
      "⌚": 1432,
      "⌛": 1433,
      "⌨": 1434,
      "〉": 1435,
      "⍟": 1436,
      "⎋": 1437,
      "⏏": 1438,
      "⏩": 1439,
      "⏬": 1440,
      "⏭": 1441,
      "⏮": 1442,
      "⏯": 1443,
      "⏰": 1444,
      "⏱": 1445,
      "⏲": 1446,
      "⏳": 1447,
      "⏸": 1448,
      "⏺": 1449,
      "①": 1450,
      "②": 1451,
      "③": 1452,
      "④": 1453,
      "ⓑ": 1454,
      "ⓒ": 1455,
      "ⓔ": 1456,
      "ⓘ": 1457,
      "ⓜ": 1458,
      "ⓢ": 1459,
      "─": 1460,
      "━": 1461,
      "│": 1462,
      "┃": 1463,
      "┇": 1464,
      "┈": 1465,
      "┉": 1466,
      "═": 1467,
      "║": 1468,
      "╔": 1469,
      "╗": 1470,
      "╚": 1471,
      "╝": 1472,
      "╠": 1473,
      "╣": 1474,
      "╦": 1475,
      "╩": 1476,
      "╰": 1477,
      "╾": 1478,
      "▀": 1479,
      "▃": 1480,
      "▄": 1481,
      "█": 1482,
      "▍": 1483,
      "▎": 1484,
      "░": 1485,
      "▒": 1486,
      "▓": 1487,
      "■": 1488,
      "□": 1489,
      "▣": 1490,
      "▪": 1491,
      "▬": 1492,
      "▮": 1493,
      "▰": 1494,
      "▱": 1495,
      "▲": 1496,
      "△": 1497,
      "▶": 1498,
      "▷": 1499,
      "▸": 1500,
      "▹": 1501,
      "►": 1502,
      "▼": 1503,
      "▽": 1504,
      "◀": 1505,
      "◄": 1506,
      "◆": 1507,
      "◇": 1508,
      "◈": 1509,
      "◉": 1510,
      "○": 1511,
      "◍": 1512,
      "●": 1513,
      "◖": 1514,
      "◗": 1515,
      "◘": 1516,
      "◞": 1517,
      "◠": 1518,
      "◡": 1519,
      "◤": 1520,
      "◦": 1521,
      "◼": 1522,
      "◾": 1523,
      "☀": 1524,
      "☁": 1525,
      "☂": 1526,
      "☃": 1527,
      "★": 1528,
      "☆": 1529,
      "☎": 1530,
      "☏": 1531,
      "☑": 1532,
      "☔": 1533,
      "☕": 1534,
      "☗": 1535,
      "☘": 1536,
      "☛": 1537,
      "☜": 1538,
      "☝": 1539,
      "☞": 1540,
      "☟": 1541,
      "☠": 1542,
      "☮": 1543,
      "☯": 1544,
      "☹": 1545,
      "☺": 1546,
      "♀": 1547,
      "♂": 1548,
      "♎": 1549,
      "♑": 1550,
      "♓": 1551,
      "♠": 1552,
      "♡": 1553,
      "♥": 1554,
      "♦": 1555,
      "♨": 1556,
      "♪": 1557,
      "♫": 1558,
      "♬": 1559,
      "♯": 1560,
      "♻": 1561,
      "♾": 1562,
      "⚑": 1563,
      "⚒": 1564,
      "⚓": 1565,
      "⚔": 1566,
      "⚕": 1567,
      "⚖": 1568,
      "⚗": 1569,
      "⚙": 1570,
      "⚛": 1571,
      "⚜": 1572,
      "⚝": 1573,
      "⚠": 1574,
      "⚡": 1575,
      "⚤": 1576,
      "⚪": 1577,
      "⚫": 1578,
      "⚬": 1579,
      "⚰": 1580,
      "⚽": 1581,
      "⚾": 1582,
      "⛄": 1583,
      "⛅": 1584,
      "⛈": 1585,
      "⛎": 1586,
      "⛑": 1587,
      "⛓": 1588,
      "⛔": 1589,
      "⛩": 1590,
      "⛵": 1591,
      "⛺": 1592,
      "⛽": 1593,
      "✂": 1594,
      "✅": 1595,
      "✆": 1596,
      "✈": 1597,
      "✉": 1598,
      "✊": 1599,
      "✋": 1600,
      "✌": 1601,
      "✍": 1602,
      "✎": 1603,
      "✏": 1604,
      "✒": 1605,
      "✓": 1606,
      "✔": 1607,
      "✖": 1608,
      "✗": 1609,
      "✘": 1610,
      "✜": 1611,
      "✤": 1612,
      "✦": 1613,
      "✧": 1614,
      "✨": 1615,
      "✩": 1616,
      "✪": 1617,
      "✫": 1618,
      "✮": 1619,
      "✰": 1620,
      "✳": 1621,
      "✴": 1622,
      "✷": 1623,
      "✸": 1624,
      "✿": 1625,
      "❀": 1626,
      "❄": 1627,
      "❅": 1628,
      "❇": 1629,
      "❋": 1630,
      "❌": 1631,
      "❏": 1632,
      "❐": 1633,
      "❓": 1634,
      "❗": 1635,
      "❘": 1636,
      "❜": 1637,
      "❝": 1638,
      "❞": 1639,
      "❣": 1640,
      "❤": 1641,
      "❥": 1642,
      "❦": 1643,
      "❯": 1644,
      "❰": 1645,
      "❱": 1646,
      "➊": 1647,
      "➋": 1648,
      "➌": 1649,
      "➍": 1650,
      "➔": 1651,
      "➕": 1652,
      "➖": 1653,
      "➗": 1654,
      "➙": 1655,
      "➛": 1656,
      "➜": 1657,
      "➝": 1658,
      "➞": 1659,
      "➟": 1660,
      "➠": 1661,
      "➡": 1662,
      "➢": 1663,
      "➣": 1664,
      "➤": 1665,
      "➥": 1666,
      "➦": 1667,
      "➨": 1668,
      "➪": 1669,
      "➭": 1670,
      "➯": 1671,
      "➱": 1672,
      "➼": 1673,
      "➽": 1674,
      "➾": 1675,
      "⟹": 1676,
      "⟿": 1677,
      "⠀": 1678,
      "⤟": 1679,
      "⤠": 1680,
      "⤴": 1681,
      "⤵": 1682,
      "⤷": 1683,
      "⦿": 1684,
      "⫸": 1685,
      "⬄": 1686,
      "⬅": 1687,
      "⬆": 1688,
      "⬇": 1689,
      "⬌": 1690,
      "⬛": 1691,
      "⬤": 1692,
      "⭐": 1693,
      "⭕": 1694,
      "⮞": 1695,
      "⯈": 1696,
      "⽴": 1697,
      "、": 1698,
      "。": 1699,
      "《": 1700,
      "》": 1701,
      "「": 1702,
      "」": 1703,
      "『": 1704,
      "』": 1705,
      "【": 1706,
      "】": 1707,
      "〓": 1708,
      "〖": 1709,
      "〗": 1710,
      "〰": 1711,
      "あ": 1712,
      "い": 1713,
      "う": 1714,
      "え": 1715,
      "お": 1716,
      "か": 1717,
      "が": 1718,
      "き": 1719,
      "く": 1720,
      "け": 1721,
      "こ": 1722,
      "ご": 1723,
      "さ": 1724,
      "ざ": 1725,
      "し": 1726,
      "じ": 1727,
      "す": 1728,
      "ず": 1729,
      "せ": 1730,
      "そ": 1731,
      "ぞ": 1732,
      "た": 1733,
      "だ": 1734,
      "ち": 1735,
      "っ": 1736,
      "つ": 1737,
      "て": 1738,
      "で": 1739,
      "と": 1740,
      "ど": 1741,
      "な": 1742,
      "に": 1743,
      "ね": 1744,
      "の": 1745,
      "は": 1746,
      "ば": 1747,
      "ひ": 1748,
      "び": 1749,
      "ま": 1750,
      "み": 1751,
      "め": 1752,
      "も": 1753,
      "や": 1754,
      "よ": 1755,
      "ら": 1756,
      "り": 1757,
      "る": 1758,
      "れ": 1759,
      "ろ": 1760,
      "わ": 1761,
      "を": 1762,
      "ん": 1763,
      "゚": 1764,
      "ア": 1765,
      "ィ": 1766,
      "イ": 1767,
      "ウ": 1768,
      "ェ": 1769,
      "エ": 1770,
      "ォ": 1771,
      "オ": 1772,
      "カ": 1773,
      "ガ": 1774,
      "ギ": 1775,
      "ク": 1776,
      "グ": 1777,
      "ケ": 1778,
      "ゲ": 1779,
      "コ": 1780,
      "サ": 1781,
      "シ": 1782,
      "ジ": 1783,
      "ス": 1784,
      "ズ": 1785,
      "セ": 1786,
      "ゼ": 1787,
      "ソ": 1788,
      "ゾ": 1789,
      "タ": 1790,
      "ダ": 1791,
      "チ": 1792,
      "ッ": 1793,
      "ツ": 1794,
      "テ": 1795,
      "デ": 1796,
      "ト": 1797,
      "ド": 1798,
      "ナ": 1799,
      "ニ": 1800,
      "ネ": 1801,
      "ノ": 1802,
      "ハ": 1803,
      "バ": 1804,
      "パ": 1805,
      "ヒ": 1806,
      "ビ": 1807,
      "ピ": 1808,
      "フ": 1809,
      "ブ": 1810,
      "プ": 1811,
      "ヘ": 1812,
      "ペ": 1813,
      "ボ": 1814,
      "マ": 1815,
      "ミ": 1816,
      "ム": 1817,
      "メ": 1818,
      "モ": 1819,
      "ャ": 1820,
      "ュ": 1821,
      "ユ": 1822,
      "ョ": 1823,
      "ヨ": 1824,
      "ラ": 1825,
      "リ": 1826,
      "ル": 1827,
      "レ": 1828,
      "ロ": 1829,
      "ン": 1830,
      "ヴ": 1831,
      "・": 1832,
      "ー": 1833,
      "ヽ": 1834,
      "一": 1835,
      "丁": 1836,
      "七": 1837,
      "万": 1838,
      "三": 1839,
      "上": 1840,
      "下": 1841,
      "不": 1842,
      "与": 1843,
      "专": 1844,
      "且": 1845,
      "世": 1846,
      "业": 1847,
      "东": 1848,
      "丨": 1849,
      "个": 1850,
      "中": 1851,
      "临": 1852,
      "为": 1853,
      "主": 1854,
      "久": 1855,
      "么": 1856,
      "义": 1857,
      "之": 1858,
      "乌": 1859,
      "乐": 1860,
      "九": 1861,
      "也": 1862,
      "习": 1863,
      "书": 1864,
      "了": 1865,
      "予": 1866,
      "争": 1867,
      "事": 1868,
      "二": 1869,
      "于": 1870,
      "互": 1871,
      "五": 1872,
      "亚": 1873,
      "些": 1874,
      "京": 1875,
      "亮": 1876,
      "亲": 1877,
      "人": 1878,
      "什": 1879,
      "今": 1880,
      "介": 1881,
      "从": 1882,
      "仕": 1883,
      "他": 1884,
      "付": 1885,
      "代": 1886,
      "令": 1887,
      "以": 1888,
      "们": 1889,
      "仵": 1890,
      "件": 1891,
      "任": 1892,
      "休": 1893,
      "众": 1894,
      "优": 1895,
      "伙": 1896,
      "会": 1897,
      "伝": 1898,
      "传": 1899,
      "似": 1900,
      "但": 1901,
      "位": 1902,
      "佑": 1903,
      "体": 1904,
      "何": 1905,
      "余": 1906,
      "作": 1907,
      "你": 1908,
      "佳": 1909,
      "使": 1910,
      "來": 1911,
      "供": 1912,
      "侧": 1913,
      "侵": 1914,
      "便": 1915,
      "保": 1916,
      "俠": 1917,
      "信": 1918,
      "個": 1919,
      "倍": 1920,
      "們": 1921,
      "假": 1922,
      "偏": 1923,
      "做": 1924,
      "傳": 1925,
      "像": 1926,
      "儿": 1927,
      "元": 1928,
      "先": 1929,
      "光": 1930,
      "免": 1931,
      "入": 1932,
      "內": 1933,
      "全": 1934,
      "八": 1935,
      "公": 1936,
      "六": 1937,
      "兰": 1938,
      "共": 1939,
      "关": 1940,
      "兴": 1941,
      "其": 1942,
      "具": 1943,
      "养": 1944,
      "内": 1945,
      "円": 1946,
      "写": 1947,
      "冰": 1948,
      "冷": 1949,
      "准": 1950,
      "出": 1951,
      "刀": 1952,
      "分": 1953,
      "切": 1954,
      "划": 1955,
      "创": 1956,
      "初": 1957,
      "删": 1958,
      "別": 1959,
      "利": 1960,
      "别": 1961,
      "到": 1962,
      "制": 1963,
      "前": 1964,
      "剧": 1965,
      "創": 1966,
      "劉": 1967,
      "力": 1968,
      "加": 1969,
      "务": 1970,
      "劣": 1971,
      "动": 1972,
      "努": 1973,
      "励": 1974,
      "勒": 1975,
      "動": 1976,
      "務": 1977,
      "勝": 1978,
      "包": 1979,
      "化": 1980,
      "区": 1981,
      "區": 1982,
      "十": 1983,
      "千": 1984,
      "升": 1985,
      "午": 1986,
      "半": 1987,
      "华": 1988,
      "单": 1989,
      "南": 1990,
      "博": 1991,
      "占": 1992,
      "印": 1993,
      "即": 1994,
      "却": 1995,
      "厅": 1996,
      "压": 1997,
      "原": 1998,
      "去": 1999,
      "及": 2000,
      "反": 2001,
      "収": 2002,
      "发": 2003,
      "取": 2004,
      "口": 2005,
      "古": 2006,
      "只": 2007,
      "可": 2008,
      "台": 2009,
      "史": 2010,
      "号": 2011,
      "各": 2012,
      "合": 2013,
      "同": 2014,
      "名": 2015,
      "后": 2016,
      "向": 2017,
      "吗": 2018,
      "吝": 2019,
      "吧": 2020,
      "含": 2021,
      "听": 2022,
      "启": 2023,
      "告": 2024,
      "员": 2025,
      "呢": 2026,
      "和": 2027,
      "咒": 2028,
      "咨": 2029,
      "品": 2030,
      "哈": 2031,
      "哟": 2032,
      "哥": 2033,
      "哦": 2034,
      "哪": 2035,
      "商": 2036,
      "問": 2037,
      "喔": 2038,
      "喜": 2039,
      "嘉": 2040,
      "器": 2041,
      "四": 2042,
      "回": 2043,
      "因": 2044,
      "团": 2045,
      "园": 2046,
      "囲": 2047,
      "図": 2048,
      "国": 2049,
      "國": 2050,
      "園": 2051,
      "圖": 2052,
      "土": 2053,
      "圧": 2054,
      "在": 2055,
      "地": 2056,
      "圳": 2057,
      "场": 2058,
      "均": 2059,
      "坊": 2060,
      "坡": 2061,
      "坪": 2062,
      "型": 2063,
      "垒": 2064,
      "城": 2065,
      "培": 2066,
      "基": 2067,
      "堂": 2068,
      "報": 2069,
      "場": 2070,
      "塗": 2071,
      "填": 2072,
      "塾": 2073,
      "境": 2074,
      "增": 2075,
      "墨": 2076,
      "士": 2077,
      "声": 2078,
      "売": 2079,
      "处": 2080,
      "変": 2081,
      "夏": 2082,
      "外": 2083,
      "多": 2084,
      "够": 2085,
      "夠": 2086,
      "大": 2087,
      "天": 2088,
      "失": 2089,
      "奇": 2090,
      "奏": 2091,
      "奖": 2092,
      "奥": 2093,
      "女": 2094,
      "好": 2095,
      "如": 2096,
      "始": 2097,
      "姐": 2098,
      "姿": 2099,
      "婚": 2100,
      "子": 2101,
      "孔": 2102,
      "字": 2103,
      "季": 2104,
      "学": 2105,
      "學": 2106,
      "宁": 2107,
      "它": 2108,
      "宇": 2109,
      "完": 2110,
      "定": 2111,
      "实": 2112,
      "実": 2113,
      "客": 2114,
      "宣": 2115,
      "室": 2116,
      "宮": 2117,
      "家": 2118,
      "容": 2119,
      "宾": 2120,
      "寓": 2121,
      "實": 2122,
      "寧": 2123,
      "審": 2124,
      "对": 2125,
      "対": 2126,
      "専": 2127,
      "射": 2128,
      "專": 2129,
      "對": 2130,
      "小": 2131,
      "少": 2132,
      "尔": 2133,
      "尖": 2134,
      "尘": 2135,
      "就": 2136,
      "尹": 2137,
      "尼": 2138,
      "局": 2139,
      "届": 2140,
      "展": 2141,
      "属": 2142,
      "山": 2143,
      "岛": 2144,
      "島": 2145,
      "川": 2146,
      "州": 2147,
      "工": 2148,
      "差": 2149,
      "已": 2150,
      "市": 2151,
      "布": 2152,
      "师": 2153,
      "希": 2154,
      "帝": 2155,
      "带": 2156,
      "師": 2157,
      "席": 2158,
      "常": 2159,
      "幕": 2160,
      "干": 2161,
      "平": 2162,
      "年": 2163,
      "幸": 2164,
      "幾": 2165,
      "广": 2166,
      "序": 2167,
      "底": 2168,
      "店": 2169,
      "府": 2170,
      "度": 2171,
      "康": 2172,
      "廊": 2173,
      "廚": 2174,
      "廟": 2175,
      "廠": 2176,
      "建": 2177,
      "开": 2178,
      "异": 2179,
      "式": 2180,
      "引": 2181,
      "弟": 2182,
      "张": 2183,
      "強": 2184,
      "强": 2185,
      "弾": 2186,
      "归": 2187,
      "当": 2188,
      "彡": 2189,
      "形": 2190,
      "彩": 2191,
      "彰": 2192,
      "影": 2193,
      "役": 2194,
      "彻": 2195,
      "彼": 2196,
      "征": 2197,
      "待": 2198,
      "很": 2199,
      "律": 2200,
      "後": 2201,
      "得": 2202,
      "御": 2203,
      "微": 2204,
      "德": 2205,
      "心": 2206,
      "必": 2207,
      "志": 2208,
      "忘": 2209,
      "応": 2210,
      "快": 2211,
      "念": 2212,
      "思": 2213,
      "急": 2214,
      "性": 2215,
      "恋": 2216,
      "恐": 2217,
      "恒": 2218,
      "息": 2219,
      "恰": 2220,
      "悉": 2221,
      "悍": 2222,
      "悲": 2223,
      "情": 2224,
      "惜": 2225,
      "惡": 2226,
      "想": 2227,
      "意": 2228,
      "感": 2229,
      "慶": 2230,
      "憩": 2231,
      "應": 2232,
      "成": 2233,
      "我": 2234,
      "或": 2235,
      "战": 2236,
      "戰": 2237,
      "戳": 2238,
      "房": 2239,
      "所": 2240,
      "手": 2241,
      "才": 2242,
      "打": 2243,
      "扮": 2244,
      "找": 2245,
      "承": 2246,
      "技": 2247,
      "把": 2248,
      "投": 2249,
      "抖": 2250,
      "披": 2251,
      "拍": 2252,
      "拥": 2253,
      "择": 2254,
      "拼": 2255,
      "拿": 2256,
      "持": 2257,
      "指": 2258,
      "按": 2259,
      "挑": 2260,
      "授": 2261,
      "採": 2262,
      "接": 2263,
      "推": 2264,
      "提": 2265,
      "損": 2266,
      "搭": 2267,
      "播": 2268,
      "擁": 2269,
      "擇": 2270,
      "擊": 2271,
      "支": 2272,
      "攻": 2273,
      "放": 2274,
      "政": 2275,
      "效": 2276,
      "教": 2277,
      "数": 2278,
      "整": 2279,
      "數": 2280,
      "文": 2281,
      "斗": 2282,
      "料": 2283,
      "斯": 2284,
      "新": 2285,
      "方": 2286,
      "於": 2287,
      "旅": 2288,
      "无": 2289,
      "日": 2290,
      "时": 2291,
      "昆": 2292,
      "昌": 2293,
      "明": 2294,
      "星": 2295,
      "映": 2296,
      "春": 2297,
      "是": 2298,
      "時": 2299,
      "晓": 2300,
      "普": 2301,
      "景": 2302,
      "智": 2303,
      "曲": 2304,
      "更": 2305,
      "書": 2306,
      "替": 2307,
      "最": 2308,
      "月": 2309,
      "有": 2310,
      "服": 2311,
      "望": 2312,
      "期": 2313,
      "木": 2314,
      "未": 2315,
      "本": 2316,
      "术": 2317,
      "机": 2318,
      "权": 2319,
      "材": 2320,
      "村": 2321,
      "条": 2322,
      "来": 2323,
      "東": 2324,
      "极": 2325,
      "构": 2326,
      "析": 2327,
      "枕": 2328,
      "枚": 2329,
      "果": 2330,
      "架": 2331,
      "柔": 2332,
      "查": 2333,
      "柴": 2334,
      "査": 2335,
      "标": 2336,
      "校": 2337,
      "样": 2338,
      "核": 2339,
      "格": 2340,
      "梦": 2341,
      "械": 2342,
      "梶": 2343,
      "検": 2344,
      "業": 2345,
      "楽": 2346,
      "概": 2347,
      "様": 2348,
      "樂": 2349,
      "模": 2350,
      "樣": 2351,
      "次": 2352,
      "欢": 2353,
      "款": 2354,
      "歌": 2355,
      "止": 2356,
      "正": 2357,
      "此": 2358,
      "武": 2359,
      "歳": 2360,
      "歴": 2361,
      "残": 2362,
      "段": 2363,
      "毎": 2364,
      "每": 2365,
      "比": 2366,
      "毕": 2367,
      "民": 2368,
      "気": 2369,
      "氣": 2370,
      "水": 2371,
      "永": 2372,
      "氹": 2373,
      "求": 2374,
      "汉": 2375,
      "江": 2376,
      "池": 2377,
      "決": 2378,
      "沒": 2379,
      "沙": 2380,
      "沢": 2381,
      "沧": 2382,
      "法": 2383,
      "波": 2384,
      "注": 2385,
      "泪": 2386,
      "泰": 2387,
      "洋": 2388,
      "洲": 2389,
      "活": 2390,
      "派": 2391,
      "流": 2392,
      "浅": 2393,
      "浙": 2394,
      "浦": 2395,
      "海": 2396,
      "消": 2397,
      "涉": 2398,
      "淚": 2399,
      "深": 2400,
      "添": 2401,
      "清": 2402,
      "済": 2403,
      "渋": 2404,
      "温": 2405,
      "港": 2406,
      "游": 2407,
      "渾": 2408,
      "湖": 2409,
      "源": 2410,
      "滨": 2411,
      "漁": 2412,
      "演": 2413,
      "潘": 2414,
      "澎": 2415,
      "澳": 2416,
      "灣": 2417,
      "灼": 2418,
      "灿": 2419,
      "点": 2420,
      "為": 2421,
      "烂": 2422,
      "然": 2423,
      "照": 2424,
      "熱": 2425,
      "燊": 2426,
      "爱": 2427,
      "片": 2428,
      "版": 2429,
      "牙": 2430,
      "物": 2431,
      "特": 2432,
      "犹": 2433,
      "独": 2434,
      "率": 2435,
      "玉": 2436,
      "王": 2437,
      "玦": 2438,
      "玩": 2439,
      "环": 2440,
      "现": 2441,
      "珀": 2442,
      "珍": 2443,
      "班": 2444,
      "現": 2445,
      "理": 2446,
      "琉": 2447,
      "璃": 2448,
      "環": 2449,
      "瓜": 2450,
      "甜": 2451,
      "生": 2452,
      "産": 2453,
      "用": 2454,
      "田": 2455,
      "由": 2456,
      "申": 2457,
      "电": 2458,
      "画": 2459,
      "界": 2460,
      "畑": 2461,
      "留": 2462,
      "略": 2463,
      "番": 2464,
      "異": 2465,
      "疑": 2466,
      "痛": 2467,
      "痺": 2468,
      "発": 2469,
      "登": 2470,
      "發": 2471,
      "的": 2472,
      "皇": 2473,
      "益": 2474,
      "监": 2475,
      "盖": 2476,
      "盤": 2477,
      "目": 2478,
      "盲": 2479,
      "直": 2480,
      "相": 2481,
      "盾": 2482,
      "省": 2483,
      "看": 2484,
      "真": 2485,
      "着": 2486,
      "瞬": 2487,
      "知": 2488,
      "短": 2489,
      "研": 2490,
      "破": 2491,
      "确": 2492,
      "磁": 2493,
      "示": 2494,
      "社": 2495,
      "神": 2496,
      "祠": 2497,
      "福": 2498,
      "秀": 2499,
      "秋": 2500,
      "种": 2501,
      "科": 2502,
      "秒": 2503,
      "积": 2504,
      "移": 2505,
      "程": 2506,
      "税": 2507,
      "積": 2508,
      "究": 2509,
      "空": 2510,
      "穿": 2511,
      "立": 2512,
      "站": 2513,
      "竞": 2514,
      "競": 2515,
      "笑": 2516,
      "笔": 2517,
      "第": 2518,
      "筆": 2519,
      "等": 2520,
      "筑": 2521,
      "答": 2522,
      "算": 2523,
      "管": 2524,
      "篇": 2525,
      "築": 2526,
      "簡": 2527,
      "米": 2528,
      "类": 2529,
      "精": 2530,
      "系": 2531,
      "約": 2532,
      "納": 2533,
      "素": 2534,
      "索": 2535,
      "細": 2536,
      "紹": 2537,
      "終": 2538,
      "組": 2539,
      "結": 2540,
      "統": 2541,
      "継": 2542,
      "綜": 2543,
      "維": 2544,
      "網": 2545,
      "緊": 2546,
      "線": 2547,
      "總": 2548,
      "織": 2549,
      "纖": 2550,
      "约": 2551,
      "级": 2552,
      "纪": 2553,
      "纽": 2554,
      "线": 2555,
      "组": 2556,
      "细": 2557,
      "绍": 2558,
      "绎": 2559,
      "经": 2560,
      "结": 2561,
      "给": 2562,
      "统": 2563,
      "绩": 2564,
      "绵": 2565,
      "综": 2566,
      "缺": 2567,
      "网": 2568,
      "罗": 2569,
      "美": 2570,
      "群": 2571,
      "義": 2572,
      "習": 2573,
      "翔": 2574,
      "耀": 2575,
      "老": 2576,
      "考": 2577,
      "者": 2578,
      "而": 2579,
      "耐": 2580,
      "聊": 2581,
      "职": 2582,
      "联": 2583,
      "聖": 2584,
      "股": 2585,
      "育": 2586,
      "能": 2587,
      "脑": 2588,
      "膜": 2589,
      "自": 2590,
      "至": 2591,
      "臺": 2592,
      "與": 2593,
      "興": 2594,
      "舊": 2595,
      "舒": 2596,
      "舞": 2597,
      "航": 2598,
      "般": 2599,
      "色": 2600,
      "艺": 2601,
      "节": 2602,
      "芊": 2603,
      "花": 2604,
      "苏": 2605,
      "若": 2606,
      "英": 2607,
      "荣": 2608,
      "莘": 2609,
      "莱": 2610,
      "获": 2611,
      "萄": 2612,
      "营": 2613,
      "萱": 2614,
      "落": 2615,
      "葉": 2616,
      "著": 2617,
      "葡": 2618,
      "蒙": 2619,
      "蓝": 2620,
      "薄": 2621,
      "薪": 2622,
      "藝": 2623,
      "蜂": 2624,
      "蜥": 2625,
      "蜴": 2626,
      "蟻": 2627,
      "行": 2628,
      "術": 2629,
      "衣": 2630,
      "补": 2631,
      "表": 2632,
      "被": 2633,
      "裝": 2634,
      "製": 2635,
      "西": 2636,
      "要": 2637,
      "覆": 2638,
      "視": 2639,
      "覧": 2640,
      "觀": 2641,
      "观": 2642,
      "规": 2643,
      "视": 2644,
      "觉": 2645,
      "角": 2646,
      "解": 2647,
      "言": 2648,
      "訂": 2649,
      "計": 2650,
      "記": 2651,
      "訪": 2652,
      "設": 2653,
      "許": 2654,
      "訳": 2655,
      "詞": 2656,
      "試": 2657,
      "詳": 2658,
      "誕": 2659,
      "語": 2660,
      "說": 2661,
      "課": 2662,
      "請": 2663,
      "謝": 2664,
      "識": 2665,
      "議": 2666,
      "護": 2667,
      "讓": 2668,
      "计": 2669,
      "订": 2670,
      "认": 2671,
      "让": 2672,
      "训": 2673,
      "讯": 2674,
      "记": 2675,
      "讲": 2676,
      "许": 2677,
      "设": 2678,
      "访": 2679,
      "证": 2680,
      "评": 2681,
      "识": 2682,
      "试": 2683,
      "话": 2684,
      "询": 2685,
      "详": 2686,
      "说": 2687,
      "请": 2688,
      "读": 2689,
      "课": 2690,
      "谁": 2691,
      "谓": 2692,
      "谢": 2693,
      "谷": 2694,
      "象": 2695,
      "豫": 2696,
      "費": 2697,
      "貼": 2698,
      "資": 2699,
      "購": 2700,
      "贅": 2701,
      "负": 2702,
      "责": 2703,
      "质": 2704,
      "贯": 2705,
      "贵": 2706,
      "费": 2707,
      "资": 2708,
      "赐": 2709,
      "赚": 2710,
      "赞": 2711,
      "起": 2712,
      "超": 2713,
      "趣": 2714,
      "足": 2715,
      "跟": 2716,
      "路": 2717,
      "践": 2718,
      "身": 2719,
      "軟": 2720,
      "軽": 2721,
      "載": 2722,
      "輔": 2723,
      "輕": 2724,
      "轶": 2725,
      "边": 2726,
      "辺": 2727,
      "込": 2728,
      "辽": 2729,
      "达": 2730,
      "过": 2731,
      "迎": 2732,
      "运": 2733,
      "还": 2734,
      "这": 2735,
      "进": 2736,
      "迪": 2737,
      "迫": 2738,
      "迹": 2739,
      "适": 2740,
      "选": 2741,
      "透": 2742,
      "這": 2743,
      "通": 2744,
      "逛": 2745,
      "造": 2746,
      "遊": 2747,
      "運": 2748,
      "過": 2749,
      "道": 2750,
      "達": 2751,
      "適": 2752,
      "選": 2753,
      "那": 2754,
      "邦": 2755,
      "邻": 2756,
      "部": 2757,
      "郭": 2758,
      "都": 2759,
      "配": 2760,
      "酸": 2761,
      "醫": 2762,
      "里": 2763,
      "重": 2764,
      "野": 2765,
      "量": 2766,
      "金": 2767,
      "録": 2768,
      "鏡": 2769,
      "鐵": 2770,
      "铃": 2771,
      "铛": 2772,
      "链": 2773,
      "销": 2774,
      "長": 2775,
      "长": 2776,
      "門": 2777,
      "開": 2778,
      "閒": 2779,
      "間": 2780,
      "閱": 2781,
      "门": 2782,
      "闪": 2783,
      "问": 2784,
      "间": 2785,
      "闺": 2786,
      "闻": 2787,
      "阅": 2788,
      "队": 2789,
      "防": 2790,
      "阳": 2791,
      "阿": 2792,
      "际": 2793,
      "陆": 2794,
      "陈": 2795,
      "限": 2796,
      "陛": 2797,
      "院": 2798,
      "除": 2799,
      "陪": 2800,
      "際": 2801,
      "隨": 2802,
      "雄": 2803,
      "集": 2804,
      "雨": 2805,
      "雪": 2806,
      "雰": 2807,
      "電": 2808,
      "需": 2809,
      "露": 2810,
      "非": 2811,
      "面": 2812,
      "韓": 2813,
      "音": 2814,
      "頁": 2815,
      "項": 2816,
      "題": 2817,
      "類": 2818,
      "页": 2819,
      "顶": 2820,
      "顾": 2821,
      "领": 2822,
      "频": 2823,
      "题": 2824,
      "風": 2825,
      "风": 2826,
      "飛": 2827,
      "食": 2828,
      "館": 2829,
      "馆": 2830,
      "首": 2831,
      "香": 2832,
      "験": 2833,
      "马": 2834,
      "验": 2835,
      "體": 2836,
      "高": 2837,
      "鸦": 2838,
      "鹰": 2839,
      "鹼": 2840,
      "黃": 2841,
      "鼓": 2842,
      "ꜰ": 2843,
      "ꜱ": 2844,
      "ꨄ": 2845,
      "가": 2846,
      "각": 2847,
      "감": 2848,
      "강": 2849,
      "개": 2850,
      "거": 2851,
      "게": 2852,
      "겨": 2853,
      "경": 2854,
      "계": 2855,
      "고": 2856,
      "골": 2857,
      "곱": 2858,
      "곳": 2859,
      "공": 2860,
      "과": 2861,
      "관": 2862,
      "교": 2863,
      "구": 2864,
      "국": 2865,
      "군": 2866,
      "귀": 2867,
      "규": 2868,
      "그": 2869,
      "글": 2870,
      "급": 2871,
      "기": 2872,
      "김": 2873,
      "까": 2874,
      "꾸": 2875,
      "꿈": 2876,
      "나": 2877,
      "남": 2878,
      "내": 2879,
      "너": 2880,
      "널": 2881,
      "네": 2882,
      "년": 2883,
      "녕": 2884,
      "노": 2885,
      "눈": 2886,
      "는": 2887,
      "늘": 2888,
      "능": 2889,
      "니": 2890,
      "님": 2891,
      "닝": 2892,
      "다": 2893,
      "단": 2894,
      "대": 2895,
      "댓": 2896,
      "더": 2897,
      "데": 2898,
      "델": 2899,
      "도": 2900,
      "독": 2901,
      "동": 2902,
      "되": 2903,
      "두": 2904,
      "둥": 2905,
      "드": 2906,
      "든": 2907,
      "들": 2908,
      "등": 2909,
      "떨": 2910,
      "뜬": 2911,
      "라": 2912,
      "란": 2913,
      "람": 2914,
      "래": 2915,
      "략": 2916,
      "량": 2917,
      "러": 2918,
      "럼": 2919,
      "레": 2920,
      "련": 2921,
      "령": 2922,
      "로": 2923,
      "론": 2924,
      "료": 2925,
      "르": 2926,
      "를": 2927,
      "리": 2928,
      "린": 2929,
      "림": 2930,
      "립": 2931,
      "릿": 2932,
      "링": 2933,
      "마": 2934,
      "만": 2935,
      "말": 2936,
      "맛": 2937,
      "맨": 2938,
      "먹": 2939,
      "먼": 2940,
      "면": 2941,
      "명": 2942,
      "모": 2943,
      "무": 2944,
      "문": 2945,
      "물": 2946,
      "미": 2947,
      "민": 2948,
      "및": 2949,
      "바": 2950,
      "박": 2951,
      "반": 2952,
      "받": 2953,
      "방": 2954,
      "배": 2955,
      "백": 2956,
      "번": 2957,
      "범": 2958,
      "베": 2959,
      "벨": 2960,
      "벳": 2961,
      "별": 2962,
      "본": 2963,
      "봤": 2964,
      "부": 2965,
      "분": 2966,
      "불": 2967,
      "브": 2968,
      "비": 2969,
      "빈": 2970,
      "사": 2971,
      "산": 2972,
      "상": 2973,
      "색": 2974,
      "샛": 2975,
      "생": 2976,
      "샤": 2977,
      "서": 2978,
      "선": 2979,
      "설": 2980,
      "성": 2981,
      "세": 2982,
      "소": 2983,
      "속": 2984,
      "손": 2985,
      "수": 2986,
      "숙": 2987,
      "순": 2988,
      "술": 2989,
      "스": 2990,
      "습": 2991,
      "승": 2992,
      "시": 2993,
      "식": 2994,
      "신": 2995,
      "실": 2996,
      "심": 2997,
      "싶": 2998,
      "싸": 2999,
      "씨": 3000,
      "아": 3001,
      "안": 3002,
      "알": 3003,
      "앙": 3004,
      "야": 3005,
      "약": 3006,
      "양": 3007,
      "어": 3008,
      "언": 3009,
      "얼": 3010,
      "엄": 3011,
      "업": 3012,
      "었": 3013,
      "에": 3014,
      "엔": 3015,
      "여": 3016,
      "역": 3017,
      "연": 3018,
      "영": 3019,
      "예": 3020,
      "오": 3021,
      "와": 3022,
      "완": 3023,
      "왕": 3024,
      "왠": 3025,
      "요": 3026,
      "용": 3027,
      "우": 3028,
      "욱": 3029,
      "운": 3030,
      "울": 3031,
      "워": 3032,
      "원": 3033,
      "위": 3034,
      "윗": 3035,
      "유": 3036,
      "으": 3037,
      "은": 3038,
      "을": 3039,
      "의": 3040,
      "이": 3041,
      "인": 3042,
      "일": 3043,
      "있": 3044,
      "자": 3045,
      "작": 3046,
      "장": 3047,
      "재": 3048,
      "적": 3049,
      "전": 3050,
      "정": 3051,
      "제": 3052,
      "젝": 3053,
      "조": 3054,
      "족": 3055,
      "주": 3056,
      "준": 3057,
      "중": 3058,
      "즈": 3059,
      "즘": 3060,
      "지": 3061,
      "진": 3062,
      "집": 3063,
      "짓": 3064,
      "찐": 3065,
      "차": 3066,
      "찬": 3067,
      "찾": 3068,
      "채": 3069,
      "척": 3070,
      "청": 3071,
      "초": 3072,
      "최": 3073,
      "츠": 3074,
      "칠": 3075,
      "침": 3076,
      "카": 3077,
      "커": 3078,
      "케": 3079,
      "코": 3080,
      "콘": 3081,
      "쿠": 3082,
      "큐": 3083,
      "크": 3084,
      "큰": 3085,
      "키": 3086,
      "탄": 3087,
      "태": 3088,
      "탱": 3089,
      "터": 3090,
      "턴": 3091,
      "텐": 3092,
      "토": 3093,
      "통": 3094,
      "투": 3095,
      "튜": 3096,
      "트": 3097,
      "티": 3098,
      "팅": 3099,
      "파": 3100,
      "패": 3101,
      "펜": 3102,
      "포": 3103,
      "프": 3104,
      "픈": 3105,
      "플": 3106,
      "핌": 3107,
      "하": 3108,
      "학": 3109,
      "한": 3110,
      "핫": 3111,
      "해": 3112,
      "행": 3113,
      "허": 3114,
      "험": 3115,
      "혁": 3116,
      "현": 3117,
      "협": 3118,
      "혜": 3119,
      "화": 3120,
      "환": 3121,
      "활": 3122,
      "회": 3123,
      "효": 3124,
      "후": 3125,
      "훈": 3126,
      "휴": 3127,
      "희": 3128,
      "": 3129,
      "": 3130,
      "": 3131,
      "": 3132,
      "": 3133,
      "": 3134,
      "": 3135,
      "": 3136,
      "": 3137,
      "": 3138,
      "ﬁ": 3139,
      "︎": 3140,
      "️": 3141,
      "︰": 3142,
      "︱": 3143,
      "﹏": 3144,
      "﹗": 3145,
      "﻿": 3146,
      "！": 3147,
      "（": 3148,
      "）": 3149,
      "＊": 3150,
      "，": 3151,
      "／": 3152,
      "０": 3153,
      "１": 3154,
      "２": 3155,
      "：": 3156,
      "？": 3157,
      "＠": 3158,
      "＿": 3159,
      "ａ": 3160,
      "ｂ": 3161,
      "ｃ": 3162,
      "ｅ": 3163,
      "ｇ": 3164,
      "ｈ": 3165,
      "ｉ": 3166,
      "ｋ": 3167,
      "ｌ": 3168,
      "ｍ": 3169,
      "ｎ": 3170,
      "ｏ": 3171,
      "ｐ": 3172,
      "ｒ": 3173,
      "ｓ": 3174,
      "ｔ": 3175,
      "ｕ": 3176,
      "ｙ": 3177,
      "｜": 3178,
      "～": 3179,
      "｡": 3180,
      "･": 3181,
      "ﾟ": 3182,
      "￣": 3183,
      "￼": 3184,
      "�": 3185,
      "￾": 3186,
      "𓆩": 3187,
      "𓆪": 3188,
      "𝐀": 3189,
      "𝐁": 3190,
      "𝐂": 3191,
      "𝐃": 3192,
      "𝐄": 3193,
      "𝐅": 3194,
      "𝐆": 3195,
      "𝐇": 3196,
      "𝐈": 3197,
      "𝐉": 3198,
      "𝐊": 3199,
      "𝐋": 3200,
      "𝐌": 3201,
      "𝐍": 3202,
      "𝐎": 3203,
      "𝐏": 3204,
      "𝐐": 3205,
      "𝐑": 3206,
      "𝐒": 3207,
      "𝐓": 3208,
      "𝐔": 3209,
      "𝐕": 3210,
      "𝐖": 3211,
      "𝐗": 3212,
      "𝐘": 3213,
      "𝐙": 3214,
      "𝐚": 3215,
      "𝐛": 3216,
      "𝐜": 3217,
      "𝐝": 3218,
      "𝐞": 3219,
      "𝐟": 3220,
      "𝐠": 3221,
      "𝐡": 3222,
      "𝐢": 3223,
      "𝐣": 3224,
      "𝐤": 3225,
      "𝐥": 3226,
      "𝐦": 3227,
      "𝐧": 3228,
      "𝐨": 3229,
      "𝐩": 3230,
      "𝐪": 3231,
      "𝐫": 3232,
      "𝐬": 3233,
      "𝐭": 3234,
      "𝐮": 3235,
      "𝐯": 3236,
      "𝐰": 3237,
      "𝐱": 3238,
      "𝐲": 3239,
      "𝐳": 3240,
      "𝐸": 3241,
      "𝐻": 3242,
      "𝐾": 3243,
      "𝑁": 3244,
      "𝑇": 3245,
      "𝑎": 3246,
      "𝑐": 3247,
      "𝑑": 3248,
      "𝑒": 3249,
      "𝑓": 3250,
      "𝑔": 3251,
      "𝑖": 3252,
      "𝑘": 3253,
      "𝑙": 3254,
      "𝑚": 3255,
      "𝑛": 3256,
      "𝑜": 3257,
      "𝑝": 3258,
      "𝑟": 3259,
      "𝑠": 3260,
      "𝑡": 3261,
      "𝑣": 3262,
      "𝑤": 3263,
      "𝑥": 3264,
      "𝑨": 3265,
      "𝑩": 3266,
      "𝑪": 3267,
      "𝑫": 3268,
      "𝑬": 3269,
      "𝑭": 3270,
      "𝑯": 3271,
      "𝑰": 3272,
      "𝑳": 3273,
      "𝑴": 3274,
      "𝑵": 3275,
      "𝑶": 3276,
      "𝑷": 3277,
      "𝑹": 3278,
      "𝑺": 3279,
      "𝑻": 3280,
      "𝑼": 3281,
      "𝑽": 3282,
      "𝑾": 3283,
      "𝒀": 3284,
      "𝒂": 3285,
      "𝒃": 3286,
      "𝒄": 3287,
      "𝒅": 3288,
      "𝒆": 3289,
      "𝒇": 3290,
      "𝒈": 3291,
      "𝒉": 3292,
      "𝒊": 3293,
      "𝒌": 3294,
      "𝒍": 3295,
      "𝒎": 3296,
      "𝒏": 3297,
      "𝒐": 3298,
      "𝒑": 3299,
      "𝒓": 3300,
      "𝒔": 3301,
      "𝒕": 3302,
      "𝒖": 3303,
      "𝒗": 3304,
      "𝒘": 3305,
      "𝒙": 3306,
      "𝒚": 3307,
      "𝒞": 3308,
      "𝒟": 3309,
      "𝒶": 3310,
      "𝒸": 3311,
      "𝒾": 3312,
      "𝓁": 3313,
      "𝓂": 3314,
      "𝓃": 3315,
      "𝓇": 3316,
      "𝓈": 3317,
      "𝓉": 3318,
      "𝓐": 3319,
      "𝓑": 3320,
      "𝓒": 3321,
      "𝓓": 3322,
      "𝓔": 3323,
      "𝓕": 3324,
      "𝓘": 3325,
      "𝓙": 3326,
      "𝓚": 3327,
      "𝓜": 3328,
      "𝓞": 3329,
      "𝓟": 3330,
      "𝓢": 3331,
      "𝓣": 3332,
      "𝓤": 3333,
      "𝓦": 3334,
      "𝓨": 3335,
      "𝓪": 3336,
      "𝓫": 3337,
      "𝓬": 3338,
      "𝓭": 3339,
      "𝓮": 3340,
      "𝓯": 3341,
      "𝓰": 3342,
      "𝓱": 3343,
      "𝓲": 3344,
      "𝓴": 3345,
      "𝓵": 3346,
      "𝓶": 3347,
      "𝓷": 3348,
      "𝓸": 3349,
      "𝓹": 3350,
      "𝓻": 3351,
      "𝓼": 3352,
      "𝓽": 3353,
      "𝓾": 3354,
      "𝓿": 3355,
      "𝔀": 3356,
      "𝔂": 3357,
      "𝔇": 3358,
      "𝔞": 3359,
      "𝔠": 3360,
      "𝔢": 3361,
      "𝔤": 3362,
      "𝔥": 3363,
      "𝔦": 3364,
      "𝔩": 3365,
      "𝔪": 3366,
      "𝔬": 3367,
      "𝔭": 3368,
      "𝔯": 3369,
      "𝔰": 3370,
      "𝔱": 3371,
      "𝔶": 3372,
      "𝔻": 3373,
      "𝔼": 3374,
      "𝔽": 3375,
      "𝕀": 3376,
      "𝕂": 3377,
      "𝕃": 3378,
      "𝕊": 3379,
      "𝕋": 3380,
      "𝕐": 3381,
      "𝕒": 3382,
      "𝕓": 3383,
      "𝕔": 3384,
      "𝕕": 3385,
      "𝕖": 3386,
      "𝕗": 3387,
      "𝕘": 3388,
      "𝕙": 3389,
      "𝕚": 3390,
      "𝕜": 3391,
      "𝕝": 3392,
      "𝕞": 3393,
      "𝕟": 3394,
      "𝕠": 3395,
      "𝕡": 3396,
      "𝕣": 3397,
      "𝕤": 3398,
      "𝕥": 3399,
      "𝕦": 3400,
      "𝕮": 3401,
      "𝕯": 3402,
      "𝕵": 3403,
      "𝕻": 3404,
      "𝕿": 3405,
      "𝖆": 3406,
      "𝖉": 3407,
      "𝖊": 3408,
      "𝖌": 3409,
      "𝖍": 3410,
      "𝖎": 3411,
      "𝖑": 3412,
      "𝖒": 3413,
      "𝖓": 3414,
      "𝖔": 3415,
      "𝖕": 3416,
      "𝖗": 3417,
      "𝖘": 3418,
      "𝖙": 3419,
      "𝖚": 3420,
      "𝖝": 3421,
      "𝖠": 3422,
      "𝖦": 3423,
      "𝖯": 3424,
      "𝖺": 3425,
      "𝖻": 3426,
      "𝖼": 3427,
      "𝖽": 3428,
      "𝖾": 3429,
      "𝖿": 3430,
      "𝗀": 3431,
      "𝗁": 3432,
      "𝗂": 3433,
      "𝗄": 3434,
      "𝗅": 3435,
      "𝗆": 3436,
      "𝗇": 3437,
      "𝗈": 3438,
      "𝗉": 3439,
      "𝗋": 3440,
      "𝗌": 3441,
      "𝗍": 3442,
      "𝗎": 3443,
      "𝗏": 3444,
      "𝗒": 3445,
      "𝗔": 3446,
      "𝗕": 3447,
      "𝗖": 3448,
      "𝗗": 3449,
      "𝗘": 3450,
      "𝗙": 3451,
      "𝗚": 3452,
      "𝗛": 3453,
      "𝗜": 3454,
      "𝗝": 3455,
      "𝗞": 3456,
      "𝗟": 3457,
      "𝗠": 3458,
      "𝗡": 3459,
      "𝗢": 3460,
      "𝗣": 3461,
      "𝗤": 3462,
      "𝗥": 3463,
      "𝗦": 3464,
      "𝗧": 3465,
      "𝗨": 3466,
      "𝗩": 3467,
      "𝗪": 3468,
      "𝗫": 3469,
      "𝗬": 3470,
      "𝗭": 3471,
      "𝗮": 3472,
      "𝗯": 3473,
      "𝗰": 3474,
      "𝗱": 3475,
      "𝗲": 3476,
      "𝗳": 3477,
      "𝗴": 3478,
      "𝗵": 3479,
      "𝗶": 3480,
      "𝗷": 3481,
      "𝗸": 3482,
      "𝗹": 3483,
      "𝗺": 3484,
      "𝗻": 3485,
      "𝗼": 3486,
      "𝗽": 3487,
      "𝗾": 3488,
      "𝗿": 3489,
      "𝘀": 3490,
      "𝘁": 3491,
      "𝘂": 3492,
      "𝘃": 3493,
      "𝘄": 3494,
      "𝘅": 3495,
      "𝘆": 3496,
      "𝘇": 3497,
      "𝘈": 3498,
      "𝘉": 3499,
      "𝘊": 3500,
      "𝘋": 3501,
      "𝘍": 3502,
      "𝘐": 3503,
      "𝘒": 3504,
      "𝘓": 3505,
      "𝘔": 3506,
      "𝘕": 3507,
      "𝘗": 3508,
      "𝘘": 3509,
      "𝘙": 3510,
      "𝘚": 3511,
      "𝘛": 3512,
      "𝘝": 3513,
      "𝘠": 3514,
      "𝘢": 3515,
      "𝘣": 3516,
      "𝘤": 3517,
      "𝘥": 3518,
      "𝘦": 3519,
      "𝘧": 3520,
      "𝘨": 3521,
      "𝘩": 3522,
      "𝘪": 3523,
      "𝘬": 3524,
      "𝘭": 3525,
      "𝘮": 3526,
      "𝘯": 3527,
      "𝘰": 3528,
      "𝘱": 3529,
      "𝘳": 3530,
      "𝘴": 3531,
      "𝘵": 3532,
      "𝘶": 3533,
      "𝘷": 3534,
      "𝘸": 3535,
      "𝘺": 3536,
      "𝘼": 3537,
      "𝘽": 3538,
      "𝘾": 3539,
      "𝘿": 3540,
      "𝙀": 3541,
      "𝙁": 3542,
      "𝙂": 3543,
      "𝙃": 3544,
      "𝙄": 3545,
      "𝙆": 3546,
      "𝙇": 3547,
      "𝙈": 3548,
      "𝙉": 3549,
      "𝙊": 3550,
      "𝙋": 3551,
      "𝙌": 3552,
      "𝙍": 3553,
      "𝙎": 3554,
      "𝙏": 3555,
      "𝙐": 3556,
      "𝙑": 3557,
      "𝙒": 3558,
      "𝙓": 3559,
      "𝙔": 3560,
      "𝙖": 3561,
      "𝙗": 3562,
      "𝙘": 3563,
      "𝙙": 3564,
      "𝙚": 3565,
      "𝙛": 3566,
      "𝙜": 3567,
      "𝙝": 3568,
      "𝙞": 3569,
      "𝙟": 3570,
      "𝙠": 3571,
      "𝙡": 3572,
      "𝙢": 3573,
      "𝙣": 3574,
      "𝙤": 3575,
      "𝙥": 3576,
      "𝙧": 3577,
      "𝙨": 3578,
      "𝙩": 3579,
      "𝙪": 3580,
      "𝙫": 3581,
      "𝙬": 3582,
      "𝙭": 3583,
      "𝙮": 3584,
      "𝙰": 3585,
      "𝙳": 3586,
      "𝙿": 3587,
      "𝚃": 3588,
      "𝚊": 3589,
      "𝚋": 3590,
      "𝚌": 3591,
      "𝚎": 3592,
      "𝚏": 3593,
      "𝚑": 3594,
      "𝚒": 3595,
      "𝚔": 3596,
      "𝚕": 3597,
      "𝚖": 3598,
      "𝚗": 3599,
      "𝚘": 3600,
      "𝚛": 3601,
      "𝚜": 3602,
      "𝚝": 3603,
      "𝚞": 3604,
      "𝚟": 3605,
      "𝚢": 3606,
      "𝟎": 3607,
      "𝟏": 3608,
      "𝟐": 3609,
      "𝟑": 3610,
      "𝟒": 3611,
      "𝟓": 3612,
      "𝟔": 3613,
      "𝟕": 3614,
      "𝟖": 3615,
      "𝟗": 3616,
      "𝟘": 3617,
      "𝟙": 3618,
      "𝟡": 3619,
      "𝟬": 3620,
      "𝟭": 3621,
      "𝟮": 3622,
      "𝟯": 3623,
      "𝟰": 3624,
      "𝟱": 3625,
      "𝟲": 3626,
      "𝟳": 3627,
      "𝟴": 3628,
      "𝟵": 3629,
      "🃏": 3630,
      "🄰": 3631,
      "🄱": 3632,
      "🄲": 3633,
      "🄳": 3634,
      "🄴": 3635,
      "🄵": 3636,
      "🄶": 3637,
      "🄷": 3638,
      "🄸": 3639,
      "🄻": 3640,
      "🄼": 3641,
      "🄽": 3642,
      "🄾": 3643,
      "🄿": 3644,
      "🅁": 3645,
      "🅂": 3646,
      "🅃": 3647,
      "🅄": 3648,
      "🅅": 3649,
      "🅆": 3650,
      "🅈": 3651,
      "🅉": 3652,
      "🅐": 3653,
      "🅑": 3654,
      "🅒": 3655,
      "🅔": 3656,
      "🅕": 3657,
      "🅖": 3658,
      "🅗": 3659,
      "🅘": 3660,
      "🅙": 3661,
      "🅚": 3662,
      "🅛": 3663,
      "🅜": 3664,
      "🅝": 3665,
      "🅞": 3666,
      "🅟": 3667,
      "🅡": 3668,
      "🅢": 3669,
      "🅣": 3670,
      "🅤": 3671,
      "🅦": 3672,
      "🅨": 3673,
      "🅰": 3674,
      "🅲": 3675,
      "🅳": 3676,
      "🅴": 3677,
      "🅵": 3678,
      "🅷": 3679,
      "🅸": 3680,
      "🅹": 3681,
      "🅺": 3682,
      "🅻": 3683,
      "🅼": 3684,
      "🅽": 3685,
      "🅾": 3686,
      "🅿": 3687,
      "🆀": 3688,
      "🆁": 3689,
      "🆂": 3690,
      "🆃": 3691,
      "🆄": 3692,
      "🆅": 3693,
      "🆈": 3694,
      "🆎": 3695,
      "🆓": 3696,
      "🆕": 3697,
      "🆗": 3698,
      "🆘": 3699,
      "🆙": 3700,
      "🆚": 3701,
      "🇦": 3702,
      "🇧": 3703,
      "🇨": 3704,
      "🇩": 3705,
      "🇪": 3706,
      "🇫": 3707,
      "🇬": 3708,
      "🇭": 3709,
      "🇮": 3710,
      "🇯": 3711,
      "🇰": 3712,
      "🇱": 3713,
      "🇲": 3714,
      "🇳": 3715,
      "🇴": 3716,
      "🇵": 3717,
      "🇷": 3718,
      "🇸": 3719,
      "🇹": 3720,
      "🇺": 3721,
      "🇽": 3722,
      "🇾": 3723,
      "🇿": 3724,
      "🌀": 3725,
      "🌂": 3726,
      "🌄": 3727,
      "🌅": 3728,
      "🌆": 3729,
      "🌇": 3730,
      "🌈": 3731,
      "🌉": 3732,
      "🌊": 3733,
      "🌋": 3734,
      "🌌": 3735,
      "🌍": 3736,
      "🌎": 3737,
      "🌏": 3738,
      "🌐": 3739,
      "🌑": 3740,
      "🌕": 3741,
      "🌙": 3742,
      "🌚": 3743,
      "🌝": 3744,
      "🌞": 3745,
      "🌟": 3746,
      "🌠": 3747,
      "🌡": 3748,
      "🌧": 3749,
      "🌩": 3750,
      "🌪": 3751,
      "🌬": 3752,
      "🌱": 3753,
      "🌲": 3754,
      "🌳": 3755,
      "🌴": 3756,
      "🌵": 3757,
      "🌶": 3758,
      "🌷": 3759,
      "🌸": 3760,
      "🌹": 3761,
      "🌺": 3762,
      "🌻": 3763,
      "🌼": 3764,
      "🌽": 3765,
      "🌾": 3766,
      "🌿": 3767,
      "🍀": 3768,
      "🍁": 3769,
      "🍂": 3770,
      "🍃": 3771,
      "🍄": 3772,
      "🍅": 3773,
      "🍇": 3774,
      "🍈": 3775,
      "🍉": 3776,
      "🍊": 3777,
      "🍋": 3778,
      "🍌": 3779,
      "🍍": 3780,
      "🍎": 3781,
      "🍏": 3782,
      "🍑": 3783,
      "🍒": 3784,
      "🍓": 3785,
      "🍔": 3786,
      "🍕": 3787,
      "🍖": 3788,
      "🍗": 3789,
      "🍟": 3790,
      "🍡": 3791,
      "🍦": 3792,
      "🍧": 3793,
      "🍪": 3794,
      "🍫": 3795,
      "🍬": 3796,
      "🍭": 3797,
      "🍯": 3798,
      "🍰": 3799,
      "🍱": 3800,
      "🍳": 3801,
      "🍷": 3802,
      "🍺": 3803,
      "🍻": 3804,
      "🍽": 3805,
      "🍾": 3806,
      "🍿": 3807,
      "🎀": 3808,
      "🎁": 3809,
      "🎂": 3810,
      "🎃": 3811,
      "🎄": 3812,
      "🎅": 3813,
      "🎆": 3814,
      "🎇": 3815,
      "🎈": 3816,
      "🎉": 3817,
      "🎊": 3818,
      "🎒": 3819,
      "🎓": 3820,
      "🎖": 3821,
      "🎙": 3822,
      "🎚": 3823,
      "🎛": 3824,
      "🎞": 3825,
      "🎟": 3826,
      "🎠": 3827,
      "🎡": 3828,
      "🎢": 3829,
      "🎤": 3830,
      "🎥": 3831,
      "🎦": 3832,
      "🎧": 3833,
      "🎨": 3834,
      "🎩": 3835,
      "🎪": 3836,
      "🎫": 3837,
      "🎬": 3838,
      "🎭": 3839,
      "🎮": 3840,
      "🎯": 3841,
      "🎱": 3842,
      "🎲": 3843,
      "🎳": 3844,
      "🎴": 3845,
      "🎵": 3846,
      "🎶": 3847,
      "🎸": 3848,
      "🎹": 3849,
      "🎼": 3850,
      "🎾": 3851,
      "🏀": 3852,
      "🏁": 3853,
      "🏃": 3854,
      "🏄": 3855,
      "🏅": 3856,
      "🏆": 3857,
      "🏇": 3858,
      "🏈": 3859,
      "🏉": 3860,
      "🏊": 3861,
      "🏋": 3862,
      "🏍": 3863,
      "🏎": 3864,
      "🏏": 3865,
      "🏓": 3866,
      "🏗": 3867,
      "🏘": 3868,
      "🏙": 3869,
      "🏛": 3870,
      "🏝": 3871,
      "🏟": 3872,
      "🏠": 3873,
      "🏡": 3874,
      "🏢": 3875,
      "🏥": 3876,
      "🏦": 3877,
      "🏪": 3878,
      "🏫": 3879,
      "🏭": 3880,
      "🏰": 3881,
      "🏴": 3882,
      "🏵": 3883,
      "🏷": 3884,
      "🏸": 3885,
      "🏹": 3886,
      "🏺": 3887,
      "🏻": 3888,
      "🏼": 3889,
      "🏽": 3890,
      "🏾": 3891,
      "🏿": 3892,
      "🐆": 3893,
      "🐇": 3894,
      "🐈": 3895,
      "🐉": 3896,
      "🐊": 3897,
      "🐋": 3898,
      "🐍": 3899,
      "🐎": 3900,
      "🐐": 3901,
      "🐑": 3902,
      "🐒": 3903,
      "🐓": 3904,
      "🐔": 3905,
      "🐕": 3906,
      "🐛": 3907,
      "🐜": 3908,
      "🐝": 3909,
      "🐟": 3910,
      "🐠": 3911,
      "🐢": 3912,
      "🐣": 3913,
      "🐤": 3914,
      "🐥": 3915,
      "🐦": 3916,
      "🐧": 3917,
      "🐨": 3918,
      "🐪": 3919,
      "🐫": 3920,
      "🐬": 3921,
      "🐭": 3922,
      "🐯": 3923,
      "🐰": 3924,
      "🐱": 3925,
      "🐳": 3926,
      "🐶": 3927,
      "🐷": 3928,
      "🐸": 3929,
      "🐹": 3930,
      "🐺": 3931,
      "🐻": 3932,
      "🐼": 3933,
      "🐾": 3934,
      "👀": 3935,
      "👁": 3936,
      "👂": 3937,
      "👃": 3938,
      "👆": 3939,
      "👇": 3940,
      "👈": 3941,
      "👉": 3942,
      "👊": 3943,
      "👋": 3944,
      "👌": 3945,
      "👍": 3946,
      "👎": 3947,
      "👏": 3948,
      "👐": 3949,
      "👑": 3950,
      "👓": 3951,
      "👔": 3952,
      "👕": 3953,
      "👖": 3954,
      "👚": 3955,
      "👜": 3956,
      "👟": 3957,
      "👣": 3958,
      "👤": 3959,
      "👥": 3960,
      "👦": 3961,
      "👧": 3962,
      "👨": 3963,
      "👩": 3964,
      "👪": 3965,
      "👫": 3966,
      "👬": 3967,
      "👭": 3968,
      "👮": 3969,
      "👷": 3970,
      "👹": 3971,
      "👻": 3972,
      "👽": 3973,
      "👾": 3974,
      "👿": 3975,
      "💀": 3976,
      "💁": 3977,
      "💃": 3978,
      "💅": 3979,
      "💇": 3980,
      "💉": 3981,
      "💊": 3982,
      "💋": 3983,
      "💌": 3984,
      "💎": 3985,
      "💏": 3986,
      "💐": 3987,
      "💑": 3988,
      "💓": 3989,
      "💔": 3990,
      "💕": 3991,
      "💖": 3992,
      "💗": 3993,
      "💘": 3994,
      "💙": 3995,
      "💚": 3996,
      "💛": 3997,
      "💜": 3998,
      "💝": 3999,
      "💞": 4000,
      "💟": 4001,
      "💠": 4002,
      "💡": 4003,
      "💢": 4004,
      "💣": 4005,
      "💤": 4006,
      "💥": 4007,
      "💦": 4008,
      "💧": 4009,
      "💨": 4010,
      "💩": 4011,
      "💪": 4012,
      "💫": 4013,
      "💬": 4014,
      "💭": 4015,
      "💯": 4016,
      "💰": 4017,
      "💲": 4018,
      "💳": 4019,
      "💵": 4020,
      "💸": 4021,
      "💹": 4022,
      "💺": 4023,
      "💻": 4024,
      "💼": 4025,
      "💽": 4026,
      "💾": 4027,
      "💿": 4028,
      "📀": 4029,
      "📁": 4030,
      "📂": 4031,
      "📃": 4032,
      "📄": 4033,
      "📅": 4034,
      "📆": 4035,
      "📈": 4036,
      "📉": 4037,
      "📊": 4038,
      "📋": 4039,
      "📌": 4040,
      "📍": 4041,
      "📎": 4042,
      "📏": 4043,
      "📐": 4044,
      "📑": 4045,
      "📒": 4046,
      "📓": 4047,
      "📔": 4048,
      "📕": 4049,
      "📖": 4050,
      "📗": 4051,
      "📘": 4052,
      "📙": 4053,
      "📚": 4054,
      "📛": 4055,
      "📜": 4056,
      "📝": 4057,
      "📞": 4058,
      "📟": 4059,
      "📡": 4060,
      "📢": 4061,
      "📣": 4062,
      "📤": 4063,
      "📥": 4064,
      "📦": 4065,
      "📧": 4066,
      "📨": 4067,
      "📩": 4068,
      "📫": 4069,
      "📬": 4070,
      "📭": 4071,
      "📮": 4072,
      "📰": 4073,
      "📱": 4074,
      "📲": 4075,
      "📳": 4076,
      "📵": 4077,
      "📶": 4078,
      "📷": 4079,
      "📸": 4080,
      "📹": 4081,
      "📺": 4082,
      "📻": 4083,
      "📼": 4084,
      "📽": 4085,
      "🔃": 4086,
      "🔄": 4087,
      "🔅": 4088,
      "🔆": 4089,
      "🔈": 4090,
      "🔉": 4091,
      "🔊": 4092,
      "🔋": 4093,
      "🔌": 4094,
      "🔍": 4095,
      "🔎": 4096,
      "🔐": 4097,
      "🔑": 4098,
      "🔒": 4099,
      "🔓": 4100,
      "🔔": 4101,
      "🔕": 4102,
      "🔖": 4103,
      "🔗": 4104,
      "🔘": 4105,
      "🔙": 4106,
      "🔚": 4107,
      "🔜": 4108,
      "🔝": 4109,
      "🔟": 4110,
      "🔢": 4111,
      "🔣": 4112,
      "🔥": 4113,
      "🔦": 4114,
      "🔧": 4115,
      "🔨": 4116,
      "🔩": 4117,
      "🔪": 4118,
      "🔫": 4119,
      "🔬": 4120,
      "🔭": 4121,
      "🔮": 4122,
      "🔯": 4123,
      "🔰": 4124,
      "🔳": 4125,
      "🔴": 4126,
      "🔵": 4127,
      "🔶": 4128,
      "🔷": 4129,
      "🔸": 4130,
      "🔹": 4131,
      "🔺": 4132,
      "🔻": 4133,
      "🔼": 4134,
      "🔽": 4135,
      "🕉": 4136,
      "🕊": 4137,
      "🕑": 4138,
      "🕒": 4139,
      "🕓": 4140,
      "🕖": 4141,
      "🕗": 4142,
      "🕘": 4143,
      "🕯": 4144,
      "🕳": 4145,
      "🕴": 4146,
      "🕶": 4147,
      "🕷": 4148,
      "🕸": 4149,
      "🕹": 4150,
      "🕺": 4151,
      "🖇": 4152,
      "🖊": 4153,
      "🖋": 4154,
      "🖌": 4155,
      "🖍": 4156,
      "🖐": 4157,
      "🖕": 4158,
      "🖤": 4159,
      "🖥": 4160,
      "🖨": 4161,
      "🖱": 4162,
      "🖼": 4163,
      "🗂": 4164,
      "🗃": 4165,
      "🗄": 4166,
      "🗑": 4167,
      "🗒": 4168,
      "🗓": 4169,
      "🗝": 4170,
      "🗞": 4171,
      "🗣": 4172,
      "🗨": 4173,
      "🗳": 4174,
      "🗺": 4175,
      "🗾": 4176,
      "🗿": 4177,
      "😀": 4178,
      "😁": 4179,
      "😂": 4180,
      "😃": 4181,
      "😄": 4182,
      "😅": 4183,
      "😆": 4184,
      "😇": 4185,
      "😈": 4186,
      "😉": 4187,
      "😊": 4188,
      "😋": 4189,
      "😌": 4190,
      "😍": 4191,
      "😎": 4192,
      "😏": 4193,
      "😐": 4194,
      "😑": 4195,
      "😓": 4196,
      "😔": 4197,
      "😕": 4198,
      "😖": 4199,
      "😗": 4200,
      "😘": 4201,
      "😙": 4202,
      "😚": 4203,
      "😛": 4204,
      "😜": 4205,
      "😝": 4206,
      "😞": 4207,
      "😠": 4208,
      "😡": 4209,
      "😢": 4210,
      "😣": 4211,
      "😤": 4212,
      "😥": 4213,
      "😦": 4214,
      "😧": 4215,
      "😨": 4216,
      "😩": 4217,
      "😪": 4218,
      "😫": 4219,
      "😬": 4220,
      "😭": 4221,
      "😮": 4222,
      "😯": 4223,
      "😰": 4224,
      "😱": 4225,
      "😲": 4226,
      "😳": 4227,
      "😴": 4228,
      "😵": 4229,
      "😶": 4230,
      "😷": 4231,
      "😹": 4232,
      "😺": 4233,
      "😻": 4234,
      "😽": 4235,
      "🙂": 4236,
      "🙃": 4237,
      "🙄": 4238,
      "🙅": 4239,
      "🙆": 4240,
      "🙇": 4241,
      "🙈": 4242,
      "🙉": 4243,
      "🙋": 4244,
      "🙌": 4245,
      "🙎": 4246,
      "🙏": 4247,
      "🚀": 4248,
      "🚁": 4249,
      "🚂": 4250,
      "🚆": 4251,
      "🚉": 4252,
      "🚋": 4253,
      "🚌": 4254,
      "🚑": 4255,
      "🚒": 4256,
      "🚕": 4257,
      "🚗": 4258,
      "🚘": 4259,
      "🚚": 4260,
      "🚛": 4261,
      "🚜": 4262,
      "🚞": 4263,
      "🚢": 4264,
      "🚤": 4265,
      "🚥": 4266,
      "🚧": 4267,
      "🚨": 4268,
      "🚩": 4269,
      "🚪": 4270,
      "🚫": 4271,
      "🚬": 4272,
      "🚰": 4273,
      "🚲": 4274,
      "🚴": 4275,
      "🚵": 4276,
      "🚶": 4277,
      "🚸": 4278,
      "🛁": 4279,
      "🛃": 4280,
      "🛋": 4281,
      "🛍": 4282,
      "🛎": 4283,
      "🛏": 4284,
      "🛑": 4285,
      "🛒": 4286,
      "🛜": 4287,
      "🛠": 4288,
      "🛡": 4289,
      "🛢": 4290,
      "🛩": 4291,
      "🛬": 4292,
      "🛰": 4293,
      "🛵": 4294,
      "🛶": 4295,
      "🛸": 4296,
      "🛼": 4297,
      "🜸": 4298,
      "🟠": 4299,
      "🟡": 4300,
      "🟢": 4301,
      "🟣": 4302,
      "🟤": 4303,
      "🟥": 4304,
      "🟦": 4305,
      "🟧": 4306,
      "🟨": 4307,
      "🟩": 4308,
      "🟪": 4309,
      "🡆": 4310,
      "🤌": 4311,
      "🤍": 4312,
      "🤎": 4313,
      "🤏": 4314,
      "🤐": 4315,
      "🤑": 4316,
      "🤒": 4317,
      "🤓": 4318,
      "🤔": 4319,
      "🤕": 4320,
      "🤖": 4321,
      "🤗": 4322,
      "🤘": 4323,
      "🤙": 4324,
      "🤚": 4325,
      "🤝": 4326,
      "🤞": 4327,
      "🤟": 4328,
      "🤠": 4329,
      "🤡": 4330,
      "🤢": 4331,
      "🤣": 4332,
      "🤤": 4333,
      "🤦": 4334,
      "🤧": 4335,
      "🤨": 4336,
      "🤩": 4337,
      "🤪": 4338,
      "🤫": 4339,
      "🤬": 4340,
      "🤭": 4341,
      "🤮": 4342,
      "🤯": 4343,
      "🤰": 4344,
      "🤳": 4345,
      "🤵": 4346,
      "🤷": 4347,
      "🤾": 4348,
      "🥀": 4349,
      "🥁": 4350,
      "🥃": 4351,
      "🥄": 4352,
      "🥇": 4353,
      "🥈": 4354,
      "🥉": 4355,
      "🥊": 4356,
      "🥋": 4357,
      "🥏": 4358,
      "🥑": 4359,
      "🥒": 4360,
      "🥔": 4361,
      "🥕": 4362,
      "🥗": 4363,
      "🥚": 4364,
      "🥢": 4365,
      "🥥": 4366,
      "🥦": 4367,
      "🥧": 4368,
      "🥪": 4369,
      "🥭": 4370,
      "🥰": 4371,
      "🥱": 4372,
      "🥲": 4373,
      "🥳": 4374,
      "🥴": 4375,
      "🥵": 4376,
      "🥶": 4377,
      "🥷": 4378,
      "🥹": 4379,
      "🥺": 4380,
      "🥼": 4381,
      "🥽": 4382,
      "🥾": 4383,
      "🦁": 4384,
      "🦂": 4385,
      "🦄": 4386,
      "🦆": 4387,
      "🦊": 4388,
      "🦋": 4389,
      "🦍": 4390,
      "🦖": 4391,
      "🦘": 4392,
      "🦙": 4393,
      "🦚": 4394,
      "🦜": 4395,
      "🦞": 4396,
      "🦠": 4397,
      "🦧": 4398,
      "🦵": 4399,
      "🦶": 4400,
      "🦷": 4401,
      "🦸": 4402,
      "🦹": 4403,
      "🦾": 4404,
      "🧅": 4405,
      "🧊": 4406,
      "🧌": 4407,
      "🧍": 4408,
      "🧐": 4409,
      "🧑": 4410,
      "🧒": 4411,
      "🧕": 4412,
      "🧘": 4413,
      "🧛": 4414,
      "🧜": 4415,
      "🧟": 4416,
      "🧠": 4417,
      "🧡": 4418,
      "🧢": 4419,
      "🧥": 4420,
      "🧧": 4421,
      "🧩": 4422,
      "🧪": 4423,
      "🧫": 4424,
      "🧬": 4425,
      "🧭": 4426,
      "🧮": 4427,
      "🧯": 4428,
      "🧰": 4429,
      "🧱": 4430,
      "🧲": 4431,
      "🧴": 4432,
      "🧶": 4433,
      "🧸": 4434,
      "🧽": 4435,
      "🧾": 4436,
      "🧿": 4437,
      "🩳": 4438,
      "🩸": 4439,
      "🩺": 4440,
      "🪀": 4441,
      "🪄": 4442,
      "🪐": 4443,
      "🪓": 4444,
      "🪔": 4445,
      "🪙": 4446,
      "🪚": 4447,
      "🪛": 4448,
      "🪜": 4449,
      "🪥": 4450,
      "🪨": 4451,
      "🪱": 4452,
      "🪳": 4453,
      "🪶": 4454,
      "🪷": 4455,
      "🫀": 4456,
      "🫁": 4457,
      "🫂": 4458,
      "🫖": 4459,
      "🫠": 4460,
      "🫡": 4461,
      "🫢": 4462,
      "🫣": 4463,
      "🫨": 4464,
      "🫶": 4465,
      "in": 4466,
      "--": 4467,
      "er": 4468,
      "an": 4469,
      "on": 4470,
      "th": 4471,
      "en": 4472,
      "st": 4473,
      "at": 4474,
      "ou": 4475,
      "or": 4476,
      "ar": 4477,
      "----": 4478,
      "tt": 4479,
      "ce": 4480,
      "ch": 4481,
      "al": 4482,
      "ps": 4483,
      "om": 4484,
      "//": 4485,
      "htt": 4486,
      "://": 4487,
      "sc": 4488,
      "la": 4489,
      "https": 4490,
      "ic": 4491,
      "ion": 4492,
      "es": 4493,
      "it": 4494,
      "com": 4495,
      "ww": 4496,
      "be": 4497,
      "le": 4498,
      "li": 4499,
      "re": 4500,
      "you": 4501,
      "am": 4502,
      "ien": 4503,
      "is": 4504,
      "ing": 4505,
      "de": 4506,
      "tu": 4507,
      "scien": 4508,
      "the": 4509,
      "science": 4510,
      "and": 4511,
      "to": 4512,
      "ss": 4513,
      "==": 4514,
      "ed": 4515,
      "__": 4516,
      "--------": 4517,
      "of": 4518,
      "ma": 4519,
      "ol": 4520,
      "for": 4521,
      "ct": 4522,
      "ne": 4523,
      "youtu": 4524,
      "vi": 4525,
      "lass": 4526,
      "class": 4527,
      "se": 4528,
      "ap": 4529,
      "te": 4530,
      "sh": 4531,
      "..": 4532,
      "ent": 4533,
      "ation": 4534,
      "www": 4535,
      "pr": 4536,
      "list": 4537,
      "ow": 4538,
      "ex": 4539,
      "di": 4540,
      "gr": 4541,
      "il": 4542,
      "ir": 4543,
      "youtube": 4544,
      "as": 4545,
      "su": 4546,
      "pl": 4547,
      "ve": 4548,
      "bo": 4549,
      "20": 4550,
      "ter": 4551,
      "====": 4552,
      "im": 4553,
      "us": 4554,
      "et": 4555,
      "og": 4556,
      "____": 4557,
      "qu": 4558,
      "ad": 4559,
      "ph": 4560,
      "pla": 4561,
      "em": 4562,
      "vide": 4563,
      "10": 4564,
      "ly": 4565,
      "un": 4566,
      "ra": 4567,
      "**": 4568,
      "ics": 4569,
      "video": 4570,
      "----------------": 4571,
      "ri": 4572,
      "wi": 4573,
      "ys": 4574,
      "ot": 4575,
      "ist": 4576,
      "play": 4577,
      "our": 4578,
      "est": 4579,
      "ok": 4580,
      "fa": 4581,
      "pro": 4582,
      "math": 4583,
      "ab": 4584,
      "ur": 4585,
      "ine": 4586,
      "playlist": 4587,
      "con": 4588,
      "olog": 4589,
      "ul": 4590,
      "ort": 4591,
      "phys": 4592,
      "ac": 4593,
      "ology": 4594,
      "ge": 4595,
      "ers": 4596,
      "we": 4597,
      "ut": 4598,
      "by": 4599,
      "chan": 4600,
      "um": 4601,
      "wh": 4602,
      "bi": 4603,
      "gram": 4604,
      "are": 4605,
      "book": 4606,
      "ry": 4607,
      "....": 4608,
      "ke": 4609,
      "me": 4610,
      "202": 4611,
      "par": 4612,
      "je": 4613,
      "gh": 4614,
      "per": 4615,
      "this": 4616,
      "ud": 4617,
      "exam": 4618,
      "ay": 4619,
      "physics": 4620,
      "with": 4621,
      "chem": 4622,
      "all": 4623,
      "mo": 4624,
      "▬▬": 4625,
      "maths": 4626,
      "eng": 4627,
      "uc": 4628,
      "estion": 4629,
      "sub": 4630,
      "nel": 4631,
      "id": 4632,
      "channel": 4633,
      "op": 4634,
      "ity": 4635,
      "========": 4636,
      "ical": 4637,
      "question": 4638,
      "atch": 4639,
      "ial": 4640,
      "bit": 4641,
      "chap": 4642,
      "ant": 4643,
      "chapter": 4644,
      "lin": 4645,
      "ess": 4646,
      "inst": 4647,
      "tr": 4648,
      "________": 4649,
      "lo": 4650,
      "ate": 4651,
      "chemist": 4652,
      "he": 4653,
      "ver": 4654,
      "indi": 4655,
      "act": 4656,
      "chemistry": 4657,
      ":-": 4658,
      "sir": 4659,
      "my": 4660,
      "fr": 4661,
      "****": 4662,
      "iv": 4663,
      "if": 4664,
      "comp": 4665,
      "stud": 4666,
      "sp": 4667,
      "ore": 4668,
      "so": 4669,
      "co": 4670,
      "link": 4671,
      "med": 4672,
      "tech": 4673,
      "12": 4674,
      "ment": 4675,
      "up": 4676,
      "ard": 4677,
      "out": 4678,
      "fe": 4679,
      "ro": 4680,
      "po": 4681,
      "ha": 4682,
      "go": 4683,
      "scri": 4684,
      "face": 4685,
      "agram": 4686,
      "new": 4687,
      "--------------------------------": 4688,
      "pre": 4689,
      "ach": 4690,
      "00": 4691,
      "ks": 4692,
      "biology": 4693,
      "ill": 4694,
      "oun": 4695,
      "app": 4696,
      "ta": 4697,
      "instagram": 4698,
      "ive": 4699,
      "ject": 4700,
      "facebook": 4701,
      "watch": 4702,
      "arn": 4703,
      "wor": 4704,
      "jo": 4705,
      "subscri": 4706,
      "pa": 4707,
      "11": 4708,
      "how": 4709,
      "du": 4710,
      "one": 4711,
      "res": 4712,
      "ssc": 4713,
      "your": 4714,
      "http": 4715,
      "ght": 4716,
      "port": 4717,
      "techn": 4718,
      "videos": 4719,
      "ies": 4720,
      "net": 4721,
      "learn": 4722,
      "da": 4723,
      "ction": 4724,
      "ere": 4725,
      "form": 4726,
      "low": 4727,
      "do": 4728,
      "gen": 4729,
      "part": 4730,
      "▀▀": 4731,
      "ll": 4732,
      "ents": 4733,
      "nc": 4734,
      "hindi": 4735,
      "ert": 4736,
      "art": 4737,
      "gu": 4738,
      "sy": 4739,
      "not": 4740,
      "short": 4741,
      "cb": 4742,
      "ans": 4743,
      "that": 4744,
      "od": 4745,
      "engine": 4746,
      "questions": 4747,
      "ade": 4748,
      "ree": 4749,
      "subscribe": 4750,
      "........": 4751,
      "mat": 4752,
      "ear": 4753,
      "hi": 4754,
      "ise": 4755,
      "▬▬▬▬": 4756,
      "more": 4757,
      "cour": 4758,
      "can": 4759,
      "what": 4760,
      "tter": 4761,
      "pap": 4762,
      "get": 4763,
      "top": 4764,
      "ance": 4765,
      "ld": 4766,
      "ig": 4767,
      "ering": 4768,
      "technology": 4769,
      "gk": 4770,
      "any": 4771,
      "from": 4772,
      "ple": 4773,
      "ound": 4774,
      "ck": 4775,
      "now": 4776,
      "af": 4777,
      "lab": 4778,
      "sol": 4779,
      "use": 4780,
      "exper": 4781,
      "ele": 4782,
      "der": 4783,
      "ts": 4784,
      "cl": 4785,
      "line": 4786,
      "str": 4787,
      "engineering": 4788,
      "ka": 4789,
      "bs": 4790,
      "board": 4791,
      "grou": 4792,
      "ful": 4793,
      "will": 4794,
      "vis": 4795,
      "ome": 4796,
      "ncert": 4797,
      "twi": 4798,
      "ag": 4799,
      "================": 4800,
      "cbse": 4801,
      "ions": 4802,
      "ite": 4803,
      "educ": 4804,
      "ther": 4805,
      "twitter": 4806,
      "201": 4807,
      "ank": 4808,
      "gy": 4809,
      "about": 4810,
      "paper": 4811,
      "fi": 4812,
      "ick": 4813,
      "av": 4814,
      "no": 4815,
      "free": 4816,
      "study": 4817,
      "10th": 4818,
      "lec": 4819,
      "ins": 4820,
      "________________": 4821,
      "dr": 4822,
      "neet": 4823,
      "group": 4824,
      "ew": 4825,
      "dat": 4826,
      "lish": 4827,
      "ture": 4828,
      "ind": 4829,
      "fol": 4830,
      "pe": 4831,
      "import": 4832,
      "iz": 4833,
      "ase": 4834,
      "tra": 4835,
      "wal": 4836,
      "gener": 4837,
      "fun": 4838,
      "own": 4839,
      "education": 4840,
      "like": 4841,
      "classes": 4842,
      "ti": 4843,
      "्र": 4844,
      "elect": 4845,
      "********": 4846,
      "mot": 4847,
      "follow": 4848,
      "ber": 4849,
      "disc": 4850,
      "off": 4851,
      "gl": 4852,
      "||": 4853,
      "zn": 4854,
      "medi": 4855,
      "inter": 4856,
      "important": 4857,
      "english": 4858,
      "ak": 4859,
      "hy": 4860,
      "nt": 4861,
      "pt": 4862,
      "work": 4863,
      "cont": 4864,
      "ep": 4865,
      "mar": 4866,
      "psc": 4867,
      "sch": 4868,
      "join": 4869,
      "shorts": 4870,
      "cial": 4871,
      "ory": 4872,
      "ous": 4873,
      "mag": 4874,
      "acade": 4875,
      "teach": 4876,
      "electr": 4877,
      "ved": 4878,
      "project": 4879,
      "del": 4880,
      "hel": 4881,
      "ication": 4882,
      "online": 4883,
      "mc": 4884,
      "col": 4885,
      "2022": 4886,
      "cre": 4887,
      "rb": 4888,
      "tele": 4889,
      "ser": 4890,
      "az": 4891,
      "के": 4892,
      "bu": 4893,
      "pc": 4894,
      "test": 4895,
      "course": 4896,
      "ds": 4897,
      "experim": 4898,
      "ff": 4899,
      "el": 4900,
      "pu": 4901,
      "ai": 4902,
      "mi": 4903,
      "bas": 4904,
      "here": 4905,
      "best": 4906,
      "pur": 4907,
      "life": 4908,
      "pw": 4909,
      "tim": 4910,
      "amzn": 4911,
      "less": 4912,
      "cy": 4913,
      "way": 4914,
      "prepar": 4915,
      "students": 4916,
      "live": 4917,
      "br": 4918,
      "telegram": 4919,
      "view": 4920,
      "har": 4921,
      "general": 4922,
      "able": 4923,
      "cur": 4924,
      "man": 4925,
      "lah": 4926,
      "academy": 4927,
      "stat": 4928,
      "plan": 4929,
      "batch": 4930,
      "2023": 4931,
      "know": 4932,
      "cess": 4933,
      "answ": 4934,
      "fo": 4935,
      "👇👇": 4936,
      "➙➙": 4937,
      "solut": 4938,
      "full": 4939,
      "led": 4940,
      "org": 4941,
      "ses": 4942,
      "very": 4943,
      "▀▀▀▀": 4944,
      "have": 4945,
      "ty": 4946,
      "dy": 4947,
      "fair": 4948,
      "ju": 4949,
      "ip": 4950,
      "comm": 4951,
      "ated": 4952,
      "ary": 4953,
      "2021": 4954,
      "ign": 4955,
      "24": 4956,
      "ice": 4957,
      "ca": 4958,
      "°°": 4959,
      "fir": 4960,
      "preparation": 4961,
      "spe": 4962,
      "कर": 4963,
      "pract": 4964,
      "data": 4965,
      "ms": 4966,
      "jee": 4967,
      "ool": 4968,
      "ें": 4969,
      "end": 4970,
      "its": 4971,
      "day": 4972,
      "pd": 4973,
      "bh": 4974,
      "mu": 4975,
      "bra": 4976,
      "llab": 4977,
      "ik": 4978,
      "au": 4979,
      "llabus": 4980,
      "year": 4981,
      "down": 4982,
      "uter": 4983,
      "wallah": 4984,
      "wa": 4985,
      "ान": 4986,
      "exams": 4987,
      "lesson": 4988,
      "ide": 4989,
      "ens": 4990,
      "computer": 4991,
      "bl": 4992,
      "syllabus": 4993,
      "ार": 4994,
      "ition": 4995,
      "ang": 4996,
      "make": 4997,
      "learning": 4998,
      "...": 4999,
      "icks": 5000,
      "2024": 5001,
      "esh": 5002,
      "os": 5003,
      "ack": 5004,
      "curr": 5005,
      "cu": 5006,
      "amil": 5007,
      "्य": 5008,
      "vel": 5009,
      "ble": 5010,
      "ci": 5011,
      "other": 5012,
      "stem": 5013,
      "ces": 5014,
      "school": 5015,
      "num": 5016,
      "right": 5017,
      "model": 5018,
      "ari": 5019,
      "medium": 5020,
      "webs": 5021,
      "rrb": 5022,
      "ong": 5023,
      "pm": 5024,
      "whi": 5025,
      "iss": 5026,
      "na": 5027,
      "................": 5028,
      "comple": 5029,
      "19": 5030,
      "sa": 5031,
      "des": 5032,
      "share": 5033,
      "12th": 5034,
      "help": 5035,
      "notes": 5036,
      "ef": 5037,
      "ya": 5038,
      "csir": 5039,
      "news": 5040,
      "load": 5041,
      "ster": 5042,
      "produ": 5043,
      "वि": 5044,
      "medic": 5045,
      "than": 5046,
      "under": 5047,
      "▬▬▬▬▬▬▬▬": 5048,
      "mcq": 5049,
      "antu": 5050,
      "website": 5051,
      "sk": 5052,
      "14": 5053,
      "tricks": 5054,
      "cop": 5055,
      "erc": 5056,
      "ations": 5057,
      "ivers": 5058,
      "magnet": 5059,
      "icial": 5060,
      "ia": 5061,
      "age": 5062,
      "ids": 5063,
      "uk": 5064,
      "cr": 5065,
      "क्": 5066,
      "min": 5067,
      "vir": 5068,
      "sing": 5069,
      "also": 5070,
      "15": 5071,
      "current": 5072,
      "ish": 5073,
      "univers": 5074,
      "time": 5075,
      "social": 5076,
      "als": 5077,
      "download": 5078,
      "home": 5079,
      "exerc": 5080,
      "ev": 5081,
      "ctor": 5082,
      "tures": 5083,
      "ame": 5084,
      "electric": 5085,
      "colle": 5086,
      "ob": 5087,
      "most": 5088,
      "9th": 5089,
      "30": 5090,
      "tw": 5091,
      "car": 5092,
      "ational": 5093,
      "लि": 5094,
      "mail": 5095,
      "eas": 5096,
      "sim": 5097,
      "please": 5098,
      "2019": 5099,
      "ater": 5100,
      "2020": 5101,
      "copy": 5102,
      "tv": 5103,
      "system": 5104,
      "tn": 5105,
      "deta": 5106,
      "र्": 5107,
      "cra": 5108,
      "stand": 5109,
      "lu": 5110,
      "goog": 5111,
      "tor": 5112,
      "----------------------------------------------------------------": 5113,
      "google": 5114,
      "world": 5115,
      "cts": 5116,
      "care": 5117,
      "series": 5118,
      "amaz": 5119,
      "medicine": 5120,
      "ure": 5121,
      "ba": 5122,
      "xt": 5123,
      "sapp": 5124,
      "rail": 5125,
      "pdf": 5126,
      "exercise": 5127,
      "sm": 5128,
      "subject": 5129,
      "gd": 5130,
      "ence": 5131,
      "13": 5132,
      "which": 5133,
      "से": 5134,
      "iit": 5135,
      "whatsapp": 5136,
      "ute": 5137,
      "light": 5138,
      "program": 5139,
      "miss": 5140,
      "sup": 5141,
      "ough": 5142,
      "ass": 5143,
      "vision": 5144,
      "inform": 5145,
      "प्र": 5146,
      "has": 5147,
      "complete": 5148,
      "pol": 5149,
      "but": 5150,
      "pat": 5151,
      "ho": 5152,
      "university": 5153,
      "ason": 5154,
      "vedantu": 5155,
      "experiment": 5156,
      "ath": 5157,
      "some": 5158,
      "ntpc": 5159,
      "answer": 5160,
      "kar": 5161,
      "official": 5162,
      "courses": 5163,
      "gg": 5164,
      "don": 5165,
      "का": 5166,
      "hum": 5167,
      "ese": 5168,
      "india": 5169,
      "mathe": 5170,
      "railway": 5171,
      "kh": 5172,
      "lectures": 5173,
      "chemical": 5174,
      "jan": 5175,
      "है": 5176,
      "mus": 5177,
      "prof": 5178,
      "ni": 5179,
      "01": 5180,
      "cal": 5181,
      "ref": 5182,
      "copyright": 5183,
      "their": 5184,
      "ash": 5185,
      "page": 5186,
      "gs": 5187,
      "::": 5188,
      "visit": 5189,
      "detail": 5190,
      "vd": 5191,
      "••": 5192,
      "ii": 5193,
      "cent": 5194,
      "mic": 5195,
      "को": 5196,
      "py": 5197,
      "m_": 5198,
      "mathemat": 5199,
      "si": 5200,
      "aq": 5201,
      "cor": 5202,
      "int": 5203,
      "tutor": 5204,
      "ener": 5205,
      "found": 5206,
      "ded": 5207,
      "lice": 5208,
      "alth": 5209,
      "mater": 5210,
      "unacademy": 5211,
      "thr": 5212,
      "mon": 5213,
      "diff": 5214,
      "che": 5215,
      "pk": 5216,
      "16": 5217,
      "motiv": 5218,
      "organ": 5219,
      "vs": 5220,
      "atom": 5221,
      "only": 5222,
      "ran": 5223,
      "pi": 5224,
      "lat": 5225,
      "water": 5226,
      "books": 5227,
      "les": 5228,
      "police": 5229,
      "expla": 5230,
      "every": 5231,
      "tamil": 5232,
      "come": 5233,
      "की": 5234,
      "grap": 5235,
      "energy": 5236,
      "cul": 5237,
      "fin": 5238,
      "material": 5239,
      "पर": 5240,
      "over": 5241,
      "ession": 5242,
      "solution": 5243,
      "content": 5244,
      "click": 5245,
      "information": 5246,
      "sport": 5247,
      "cam": 5248,
      "conce": 5249,
      "kr": 5250,
      "aw": 5251,
      "cgl": 5252,
      "tri": 5253,
      "health": 5254,
      "18": 5255,
      "33": 5256,
      "dou": 5257,
      "ding": 5258,
      "tet": 5259,
      "gre": 5260,
      "****************": 5261,
      "easy": 5262,
      "real": 5263,
      "ification": 5264,
      "motion": 5265,
      "================================": 5266,
      "cell": 5267,
      "ments": 5268,
      "fu": 5269,
      "king": 5270,
      "sl": 5271,
      "25": 5272,
      "high": 5273,
      "ator": 5274,
      "physical": 5275,
      "mathematics": 5276,
      "tro": 5277,
      "react": 5278,
      "mem": 5279,
      "support": 5280,
      "/@": 5281,
      "practice": 5282,
      "ny": 5283,
      "experiments": 5284,
      "music": 5285,
      "yt": 5286,
      "store": 5287,
      "gc": 5288,
      "coun": 5289,
      "gt": 5290,
      "set": 5291,
      "class10": 5292,
      "2018": 5293,
      "kids": 5294,
      "hist": 5295,
      "through": 5296,
      "equ": 5297,
      "sur": 5298,
      "lecture": 5299,
      "earch": 5300,
      "में": 5301,
      "ga": 5302,
      "research": 5303,
      "human": 5304,
      "first": 5305,
      "quiz": 5306,
      "previ": 5307,
      "ki": 5308,
      "std": 5309,
      "met": 5310,
      "unit": 5311,
      "ings": 5312,
      "________________________________": 5313,
      "gur": 5314,
      "ould": 5315,
      "educational": 5316,
      "lc": 5317,
      "details": 5318,
      "adda": 5319,
      "ply": 5320,
      "scient": 5321,
      "~~": 5322,
      "स्": 5323,
      "ati": 5324,
      "find": 5325,
      "read": 5326,
      "11th": 5327,
      "super": 5328,
      "07": 5329,
      "show": 5330,
      "nur": 5331,
      "activ": 5332,
      "solutions": 5333,
      "cle": 5334,
      "ek": 5335,
      "tal": 5336,
      "back": 5337,
      "reg": 5338,
      "ने": 5339,
      "tutorial": 5340,
      "ledge": 5341,
      "uss": 5342,
      "teaching": 5343,
      "pres": 5344,
      "!!": 5345,
      "differ": 5346,
      "affair": 5347,
      "object": 5348,
      "ship": 5349,
      "grade": 5350,
      "knowledge": 5351,
      "ption": 5352,
      "anim": 5353,
      "ज्": 5354,
      "rel": 5355,
      "➙➙➙➙": 5356,
      "utm_": 5357,
      "who": 5358,
      "vo": 5359,
      "doub": 5360,
      "ue": 5361,
      "upsc": 5362,
      "number": 5363,
      "50": 5364,
      "brains": 5365,
      "qn": 5366,
      "used": 5367,
      "ls": 5368,
      "wise": 5369,
      "process": 5370,
      "°°°°": 5371,
      "ving": 5372,
      "foundation": 5373,
      "affairs": 5374,
      "sab": 5375,
      "bal": 5376,
      "contact": 5377,
      "zy": 5378,
      "college": 5379,
      "history": 5380,
      "instit": 5381,
      "previous": 5382,
      "hu": 5383,
      "design": 5384,
      "adity": 5385,
      "sam": 5386,
      "these": 5387,
      "using": 5388,
      "topic": 5389,
      "nat": 5390,
      "ज्ञ": 5391,
      "intro": 5392,
      "firm": 5393,
      "02": 5394,
      "ht": 5395,
      "gate": 5396,
      "ner": 5397,
      "dav": 5398,
      "jr": 5399,
      "plus": 5400,
      "ye": 5401,
      "pers": 5402,
      "student": 5403,
      "char": 5404,
      "pow": 5405,
      "they": 5406,
      "gar": 5407,
      "mal": 5408,
      "ja": 5409,
      "trick": 5410,
      "ज्ञान": 5411,
      "ru": 5412,
      "explain": 5413,
      "17": 5414,
      "_con": 5415,
      "ily": 5416,
      "cover": 5417,
      "bon": 5418,
      "xy": 5419,
      "law": 5420,
      "---": 5421,
      "made": 5422,
      "log": 5423,
      "comment": 5424,
      "zz": 5425,
      "ali": 5426,
      "ala": 5427,
      "firmation": 5428,
      "adv": 5429,
      "frien": 5430,
      "laim": 5431,
      "_confirmation": 5432,
      "ft": 5433,
      "shot": 5434,
      "sub_confirmation": 5435,
      "check": 5436,
      "bq": 5437,
      "ific": 5438,
      "medical": 5439,
      "99": 5440,
      "tips": 5441,
      "into": 5442,
      "▀▀▀▀▀▀▀▀": 5443,
      "िय": 5444,
      "क्ष": 5445,
      "after": 5446,
      "bsc": 5447,
      "mk": 5448,
      "practical": 5449,
      "nursing": 5450,
      "mr": 5451,
      "air": 5452,
      "edu": 5453,
      "ities": 5454,
      "z7": 5455,
      "let": 5456,
      "revision": 5457,
      "05": 5458,
      "red": 5459,
      "nd": 5460,
      "ना": 5461,
      "vdnt": 5462,
      "ons": 5463,
      "basic": 5464,
      "hand": 5465,
      "iq": 5466,
      "ste": 5467,
      "08": 5468,
      "was": 5469,
      "लिए": 5470,
      "ative": 5471,
      "reason": 5472,
      "career": 5473,
      "g_": 5474,
      "discuss": 5475,
      "her": 5476,
      "mit": 5477,
      "सा": 5478,
      "dig": 5479,
      "wb": 5480,
      "विज्ञान": 5481,
      "blo": 5482,
      "22": 5483,
      "wr": 5484,
      "compet": 5485,
      "8th": 5486,
      "fh": 5487,
      "ular": 5488,
      "key": 5489,
      "duction": 5490,
      "zh": 5491,
      "code": 5492,
      "ants": 5493,
      "plication": 5494,
      "03": 5495,
      "gmail": 5496,
      "ib": 5497,
      "dis": 5498,
      "topics": 5499,
      "ility": 5500,
      "ace": 5501,
      "भी": 5502,
      "stu": 5503,
      "linked": 5504,
      "247": 5505,
      "national": 5506,
      "struc": 5507,
      "ges": 5508,
      "non": 5509,
      "cs": 5510,
      "23": 5511,
      "anal": 5512,
      "such": 5513,
      "why": 5514,
      "term": 5515,
      "latest": 5516,
      "power": 5517,
      "44": 5518,
      "ope": 5519,
      "answers": 5520,
      "mach": 5521,
      "ko": 5522,
      "motivation": 5523,
      "sal": 5524,
      "itive": 5525,
      "master": 5526,
      "linkedin": 5527,
      "his": 5528,
      "interest": 5529,
      "mission": 5530,
      "institute": 5531,
      "ah": 5532,
      "dri": 5533,
      "disclaim": 5534,
      "she": 5535,
      "sabaq": 5536,
      "where": 5537,
      "mp": 5538,
      "09": 5539,
      "just": 5540,
      "ிய": 5541,
      "mad": 5542,
      "good": 5543,
      "istics": 5544,
      "िक": 5545,
      "chsl": 5546,
      "well": 5547,
      "thanks": 5548,
      "understand": 5549,
      "36": 5550,
      "many": 5551,
      "lf": 5552,
      "physicswallah": 5553,
      "disclaimer": 5554,
      "state": 5555,
      "updat": 5556,
      "sour": 5557,
      "xq": 5558,
      "ating": 5559,
      "cond": 5560,
      "purpo": 5561,
      "ের": 5562,
      "tur": 5563,
      "adda247": 5564,
      "plo": 5565,
      "viral": 5566,
      "proble": 5567,
      "্য": 5568,
      "aditya": 5569,
      "train": 5570,
      "special": 5571,
      "start": 5572,
      "uni": 5573,
      "aching": 5574,
      "ankit": 5575,
      "্র": 5576,
      "gn": 5577,
      "sure": 5578,
      "food": 5579,
      "win": 5580,
      "ित": 5581,
      "incl": 5582,
      "level": 5583,
      "आप": 5584,
      "06": 5585,
      "zu": 5586,
      "04": 5587,
      "ல்": 5588,
      "era": 5589,
      "kn": 5590,
      "ranjan": 5591,
      "ml": 5592,
      "val": 5593,
      "goo": 5594,
      "force": 5595,
      "eld": 5596,
      "_k": 5597,
      "karsh": 5598,
      "):": 5599,
      "utkarsh": 5600,
      "date": 5601,
      "based": 5602,
      "exampur": 5603,
      "din": 5604,
      "typ": 5605,
      "dra": 5606,
      "jq": 5607,
      "electricity": 5608,
      "zo": 5609,
      "ার": 5610,
      "wv": 5611,
      "matter": 5612,
      "different": 5613,
      "when": 5614,
      "there": 5615,
      "them": 5616,
      "ism": 5617,
      "shar": 5618,
      "dio": 5619,
      "vol": 5620,
      "working": 5621,
      "sw": 5622,
      "ict": 5623,
      "conne": 5624,
      "indian": 5625,
      "thank": 5626,
      "media": 5627,
      "ves": 5628,
      "ital": 5629,
      "amazon": 5630,
      "telu": 5631,
      "const": 5632,
      "today": 5633,
      "29": 5634,
      "simple": 5635,
      "69": 5636,
      "apps": 5637,
      "body": 5638,
      "reasoning": 5639,
      "vers": 5640,
      "mer": 5641,
      "nam": 5642,
      "fect": 5643,
      "ian": 5644,
      "sound": 5645,
      "links": 5646,
      "telugu": 5647,
      "watching": 5648,
      "amazing": 5649,
      "2z": 5650,
      "devel": 5651,
      "ograp": 5652,
      "develop": 5653,
      "need": 5654,
      "friends": 5655,
      "see": 5656,
      "wo": 5657,
      "strate": 5658,
      "ie": 5659,
      "ann": 5660,
      "statistics": 5661,
      "fb": 5662,
      "activity": 5663,
      "21": 5664,
      "ight": 5665,
      "introduction": 5666,
      "structure": 5667,
      "then": 5668,
      "ctet": 5669,
      "explan": 5670,
      "्या": 5671,
      "்க": 5672,
      "ors": 5673,
      "38": 5674,
      "ana": 5675,
      "fy": 5676,
      "ula": 5677,
      "field": 5678,
      "want": 5679,
      "27": 5680,
      "bre": 5681,
      "adu": 5682,
      "35": 5683,
      "cc": 5684,
      "mechan": 5685,
      "ution": 5686,
      "ji": 5687,
      "thing": 5688,
      "war": 5689,
      "teacher": 5690,
      "34": 5691,
      "va": 5692,
      "person": 5693,
      "take": 5694,
      "bus": 5695,
      "ம்": 5696,
      "tain": 5697,
      "coaching": 5698,
      "ctions": 5699,
      "commun": 5700,
      "vari": 5701,
      "facts": 5702,
      "raj": 5703,
      "avai": 5704,
      "availab": 5705,
      "dex": 5706,
      "two": 5707,
      "bet": 5708,
      "ada": 5709,
      "objective": 5710,
      "buil": 5711,
      "luc": 5712,
      "sslc": 5713,
      "ience": 5714,
      "pts": 5715,
      "xx": 5716,
      "chat": 5717,
      "iness": 5718,
      "28": 5719,
      "------------------------------------------------": 5720,
      "bank": 5721,
      "और": 5722,
      "वा": 5723,
      "hai": 5724,
      "teachers": 5725,
      "ink": 5726,
      "sports": 5727,
      "................................": 5728,
      "——": 5729,
      "alam": 5730,
      "projects": 5731,
      "ual": 5732,
      "ream": 5733,
      "pum": 5734,
      "daily": 5735,
      "pli": 5736,
      "provide": 5737,
      "wel": 5738,
      "ze": 5739,
      "mul": 5740,
      "dh": 5741,
      "count": 5742,
      "/?": 5743,
      "papers": 5744,
      "ates": 5745,
      "dire": 5746,
      "86": 5747,
      "pan": 5748,
      "ending": 5749,
      "bang": 5750,
      "available": 5751,
      "bihar": 5752,
      "lt": 5753,
      "explanation": 5754,
      "100": 5755,
      "ns": 5756,
      "machine": 5757,
      "class9": 5758,
      "access": 5759,
      "related": 5760,
      "ᴏɴ": 5761,
      "entr": 5762,
      "dies": 5763,
      "may": 5764,
      "press": 5765,
      "ों": 5766,
      "ben": 5767,
      "ub": 5768,
      "gyan": 5769,
      "👇👇👇👇": 5770,
      "45": 5771,
      "kf": 5772,
      "++": 5773,
      "gi": 5774,
      "mb": 5775,
      "श्": 5776,
      "cut": 5777,
      "jar": 5778,
      ").": 5779,
      "सं": 5780,
      "••••": 5781,
      "dp": 5782,
      "trans": 5783,
      "connect": 5784,
      "ning": 5785,
      "zx": 5786,
      "application": 5787,
      "review": 5788,
      "cet": 5789,
      "bio": 5790,
      "table": 5791,
      "lm": 5792,
      "inte": 5793,
      "future": 5794,
      "7th": 5795,
      "3d": 5796,
      "opt": 5797,
      "formula": 5798,
      "marks": 5799,
      "gq": 5800,
      "omet": 5801,
      "magnetbrains": 5802,
      "love": 5803,
      "pir": 5804,
      "37": 5805,
      "place": 5806,
      "main": 5807,
      "26": 5808,
      "pn": 5809,
      "add": 5810,
      "below": 5811,
      "arch": 5812,
      "ysis": 5813,
      "business": 5814,
      "vy": 5815,
      "concepts": 5816,
      "क्षा": 5817,
      "requ": 5818,
      "icul": 5819,
      "ky": 5820,
      "……": 5821,
      "call": 5822,
      "ush": 5823,
      "guru": 5824,
      "sun": 5825,
      "ules": 5826,
      "ला": 5827,
      "edit": 5828,
      "giv": 5829,
      "cn": 5830,
      "post": 5831,
      "𝐨𝐧": 5832,
      "या": 5833,
      "ker": 5834,
      "entrance": 5835,
      "bers": 5836,
      "ले": 5837,
      "qs": 5838,
      "ups": 5839,
      "roj": 5840,
      "session": 5841,
      "subjects": 5842,
      "box": 5843,
      "mains": 5844,
      "geograp": 5845,
      "publ": 5846,
      "updates": 5847,
      "att": 5848,
      "space": 5849,
      "molec": 5850,
      "old": 5851,
      "cir": 5852,
      "cer": 5853,
      "55": 5854,
      "jj": 5855,
      "types": 5856,
      "production": 5857,
      "::::": 5858,
      "welcome": 5859,
      "suc": 5860,
      "ुर": 5861,
      "training": 5862,
      "gam": 5863,
      "ias": 5864,
      "करें": 5865,
      "each": 5866,
      "give": 5867,
      "advance": 5868,
      "tre": 5869,
      "status": 5870,
      "notification": 5871,
      "ᴛᴇ": 5872,
      "source": 5873,
      "buy": 5874,
      "fav": 5875,
      "vil": 5876,
      "76": 5877,
      "त्": 5878,
      "),": 5879,
      "ani": 5880,
      "dist": 5881,
      "hit": 5882,
      "kum": 5883,
      "bri": 5884,
      "qual": 5885,
      "team": 5886,
      "ential": 5887,
      "pf": 5888,
      "name": 5889,
      "ient": 5890,
      "91": 5891,
      "md": 5892,
      "lan": 5893,
      "48": 5894,
      "quer": 5895,
      "look": 5896,
      "famil": 5897,
      "்த": 5898,
      "micro": 5899,
      "rank": 5900,
      "vt": 5901,
      "vac": 5902,
      "olar": 5903,
      "ox": 5904,
      "ement": 5905,
      "40": 5906,
      "bin": 5907,
      "ball": 5908,
      "family": 5909,
      "aa": 5910,
      "competitive": 5911,
      "yj": 5912,
      "32": 5913,
      "ming": 5914,
      "sof": 5915,
      "expl": 5916,
      "47": 5917,
      "hs": 5918,
      "oc": 5919,
      "oll": 5920,
      "qf": 5921,
      "second": 5922,
      "organic": 5923,
      "delhi": 5924,
      "বি": 5925,
      "song": 5926,
      "envir": 5927,
      "diy": 5928,
      "personal": 5929,
      "text": 5930,
      "standard": 5931,
      "fil": 5932,
      "ते": 5933,
      "next": 5934,
      "ku": 5935,
      "ness": 5936,
      "environ": 5937,
      "resul": 5938,
      "purposes": 5939,
      "scientist": 5940,
      "ween": 5941,
      "ता": 5942,
      "utr": 5943,
      "includ": 5944,
      "▬▬▬▬▬▬▬▬▬▬▬▬▬▬▬▬": 5945,
      "edus": 5946,
      "section": 5947,
      "que": 5948,
      "rojgar": 5949,
      "multi": 5950,
      "––": 5951,
      "between": 5952,
      "nit": 5953,
      "file": 5954,
      "pak": 5955,
      "imp": 5956,
      "98": 5957,
      "oo": 5958,
      "ural": 5959,
      "admission": 5960,
      "reaction": 5961,
      "plat": 5962,
      "strategy": 5963,
      "peri": 5964,
      "pl9": 5965,
      "draw": 5966,
      "tem": 5967,
      "smart": 5968,
      "plw": 5969,
      "ople": 5970,
      "ᴀɴ": 5971,
      "jm": 5972,
      "``": 5973,
      "-------": 5974,
      "bab": 5975,
      "beng": 5976,
      "experience": 5977,
      "game": 5978,
      "cap": 5979,
      "ney": 5980,
      "ae": 5981,
      "ature": 5982,
      "bc": 5983,
      "environment": 5984,
      "zc": 5985,
      "patre": 5986,
      "concept": 5987,
      "पा": 5988,
      "phone": 5989,
      "people": 5990,
      "m5": 5991,
      "reet": 5992,
      "patreon": 5993,
      "been": 5994,
      "jy": 5995,
      "qr": 5996,
      "analysis": 5997,
      "ancy": 5998,
      "bangla": 5999,
      "रा": 6000,
      "prep": 6001,
      "pho": 6002,
      "io": 6003,
      "compound": 6004,
      "ask": 6005,
      "star": 6006,
      "oma": 6007,
      "subscription": 6008,
      "bot": 6009,
      "proper": 6010,
      "provi": 6011,
      "does": 6012,
      "scientific": 6013,
      "ান": 6014,
      "indu": 6015,
      "phar": 6016,
      "trending": 6017,
      "calcul": 6018,
      "lucent": 6019,
      "mass": 6020,
      "geography": 6021,
      "kes": 6022,
      "46": 6023,
      "rc": 6024,
      "हम": 6025,
      "materials": 6026,
      "skill": 6027,
      "ways": 6028,
      "email": 6029,
      "jour": 6030,
      "years": 6031,
      "𝐞𝐬": 6032,
      "bd": 6033,
      "por": 6034,
      "mind": 6035,
      "limit": 6036,
      "descri": 6037,
      "vice": 6038,
      "58": 6039,
      ";;": 6040,
      "chil": 6041,
      "cast": 6042,
      "contr": 6043,
      "ee": 6044,
      "guide": 6045,
      "📚👉": 6046,
      "tun": 6047,
      "sum": 6048,
      "joy": 6049,
      "मा": 6050,
      "interview": 6051,
      "हा": 6052,
      "scholar": 6053,
      "dec": 6054,
      "mart": 6055,
      "fast": 6056,
      "change": 6057,
      "meth": 6058,
      "san": 6059,
      "wm": 6060,
      "वी": 6061,
      "pect": 6062,
      "ude": 6063,
      "6th": 6064,
      "pass": 6065,
      "metals": 6066,
      "sb": 6067,
      "kit": 6068,
      "platform": 6069,
      "epis": 6070,
      "qq": 6071,
      "fl": 6072,
      "ideas": 6073,
      "beh": 6074,
      "ines": 6075,
      "प्रश्": 6076,
      "present": 6077,
      "pot": 6078,
      "xc": 6079,
      "shop": 6080,
      "carbon": 6081,
      "tgt": 6082,
      "commer": 6083,
      "x0": 6084,
      "dc": 6085,
      "sn": 6086,
      "gradu": 6087,
      "ɪs": 6088,
      "°°°°°°°°": 6089,
      "xj": 6090,
      "method": 6091,
      "ible": 6092,
      "crash": 6093,
      "gujar": 6094,
      "𝐢𝐧": 6095,
      "photo": 6096,
      "ire": 6097,
      "lic": 6098,
      "ˍˍ": 6099,
      "पू": 6100,
      "ward": 6101,
      "def": 6102,
      "poly": 6103,
      "त्र": 6104,
      "stay": 6105,
      "onelink": 6106,
      "nov": 6107,
      "forget": 6108,
      "mcqs": 6109,
      "lead": 6110,
      "self": 6111,
      "ety": 6112,
      "pod": 6113,
      "boards": 6114,
      "vigyan": 6115,
      "dia": 6116,
      "making": 6117,
      "पुर": 6118,
      "hr": 6119,
      "son": 6120,
      "ton": 6121,
      "around": 6122,
      "ug": 6123,
      "77": 6124,
      "bar": 6125,
      "issu": 6126,
      "plg": 6127,
      "jobs": 6128,
      "doctor": 6129,
      "bat": 6130,
      "vc": 6131,
      "49": 6132,
      "great": 6133,
      "foc": 6134,
      "ims": 6135,
      "ize": 6136,
      "000": 6137,
      "following": 6138,
      "open": 6139,
      "fore": 6140,
      "aut": 6141,
      "period": 6142,
      "should": 6143,
      "earth": 6144,
      "56": 6145,
      "mark": 6146,
      "pg": 6147,
      "community": 6148,
      "ord": 6149,
      "ast": 6150,
      "ane": 6151,
      "hd": 6152,
      "xe": 6153,
      "mos": 6154,
      "vive": 6155,
      "resour": 6156,
      "infr": 6157,
      "𝐚𝐫": 6158,
      "री": 6159,
      "mahar": 6160,
      "hn": 6161,
      "vid": 6162,
      "sugg": 6163,
      "g_z7": 6164,
      "g_z7fh": 6165,
      "pl9g_z7fh": 6166,
      "reactions": 6167,
      "jam": 6168,
      "allow": 6169,
      "econ": 6170,
      "tar": 6171,
      "इस": 6172,
      "step": 6173,
      "prim": 6174,
      "60": 6175,
      "iting": 6176,
      "equations": 6177,
      "success": 6178,
      "fer": 6179,
      "drive": 6180,
      "path": 6181,
      "bk": 6182,
      "numer": 6183,
      "51": 6184,
      "natural": 6185,
      "sign": 6186,
      "दे": 6187,
      "constable": 6188,
      "pal": 6189,
      "pharma": 6190,
      "1st": 6191,
      "blog": 6192,
      "malay": 6193,
      "lection": 6194,
      "week": 6195,
      "qy": 6196,
      "motor": 6197,
      "khan": 6198,
      "perform": 6199,
      "xw": 6200,
      "effect": 6201,
      "atoms": 6202,
      "pon": 6203,
      "channels": 6204,
      "39": 6205,
      "ति": 6206,
      "ination": 6207,
      "tnpsc": 6208,
      "maharash": 6209,
      "product": 6210,
      "infring": 6211,
      "econom": 6212,
      "ram": 6213,
      "ped": 6214,
      "nutr": 6215,
      "vlog": 6216,
      "mv": 6217,
      "malayalam": 6218,
      "blood": 6219,
      "ugc": 6220,
      "்ப": 6221,
      "guy": 6222,
      "maharashtra": 6223,
      "ain": 6224,
      "funny": 6225,
      "ally": 6226,
      "heart": 6227,
      "job": 6228,
      "cause": 6229,
      "long": 6230,
      "ger": 6231,
      "hl": 6232,
      "2nd": 6233,
      "hope": 6234,
      "plants": 6235,
      "grow": 6236,
      "hibit": 6237,
      "सी": 6238,
      "tting": 6239,
      "etc": 6240,
      "𝐚𝐭": 6241,
      "kw": 6242,
      "ʀᴏ": 6243,
      "dj": 6244,
      "gv": 6245,
      "gas": 6246,
      "6ow": 6247,
      "dam": 6248,
      "rs": 6249,
      "crit": 6250,
      "bt": 6251,
      "ode": 6252,
      "tten": 6253,
      "head": 6254,
      "➙➙➙➙➙➙➙➙": 6255,
      "mah": 6256,
      "zq": 6257,
      "problem": 6258,
      "action": 6259,
      "explained": 6260,
      "ியல்": 6261,
      "mm": 6262,
      "development": 6263,
      "k4": 6264,
      "cred": 6265,
      "digital": 6266,
      "nq": 6267,
      "last": 6268,
      "z9": 6269,
      "sha": 6270,
      "solved": 6271,
      "mix": 6272,
      "ometry": 6273,
      "public": 6274,
      "tit": 6275,
      "vent": 6276,
      "bx": 6277,
      "iy": 6278,
      "हैं": 6279,
      "tok": 6280,
      "cat": 6281,
      "dd": 6282,
      "ures": 6283,
      "langu": 6284,
      "deep": 6285,
      "udy": 6286,
      "much": 6287,
      "scholarship": 6288,
      "mitt": 6289,
      "88": 6290,
      "stor": 6291,
      "behind": 6292,
      "ale": 6293,
      "2ziq": 6294,
      "edical": 6295,
      "manag": 6296,
      "brain": 6297,
      "plw2ziq": 6298,
      "plw2ziq6ow": 6299,
      "fx": 6300,
      "ples": 6301,
      "omen": 6302,
      "season": 6303,
      "theory": 6304,
      "ider": 6305,
      "green": 6306,
      "edusmart": 6307,
      "cli": 6308,
      "bell": 6309,
      "hau": 6310,
      "doubtn": 6311,
      "vivek": 6312,
      "kin": 6313,
      "wy": 6314,
      "order": 6315,
      "electron": 6316,
      "speed": 6317,
      "oper": 6318,
      "vidy": 6319,
      "limited": 6320,
      "ix": 6321,
      "ng": 6322,
      "enjoy": 6323,
      "including": 6324,
      "⇾⇾": 6325,
      "inal": 6326,
      "account": 6327,
      "civil": 6328,
      "studies": 6329,
      "qv": 6330,
      "html": 6331,
      "प्रश्न": 6332,
      "kj": 6333,
      "zl": 6334,
      "pos": 6335,
      "company": 6336,
      "ted": 6337,
      "ال": 6338,
      "spot": 6339,
      "favor": 6340,
      "nav": 6341,
      "uv": 6342,
      "ही": 6343,
      "~~~~": 6344,
      "ever": 6345,
      "ली": 6346,
      "pl0": 6347,
      "refer": 6348,
      "ties": 6349,
      "param": 6350,
      "imag": 6351,
      "road": 6352,
      "ey": 6353,
      "जा": 6354,
      "doubtnut": 6355,
      "sem": 6356,
      "bile": 6357,
      "exhibit": 6358,
      "lines": 6359,
      "্যা": 6360,
      "kumar": 6361,
      "mh": 6362,
      "shi": 6363,
      "commerce": 6364,
      "try": 6365,
      "works": 6366,
      "tware": 6367,
      "pp": 6368,
      "acid": 6369,
      "mkm": 6370,
      "sheet": 6371,
      "जी": 6372,
      "zuxq": 6373,
      "kaise": 6374,
      "ax": 6375,
      "mq": 6376,
      "plyzuxq": 6377,
      "kntt": 6378,
      "plyzuxqkntt": 6379,
      "𝐞𝐫": 6380,
      "chapters": 6381,
      "apple": 6382,
      "subscriber": 6383,
      "profession": 6384,
      "assist": 6385,
      "madhy": 6386,
      "க்க": 6387,
      "jh": 6388,
      "ᴏʀ": 6389,
      "might": 6390,
      "numerical": 6391,
      "79": 6392,
      "_as": 6393,
      "oth": 6394,
      "big": 6395,
      "lli": 6396,
      "52": 6397,
      "ile": 6398,
      "ili": 6399,
      "ose": 6400,
      "્ર": 6401,
      "example": 6402,
      "cuet": 6403,
      "bb": 6404,
      "ক্": 6405,
      "marath": 6406,
      "singh": 6407,
      "annada": 6408,
      "ven": 6409,
      "zw": 6410,
      "wif": 6411,
      "roid": 6412,
      "dee": 6413,
      "ister": 6414,
      "ारी": 6415,
      "2y": 6416,
      "problems": 6417,
      "pay": 6418,
      "हो": 6419,
      "report": 6420,
      "puzz": 6421,
      "********************************": 6422,
      "software": 6423,
      "n69": 6424,
      "sin": 6425,
      "za": 6426,
      "molecules": 6427,
      "vacancy": 6428,
      "things": 6429,
      "stream": 6430,
      "plpum": 6431,
      "bqm5": 6432,
      "n69bqm5": 6433,
      "plpumn69bqm5": 6434,
      "প্র": 6435,
      "sto": 6436,
      "59": 6437,
      "sciences": 6438,
      "31": 6439,
      "story": 6440,
      "meas": 6441,
      "camp": 6442,
      "kg": 6443,
      "wri": 6444,
      "score": 6445,
      "ota": 6446,
      "would": 6447,
      "d7": 6448,
      "df": 6449,
      "benef": 6450,
      "suggestion": 6451,
      "lv": 6452,
      "even": 6453,
      "px": 6454,
      "ten": 6455,
      "कि": 6456,
      "===": 6457,
      "verse": 6458,
      "plgmkm": 6459,
      "hauzh": 6460,
      "plgmkmhauzh": 6461,
      "aka": 6462,
      "balance": 6463,
      "oh": 6464,
      "pub": 6465,
      "bengali": 6466,
      "_sir": 6467,
      "fq": 6468,
      "cel": 6469,
      "view_as": 6470,
      "gon": 6471,
      "oj": 6472,
      "rd": 6473,
      "র্": 6474,
      "innov": 6475,
      "keep": 6476,
      "ᴛʜ": 6477,
      "anti": 6478,
      "42": 6479,
      "cse": 6480,
      "ियो": 6481,
      "ount": 6482,
      "magic": 6483,
      "prom": 6484,
      "gir": 6485,
      "ᴛɪ": 6486,
      "gw": 6487,
      "think": 6488,
      "thon": 6489,
      "mechanical": 6490,
      "ological": 6491,
      "profit": 6492,
      "quality": 6493,
      "bw": 6494,
      "nu": 6495,
      "impro": 6496,
      "istudy": 6497,
      "helps": 6498,
      "amik": 6499,
      "playlists": 6500,
      "control": 6501,
      "resources": 6502,
      "icse": 6503,
      "wifistudy": 6504,
      "happ": 6505,
      "without": 6506,
      "fc": 6507,
      "zv": 6508,
      "3e": 6509,
      "ross": 6510,
      "gree": 6511,
      "তি": 6512,
      "vices": 6513,
      "move": 6514,
      "▀▀▀▀▀▀▀▀▀▀▀▀▀▀▀▀": 6515,
      "moder": 6516,
      "prepare": 6517,
      "reproduction": 6518,
      "various": 6519,
      "dur": 6520,
      "3o": 6521,
      "ris": 6522,
      "ouse": 6523,
      "better": 6524,
      "madhyamik": 6525,
      "spec": 6526,
      "beli": 6527,
      "9e": 6528,
      "pq": 6529,
      "far": 6530,
      "7y": 6531,
      "ester": 6532,
      "tool": 6533,
      "user": 6534,
      "written": 6535,
      "mx": 6536,
      "forms": 6537,
      "bla": 6538,
      "clear": 6539,
      "atory": 6540,
      "episode": 6541,
      "नल": 6542,
      "gujarati": 6543,
      "language": 6544,
      "sclass": 6545,
      "nutrition": 6546,
      "hal": 6547,
      "cho": 6548,
      "update": 6549,
      "aj": 6550,
      "lg": 6551,
      "𝐚𝐧": 6552,
      "ள்": 6553,
      "crack": 6554,
      "➖➖": 6555,
      "artic": 6556,
      "87": 6557,
      "aiims": 6558,
      "sat": 6559,
      "expert": 6560,
      "ave": 6561,
      "men": 6562,
      "grav": 6563,
      "direct": 6564,
      "emer": 6565,
      "jt": 6566,
      "tin": 6567,
      "सम": 6568,
      "produce": 6569,
      "indust": 6570,
      "clo": 6571,
      "coming": 6572,
      "gov": 6573,
      "processes": 6574,
      "cpo": 6575,
      "scienceand": 6576,
      "tutorials": 6577,
      "queries": 6578,
      "alp": 6579,
      "jk": 6580,
      "ttle": 6581,
      "member": 6582,
      "physi": 6583,
      "type": 6584,
      "exhibition": 6585,
      "han": 6586,
      "eric": 6587,
      "static": 6588,
      "flow": 6589,
      "xam": 6590,
      "movi": 6591,
      "mg": 6592,
      "mw": 6593,
      "dep": 6594,
      "skills": 6595,
      "robot": 6596,
      "focus": 6597,
      "bn": 6598,
      "rah": 6599,
      "room": 6600,
      "insp": 6601,
      "mobile": 6602,
      "hello": 6603,
      "utm_medium": 6604,
      "95": 6605,
      "𝐚𝐥": 6606,
      "bed": 6607,
      "point": 6608,
      "land": 6609,
      "nal": 6610,
      "advanced": 6611,
      "8f": 6612,
      "card": 6613,
      "web": 6614,
      "chand": 6615,
      "covered": 6616,
      "incre": 6617,
      "agan": 6618,
      "kq": 6619,
      "𝐮𝐫": 6620,
      "gover": 6621,
      "engineer": 6622,
      "cou": 6623,
      "lar": 6624,
      "rankers": 6625,
      "description": 6626,
      "pet": 6627,
      "73": 6628,
      "zt": 6629,
      "हि": 6630,
      "because": 6631,
      "tik": 6632,
      "plant": 6633,
      "53": 6634,
      "यो": 6635,
      "👉🏻": 6636,
      "boo": 6637,
      "কর": 6638,
      "utes": 6639,
      "partic": 6640,
      "create": 6641,
      "doubts": 6642,
      "ners": 6643,
      "appro": 6644,
      "function": 6645,
      "month": 6646,
      "talk": 6647,
      "modern": 6648,
      "aren": 6649,
      "cx": 6650,
      "jn": 6651,
      "chall": 6652,
      "recor": 6653,
      "poss": 6654,
      "nor": 6655,
      "raction": 6656,
      "්‍": 6657,
      "orig": 6658,
      "कक्षा": 6659,
      "potential": 6660,
      "================================================": 6661,
      "degree": 6662,
      "squ": 6663,
      "examपुर": 6664,
      "solve": 6665,
      "break": 6666,
      "_science": 6667,
      "fit": 6668,
      "ages": 6669,
      "organis": 6670,
      "creative": 6671,
      "j6": 6672,
      "aran": 6673,
      "------------------------": 6674,
      "python": 6675,
      "sst": 6676,
      "final": 6677,
      "guruk": 6678,
      "2q": 6679,
      "gcse": 6680,
      "result": 6681,
      "दि": 6682,
      "mock": 6683,
      "oy": 6684,
      "elements": 6685,
      "numbers": 6686,
      "city": 6687,
      "ती": 6688,
      "stra": 6689,
      "iction": 6690,
      "jc": 6691,
      "kid": 6692,
      "ust": 6693,
      "itch": 6694,
      "fact": 6695,
      "prin": 6696,
      "ukwv": 6697,
      "mam": 6698,
      "rap": 6699,
      "itation": 6700,
      "charge": 6701,
      "kfid": 6702,
      "ukwvkfid": 6703,
      "zk": 6704,
      "ifas": 6705,
      "pack": 6706,
      "orts": 6707,
      "audio": 6708,
      "index": 6709,
      "agr": 6710,
      "called": 6711,
      "won": 6712,
      "products": 6713,
      "mir": 6714,
      "simpli": 6715,
      "75": 6716,
      "spr": 6717,
      "thes": 6718,
      "xs": 6719,
      "youtub": 6720,
      "ready": 6721,
      "treat": 6722,
      "dise": 6723,
      "hard": 6724,
      "defence": 6725,
      "thi": 6726,
      "area": 6727,
      "diagram": 6728,
      "ric": 6729,
      "android": 6730,
      "करने": 6731,
      "ended": 6732,
      "ᴇʟ": 6733,
      "डियो": 6734,
      "living": 6735,
      "enter": 6736,
      "active": 6737,
      "craft": 6738,
      "fla": 6739,
      "roll": 6740,
      "दी": 6741,
      "ക്": 6742,
      "tests": 6743,
      "1h": 6744,
      "arts": 6745,
      "note": 6746,
      "jx": 6747,
      "ɴᴇʟ": 6748,
      "ʜᴀɴ": 6749,
      "ᴇs": 6750,
      "kerala": 6751,
      "ʜᴀɴɴᴇʟ": 6752,
      "ᴘʀᴏ": 6753,
      "heat": 6754,
      "track": 6755,
      "ii_k": 6756,
      "yjii_k": 6757,
      "pl0yjii_k": 6758,
      "govern": 6759,
      "gurukul": 6760,
      "pl0yjii_kls": 6761,
      "ters": 6762,
      "abad": 6763,
      "றி": 6764,
      "ional": 6765,
      "utm_source": 6766,
      "childr": 6767,
      "78": 6768,
      "qx": 6769,
      "ன்": 6770,
      "must": 6771,
      "periodic": 6772,
      "न्": 6773,
      "while": 6774,
      "⟿⟿": 6775,
      "examination": 6776,
      "graph": 6777,
      "lessons": 6778,
      "given": 6779,
      "youtubesh": 6780,
      "ired": 6781,
      "pop": 6782,
      "ql": 6783,
      "sr": 6784,
      "groups": 6785,
      "rele": 6786,
      "gb": 6787,
      "round": 6788,
      "𝐢𝐜": 6789,
      "usp": 6790,
      "ral": 6791,
      "ும்": 6792,
      "quick": 6793,
      "3w": 6794,
      "e1": 6795,
      "gency": 6796,
      "ifi": 6797,
      "i_": 6798,
      "children": 6799,
      "cons": 6800,
      "glo": 6801,
      "​​": 6802,
      "prat": 6803,
      "aspir": 6804,
      "ify": 6805,
      "feed": 6806,
      "bv": 6807,
      "defin": 6808,
      "ham": 6809,
      "kind": 6810,
      "ases": 6811,
      "fac": 6812,
      "gagan": 6813,
      "ushan": 6814,
      "properties": 6815,
      "odia": 6816,
      "pressure": 6817,
      "istan": 6818,
      "flu": 6819,
      "gin": 6820,
      "mean": 6821,
      "oe": 6822,
      "सक": 6823,
      "த்த": 6824,
      "uses": 6825,
      "3_": 6826,
      "80": 6827,
      "discord": 6828,
      "ordin": 6829,
      "colleges": 6830,
      "programming": 6831,
      "gal": 6832,
      "electrical": 6833,
      "icon": 6834,
      "ribut": 6835,
      "fects": 6836,
      "bhushan": 6837,
      "ground": 6838,
      "dynam": 6839,
      "••••••••": 6840,
      "jay": 6841,
      "vk": 6842,
      "pri": 6843,
      "small": 6844,
      "ron": 6845,
      "going": 6846,
      "anc": 6847,
      "lling": 6848,
      "provided": 6849,
      "f4": 6850,
      "basics": 6851,
      "ument": 6852,
      "center": 6853,
      "bly": 6854,
      "cks": 6855,
      "pz": 6856,
      "oly": 6857,
      "june": 6858,
      "oud": 6859,
      "paign": 6860,
      "lid": 6861,
      "cool": 6862,
      "सभी": 6863,
      "ength": 6864,
      "_m": 6865,
      "physic": 6866,
      "addition": 6867,
      "90": 6868,
      "compounds": 6869,
      "fd": 6870,
      "tiktok": 6871,
      "/-": 6872,
      "search": 6873,
      "labor": 6874,
      "ized": 6875,
      "nx": 6876,
      "become": 6877,
      "vq": 6878,
      "!!!": 6879,
      "rnc": 6880,
      "cp": 6881,
      "jv": 6882,
      "wl": 6883,
      "scope": 6884,
      "interesting": 6885,
      "zr": 6886,
      "ंक": 6887,
      "forens": 6888,
      "ape": 6889,
      "graduate": 6890,
      "management": 6891,
      "2d": 6892,
      "ডি": 6893,
      "max": 6894,
      "ators": 6895,
      "_in": 6896,
      "नि": 6897,
      "সা": 6898,
      "campaign": 6899,
      "𝐨𝐫": 6900,
      "measure": 6901,
      "sen": 6902,
      "podcast": 6903,
      "libr": 6904,
      "government": 6905,
      "ina": 6906,
      "guid": 6907,
      "————": 6908,
      "vr": 6909,
      "गा": 6910,
      "नी": 6911,
      "classification": 6912,
      "hor": 6913,
      "pen": 6914,
      "uplo": 6915,
      "-----": 6916,
      "pl86": 6917,
      "x0rnc": 6918,
      "pl86x0rnc": 6919,
      "pl86x0rncqn": 6920,
      "43": 6921,
      "___": 6922,
      "topper": 6923,
      "animal": 6924,
      "youtubeshorts": 6925,
      "ken": 6926,
      "atic": 6927,
      "2025": 6928,
      "sample": 6929,
      "mitted": 6930,
      "db": 6931,
      "ites": 6932,
      "howto": 6933,
      "stru": 6934,
      "explore": 6935,
      "41": 6936,
      "cg": 6937,
      "combin": 6938,
      "brid": 6939,
      "emergency": 6940,
      "physiology": 6941,
      "য়": 6942,
      "understanding": 6943,
      "aur": 6944,
      "वर्": 6945,
      "technic": 6946,
      "57": 6947,
      "dss": 6948,
      "build": 6949,
      "jf": 6950,
      "107": 6951,
      "inject": 6952,
      "being": 6953,
      "percent": 6954,
      "kp": 6955,
      "kz": 6956,
      "vin": 6957,
      "মা": 6958,
      "2017": 6959,
      "intelli": 6960,
      "jl": 6961,
      "sty": 6962,
      "patter": 6963,
      "improve": 6964,
      "বে": 6965,
      "prash": 6966,
      "journey": 6967,
      "unch": 6968,
      "fire": 6969,
      "ras": 6970,
      "↬↬": 6971,
      "agar": 6972,
      "activities": 6973,
      "comed": 6974,
      "र्ण": 6975,
      "pcs": 6976,
      "motivational": 6977,
      "cells": 6978,
      "dipl": 6979,
      "…………": 6980,
      "cm": 6981,
      "both": 6982,
      "technical": 6983,
      "possible": 6984,
      "forensic": 6985,
      "eve": 6986,
      "feel": 6987,
      "j5": 6988,
      "::::::::": 6989,
      "dn": 6990,
      "discover": 6991,
      "yy": 6992,
      "lay": 6993,
      "images": 6994,
      "before": 6995,
      "lied": 6996,
      "gets": 6997,
      "ार्": 6998,
      "doubt": 6999,
      "acter": 7000,
      "nature": 7001,
      "ization": 7002,
      "++++": 7003,
      "3n": 7004,
      "assistant": 7005,
      "fat": 7006,
      "gan": 7007,
      "ogen": 7008,
      "gether": 7009,
      "sharing": 7010,
      "clin": 7011,
      "quantu": 7012,
      "prote": 7013,
      "ban": 7014,
      "kx": 7015,
      "ʀɪ": 7016,
      "together": 7017,
      "acids": 7018,
      "aya": 7019,
      "dq": 7020,
      "eu": 7021,
      "मान": 7022,
      "facul": 7023,
      "ssc_": 7024,
      "54": 7025,
      "wn": 7026,
      "jz": 7027,
      "2x": 7028,
      "hol": 7029,
      "kv": 7030,
      "doc": 7031,
      "musc": 7032,
      "otherwise": 7033,
      "utm_campaign": 7034,
      "iti": 7035,
      "oci": 7036,
      "নি": 7037,
      "known": 7038,
      "house": 7039,
      "feat": 7040,
      "mini": 7041,
      "3q": 7042,
      "ones": 7043,
      "ability": 7044,
      "------": 7045,
      "quantum": 7046,
      "js": 7047,
      "put": 7048,
      "⇢⇢": 7049,
      "dsssb": 7050,
      "maj": 7051,
      "loss": 7052,
      "66": 7053,
      "ora": 7054,
      "whe": 7055,
      "essions": 7056,
      "animals": 7057,
      "benefits": 7058,
      "days": 7059,
      "international": 7060,
      "jun": 7061,
      "𝐞𝐥": 7062,
      "𝐥𝐚": 7063,
      "ப்ப": 7064,
      "via": 7065,
      "ভি": 7066,
      "academic": 7067,
      "पूर्ण": 7068,
      "ging": 7069,
      "sar": 7070,
      "class12": 7071,
      "2t": 7072,
      "गण": 7073,
      "everyone": 7074,
      "base": 7075,
      "cert": 7076,
      "शि": 7077,
      "ration": 7078,
      "அறி": 7079,
      "apply": 7080,
      "opath": 7081,
      "winner": 7082,
      "पाठ": 7083,
      "f8": 7084,
      "bse": 7085,
      "jw": 7086,
      "mts": 7087,
      "වි": 7088,
      "soci": 7089,
      "atomic": 7090,
      "injection": 7091,
      "ensive": 7092,
      "scientists": 7093,
      "जीव": 7094,
      "organisms": 7095,
      "चै": 7096,
      "ume": 7097,
      "diploma": 7098,
      "ios": 7099,
      "olution": 7100,
      "hosp": 7101,
      "building": 7102,
      "वीडियो": 7103,
      "tissu": 7104,
      "cbt": 7105,
      "associ": 7106,
      "ᴛɪᴏɴ": 7107,
      "scienceandfun": 7108,
      "bpsc": 7109,
      "ified": 7110,
      "dl": 7111,
      "gor": 7112,
      "ird": 7113,
      "2c": 7114,
      "dar": 7115,
      "2n": 7116,
      "ग्र": 7117,
      "tractor": 7118,
      "nice": 7119,
      "tm": 7120,
      "zg": 7121,
      "angle": 7122,
      "મા": 7123,
      "pab": 7124,
      "geni": 7125,
      "hydr": 7126,
      "गणित": 7127,
      "_r": 7128,
      "hq": 7129,
      "ques": 7130,
      "करे": 7131,
      "________________________________________": 7132,
      "familyguy": 7133,
      "ima": 7134,
      "mor": 7135,
      "𝐞𝐧": 7136,
      "cv": 7137,
      "lot": 7138,
      "library": 7139,
      "duc": 7140,
      "્ય": 7141,
      "equation": 7142,
      "िया": 7143,
      "same": 7144,
      "icism": 7145,
      "neera": 7146,
      "bases": 7147,
      "pratap": 7148,
      "a_": 7149,
      "shid": 7150,
      "pv": 7151,
      "यन": 7152,
      "ley": 7153,
      "tran": 7154,
      "ident": 7155,
      "b7": 7156,
      "kannada": 7157,
      "performance": 7158,
      "5q": 7159,
      "ious": 7160,
      "xh": 7161,
      "services": 7162,
      "azb": 7163,
      "thesis": 7164,
      "அறிவ": 7165,
      "side": 7166,
      "वं": 7167,
      "ero": 7168,
      "cha": 7169,
      "explains": 7170,
      "purpose": 7171,
      "credit": 7172,
      "dream": 7173,
      "এর": 7174,
      "color": 7175,
      "placement": 7176,
      "semester": 7177,
      "9r": 7178,
      "url": 7179,
      "professional": 7180,
      "reporting": 7181,
      "3v": 7182,
      "electro": 7183,
      "effects": 7184,
      "tiny": 7185,
      "run": 7186,
      "तर": 7187,
      "cad": 7188,
      "gm": 7189,
      "regard": 7190,
      "iled": 7191,
      "j4": 7192,
      "withankit": 7193,
      "useful": 7194,
      "fv": 7195,
      "ट्र": 7196,
      "fili": 7197,
      "qnv": 7198,
      "alge": 7199,
      "स्थ": 7200,
      "quir": 7201,
      "biom": 7202,
      "33r": 7203,
      "believe": 7204,
      "kb": 7205,
      "probab": 7206,
      "princi": 7207,
      "ये": 7208,
      "centre": 7209,
      "portun": 7210,
      "algebra": 7211,
      "gle": 7212,
      "વિ": 7213,
      "tum": 7214,
      "magnetic": 7215,
      "awaren": 7216,
      "gaming": 7217,
      "others": 7218,
      "awareness": 7219,
      "q1": 7220,
      "zazb": 7221,
      "1976": 7222,
      "z8": 7223,
      "পর": 7224,
      "––––": 7225,
      "during": 7226,
      "sessions": 7227,
      "opportun": 7228,
      "96": 7229,
      "dinesh": 7230,
      "dm": 7231,
      "weight": 7232,
      "pw_": 7233,
      "reflection": 7234,
      "paramedical": 7235,
      "2e": 7236,
      "मे": 7237,
      "igshid": 7238,
      "puzzle": 7239,
      "2r": 7240,
      "fur": 7241,
      "gp": 7242,
      "ojo": 7243,
      "zm": 7244,
      "tual": 7245,
      "preli": 7246,
      "offer": 7247,
      "ரு": 7248,
      "ints": 7249,
      "common": 7250,
      "counse": 7251,
      "=-": 7252,
      "ically": 7253,
      "bul": 7254,
      "লো": 7255,
      "three": 7256,
      "subst": 7257,
      "foot": 7258,
      "ारे": 7259,
      "competition": 7260,
      "````": 7261,
      "campus": 7262,
      "मह": 7263,
      "84": 7264,
      "yal": 7265,
      "myster": 7266,
      "ctors": 7267,
      "dexam": 7268,
      "criticism": 7269,
      "चैनल": 7270,
      "q4": 7271,
      "না": 7272,
      "newton": 7273,
      "agnet": 7274,
      "created": 7275,
      "a4": 7276,
      "fm": 7277,
      "লি": 7278,
      "itions": 7279,
      "word": 7280,
      "marathon": 7281,
      "mast": 7282,
      "ec": 7283,
      "x7": 7284,
      "cham": 7285,
      "त्व": 7286,
      "allowance": 7287,
      ",#": 7288,
      "hw": 7289,
      "kan": 7290,
      "xi": 7291,
      "lap": 7292,
      "pande": 7293,
      "global": 7294,
      "bach": 7295,
      "nuc": 7296,
      "plqnv": 7297,
      "etic": 7298,
      "respon": 7299,
      "register": 7300,
      "33rzx": 7301,
      "plqnv33rzx": 7302,
      "krit": 7303,
      "laws": 7304,
      "neeraj": 7305,
      "2m": 7306,
      "2o": 7307,
      ";;;;": 7308,
      "everything": 7309,
      "yw": 7310,
      "velo": 7311,
      "affili": 7312,
      "pump": 7313,
      "nda": 7314,
      "න්": 7315,
      "systems": 7316,
      "polit": 7317,
      "ैसे": 7318,
      "plc": 7319,
      "funda": 7320,
      "deepak": 7321,
      "always": 7322,
      "techni": 7323,
      "=======": 7324,
      "were": 7325,
      "stop": 7326,
      "reh": 7327,
      "maha": 7328,
      "1000": 7329,
      "commons": 7330,
      "***": 7331,
      "upsssc": 7332,
      "97": 7333,
      "vn": 7334,
      "gz": 7335,
      "tton": 7336,
      "----------------------------------------": 7337,
      "economics": 7338,
      "aspirants": 7339,
      "wil": 7340,
      "akh": 7341,
      "प्": 7342,
      "exc": 7343,
      "परी": 7344,
      "notifications": 7345,
      "mil": 7346,
      "electrom": 7347,
      "k0": 7348,
      "q8": 7349,
      "tex": 7350,
      "anskrit": 7351,
      "surround": 7352,
      "difference": 7353,
      "providing": 7354,
      "thor": 7355,
      "ford": 7356,
      "resist": 7357,
      "syn": 7358,
      "hospital": 7359,
      "_season": 7360,
      "bha": 7361,
      "those": 7362,
      "class11": 7363,
      "clus": 7364,
      "familyguy_season": 7365,
      "gad": 7366,
      "ren": 7367,
      "𝐞𝐝": 7368,
      "ency": 7369,
      "uptet": 7370,
      "nih": 7371,
      "functions": 7372,
      "ને": 7373,
      "onesh": 7374,
      "enroll": 7375,
      "constru": 7376,
      "strong": 7377,
      "environmental": 7378,
      "nucle": 7379,
      ".,": 7380,
      "jg": 7381,
      "p7": 7382,
      "discount": 7383,
      "vedic": 7384,
      "ˍˍˍˍ": 7385,
      "comedy": 7386,
      "mber": 7387,
      "coordin": 7388,
      "▬▬▬▬▬▬": 7389,
      "times": 7390,
      "trigon": 7391,
      "2f": 7392,
      "case": 7393,
      "gau": 7394,
      "enge": 7395,
      "ought": 7396,
      "meet": 7397,
      "fundam": 7398,
      "ffic": 7399,
      "howtofunda": 7400,
      "👉👉": 7401,
      "viveksir": 7402,
      "square": 7403,
      "pabbly": 7404,
      "9y": 7405,
      "could": 7406,
      "icated": 7407,
      "reading": 7408,
      "bur": 7409,
      "xu": 7410,
      "एवं": 7411,
      "editor": 7412,
      "bud": 7413,
      "permitted": 7414,
      "camera": 7415,
      "entertain": 7416,
      "9n": 7417,
      "bm": 7418,
      "youth": 7419,
      "बा": 7420,
      "🔥🔥": 7421,
      "recomm": 7422,
      "amcet": 7423,
      "infringing": 7424,
      "ivity": 7425,
      "applied": 7426,
      "programs": 7427,
      "provides": 7428,
      "देख": 7429,
      "2k": 7430,
      "hom": 7431,
      "rrc": 7432,
      "depart": 7433,
      "परीक्षा": 7434,
      "oneshot": 7435,
      "fli": 7436,
      "स्ट": 7437,
      "agricul": 7438,
      "ডিও": 7439,
      "condu": 7440,
      "begin": 7441,
      "pltv": 7442,
      "bro": 7443,
      "hsc": 7444,
      "wu": 7445,
      "iter": 7446,
      "1y": 7447,
      "bhar": 7448,
      "mill": 7449,
      "past": 7450,
      "polity": 7451,
      "relation": 7452,
      "-------------------------------------------------------": 7453,
      "योज": 7454,
      "electromagnet": 7455,
      "1l": 7456,
      "jd": 7457,
      "fundament": 7458,
      "मि": 7459,
      "chi": 7460,
      "examples": 7461,
      "boxing": 7462,
      "favorite": 7463,
      "𝐌𝐀": 7464,
      "little": 7465,
      "cted": 7466,
      "cret": 7467,
      "integr": 7468,
      "rahul": 7469,
      "pgt": 7470,
      "ws": 7471,
      "xv": 7472,
      "feature": 7473,
      "n4": 7474,
      "saf": 7475,
      "lak4": 7476,
      "lez7": 7477,
      "pltvlak4": 7478,
      "pltvlak4lez7": 7479,
      "ɴᴛ": 7480,
      "info": 7481,
      "batter": 7482,
      "fest": 7483,
      "xn": 7484,
      "ises": 7485,
      "biological": 7486,
      "mod": 7487,
      "anatom": 7488,
      "solid": 7489,
      "helpful": 7490,
      "pyq": 7491,
      "6l": 7492,
      "d4": 7493,
      "mom": 7494,
      "ந்த": 7495,
      "contin": 7496,
      "easily": 7497,
      "animation": 7498,
      "அறிவியல்": 7499,
      "xr": 7500,
      "psy": 7501,
      "theor": 7502,
      "drawing": 7503,
      "image": 7504,
      "kt": 7505,
      "allah": 7506,
      "rajas": 7507,
      "सकते": 7508,
      "guidance": 7509,
      "2s": 7510,
      "70": 7511,
      "van": 7512,
      "erk": 7513,
      "stom": 7514,
      "respir": 7515,
      "tier": 7516,
      "g8": 7517,
      "juni": 7518,
      "original": 7519,
      "cand": 7520,
      "prelims": 7521,
      "eamcet": 7522,
      "ium": 7523,
      "host": 7524,
      "sources": 7525,
      "tools": 7526,
      "zs": 7527,
      "்ட": 7528,
      "express": 7529,
      "refraction": 7530,
      "movie": 7531,
      "americ": 7532,
      "lock": 7533,
      "respect": 7534,
      "yq": 7535,
      "rrbje": 7536,
      "sou": 7537,
      "ogy": 7538,
      "ravi": 7539,
      "rrbntpc": 7540,
      "surface": 7541,
      "parts": 7542,
      "cycle": 7543,
      "homeopath": 7544,
      "स्त": 7545,
      "distance": 7546,
      "akash": 7547,
      "rajasthan": 7548,
      "hc": 7549,
      "ंग": 7550,
      "ভিডিও": 7551,
      "3s": 7552,
      "rpf": 7553,
      "consu": 7554,
      "लिंक": 7555,
      "writing": 7556,
      "updated": 7557,
      "market": 7558,
      "sanskrit": 7559,
      "𝐂𝐇": 7560,
      "pakistan": 7561,
      "anatomy": 7562,
      "rav": 7563,
      "iculum": 7564,
      "ences": 7565,
      "sele": 7566,
      "sho": 7567,
      "oney": 7568,
      "offline": 7569,
      "treatment": 7570,
      "faculty": 7571,
      "मै": 7572,
      "aves": 7573,
      "required": 7574,
      "ling": 7575,
      "produc": 7576,
      "sscgd": 7577,
      "circu": 7578,
      "statute": 7579,
      "multiplication": 7580,
      "kya": 7581,
      "ln": 7582,
      "vic": 7583,
      "boar": 7584,
      "opal": 7585,
      "cost": 7586,
      "designed": 7587,
      "3g": 7588,
      "purch": 7589,
      "friend": 7590,
      "results": 7591,
      "pattern": 7592,
      "pad": 7593,
      "along": 7594,
      "3c": 7595,
      "_t": 7596,
      "discussed": 7597,
      "pb": 7598,
      "ᴄᴏɴ": 7599,
      "ᴄʜᴀɴɴᴇʟ": 7600,
      "major": 7601,
      "vx": 7602,
      "ᴀɢ": 7603,
      "ᴀᴄ": 7604,
      "ives": 7605,
      "turn": 7606,
      "black": 7607,
      "3u": 7608,
      "gence": 7609,
      "कार": 7610,
      "pls": 7611,
      "plw2ziq6owlo": 7612,
      "junior": 7613,
      "yn": 7614,
      "सब": 7615,
      "👇👇👇": 7616,
      "ith": 7617,
      "𝐋𝐈": 7618,
      "anch": 7619,
      "phy": 7620,
      "regular": 7621,
      "explor": 7622,
      "योजना": 7623,
      "ন্": 7624,
      "भा": 7625,
      "curriculum": 7626,
      "target": 7627,
      "nlm": 7628,
      "leep": 7629,
      "conf": 7630,
      "percentage": 7631,
      "j7": 7632,
      "𝐢𝐬": 7633,
      "fitness": 7634,
      "fra": 7635,
      "qt": 7636,
      "plnq": 7637,
      "complex": 7638,
      "------------------------------------------------------------------------": 7639,
      "xxz9": 7640,
      "games": 7641,
      "plnqxxz9": 7642,
      "plnqxxz9to": 7643,
      "uit": 7644,
      "schedu": 7645,
      "profess": 7646,
      "j_": 7647,
      "pic": 7648,
      "द्": 7649,
      "ont": 7650,
      "ncbi": 7651,
      "had": 7652,
      "ror": 7653,
      "fill": 7654,
      "ours": 7655,
      "shortcut": 7656,
      "3f": 7657,
      "3r": 7658,
      "স্": 7659,
      "vest": 7660,
      "insider": 7661,
      "pul": 7662,
      "var": 7663,
      "ense": 7664,
      "lim": 7665,
      "solar": 7666,
      "write": 7667,
      "dk": 7668,
      "lw": 7669,
      "हु": 7670,
      "studying": 7671,
      "rojgarwithankit": 7672,
      "bridge": 7673,
      "3h": 7674,
      "89": 7675,
      "jb": 7676,
      "affiliate": 7677,
      "department": 7678,
      "kir": 7679,
      "launch": 7680,
      "achie": 7681,
      "pure": 7682,
      "uh": 7683,
      "uz": 7684,
      "generator": 7685,
      "banking": 7686,
      "pl9g_z7fhmos": 7687,
      "boardexam": 7688,
      "2v": 7689,
      "kim": 7690,
      "still": 7691,
      "discussion": 7692,
      "universe": 7693,
      "°°°°°°°°°°°°°°°°": 7694,
      "igh": 7695,
      "8x": 7696,
      "button": 7697,
      "detailed": 7698,
      "really": 7699,
      "hub": 7700,
      "𝐢𝐨𝐧": 7701,
      "cloud": 7702,
      "disease": 7703,
      "upload": 7704,
      "3k": 7705,
      "3t": 7706,
      "য়ে": 7707,
      "lig": 7708,
      "deli": 7709,
      "ables": 7710,
      "guys": 7711,
      "nitin": 7712,
      "extra": 7713,
      "pharmacy": 7714,
      "dynamics": 7715,
      "pandey": 7716,
      "fk": 7717,
      "𝐂𝐨": 7718,
      "network": 7719,
      "speak": 7720,
      "industry": 7721,
      "_ankit": 7722,
      "dsc": 7723,
      "done": 7724,
      "तो": 7725,
      "oke": 7726,
      "engineers": 7727,
      "auto": 7728,
      "minutes": 7729,
      "shows": 7730,
      "2a": 7731,
      "8_": 7732,
      "wind": 7733,
      "अध": 7734,
      "revol": 7735,
      "nee": 7736,
      "abs": 7737,
      "probability": 7738,
      "battery": 7739,
      "अप": 7740,
      "লা": 7741,
      "award": 7742,
      "aap": 7743,
      "features": 7744,
      "army": 7745,
      "बै": 7746,
      "বা": 7747,
      "ama": 7748,
      "tage": 7749,
      "pair": 7750,
      "हिं": 7751,
      "dw": 7752,
      "rw": 7753,
      "ene": 7754,
      "bhu": 7755,
      "arith": 7756,
      "j1": 7757,
      "ray": 7758,
      "क्ला": 7759,
      "fication": 7760,
      "nh": 7761,
      "टे": 7762,
      "radi": 7763,
      "true": 7764,
      "cancer": 7765,
      "intended": 7766,
      "gnm": 7767,
      "74": 7768,
      "_x": 7769,
      "म्": 7770,
      "bel": 7771,
      "solving": 7772,
      "wood": 7773,
      "##": 7774,
      "5l": 7775,
      "chool": 7776,
      "too": 7777,
      "salts": 7778,
      "p8": 7779,
      "z4": 7780,
      "abo": 7781,
      "profile": 7782,
      "nan": 7783,
      "रे": 7784,
      "drop": 7785,
      "bad": 7786,
      "dg": 7787,
      "ov": 7788,
      "ced": 7789,
      "demo": 7790,
      "ulation": 7791,
      "trigonometry": 7792,
      "w0": 7793,
      "west": 7794,
      "byju": 7795,
      "ache": 7796,
      "talks": 7797,
      "yan": 7798,
      "कैसे": 7799,
      "rock": 7800,
      "got": 7801,
      "minute": 7802,
      "night": 7803,
      "effic": 7804,
      "vit": 7805,
      "third": 7806,
      "scre": 7807,
      "jeet": 7808,
      "ava": 7809,
      "equip": 7810,
      "innovation": 7811,
      "professor": 7812,
      "3y": 7813,
      "hot": 7814,
      "version": 7815,
      "electronics": 7816,
      "2b": 7817,
      "ats": 7818,
      "division": 7819,
      "unlimited": 7820,
      "iksha": 7821,
      "women": 7822,
      "shala": 7823,
      "+-": 7824,
      "dom": 7825,
      "सि": 7826,
      "service": 7827,
      "chandra": 7828,
      "fs": 7829,
      "qw": 7830,
      "rad": 7831,
      "xk": 7832,
      "scert": 7833,
      "applications": 7834,
      "stories": 7835,
      "चा": 7836,
      "चे": 7837,
      "effective": 7838,
      "mand": 7839,
      "ट्": 7840,
      "𝐀𝐋": 7841,
      "sex": 7842,
      "ime": 7843,
      "phen": 7844,
      "grammar": 7845,
      "polic": 7846,
      "fan": 7847,
      "zi": 7848,
      "তে": 7849,
      "ouch": 7850,
      "preparing": 7851,
      "ibps": 7852,
      "query": 7853,
      "𝐞𝐬𝐭": 7854,
      "त्वपूर्ण": 7855,
      "mes": 7856,
      "शा": 7857,
      "selection": 7858,
      "plqf": 7859,
      "vert": 7860,
      "fully": 7861,
      "________________________________________________": 7862,
      "आपको": 7863,
      "growth": 7864,
      "jp": 7865,
      "mt": 7866,
      "પ્ર": 7867,
      "neur": 7868,
      "role": 7869,
      "higher": 7870,
      "bachel": 7871,
      "8k": 7872,
      "cw": 7873,
      "eye": 7874,
      "hil": 7875,
      "kota": 7876,
      "qe": 7877,
      "blocks": 7878,
      "4u": 7879,
      "class_": 7880,
      "imojo": 7881,
      "starting": 7882,
      "shom": 7883,
      "oz": 7884,
      "yog": 7885,
      "️⃣": 7886,
      "𝐚𝐦": 7887,
      "words": 7888,
      "planet": 7889,
      "counselling": 7890,
      ",,": 7891,
      "handwritten": 7892,
      "intelligence": 7893,
      "5m": 7894,
      "_with": 7895,
      "fw": 7896,
      "ged": 7897,
      "kl": 7898,
      "p1": 7899,
      "ತ್": 7900,
      "never": 7901,
      "stic": 7902,
      "chen": 7903,
      "across": 7904,
      "▬▬▬▬▬▬▬": 7905,
      "_s": 7906,
      "f0": 7907,
      "g5": 7908,
      "exclus": 7909,
      "aye": 7910,
      "study91": 7911,
      "𝐀𝐓": 7912,
      "society": 7913,
      "हिंदी": 7914,
      ".\"": 7915,
      "rit": 7916,
      "biot": 7917,
      "crazy": 7918,
      "jq51": 7919,
      "n3": 7920,
      "xl": 7921,
      "asa": 7922,
      "quar": 7923,
      "jrf": 7924,
      "leading": 7925,
      "_maths": 7926,
      "गी": 7927,
      "liqu": 7928,
      "usion": 7929,
      "changes": 7930,
      "csirnet": 7931,
      "yezo": 7932,
      "महत्वपूर्ण": 7933,
      "plqfyezo": 7934,
      "plqfyezojq51": 7935,
      "fall": 7936,
      "पे": 7937,
      "edia": 7938,
      "oon": 7939,
      "rot": 7940,
      "did": 7941,
      "gear": 7942,
      "generation": 7943,
      "tinyurl": 7944,
      "2w": 7945,
      "94": 7946,
      "civ": 7947,
      "lip": 7948,
      "exp": 7949,
      "element": 7950,
      "strength": 7951,
      "interactive": 7952,
      "f7": 7953,
      "uy": 7954,
      "ड़": 7955,
      "salt": 7956,
      "2l": 7957,
      "3a": 7958,
      "iw": 7959,
      "z6": 7960,
      "acks": 7961,
      "compreh": 7962,
      "करण": 7963,
      "gadgets": 7964,
      "den": 7965,
      "fam": 7966,
      "hp": 7967,
      "ष्": 7968,
      "ছে": 7969,
      "plr": 7970,
      "dedicated": 7971,
      "laptop": 7972,
      "political": 7973,
      "revolution": 7974,
      "fn": 7975,
      "एक": 7976,
      "क्या": 7977,
      "અને": 7978,
      "స్": 7979,
      "ini": 7980,
      "upcoming": 7981,
      "class10science": 7982,
      "multiple": 7983,
      "ribution": 7984,
      "construction": 7985,
      "து": 7986,
      "tha": 7987,
      "dv": 7988,
      "root": 7989,
      "polytechnic": 7990,
      "ux": 7991,
      "comes": 7992,
      "rec": 7993,
      "jeff": 7994,
      "mode": 7995,
      "airforce": 7996,
      "salary": 7997,
      "started": 7998,
      "්‍ය": 7999,
      "surroundings": 8000,
      "j0": 8001,
      "rzy": 8002,
      "ന്": 8003,
      "shu": 8004,
      "urdu": 8005,
      "uck": 8006,
      "looking": 8007,
      "exclusive": 8008,
      "tne": 8009,
      "govt": 8010,
      "connected": 8011,
      "temper": 8012,
      "kare": 8013,
      "pinterest": 8014,
      "रू": 8015,
      "𝐚𝐝": 8016,
      "🔆🔆": 8017,
      "geometry": 8018,
      "skin": 8019,
      "background": 8020,
      "ibility": 8021,
      "bachelor": 8022,
      "cq": 8023,
      "fg": 8024,
      "हे": 8025,
      "rest": 8026,
      "und": 8027,
      "calculation": 8028,
      "articles": 8029,
      "agriculture": 8030,
      "m8": 8031,
      "্ব": 8032,
      "વા": 8033,
      "ங்க": 8034,
      "∼∻": 8035,
      "∼∼∻": 8036,
      "💠💠": 8037,
      "dual": 8038,
      "pedag": 8039,
      "64": 8040,
      "𝐏𝐫": 8041,
      "map": 8042,
      "dim": 8043,
      "pl4": 8044,
      "ogn": 8045,
      "𝐚𝐭𝐢𝐨𝐧": 8046,
      "numericals": 8047,
      "lex": 8048,
      "inside": 8049,
      "range": 8050,
      "3_b": 8051,
      "him": 8052,
      "kal": 8053,
      "10thclass": 8054,
      "assam": 8055,
      "classroom": 8056,
      "bits": 8057,
      "krish": 8058,
      "~~~~~~~~": 8059,
      "mid": 8060,
      "जि": 8061,
      "rev": 8062,
      "expect": 8063,
      "ificial": 8064,
      "ारा": 8065,
      "analyt": 8066,
      "fields": 8067,
      "''": 8068,
      "hic": 8069,
      "sleep": 8070,
      "shiv": 8071,
      "by_": 8072,
      "compos": 8073,
      "spir": 8074,
      "article": 8075,
      "document": 8076,
      "3l": 8077,
      "ebook": 8078,
      "g0": 8079,
      "ર્": 8080,
      "datascience": 8081,
      "character": 8082,
      "tel": 8083,
      "modu": 8084,
      "artificial": 8085,
      "1x": 8086,
      "dna": 8087,
      "alakh": 8088,
      "evolution": 8089,
      "परि": 8090,
      "clean": 8091,
      "accounting": 8092,
      "+-+-": 8093,
      "module": 8094,
      "rece": 8095,
      "march": 8096,
      "winners": 8097,
      "navy": 8098,
      "nir": 8099,
      "টি": 8100,
      "invent": 8101,
      "toys": 8102,
      "autom": 8103,
      "manish": 8104,
      "steps": 8105,
      "g_rzy": 8106,
      "plo3_b": 8107,
      "................................................................": 8108,
      "pedagogy": 8109,
      "plo3_bg_rzy": 8110,
      "lor": 8111,
      "uary": 8112,
      "इं": 8113,
      "byj": 8114,
      "wave": 8115,
      "memes": 8116,
      "▀▀▀▀▀▀▀▀▀▀▀▀▀▀▀▀▀▀▀▀▀▀▀▀": 8117,
      "𝐮𝐫𝐬": 8118,
      "🌟🌟": 8119,
      "200": 8120,
      "loc": 8121,
      "hair": 8122,
      "goal": 8123,
      "adeep": 8124,
      "gives": 8125,
      "capac": 8126,
      "pun": 8127,
      "player": 8128,
      "worksheet": 8129,
      "सायन": 8130,
      "unique": 8131,
      "_d": 8132,
      "invest": 8133,
      "shan": 8134,
      "metal": 8135,
      "inspir": 8136,
      "bom": 8137,
      "𝐢𝐭": 8138,
      "php": 8139,
      "core": 8140,
      "mn": 8141,
      "जान": 8142,
      "রা": 8143,
      "leave": 8144,
      "titude": 8145,
      "straight": 8146,
      "quant": 8147,
      "actu": 8148,
      "gles": 8149,
      "mary": 8150,
      "impact": 8151,
      "bharat": 8152,
      "comprehensive": 8153,
      "uq": 8154,
      "──": 8155,
      "schedule": 8156,
      "f6": 8157,
      "p_": 8158,
      "उत्": 8159,
      "কে": 8160,
      "wards": 8161,
      "3x": 8162,
      "??": 8163,
      "four": 8164,
      "vl": 8165,
      "दा": 8166,
      "pie": 8167,
      "𝐢𝐧𝐠": 8168,
      "licens": 8169,
      "ril": 8170,
      "another": 8171,
      "ising": 8172,
      "mathsby": 8173,
      "covers": 8174,
      "tains": 8175,
      "clerk": 8176,
      "methods": 8177,
      "wonder": 8178,
      "guess": 8179,
      "challenge": 8180,
      "tissue": 8181,
      "border": 8182,
      "blue": 8183,
      "film": 8184,
      "6y": 8185,
      "bay": 8186,
      "cry": 8187,
      "lax": 8188,
      "rect": 8189,
      "front": 8190,
      "states": 8191,
      "mbbs": 8192,
      "formulas": 8193,
      "achieve": 8194,
      "zb": 8195,
      "masters": 8196,
      "hon": 8197,
      "xii": 8198,
      "তা": 8199,
      "wbbse": 8200,
      "g6": 8201,
      "भार": 8202,
      "সম": 8203,
      "park": 8204,
      "coding": 8205,
      "interested": 8206,
      "challeng": 8207,
      "q0": 8208,
      "perfect": 8209,
      "gun": 8210,
      "𝐈𝐧": 8211,
      "essay": 8212,
      "लिक": 8213,
      "राज": 8214,
      "=-=-": 8215,
      "hab": 8216,
      "match": 8217,
      "tags": 8218,
      "doing": 8219,
      "advant": 8220,
      "molecular": 8221,
      "_2022": 8222,
      "bor": 8223,
      "rwa": 8224,
      "━━": 8225,
      "comments": 8226,
      "tell": 8227,
      "prakash": 8228,
      "ists": 8229,
      "child": 8230,
      "gaurav": 8231,
      "919": 8232,
      "a1": 8233,
      "dan": 8234,
      "obs": 8235,
      "𝐬𝐬": 8236,
      "ilities": 8237,
      "valu": 8238,
      "rojgar_with": 8239,
      "approach": 8240,
      "further": 8241,
      "bes": 8242,
      "cen": 8243,
      "gart": 8244,
      "j8": 8245,
      "msc": 8246,
      "money": 8247,
      "ைய": 8248,
      "𝐧𝐥": 8249,
      "ata": 8250,
      "dece": 8251,
      "hek": 8252,
      "gx": 8253,
      "ased": 8254,
      "pll": 8255,
      "bravo": 8256,
      "kinder": 8257,
      "muscle": 8258,
      "6h": 8259,
      "jab": 8260,
      "था": 8261,
      "।।": 8262,
      "arti": 8263,
      "bhati": 8264,
      ":)": 8265,
      "rol": 8266,
      "ɪɴ": 8267,
      "રણ": 8268,
      "𝐜𝐞": 8269,
      "unt": 8270,
      "ayan": 8271,
      "yourself": 8272,
      "block": 8273,
      "हमारे": 8274,
      "biomedical": 8275,
      "rojgar_with_ankit": 8276,
      "_y": 8277,
      "𝒆𝒓": 8278,
      "umb": 8279,
      ".....": 8280,
      "techniques": 8281,
      "500": 8282,
      "wan": 8283,
      "zd": 8284,
      "गे": 8285,
      "வர": 8286,
      "=======================================================": 8287,
      "cross": 8288,
      "इन": 8289,
      "print": 8290,
      "within": 8291,
      "indivi": 8292,
      "ift": 8293,
      "bring": 8294,
      "coordination": 8295,
      "4k": 8296,
      "bir": 8297,
      "waves": 8298,
      "ाम": 8299,
      "seem": 8300,
      "diet": 8301,
      "textbook": 8302,
      "8h": 8303,
      "eth": 8304,
      "lak": 8305,
      "ited": 8306,
      "sets": 8307,
      "digest": 8308,
      "blogspot": 8309,
      "▀▀▀▀▀▀▀▀▀▀▀▀▀▀▀▀▀▀▀▀▀▀▀▀▀▀": 8310,
      "3rd": 8311,
      "c7": 8312,
      "mkr": 8313,
      "sand": 8314,
      "wt": 8315,
      "𝟐𝟎": 8316,
      "istration": 8317,
      "insta": 8318,
      "prashant": 8319,
      "consult": 8320,
      "∼∼∻∼∼∻": 8321,
      "dro": 8322,
      "m4": 8323,
      "alex": 8324,
      "𝐞𝐥𝐥": 8325,
      "plnqxxz9tojm": 8326,
      "ᴅᴜ": 8327,
      "ᴜʀ": 8328,
      "ends": 8329,
      "ils": 8330,
      "etics": 8331,
      "ension": 8332,
      "र्स": 8333,
      "constit": 8334,
      "ᴛᴇᴅ": 8335,
      "gravitation": 8336,
      "rapid": 8337,
      "producer": 8338,
      "b0": 8339,
      "ʟʟ": 8340,
      "ᴀʟ": 8341,
      "ᴀᴜ": 8342,
      "ᴄᴀ": 8343,
      "ᴅᴇ": 8344,
      "ᴇʙ": 8345,
      "ᴏᴋ": 8346,
      "ᴠɪ": 8347,
      "termin": 8348,
      "due": 8349,
      "missions": 8350,
      "ᴛᴇɴᴛ": 8351,
      "ᴛʜɪs": 8352,
      "pl0yjii_klsgr": 8353,
      "ᴄᴏɴᴛᴇɴᴛ": 8354,
      "garten": 8355,
      "%%": 8356,
      "1j": 8357,
      "300": 8358,
      "compon": 8359,
      "contents": 8360,
      "pl9g_z7fhmo": 8361,
      "5x": 8362,
      "band": 8363,
      "ech": 8364,
      "frequ": 8365,
      "lens": 8366,
      "zero": 8367,
      "arr": 8368,
      "lis": 8369,
      "total": 8370,
      "makes": 8371,
      "owd7": 8372,
      "plxc": 8373,
      "zcowd7": 8374,
      "specific": 8375,
      "purchase": 8376,
      "plxczcowd7": 8377,
      "fri": 8378,
      "nl": 8379,
      "ंध": 8380,
      "bey": 8381,
      "isha": 8382,
      "bhopal": 8383,
      "साथ": 8384,
      "්‍ර": 8385,
      "laboratory": 8386,
      "december": 8387,
      "வி": 8388,
      "🙏🙏": 8389,
      "reach": 8390,
      "uppolice": 8391,
      "formation": 8392,
      "viralvideo": 8393,
      "kindergarten": 8394,
      "cd": 8395,
      "கு": 8396,
      "மு": 8397,
      "priv": 8398,
      "units": 8399,
      "cook": 8400,
      "🌹🌹": 8401,
      "combo": 8402,
      "iron": 8403,
      "communication": 8404,
      "publication": 8405,
      "circul": 8406,
      "1f": 8407,
      "rum": 8408,
      "////": 8409,
      "remember": 8410,
      "ients": 8411,
      "mechanics": 8412,
      "q5": 8413,
      "qh": 8414,
      "जन": 8415,
      "जु": 8416,
      "ange": 8417,
      "contain": 8418,
      "getting": 8419,
      "odes": 8420,
      "visual": 8421,
      "volume": 8422,
      "_science_": 8423,
      "entertainment": 8424,
      "psych": 8425,
      "km": 8426,
      "kalam": 8427,
      "ologies": 8428,
      "groupd": 8429,
      "internet": 8430,
      "branch": 8431,
      "gain": 8432,
      "favour": 8433,
      "➖➖➖➖": 8434,
      "recorded": 8435,
      "circuit": 8436,
      "0y": 8437,
      "f5": 8438,
      "rics": 8439,
      "importantquestions": 8440,
      "lights": 8441,
      "options": 8442,
      "85": 8443,
      "hack": 8444,
      "tlm": 8445,
      "anu": 8446,
      "formed": 8447,
      "near": 8448,
      "sel": 8449,
      "director": 8450,
      "advice": 8451,
      "fees": 8452,
      "========================================": 8453,
      "strateg": 8454,
      "mirror": 8455,
      "simplification": 8456,
      "feedback": 8457,
      "gold": 8458,
      "mht": 8459,
      "inary": 8460,
      "transport": 8461,
      "cds": 8462,
      "ത്": 8463,
      "onom": 8464,
      "lam": 8465,
      "few": 8466,
      "educators": 8467,
      "importance": 8468,
      "traction": 8469,
      "sharma": 8470,
      "▬▬▬▬▬▬▬▬▬▬▬▬▬▬▬▬▬▬▬▬▬▬▬": 8471,
      "plqnv33rzx1h": 8472,
      "screen": 8473,
      "6t": 8474,
      "bing": 8475,
      "say": 8476,
      "क्र": 8477,
      "লে": 8478,
      "ාව": 8479,
      "las": 8480,
      "seb": 8481,
      "pradeep": 8482,
      "grad": 8483,
      "ultim": 8484,
      "testing": 8485,
      "tuned": 8486,
      "2u": 8487,
      "लो": 8488,
      "ற்": 8489,
      "ាន": 8490,
      "្រ": 8491,
      "chy": 8492,
      "abv": 8493,
      "ials": 8494,
      "royal": 8495,
      "************": 8496,
      "prime": 8497,
      "ट्स": 8498,
      "3z": 8499,
      "mess": 8500,
      "v6": 8501,
      "thin": 8502,
      "hands": 8503,
      "stock": 8504,
      "gaganpratap": 8505,
      "ancient": 8506,
      "★★": 8507,
      "esome": 8508,
      "boy": 8509,
      "publish": 8510,
      "alle": 8511,
      "ica": 8512,
      "essential": 8513,
      "aver": 8514,
      "mpsc": 8515,
      "pin": 8516,
      "pmc": 8517,
      "sens": 8518,
      "relat": 8519,
      "price": 8520,
      "rain": 8521,
      "weigh": 8522,
      "ashish": 8523,
      "voc": 8524,
      "editing": 8525,
      "⇾⇾⇾⇾": 8526,
      "_by_": 8527,
      "nadu": 8528,
      "tty": 8529,
      "sci": 8530,
      "contains": 8531,
      "accor": 8532,
      "travel": 8533,
      "idea": 8534,
      "क्लिक": 8535,
      "healthy": 8536,
      "substance": 8537,
      "bf": 8538,
      "dt": 8539,
      "rom": 8540,
      "angles": 8541,
      "sil": 8542,
      "tom": 8543,
      "vation": 8544,
      "🌱🌱": 8545,
      "letter": 8546,
      "abhi": 8547,
      "tru": 8548,
      "adityaran": 8549,
      "93": 8550,
      "কি": 8551,
      "beaut": 8552,
      "aptitude": 8553,
      "-~~": 8554,
      "rt": 8555,
      "ars": 8556,
      "remo": 8557,
      "iller": 8558,
      "curi": 8559,
      "ships": 8560,
      "sprint": 8561,
      "fundamental": 8562,
      "wish": 8563,
      "য়া": 8564,
      "soon": 8565,
      "clips": 8566,
      "produced": 8567,
      "regarding": 8568,
      "astr": 8569,
      "glass": 8570,
      "rh": 8571,
      "ल्": 8572,
      "unlock": 8573,
      "ries": 8574,
      "hary": 8575,
      "eval": 8576,
      "pix": 8577,
      "celer": 8578,
      "booster": 8579,
      "linear": 8580,
      "pkart": 8581,
      "awesome": 8582,
      "flipkart": 8583,
      "400": 8584,
      "q7": 8585,
      "rk": 8586,
      "edition": 8587,
      "radio": 8588,
      "rist": 8589,
      "matri": 8590,
      "offers": 8591,
      "⟿⟿⟿⟿": 8592,
      "0l": 8593,
      "nm": 8594,
      "nom": 8595,
      "dev": 8596,
      "phil": 8597,
      "1k": 8598,
      "3m": 8599,
      "tour": 8600,
      "ങ്": 8601,
      "forces": 8602,
      "value": 8603,
      "pathshala": 8604,
      "credits": 8605,
      "sinh": 8606,
      "2h": 8607,
      "amps": 8608,
      "demon": 8609,
      "workout": 8610,
      "charges": 8611,
      "needs": 8612,
      "मान्य": 8613,
      "homeopathic": 8614,
      "above": 8615,
      "temperature": 8616,
      "8w": 8617,
      "9w": 8618,
      "mine": 8619,
      "qc": 8620,
      "rate": 8621,
      "ವಿ": 8622,
      "pha": 8623,
      "brand": 8624,
      "something": 8625,
      "மி": 8626,
      "hero": 8627,
      "revise": 8628,
      "pl9g_z7fhmoss": 8629,
      "b6": 8630,
      "t_": 8631,
      "ான": 8632,
      "acceler": 8633,
      "whole": 8634,
      "includes": 8635,
      "किसी": 8636,
      "genius": 8637,
      "aud": 8638,
      "জ্": 8639,
      "පා": 8640,
      "china": 8641,
      "tube": 8642,
      "्यू": 8643,
      "tural": 8644,
      "include": 8645,
      "ultimate": 8646,
      "5s": 8647,
      "mpi": 8648,
      "वे": 8649,
      "𝐭𝐚": 8650,
      "ctive": 8651,
      "assign": 8652,
      "position": 8653,
      "depend": 8654,
      "ih": 8655,
      "site": 8656,
      "ಗಳ": 8657,
      "lives": 8658,
      "mystery": 8659,
      "बंध": 8660,
      "having": 8661,
      "sscchsl": 8662,
      "bengal": 8663,
      "journal": 8664,
      "normal": 8665,
      "exciting": 8666,
      "2p": 8667,
      "दो": 8668,
      "tup": 8669,
      "john": 8670,
      "pdz": 8671,
      "gravity": 8672,
      "abvmu": 8673,
      "1_": 8674,
      "kd": 8675,
      "nw": 8676,
      "আলো": 8677,
      "drives": 8678,
      "plyzuxqknttra": 8679,
      "ket": 8680,
      "qb": 8681,
      "abhis": 8682,
      "bigg": 8683,
      "takes": 8684,
      "austr": 8685,
      "sky": 8686,
      "operation": 8687,
      "𝐞𝐦": 8688,
      "liye": 8689,
      "wire": 8690,
      "velocity": 8691,
      "byjus": 8692,
      "ior": 8693,
      "pac": 8694,
      "antra": 8695,
      "studi": 8696,
      "විද": 8697,
      "𝐞𝐧𝐜𝐞": 8698,
      "sli": 8699,
      "mein": 8700,
      "however": 8701,
      "interaction": 8702,
      "--------------------------------------------------------": 8703,
      "👇👇👇👇👇👇👇👇": 8704,
      "movement": 8705,
      "ei": 8706,
      "pcb": 8707,
      "vu": 8708,
      "endra": 8709,
      "samache": 8710,
      "सामान्य": 8711,
      "country": 8712,
      "policy": 8713,
      "karn": 8714,
      "fort": 8715,
      "asing": 8716,
      "pln": 8717,
      "admissions": 8718,
      "acy": 8719,
      "vh": 8720,
      "कु": 8721,
      "कृ": 8722,
      "inc": 8723,
      "author": 8724,
      "computers": 8725,
      "safety": 8726,
      "জ্ঞ": 8727,
      "swe": 8728,
      "मु": 8729,
      "অধ": 8730,
      "സ്": 8731,
      "separ": 8732,
      "means": 8733,
      "instru": 8734,
      "cardi": 8735,
      "mkxj": 8736,
      "2j": 8737,
      "cate": 8738,
      "k6": 8739,
      "ond": 8740,
      "exe": 8741,
      "rich": 8742,
      "trust": 8743,
      "tc": 8744,
      "choo": 8745,
      "class10th": 8746,
      "ার্": 8747,
      "diagrams": 8748,
      "popular": 8749,
      "olympi": 8750,
      "pl4pdz": 8751,
      "pl4pdzmkxj": 8752,
      "bol": 8753,
      "jwm": 8754,
      "tic": 8755,
      "◆◆": 8756,
      "infin": 8757,
      "oken": 8758,
      "points": 8759,
      "circle": 8760,
      "distribution": 8761,
      "oxy": 8762,
      "rx": 8763,
      "ಕ್": 8764,
      "ino": 8765,
      "dest": 8766,
      "ission": 8767,
      "f9": 8768,
      "z1": 8769,
      "antibiot": 8770,
      "ग्राम": 8771,
      "resistance": 8772,
      "sit": 8773,
      "𝗗𝗔": 8774,
      "_______": 8775,
      "disco": 8776,
      "baby": 8777,
      "sinhala": 8778,
      "e0": 8779,
      "nai": 8780,
      "zes": 8781,
      "सु": 8782,
      "wide": 8783,
      "els": 8784,
      "••••••••••••••••": 8785,
      "eb": 8786,
      "uch": 8787,
      "trad": 8788,
      "comput": 8789,
      "save": 8790,
      "explaination": 8791,
      "soundcloud": 8792,
      "3j": 8793,
      "thought": 8794,
      "early": 8795,
      "easi": 8796,
      "বিজ্ঞ": 8797,
      "issues": 8798,
      "olympiad": 8799,
      "x4": 8800,
      "في": 8801,
      "itor": 8802,
      "exercises": 8803,
      "average": 8804,
      "kvs": 8805,
      "yle": 8806,
      "zone": 8807,
      "stick": 8808,
      "plk": 8809,
      "phase": 8810,
      "everyday": 8811,
      "snap": 8812,
      "consider": 8813,
      "whether": 8814,
      "iiit": 8815,
      "vb": 8816,
      "ිය": 8817,
      "already": 8818,
      "reli": 8819,
      "young": 8820,
      "plbo": 8821,
      "ologist": 8822,
      "insight": 8823,
      "ruhs": 8824,
      "breath": 8825,
      "calculate": 8826,
      "𝐚𝐫𝐭": 8827,
      "hydrogen": 8828,
      "american": 8829,
      "बैच": 8830,
      "বিজ্ঞান": 8831,
      "3i": 8832,
      "5t": 8833,
      "cele": 8834,
      "illu": 8835,
      "continu": 8836,
      "arithmet": 8837,
      "qm": 8838,
      "डा": 8839,
      "ery": 8840,
      "redu": 8841,
      "entire": 8842,
      "dress": 8843,
      "custom": 8844,
      "puzzles": 8845,
      "choice": 8846,
      "equipment": 8847,
      "5y": 8848,
      "p0": 8849,
      "बो": 8850,
      "ും": 8851,
      "recr": 8852,
      "ext": 8853,
      "ysir": 8854,
      "bles": 8855,
      "referral": 8856,
      "respiration": 8857,
      "p4": 8858,
      "ping": 8859,
      "𝐅𝐨𝐫": 8860,
      "quad": 8861,
      "manu": 8862,
      "condition": 8863,
      "since": 8864,
      "expected": 8865,
      "lr": 8866,
      "nv": 8867,
      "zj": 8868,
      "रो": 8869,
      "ভা": 8870,
      "ows": 8871,
      "phd": 8872,
      "ems": 8873,
      "aff": 8874,
      "marathi": 8875,
      "happy": 8876,
      "according": 8877,
      "5th": 8878,
      "61": 8879,
      "afr": 8880,
      "once": 8881,
      "friction": 8882,
      "shortvideo": 8883,
      "pubmed": 8884,
      "↬↬↬↬": 8885,
      "electromagnetic": 8886,
      "_8": 8887,
      "qa": 8888,
      "sach": 8889,
      "ugh": 8890,
      "wx": 8891,
      "unboxing": 8892,
      "tak": 8893,
      "cbseclass10": 8894,
      "months": 8895,
      "kas": 8896,
      "enses": 8897,
      "engg": 8898,
      "peb": 8899,
      "opportunities": 8900,
      "qd": 8901,
      "सर": 8902,
      "⤠⤠": 8903,
      "isa": 8904,
      "exchange": 8905,
      "adav": 8906,
      "coura": 8907,
      "adityaranjan": 8908,
      "choose": 8909,
      "0x": 8910,
      "away": 8911,
      "oid": 8912,
      "দে": 8913,
      "dear": 8914,
      "plv": 8915,
      "plz": 8916,
      "pl8f": 8917,
      "admin": 8918,
      "geo": 8919,
      "install": 8920,
      "ival": 8921,
      "spect": 8922,
      "humans": 8923,
      "secondary": 8924,
      "synthesis": 8925,
      "samacheer": 8926,
      "67": 8927,
      "b4": 8928,
      "sav": 8929,
      "ths": 8930,
      "listen": 8931,
      "taken": 8932,
      "members": 8933,
      "quiry": 8934,
      "civics": 8935,
      "analytics": 8936,
      "විද්‍ය": 8937,
      "arithmetic": 8938,
      "3p": 8939,
      "जो": 8940,
      "टर": 8941,
      "सू": 8942,
      "டி": 8943,
      "ட்ட": 8944,
      "upsi": 8945,
      "balloon": 8946,
      "promot": 8947,
      "algor": 8948,
      "and10": 8949,
      "areas": 8950,
      "technologies": 8951,
      "lessonplan": 8952,
      "sahil": 8953,
      "definition": 8954,
      "rocket": 8955,
      "abhishek": 8956,
      "1u": 8957,
      "lun": 8958,
      "attri": 8959,
      "class8": 8960,
      "terms": 8961,
      "ado": 8962,
      "hey": 8963,
      "virtual": 8964,
      "single": 8965,
      "athlet": 8966,
      "digit": 8967,
      "composition": 8968,
      ".)": 8969,
      "qk": 8970,
      "scor": 8971,
      "premi": 8972,
      "fight": 8973,
      "allahabad": 8974,
      "6s": 8975,
      "b8": 8976,
      "alpha": 8977,
      "compar": 8978,
      "inste": 8979,
      "toppers": 8980,
      "pecial": 8981,
      "central": 8982,
      "::::::::::::::::": 8983,
      "recommend": 8984,
      "liquid": 8985,
      "weightage": 8986,
      "ના": 8987,
      "➝➝": 8988,
      "invol": 8989,
      "iles": 8990,
      "aded": 8991,
      "schools": 8992,
      "nie": 8993,
      "algorith": 8994,
      "dha": 8995,
      "tham": 8996,
      "stack": 8997,
      "artist": 8998,
      "thermo": 8999,
      "timest": 9000,
      "careers": 9001,
      "biotechnology": 9002,
      "ങ്ങ": 9003,
      "pra": 9004,
      "script": 9005,
      "learnwith": 9006,
      "--------------------------------------------------------------------------------": 9007,
      "primary": 9008,
      "giri": 9009,
      "……………………": 9010,
      "principle": 9011,
      "discovery": 9012,
      "cere": 9013,
      "नो": 9014,
      "👆👆": 9015,
      "aman": 9016,
      "moving": 9017,
      "useum": 9018,
      "event": 9019,
      "boost": 9020,
      "bert": 9021,
      "f1": 9022,
      "fem": 9023,
      "lifest": 9024,
      "ision": 9025,
      "vijay": 9026,
      "--------------------------------------------------------------------------------------------------------": 9027,
      "aqa": 9028,
      "culture": 9029,
      "kumjwm": 9030,
      "⇢⇢⇢⇢": 9031,
      "private": 9032,
      "plbokumjwm": 9033,
      "7n": 9034,
      "fts": 9035,
      "hours": 9036,
      "q_": 9037,
      "उप": 9038,
      "𝗼𝗿": 9039,
      "wallahpw": 9040,
      "donate": 9041,
      "asked": 9042,
      "risk": 9043,
      "strategies": 9044,
      "0a": 9045,
      "5n": 9046,
      "iphone": 9047,
      "nik": 9048,
      "तै": 9049,
      "দের": 9050,
      "𝗶𝗻": 9051,
      "pyqs": 9052,
      "davguru": 9053,
      "jail": 9054,
      "succe": 9055,
      "electronic": 9056,
      "ক্ষ": 9057,
      "recruit": 9058,
      "4th": 9059,
      "92": 9060,
      "blip": 9061,
      "nin": 9062,
      "𝐞𝐩": 9063,
      "repe": 9064,
      "toy": 9065,
      "ides": 9066,
      "hear": 9067,
      "experts": 9068,
      "aga": 9069,
      "2016": 9070,
      "bharti": 9071,
      "presentation": 9072,
      "plyzuxqknttrb": 9073,
      "_in_": 9074,
      "𝗗𝗔𝗩": 9075,
      "fj": 9076,
      "ler": 9077,
      "n9": 9078,
      "nbc": 9079,
      "∭∭": 9080,
      "𝟗𝟗": 9081,
      "ench": 9082,
      "iling": 9083,
      "ucu": 9084,
      "ाने": 9085,
      "movies": 9086,
      "ganit": 9087,
      "actually": 9088,
      "obser": 9089,
      "illustr": 9090,
      "flo": 9091,
      "तथा": 9092,
      "aries": 9093,
      "scis": 9094,
      "ssccgl": 9095,
      "htas": 9096,
      "_kannada": 9097,
      "episodes": 9098,
      "ference": 9099,
      "वर्त": 9100,
      "attribut": 9101,
      "\"\"": 9102,
      "kari": 9103,
      "l2": 9104,
      "poll": 9105,
      "অধ্যা": 9106,
      "5g": 9107,
      "fish": 9108,
      "হয়ে": 9109,
      "સ્": 9110,
      "සර": 9111,
      "init": 9112,
      "enh": 9113,
      "edge": 9114,
      "harsh": 9115,
      "batches": 9116,
      "animated": 9117,
      "direction": 9118,
      "breaking": 9119,
      "clinical": 9120,
      "ssc_cgl": 9121,
      "principles": 9122,
      "nuclear": 9123,
      "blippi": 9124,
      "71": 9125,
      "u4": 9126,
      "vvi": 9127,
      "wk": 9128,
      "𝐘𝐨": 9129,
      "alk": 9130,
      "upp": 9131,
      "copyrighted": 9132,
      "songs": 9133,
      "museum": 9134,
      "𝐜𝐡": 9135,
      "apt": 9136,
      "plt": 9137,
      "optional": 9138,
      "measurement": 9139,
      "bow": 9140,
      "vous": 9141,
      "thy": 9142,
      "sco": 9143,
      "science_": 9144,
      "prevent": 9145,
      "workshop": 9146,
      "तैय": 9147,
      "b5": 9148,
      "ked": 9149,
      "ske": 9150,
      "encoura": 9151,
      "toff": 9152,
      "white": 9153,
      "ashu": 9154,
      "large": 9155,
      "psi": 9156,
      "lem": 9157,
      "abh": 9158,
      "experien": 9159,
      "depth": 9160,
      "भारत": 9161,
      "_p": 9162,
      "ote": 9163,
      "z0": 9164,
      "পা": 9165,
      "டு": 9166,
      "பு": 9167,
      "====================================": 9168,
      "sabaqpk": 9169,
      "spotify": 9170,
      "increase": 9171,
      "certific": 9172,
      "পরি": 9173,
      "shomus": 9174,
      "earn": 9175,
      "hold": 9176,
      "ʜᴀ": 9177,
      "এই": 9178,
      "ಾನ": 9179,
      "preparations": 9180,
      "infringement": 9181,
      "ক্তি": 9182,
      "victers": 9183,
      "1c": 9184,
      "68": 9185,
      "टी": 9186,
      "ர்": 9187,
      "𝐎𝐑": 9188,
      "arm": 9189,
      "nios": 9190,
      "summary": 9191,
      "meaning": 9192,
      "lifestyle": 9193,
      "aim": 9194,
      "send": 9195,
      "vg": 9196,
      "vas": 9197,
      "anm": 9198,
      "shift": 9199,
      "plans": 9200,
      "genetics": 9201,
      "plgmkmhauzhqs": 9202,
      "_e": 9203,
      "gment": 9204,
      "hh": 9205,
      "decor": 9206,
      "plh": 9207,
      "plate": 9208,
      "acs": 9209,
      "ureka": 9210,
      "weekly": 9211,
      "ற்ற": 9212,
      "shomusbiology": 9213,
      "bp": 9214,
      "nn": 9215,
      "rpsc": 9216,
      "vm": 9217,
      "नही": 9218,
      "𝐁𝐀𝐓": 9219,
      "𝐢𝐫": 9220,
      "𝐨𝐰": 9221,
      "tuition": 9222,
      "secon": 9223,
      "toppr": 9224,
      "clar": 9225,
      "360": 9226,
      "release": 9227,
      "সায়": 9228,
      "𝐢𝐬𝐭": 9229,
      "punjab": 9230,
      "𝐁𝐀𝐓𝐂𝐇": 9231,
      "d0": 9232,
      "f_": 9233,
      "ில்": 9234,
      "ඩම": 9235,
      "𝐂𝐈": 9236,
      "📍📍": 9237,
      "stet": 9238,
      "users": 9239,
      "overview": 9240,
      "numberblocks": 9241,
      "require": 9242,
      "दिए": 9243,
      "diseases": 9244,
      "individual": 9245,
      "පාඩම": 9246,
      "ipl": 9247,
      "ᴄᴏ": 9248,
      "✔📚": 9249,
      "sequ": 9250,
      "excret": 9251,
      "diag": 9252,
      "opin": 9253,
      "quizzes": 9254,
      "eyes": 9255,
      "kindly": 9256,
      "++++++++": 9257,
      "4m": 9258,
      "8y": 9259,
      "ध्य": 9260,
      "𝗹𝗮": 9261,
      "cept": 9262,
      "esar": 9263,
      "die": 9264,
      "address": 9265,
      "tarun": 9266,
      "vlogs": 9267,
      "plw2ziq6owlow": 9268,
      "𝐂𝐨𝐮𝐫𝐬": 9269,
      "\".": 9270,
      "cing": 9271,
      "kri": 9272,
      "ohit": 9273,
      "गर": 9274,
      "➤➤": 9275,
      "shown": 9276,
      "phere": 9277,
      "pred": 9278,
      "wali": 9279,
      "viewers": 9280,
      "opportunity": 9281,
      "efficient": 9282,
      "licensed": 9283,
      "celebr": 9284,
      "হয়েছে": 9285,
      "nes": 9286,
      "o_": 9287,
      "u9": 9288,
      "𝒊𝒂": 9289,
      "progr": 9290,
      "educator": 9291,
      "izing": 9292,
      "akul": 9293,
      "tripod": 9294,
      "voice": 9295,
      "handle": 9296,
      "ക്ക": 9297,
      "initial": 9298,
      "9f": 9299,
      "lou": 9300,
      "mans": 9301,
      "rr": 9302,
      "बन": 9303,
      "ona": 9304,
      "itance": 9305,
      "pher": 9306,
      "heli": 9307,
      "taking": 9308,
      "116": 9309,
      "mediate": 9310,
      "ensity": 9311,
      "bonding": 9312,
      "ள்ள": 9313,
      "1s": 9314,
      "fly": 9315,
      "द्य": 9316,
      "কা": 9317,
      "𝐜𝐭": 9318,
      "mas": 9319,
      "vector": 9320,
      "god": 9321,
      ";;;;;;;;": 9322,
      "enhance": 9323,
      "liter": 9324,
      "q6": 9325,
      "rim": 9326,
      "rup": 9327,
      "arjun": 9328,
      "cting": 9329,
      "grif": 9330,
      "conser": 9331,
      "healthcare": 9332,
      "cardboard": 9333,
      "क्लास": 9334,
      "_h": 9335,
      "dit": 9336,
      "👍👍": 9337,
      "arthi": 9338,
      "edureka": 9339,
      "moon": 9340,
      "sym": 9341,
      "strict": 9342,
      "models": 9343,
      "विष": 9344,
      "ytshorts": 9345,
      "gujarat": 9346,
      "membership": 9347,
      "additional": 9348,
      "responsi": 9349,
      "बंधित": 9350,
      ")-": 9351,
      "size": 9352,
      "yo": 9353,
      "ಸ್": 9354,
      "mathstr": 9355,
      "tau": 9356,
      "deriv": 9357,
      "plane": 9358,
      "super_": 9359,
      "exampurofficial": 9360,
      "————————": 9361,
      "විද්‍යාව": 9362,
      "𝐂𝐈𝐀𝐋": 9363,
      "rg": 9364,
      "s7": 9365,
      "adhy": 9366,
      "fix": 9367,
      "hydro": 9368,
      "objects": 9369,
      "leader": 9370,
      "করা": 9371,
      "920": 9372,
      "fre": 9373,
      "पी": 9374,
      "শ্": 9375,
      "𝐕𝐄": 9376,
      "aling": 9377,
      "towards": 9378,
      "plq": 9379,
      "hypo": 9380,
      "warder": 9381,
      "directly": 9382,
      "_in_kannada": 9383,
      "नीचे": 9384,
      "spirit": 9385,
      "_link": 9386,
      "lh": 9387,
      "prad": 9388,
      "rak": 9389,
      "sandeep": 9390,
      "maxim": 9391,
      "combination": 9392,
      "ˍˍˍˍˍˍˍˍ": 9393,
      "मिल": 9394,
      "4g": 9395,
      "mist": 9396,
      "istic": 9397,
      ".......": 9398,
      "french": 9399,
      "anyone": 9400,
      "informational": 9401,
      "option": 9402,
      "_mseem": 9403,
      "𝐏𝐫𝐞𝐩": 9404,
      "pl8f_mseem": 9405,
      "esaral": 9406,
      "pl8f_mseemlg": 9407,
      "batt": 9408,
      "ips": 9409,
      "rv": 9410,
      "यहा": 9411,
      "ोड": 9412,
      "beha": 9413,
      "============": 9414,
      "spons": 9415,
      "appear": 9416,
      "steam": 9417,
      "paypal": 9418,
      "9g": 9419,
      "9x": 9420,
      "lk": 9421,
      "compe": 9422,
      "lifescience": 9423,
      "----------------------------------------------------------------------------------------": 9424,
      "cambridge": 9425,
      "0w": 9426,
      "5c": 9427,
      "ders": 9428,
      "gation": 9429,
      "ان": 9430,
      "atp": 9431,
      "utions": 9432,
      "bust": 9433,
      "𝐚𝐫𝐚𝐭𝐢𝐨𝐧": 9434,
      "appropri": 9435,
      "bill": 9436,
      "dance": 9437,
      "ost": 9438,
      "oso": 9439,
      "pion": 9440,
      "शन": 9441,
      "মি": 9442,
      "endo": 9443,
      "events": 9444,
      "giving": 9445,
      "recogn": 9446,
      "6a": 9447,
      "aan": 9448,
      "blow": 9449,
      "fiction": 9450,
      "lon": 9451,
      "मी": 9452,
      "𝒊𝒔": 9453,
      "ston": 9454,
      "sugar": 9455,
      "र्ड": 9456,
      "highly": 9457,
      "transform": 9458,
      "inspire": 9459,
      "````````": 9460,
      "south": 9461,
      "𝐋𝐈𝐕𝐄": 9462,
      "रूर": 9463,
      "scishow": 9464,
      "65": 9465,
      "9s": 9466,
      "_ay": 9467,
      "oil": 9468,
      "qg": 9469,
      "usu": 9470,
      "টা": 9471,
      "𝒓𝒆": 9472,
      "alter": 9473,
      "lets": 9474,
      "adh": 9475,
      "poo": 9476,
      "igcse": 9477,
      "sounds": 9478,
      "polynom": 9479,
      "signific": 9480,
      "reference": 9481,
      "oxygen": 9482,
      "𝐏𝐫𝐞𝐩𝐚𝐫𝐚𝐭𝐢𝐨𝐧": 9483,
      "62": 9484,
      "बहु": 9485,
      "𝐢𝐠": 9486,
      "chain": 9487,
      "secur": 9488,
      "विध": 9489,
      "wbcs": 9490,
      "vidyarthi": 9491,
      "spring": 9492,
      "plo3_bg_rzy1": 9493,
      "seconds": 9494,
      "5r": 9495,
      "eks": 9496,
      "kk": 9497,
      "ज्या": 9498,
      "तु": 9499,
      "shor": 9500,
      "paid": 9501,
      "magnets": 9502,
      "difficul": 9503,
      "optics": 9504,
      "𝐥𝐚𝐬𝐬": 9505,
      "beginners": 9506,
      "million": 9507,
      "quarter": 9508,
      "2i": 9509,
      "d8": 9510,
      "evidyarthi": 9511,
      "rati": 9512,
      "⚝⚝": 9513,
      "𝐓𝐞𝐬𝐭": 9514,
      "mental": 9515,
      "offic": 9516,
      "pire": 9517,
      "ytchannel": 9518,
      "productive": 9519,
      "thinking": 9520,
      "demonstr": 9521,
      "super_tet": 9522,
      "0t": 9523,
      "ians": 9524,
      "jha": 9525,
      "vw": 9526,
      "arg": 9527,
      "necess": 9528,
      "plj": 9529,
      "push": 9530,
      "twitch": 9531,
      "jais": 9532,
      "license": 9533,
      "behavi": 9534,
      "sᴇ": 9535,
      "𝗦𝘂": 9536,
      "shak": 9537,
      "ently": 9538,
      "plcn": 9539,
      "purohit": 9540,
      "nervous": 9541,
      "mechanism": 9542,
      "sexual": 9543,
      "components": 9544,
      "appropriate": 9545,
      "1e": 9546,
      "hv": 9547,
      "kam": 9548,
      "zp": 9549,
      "වසර": 9550,
      "ison": 9551,
      "device": 9552,
      "mac": 9553,
      "excel": 9554,
      "rial": 9555,
      "anger": 9556,
      "passion": 9557,
      "तैयारी": 9558,
      "mate": 9559,
      "rules": 9560,
      "u_": 9561,
      "यू": 9562,
      "গু": 9563,
      "ঙ্": 9564,
      "ita": 9565,
      "portion": 9566,
      "commission": 9567,
      "powerful": 9568,
      "soft": 9569,
      "professionals": 9570,
      "ट्रिक": 9571,
      "𝐈𝐧𝐭": 9572,
      "7t": 9573,
      "dad": 9574,
      "ebooks": 9575,
      "gala": 9576,
      "uf": 9577,
      "कारी": 9578,
      "নের": 9579,
      "𝐜𝐞𝐬": 9580,
      "𝑪𝒐": 9581,
      "𝒕𝒉": 9582,
      "eno": 9583,
      "stone": 9584,
      "shay": 9585,
      "ult": 9586,
      "hika": 9587,
      "angana": 9588,
      "▬▬▬▬▬▬▬▬▬▬▬▬▬▬▬▬▬▬▬▬▬▬▬▬": 9589,
      "્યુ": 9590,
      "9d": 9591,
      "gj": 9592,
      "sᴛ": 9593,
      "wall": 9594,
      "ʙᴜ": 9595,
      "गत": 9596,
      "रसायन": 9597,
      "𝒕𝒔": 9598,
      "scienceproject": 9599,
      "often": 9600,
      "prize": 9601,
      "mechy": 9602,
      "subtraction": 9603,
      "mention": 9604,
      "fee": 9605,
      "pages": 9606,
      "guaran": 9607,
      "voy": 9608,
      "archite": 9609,
      "vivek_sir": 9610,
      "vidyakul": 9611,
      "recruitment": 9612,
      "mechymanish": 9613,
      "guarante": 9614,
      "ʀᴀ": 9615,
      "পর্": 9616,
      "ත්": 9617,
      "ᴅɪ": 9618,
      "ᴘᴘ": 9619,
      "𝒍𝒂": 9620,
      "alia": 9621,
      "class7": 9622,
      "prab": 9623,
      "byviveksir": 9624,
      "ucgv": 9625,
      "paint": 9626,
      "anything": 9627,
      "intern": 9628,
      "machines": 9629,
      "𝐞𝐥𝐥𝐢𝐠": 9630,
      "diagno": 9631,
      "𝐈𝐧𝐭𝐞𝐥𝐥𝐢𝐠": 9632,
      "𝐈𝐧𝐭𝐞𝐥𝐥𝐢𝐠𝐞𝐧𝐜𝐞": 9633,
      "3b": 9634,
      "_exam": 9635,
      "aɴ": 9636,
      "aʟʟ": 9637,
      "cʜᴀɴɴᴇʟ": 9638,
      "fᴀᴄ": 9639,
      "gʀᴏ": 9640,
      "tʜ": 9641,
      "tes": 9642,
      "wʜᴀ": 9643,
      "ɢᴀʟ": 9644,
      "ɪᴍ": 9645,
      "ɪᴢ": 9646,
      "ɪᴛᴇᴅ": 9647,
      "ɴᴏ": 9648,
      "ɴᴀᴜ": 9649,
      "ʀᴛ": 9650,
      "ʙʏ": 9651,
      "ʜɪ": 9652,
      "ʟʏ": 9653,
      "ᴇᴅ": 9654,
      "ᴇɢᴀʟ": 9655,
      "ᴍᴀ": 9656,
      "ᴍᴏ": 9657,
      "ᴏꜰ": 9658,
      "ᴏᴏᴋ": 9659,
      "ᴛsa": 9660,
      "ᴜᴘ": 9661,
      "𝐏𝐌𝐀": 9662,
      "𝐕𝐞𝐫": 9663,
      "𝐛𝐚𝐥": 9664,
      "𝑶𝒕𝒉": 9665,
      "𝒍𝒆": 9666,
      "espn": 9667,
      "and_": 9668,
      "maker": 9669,
      "dium": 9670,
      "learno": 9671,
      "memor": 9672,
      "files": 9673,
      "edusmar": 9674,
      "ᴀɴᴅ": 9675,
      "edusmartfacebook": 9676,
      "edusmartwhatsapp": 9677,
      "ᴏʀɪᴢ": 9678,
      "ᴛʜᴏʀɪᴢ": 9679,
      "pl0yjii_klsgq": 9680,
      "ᴀɢᴇ": 9681,
      "ᴄᴀᴛɪᴏɴ": 9682,
      "ᴇʙᴏᴏᴋ": 9683,
      "ᴠɪᴅᴇ": 9684,
      "psychology": 9685,
      "আলোচ": 9686,
      "𝐅𝐨𝐫𝐜𝐞𝐬": 9687,
      "timestamps": 9688,
      "aɴʏ": 9689,
      "fᴀᴄᴇʙᴏᴏᴋ": 9690,
      "gʀᴏᴜᴘ": 9691,
      "wʜᴀᴛsa": 9692,
      "ɴᴏᴛ": 9693,
      "ɴᴀᴜᴛʜᴏʀɪᴢ": 9694,
      "𝐕𝐞𝐫𝐛𝐚𝐥": 9695,
      "𝑶𝒕𝒉𝒆𝒓": 9696,
      "wʜᴀᴛsaᴘᴘ": 9697,
      "ɴᴀᴜᴛʜᴏʀɪᴢᴇᴅ": 9698,
      "2_": 9699,
      "k_": 9700,
      "𝐞𝐭": 9701,
      "forkids": 9702,
      "shap": 9703,
      "disha": 9704,
      "guruji": 9705,
      "girls": 9706,
      "respective": 9707,
      "hindu": 9708,
      "zation": 9709,
      "শি": 9710,
      "𝐒𝐢𝐫": 9711,
      "𝘀𝘀": 9712,
      "lift": 9713,
      "vikr": 9714,
      "secret": 9715,
      "iry": 9716,
      "quora": 9717,
      "2014": 9718,
      "cutoff": 9719,
      "➙➙➙➙➙➙➙➙➙➙➙➙": 9720,
      "➙➙➙➙➙➙➙➙➙➙➙➙➙➙➙➙➙➙➙➙": 9721,
      "wild": 9722,
      "philoso": 9723,
      "𝐂𝐨𝐮𝐫𝐬𝐞": 9724,
      "6n": 9725,
      "cow": 9726,
      "claim": 9727,
      "g4": 9728,
      "ipo": 9729,
      "ত্র": 9730,
      "isi": 9731,
      "ander": 9732,
      "apy": 9733,
      "divers": 9734,
      "gue": 9735,
      "reality": 9736,
      "tempt": 9737,
      "gameplay": 9738,
      "clip": 9739,
      "tneb": 9740,
      "assamese": 9741,
      "1t": 9742,
      "bhai": 9743,
      "jal": 9744,
      "ंत्र": 9745,
      "तिक": 9746,
      "class9th": 9747,
      "hydra": 9748,
      "registration": 9749,
      "designs": 9750,
      "typing": 9751,
      "execut": 9752,
      "/+": 9753,
      "eat": 9754,
      "ua": 9755,
      "utt": 9756,
      "z_": 9757,
      "भौ": 9758,
      "్ర": 9759,
      "𝐒𝐈": 9760,
      "atmos": 9761,
      "seen": 9762,
      "plement": 9763,
      "neet2024": 9764,
      "displacement": 9765,
      "annual": 9766,
      "positive": 9767,
      "rankersgurukul": 9768,
      "minecraft": 9769,
      "0s": 9770,
      "eco": 9771,
      "अभ": 9772,
      "reproduce": 9773,
      "degre": 9774,
      "ands": 9775,
      "iler": 9776,
      "coach": 9777,
      "indic": 9778,
      "joinchat": 9779,
      "warri": 9780,
      "certain": 9781,
      "presented": 9782,
      "griffin": 9783,
      "4h": 9784,
      "6x": 9785,
      "9t": 9786,
      "ake": 9787,
      "bam": 9788,
      "oq": 9789,
      "pend": 9790,
      "som": 9791,
      "बि": 9792,
      "𝐂𝐥𝐚𝐬𝐬": 9793,
      "determin": 9794,
      "plu": 9795,
      "plsp": 9796,
      "odisha": 9797,
      "display": 9798,
      "switch": 9799,
      "controll": 9800,
      "happen": 9801,
      "moments": 9802,
      "telangana": 9803,
      "digestive": 9804,
      "बोर्ड": 9805,
      "ring": 9806,
      "ख्या": 9807,
      "door": 9808,
      "universities": 9809,
      "class9science": 9810,
      "_r_": 9811,
      "degrees": 9812,
      "2g": 9813,
      "9v": 9814,
      "desh": 9815,
      "rj": 9816,
      "പ്": 9817,
      "attempt": 9818,
      "among": 9819,
      "andre": 9820,
      "mole": 9821,
      "economic": 9822,
      "ভিডিওর": 9823,
      "beyond": 9824,
      "k7": 9825,
      "schem": 9826,
      "टि": 9827,
      "तक": 9828,
      "ાર": 9829,
      "𝐁𝐲": 9830,
      "𝐌𝐄": 9831,
      "stain": 9832,
      "devices": 9833,
      "adal": 9834,
      "otes": 9835,
      "owner": 9836,
      "analy": 9837,
      "qualified": 9838,
      "drivesdk": 9839,
      "security": 9840,
      "gup": 9841,
      "jai": 9842,
      "l0": 9843,
      "length": 9844,
      "ंड": 9845,
      "अभी": 9846,
      "thom": 9847,
      "chin": 9848,
      "combat": 9849,
      "recharge": 9850,
      "factors": 9851,
      "again": 9852,
      "crafts": 9853,
      "transl": 9854,
      "particles": 9855,
      "gta": 9856,
      "nasa": 9857,
      "oa": 9858,
      "oi": 9859,
      "qi": 9860,
      "staff": 9861,
      "christ": 9862,
      "lekh": 9863,
      "......": 9864,
      "subscribing": 9865,
      "creating": 9866,
      "rule": 9867,
      "mppsc": 9868,
      "theorem": 9869,
      "experiences": 9870,
      "_official": 9871,
      "b07": 9872,
      "bacter": 9873,
      "gory": 9874,
      "जरूर": 9875,
      "ato": 9876,
      "chris": 9877,
      "scienceexperiment": 9878,
      "local": 9879,
      "club": 9880,
      "magnetbrainsbhopal": 9881,
      "cadre": 9882,
      "डाउ": 9883,
      "manufac": 9884,
      "css": 9885,
      "hem": 9886,
      "oce": 9887,
      "wp": 9888,
      "ರ್": 9889,
      "𝐂𝐆": 9890,
      "🪶◍": 9891,
      "chak": 9892,
      "icif": 9893,
      "liver": 9894,
      "ung": 9895,
      "colour": 9896,
      "levels": 9897,
      "fxicif": 9898,
      "plcnfxicif": 9899,
      "lekhpal": 9900,
      "𝐂𝐆𝐋": 9901,
      "eli": 9902,
      "ழ்": 9903,
      "𝐒𝐭": 9904,
      "mathsclass": 9905,
      "ucs": 9906,
      "spread": 9907,
      "kash": 9908,
      "stuff": 9909,
      "plgmkmhauzhq": 9910,
      "half": 9911,
      "fluid": 9912,
      "assignment": 9913,
      "অধ্যায়": 9914,
      "0v": 9915,
      "cla": 9916,
      "h_": 9917,
      "np": 9918,
      "𝐎𝐧𝐥": 9919,
      "boot": 9920,
      "plastic": 9921,
      "merch": 9922,
      "attribution": 9923,
      "-~": 9924,
      "9m": 9925,
      "bte": 9926,
      "cil": 9927,
      "gest": 9928,
      "nip": 9929,
      "ataka": 9930,
      "forest": 9931,
      "fresh": 9932,
      "ishadal": 9933,
      "double": 9934,
      "mahishadal": 9935,
      "ohm": 9936,
      "avee": 9937,
      "शिक्ष": 9938,
      "cryst": 9939,
      "plbokumjwmth": 9940,
      "8b": 9941,
      "ීම": 9942,
      "relax": 9943,
      "dead": 9944,
      "plm": 9945,
      "aditya_": 9946,
      "clinic": 9947,
      "fractions": 9948,
      "australia": 9949,
      "bun": 9950,
      "hur": 9951,
      "jap": 9952,
      "𝐨𝐥": 9953,
      "🔹🔹": 9954,
      "chart": 9955,
      "chlor": 9956,
      "scop": 9957,
      "scale": 9958,
      "ets": 9959,
      "gust": 9960,
      "fuel": 9961,
      "valid": 9962,
      "नलोड": 9963,
      "स्थान": 9964,
      "message": 9965,
      "haryana": 9966,
      "infinity": 9967,
      "pradesh": 9968,
      "डाउनलोड": 9969,
      "5h": 9970,
      "fing": 9971,
      "jum": 9972,
      "sbi": 9973,
      "sank": 9974,
      "निय": 9975,
      "𝐨𝐢𝐧": 9976,
      "𝗶𝘁": 9977,
      "lete": 9978,
      "mash": 9979,
      "sep": 9980,
      "paralle": 9981,
      "iful": 9982,
      "mentor": 9983,
      "discipl": 9984,
      "વિદ": 9985,
      "द्ध": 9986,
      "acceleration": 9987,
      "aditya_ranjan": 9988,
      "4y": 9989,
      "সি": 9990,
      "𝐩𝐩": 9991,
      "📲(": 9992,
      "prot": 9993,
      "imm": 9994,
      "perks": 9995,
      "heav": 9996,
      "safe": 9997,
      "trying": 9998,
      "krishna": 9999,
      "𝗹𝗮𝘀𝘀": 10000,
      "hydraul": 10001,
      "a7": 10002,
      "dog": 10003,
      "च्": 10004,
      "𝐒𝐂": 10005,
      "𝗖𝗹𝗮𝘀𝘀": 10006,
      "𝗼𝗻": 10007,
      "recent": 10008,
      "ragd": 10009,
      "pariksha": 10010,
      "aging": 10011,
      "graphy": 10012,
      "tissues": 10013,
      "royalty": 10014,
      "mansi": 10015,
      "polynomials": 10016,
      "vikram": 10017,
      "8u": 10018,
      "broad": 10019,
      "jen": 10020,
      "row": 10021,
      "வே": 10022,
      "ara": 10023,
      "scen": 10024,
      "sever": 10025,
      "setup": 10026,
      "shape": 10027,
      "pression": 10028,
      "wiki": 10029,
      "0029": 10030,
      "pee": 10031,
      "cycl": 10032,
      "copyrights": 10033,
      "कोशि": 10034,
      "fyp": 10035,
      "frequency": 10036,
      "thermodynamics": 10037,
      "rimc": 10038,
      "learnohub": 10039,
      "7x": 10040,
      "hen": 10041,
      "vv": 10042,
      "𝐉𝐨𝐢𝐧": 10043,
      "reve": 10044,
      "ntpcchemistry": 10045,
      "कोर्स": 10046,
      "class10maths": 10047,
      "association": 10048,
      "*👌": 10049,
      "jit": 10050,
      "rand": 10051,
      "हर": 10052,
      "്യ": 10053,
      "👌*": 10054,
      "apee": 10055,
      "patient": 10056,
      "iii": 10057,
      "----------------------------------------------------": 10058,
      "𝐚𝐭𝐜𝐡": 10059,
      "conservation": 10060,
      "➙➙➙➙➙➙➙➙➙➙➙➙➙➙➙➙➙➙➙➙➙➙": 10061,
      "1n": 10062,
      "c6": 10063,
      "gf": 10064,
      "sri": 10065,
      "yang": 10066,
      "zf": 10067,
      "टा": 10068,
      "बे": 10069,
      "𝐁𝐚𝐭𝐜𝐡": 10070,
      "𝐩𝐞": 10071,
      "𝐭𝐡": 10072,
      "thus": 10073,
      "seek": 10074,
      "april": 10075,
      "meditation": 10076,
      "adven": 10077,
      "ியியல்": 10078,
      "running": 10079,
      "પ્રક": 10080,
      "bbc": 10081,
      "n2": 10082,
      "p5": 10083,
      "vard": 10084,
      "िकी": 10085,
      "𝐅𝐚": 10086,
      "sts": 10087,
      "atics": 10088,
      "diam": 10089,
      "affect": 10090,
      "rbse": 10091,
      "rights": 10092,
      "introdu": 10093,
      "combined": 10094,
      "9n10": 10095,
      "certificate": 10096,
      "xg": 10097,
      "z5": 10098,
      "खा": 10099,
      "exist": 10100,
      "collection": 10101,
      "vidyapee": 10102,
      "relev": 10103,
      "pl86x0rncqng": 10104,
      "learnwithmansi": 10105,
      "वर्तन": 10106,
      "pollution": 10107,
      "विषय": 10108,
      "ratio": 10109,
      "5yy": 10110,
      "9l": 10111,
      "mantra": 10112,
      "till": 10113,
      "ym": 10114,
      "nepal": 10115,
      "ilar": 10116,
      "ncs": 10117,
      "neet_": 10118,
      "pursu": 10119,
      "undergraduate": 10120,
      "र्म": 10121,
      "paramjeet": 10122,
      "style": 10123,
      "morning": 10124,
      "––––––––": 10125,
      "characteristics": 10126,
      "जानकारी": 10127,
      "executive": 10128,
      "vidyapeeth": 10129,
      "kap": 10130,
      "touch": 10131,
      "ढ़": 10132,
      "দ্": 10133,
      "ন্য": 10134,
      "ની": 10135,
      "தமி": 10136,
      "amrit": 10137,
      "develo": 10138,
      "2000": 10139,
      "prec": 10140,
      "reels": 10141,
      "programme": 10142,
      "reviews": 10143,
      "title": 10144,
      "speedy": 10145,
      "simplilearn": 10146,
      "𝟐𝟎𝟐": 10147,
      "aks": 10148,
      "bak": 10149,
      "lum": 10150,
      "tion": 10151,
      "ක්": 10152,
      "𝐒𝐓": 10153,
      "𝐫𝐚𝐦": 10154,
      "chse": 10155,
      "bottle": 10156,
      "chapter1": 10157,
      "्रा": 10158,
      "memory": 10159,
      "challenges": 10160,
      "onomy": 10161,
      "beautiful": 10162,
      "আলোচনা": 10163,
      "8j": 10164,
      "cture": 10165,
      "cm_": 10166,
      "eh": 10167,
      "evid": 10168,
      "mud": 10169,
      "nation": 10170,
      "yam": 10171,
      "अं": 10172,
      "neph": 10173,
      "changing": 10174,
      "pain": 10175,
      "format": 10176,
      "labs": 10177,
      "collabor": 10178,
      "puri": 10179,
      "generalscience": 10180,
      "corpor": 10181,
      "supporting": 10182,
      "हमारी": 10183,
      "interviews": 10184,
      "************************************************": 10185,
      "satis": 10186,
      "measurements": 10187,
      "favourite": 10188,
      "computing": 10189,
      "1i": 10190,
      "sak": 10191,
      "xog": 10192,
      "تح": 10193,
      "उन": 10194,
      "වන": 10195,
      "repair": 10196,
      "anda": 10197,
      "toon": 10198,
      "mel": 10199,
      "parents": 10200,
      "assess": 10201,
      "संबंधित": 10202,
      "autocad": 10203,
      "4d": 10204,
      "_of": 10205,
      "nba": 10206,
      "nagar": 10207,
      "tam": 10208,
      "પર": 10209,
      "ું": 10210,
      "inv": 10211,
      "stri": 10212,
      "urs": 10213,
      "developed": 10214,
      "oxid": 10215,
      "btc": 10216,
      "kinetic": 10217,
      "technician": 10218,
      "dark": 10219,
      "ligibility": 10220,
      "karnataka": 10221,
      "कुछ": 10222,
      "sachin": 10223,
      "hacks": 10224,
      "w8": 10225,
      "wc": 10226,
      "yr": 10227,
      "தா": 10228,
      "ுக்க": 10229,
      "හා": 10230,
      "▰▱": 10231,
      "dete": 10232,
      "forum": 10233,
      "neg": 10234,
      "veter": 10235,
      "ldc": 10236,
      "drama": 10237,
      "waste": 10238,
      "प्रा": 10239,
      "correct": 10240,
      "xylem": 10241,
      "turing": 10242,
      "crashcourse": 10243,
      "flower": 10244,
      "candid": 10245,
      "centu": 10246,
      "ज्यादा": 10247,
      "officer": 10248,
      "1r": 10249,
      "nar": 10250,
      "नु": 10251,
      "থা": 10252,
      "remix": 10253,
      "sciencefun": 10254,
      "excell": 10255,
      "emplo": 10256,
      "actions": 10257,
      "stress": 10258,
      "mcat": 10259,
      "minds": 10260,
      "हास": 10261,
      "happens": 10262,
      "टेली": 10263,
      "sweet": 10264,
      "pebbles": 10265,
      "6v": 10266,
      "ओं": 10267,
      "কার": 10268,
      "ક્": 10269,
      "𝐅𝐎𝐑": 10270,
      "stan": 10271,
      "cexam": 10272,
      "chal": 10273,
      "shik": 10274,
      "veer": 10275,
      "lyrics": 10276,
      "unya": 10277,
      "febr": 10278,
      "derabad": 10279,
      "भाग": 10280,
      "नहीं": 10281,
      "diversity": 10282,
      "jhuman": 10283,
      "lok": 10284,
      "மா": 10285,
      "examin": 10286,
      "david": 10287,
      "mates": 10288,
      "sung": 10289,
      "coupon": 10290,
      "particular": 10291,
      "graphics": 10292,
      "vitam": 10293,
      "टेलीग्राम": 10294,
      "iu": 10295,
      "अगर": 10296,
      "𝐃𝐈": 10297,
      "👉🏼": 10298,
      "📚📚": 10299,
      "scal": 10300,
      "amount": 10301,
      "ghat": 10302,
      "covid": 10303,
      "marine": 10304,
      "osis": 10305,
      "तिहास": 10306,
      "against": 10307,
      "cm_sw": 10308,
      "february": 10309,
      "7o": 10310,
      "9c": 10311,
      "b_": 10312,
      "q2": 10313,
      "tree": 10314,
      "uo": 10315,
      "inhindi": 10316,
      "unes": 10317,
      "examwinner": 10318,
      "doi": 10319,
      "matric": 10320,
      "similar": 10321,
      "keywords": 10322,
      "mathstricks": 10323,
      "necessary": 10324,
      "1v": 10325,
      "sind": 10326,
      "্ত": 10327,
      "ម្": 10328,
      "plx": 10329,
      "rohit": 10330,
      "bute": 10331,
      "august": 10332,
      "magnetism": 10333,
      "vsat": 10334,
      "constant": 10335,
      "hitesh": 10336,
      "phenomen": 10337,
      "➙➙➙➙➙➙➙➙➙➙➙➙➙➙➙➙➙➙➙➙➙➙➙": 10338,
      "-:": 10339,
      "bhi": 10340,
      "d2": 10341,
      "eligibility": 10342,
      "hob": 10343,
      "पर्": 10344,
      "ena": 10345,
      "compla": 10346,
      "legal": 10347,
      "vii": 10348,
      "uc3": 10349,
      "optim": 10350,
      "chapterwise": 10351,
      "2015": 10352,
      "july": 10353,
      "universal": 10354,
      "posts": 10355,
      "ukwvkfidaf": 10356,
      "recommended": 10357,
      "pl9g_z7fhmosr": 10358,
      "laksh": 10359,
      "somet": 10360,
      "ংক": 10361,
      "𝐋𝐀": 10362,
      "𝐤𝐮": 10363,
      "independ": 10364,
      "pse": 10365,
      "reproductive": 10366,
      "______": 10367,
      "race": 10368,
      "conference": 10369,
      "goes": 10370,
      "genetic": 10371,
      "anya": 10372,
      "hyderabad": 10373,
      "plqnv33rzx1": 10374,
      "bombay": 10375,
      "valuable": 10376,
      "packa": 10377,
      "9_": 10378,
      "java": 10379,
      "anies": 10380,
      "station": 10381,
      "didi": 10382,
      "plp": 10383,
      "factor": 10384,
      "cos": 10385,
      "prepared": 10386,
      "evs": 10387,
      "simply": 10388,
      "previou": 10389,
      "covering": 10390,
      "shared": 10391,
      "built": 10392,
      "संख्या": 10393,
      "female": 10394,
      "rimccoaching": 10395,
      "8n": 10396,
      "844": 10397,
      "_ap": 10398,
      "hk": 10399,
      "pil": 10400,
      "sed": 10401,
      "व्": 10402,
      "கள": 10403,
      "arth": 10404,
      "alum": 10405,
      "lest": 10406,
      "eda": 10407,
      "neutr": 10408,
      "median": 10409,
      "blr": 10410,
      "graduation": 10411,
      "close": 10412,
      "speaker": 10413,
      "absor": 10414,
      "documentary": 10415,
      "evidence": 10416,
      "cm_sw_r_": 10417,
      "aum": 10418,
      "hota": 10419,
      "pj": 10420,
      "vine": 10421,
      "را": 10422,
      "ின்": 10423,
      "𝟮𝟬": 10424,
      "🤑🤑": 10425,
      "orient": 10426,
      "aro": 10427,
      "alco": 10428,
      "itunes": 10429,
[...]
