{
  "version": "1.0",
  "truncation": null,
  "padding": null,
  "added_tokens": [
    {
      "id": 0,
      "content": "[UNK]",
      "single_word": false,
      "lstrip": false,
      "rstrip": false,
      "normalized": false,
      "special": true
    },
    {
      "id": 1,
      "content": "[CLS]",
      "single_word": false,
      "lstrip": false,
      "rstrip": false,
      "normalized": false,
      "special": true
    },
    {
      "id": 2,
      "content": "[SEP]",
      "single_word": false,
      "lstrip": false,
      "rstrip": false,
      "normalized": false,
      "special": true
    },
    {
      "id": 3,
      "content": "[PAD]",
      "single_word": false,
      "lstrip": false,
      "rstrip": false,
      "normalized": false,
      "special": true
    },
    {
      "id": 4,
      "content": "[MASK]",
      "single_word": false,
      "lstrip": false,
      "rstrip": false,
      "normalized": false,
      "special": true
    }
  ],
  "normalizer": null,
  "pre_tokenizer": {
    "type": "Whitespace"
  },
  "post_processor": null,
  "decoder": null,
  "model": {
    "type": "BPE",
    "dropout": null,
    "unk_token": "[UNK]",
    "continuing_subword_prefix": null,
    "end_of_word_suffix": null,
    "fuse_unk": false,
    "byte_fallback": false,
    "ignore_merges": false,
    "vocab": {
      "[UNK]": 0,
      "[CLS]": 1,
      "[SEP]": 2,
      "[PAD]": 3,
      "[MASK]": 4,
      "!": 5,
      "\"": 6,
      "#": 7,
      "$": 8,
      "%": 9,
      "&": 10,
      "'": 11,
      "(": 12,
      ")": 13,
      "*": 14,
      "+": 15,
      ",": 16,
      "-": 17,
      ".": 18,
      "/": 19,
      "0": 20,
      "1": 21,
      "2": 22,
      "3": 23,
      "4": 24,
      "5": 25,
      "6": 26,
      "7": 27,
      "8": 28,
      "9": 29,
      ":": 30,
      ";": 31,
      "=": 32,
      "?": 33,
      "@": 34,
      "[": 35,
      "\\": 36,
      "]": 37,
      "^": 38,
      "_": 39,
      "`": 40,
      "a": 41,
      "b": 42,
      "c": 43,
      "d": 44,
      "e": 45,
      "f": 46,
      "g": 47,
      "h": 48,
      "i": 49,
      "j": 50,
      "k": 51,
      "l": 52,
      "m": 53,
      "n": 54,
      "o": 55,
      "p": 56,
      "q": 57,
      "r": 58,
      "s": 59,
      "t": 60,
      "u": 61,
      "v": 62,
      "w": 63,
      "x": 64,
      "y": 65,
      "z": 66,
      "{": 67,
      "|": 68,
      "}": 69,
      "~": 70,
      "©": 71,
      "«": 72,
      "®": 73,
      "°": 74,
      "±": 75,
      "²": 76,
      "º": 77,
      "»": 78,
      "¿": 79,
      "×": 80,
      "à": 81,
      "á": 82,
      "â": 83,
      "ã": 84,
      "ä": 85,
      "å": 86,
      "æ": 87,
      "ç": 88,
      "è": 89,
      "é": 90,
      "ê": 91,
      "ì": 92,
      "í": 93,
      "ï": 94,
      "ñ": 95,
      "ó": 96,
      "ô": 97,
      "ö": 98,
      "ù": 99,
      "ú": 100,
      "ü": 101,
      "ā": 102,
      "ă": 103,
      "đ": 104,
      "ē": 105,
      "ğ": 106,
      "ı": 107,
      "ō": 108,
      "ś": 109,
      "ş": 110,
      "ũ": 111,
      "ž": 112,
      "ơ": 113,
      "ư": 114,
      "ə": 115,
      "́": 116,
      "̇": 117,
      "̈": 118,
      "̶": 119,
      "ά": 120,
      "έ": 121,
      "ή": 122,
      "ί": 123,
      "α": 124,
      "β": 125,
      "γ": 126,
      "δ": 127,
      "ε": 128,
      "ζ": 129,
      "η": 130,
      "θ": 131,
      "ι": 132,
      "κ": 133,
      "λ": 134,
      "μ": 135,
      "ν": 136,
      "ο": 137,
      "π": 138,
      "ρ": 139,
      "ς": 140,
      "σ": 141,
      "τ": 142,
      "υ": 143,
      "φ": 144,
      "χ": 145,
      "ψ": 146,
      "ω": 147,
      "ό": 148,
      "ύ": 149,
      "ώ": 150,
      "а": 151,
      "б": 152,
      "в": 153,
      "г": 154,
      "д": 155,
      "е": 156,
      "ж": 157,
      "з": 158,
      "и": 159,
      "й": 160,
      "к": 161,
      "л": 162,
      "м": 163,
      "н": 164,
      "о": 165,
      "п": 166,
      "р": 167,
      "с": 168,
      "т": 169,
      "у": 170,
      "ф": 171,
      "х": 172,
      "ц": 173,
      "ч": 174,
      "ш": 175,
      "ы": 176,
      "ь": 177,
      "э": 178,
      "ю": 179,
      "я": 180,
      "؟": 181,
      "ء": 182,
      "آ": 183,
      "أ": 184,
      "إ": 185,
      "ئ": 186,
      "ا": 187,
      "ب": 188,
      "ة": 189,
      "ت": 190,
      "ث": 191,
      "ج": 192,
      "ح": 193,
      "خ": 194,
      "د": 195,
      "ذ": 196,
      "ر": 197,
      "ز": 198,
      "س": 199,
      "ش": 200,
      "ص": 201,
      "ض": 202,
      "ط": 203,
      "ظ": 204,
      "ع": 205,
      "غ": 206,
      "ف": 207,
      "ق": 208,
      "ك": 209,
      "ل": 210,
      "م": 211,
      "ن": 212,
      "ه": 213,
      "و": 214,
      "ى": 215,
      "ي": 216,
      "َ": 217,
      "ُ": 218,
      "ِ": 219,
      "ّ": 220,
      "ٹ": 221,
      "پ": 222,
      "ڈ": 223,
      "ک": 224,
      "گ": 225,
      "ں": 226,
      "ی": 227,
      "ے": 228,
      "ँ": 229,
      "ं": 230,
      "ः": 231,
      "अ": 232,
      "आ": 233,
      "इ": 234,
      "ई": 235,
      "उ": 236,
      "ऊ": 237,
      "ए": 238,
      "ऐ": 239,
      "ऑ": 240,
      "ओ": 241,
      "औ": 242,
      "क": 243,
      "ख": 244,
      "ग": 245,
      "घ": 246,
      "च": 247,
      "छ": 248,
      "ज": 249,
      "झ": 250,
      "ञ": 251,
      "ट": 252,
      "ठ": 253,
      "ड": 254,
      "ढ": 255,
      "ण": 256,
      "त": 257,
      "थ": 258,
      "द": 259,
      "ध": 260,
      "न": 261,
      "प": 262,
      "फ": 263,
      "ब": 264,
      "भ": 265,
      "म": 266,
      "य": 267,
      "र": 268,
      "ऱ": 269,
      "ल": 270,
      "ळ": 271,
      "व": 272,
      "श": 273,
      "ष": 274,
      "स": 275,
      "ह": 276,
      "़": 277,
      "ा": 278,
      "ि": 279,
      "ी": 280,
      "ु": 281,
      "ू": 282,
      "ृ": 283,
      "े": 284,
      "ै": 285,
      "ॉ": 286,
      "ो": 287,
      "ौ": 288,
      "्": 289,
      "ज़": 290,
      "ड़": 291,
      "ढ़": 292,
      "।": 293,
      "॥": 294,
      "१": 295,
      "२": 296,
      "३": 297,
      "५": 298,
      "८": 299,
      "ঁ": 300,
      "ং": 301,
      "ঃ": 302,
      "অ": 303,
      "আ": 304,
      "ই": 305,
      "উ": 306,
      "ঋ": 307,
      "এ": 308,
      "ও": 309,
      "ঔ": 310,
      "ক": 311,
      "খ": 312,
      "গ": 313,
      "ঘ": 314,
      "ঙ": 315,
      "চ": 316,
      "ছ": 317,
      "জ": 318,
      "ঞ": 319,
      "ট": 320,
      "ঠ": 321,
      "ড": 322,
      "ঢ": 323,
      "ণ": 324,
      "ত": 325,
      "থ": 326,
      "দ": 327,
      "ধ": 328,
      "ন": 329,
      "প": 330,
      "ফ": 331,
      "ব": 332,
      "ভ": 333,
      "ম": 334,
      "য": 335,
      "র": 336,
      "ল": 337,
      "শ": 338,
      "ষ": 339,
      "স": 340,
      "হ": 341,
      "়": 342,
      "া": 343,
      "ি": 344,
      "ী": 345,
      "ু": 346,
      "ূ": 347,
      "ৃ": 348,
      "ে": 349,
      "ৈ": 350,
      "ো": 351,
      "ৌ": 352,
      "্": 353,
      "ৎ": 354,
      "ড়": 355,
      "ঢ়": 356,
      "য়": 357,
      "০": 358,
      "১": 359,
      "২": 360,
      "৩": 361,
      "৪": 362,
      "৫": 363,
      "৬": 364,
      "৭": 365,
      "৮": 366,
      "ৰ": 367,
      "ৱ": 368,
      "ਂ": 369,
      "ਅ": 370,
      "ਆ": 371,
      "ਇ": 372,
      "ਈ": 373,
      "ਓ": 374,
      "ਕ": 375,
      "ਖ": 376,
      "ਗ": 377,
      "ਜ": 378,
      "ਝ": 379,
      "ਡ": 380,
      "ਣ": 381,
      "ਤ": 382,
      "ਦ": 383,
      "ਨ": 384,
      "ਬ": 385,
      "ਮ": 386,
      "ਰ": 387,
      "ਲ": 388,
      "ਵ": 389,
      "ਸ": 390,
      "ਹ": 391,
      "ਾ": 392,
      "ਿ": 393,
      "ੀ": 394,
      "ੁ": 395,
      "ੂ": 396,
      "ੇ": 397,
      "ੋ": 398,
      "ਜ਼": 399,
      "ੰ": 400,
      "ੱ": 401,
      "ં": 402,
      "અ": 403,
      "આ": 404,
      "ઈ": 405,
      "ઉ": 406,
      "ઊ": 407,
      "એ": 408,
      "ઓ": 409,
      "ક": 410,
      "ખ": 411,
      "ગ": 412,
      "ઘ": 413,
      "ચ": 414,
      "છ": 415,
      "જ": 416,
      "ઞ": 417,
      "ટ": 418,
      "ઠ": 419,
      "ડ": 420,
      "ણ": 421,
      "ત": 422,
      "થ": 423,
      "દ": 424,
      "ધ": 425,
      "ન": 426,
      "પ": 427,
      "ફ": 428,
      "બ": 429,
      "ભ": 430,
      "મ": 431,
      "ય": 432,
      "ર": 433,
      "લ": 434,
      "ળ": 435,
      "વ": 436,
      "શ": 437,
      "ષ": 438,
      "સ": 439,
      "હ": 440,
      "ા": 441,
      "િ": 442,
      "ી": 443,
      "ુ": 444,
      "ૂ": 445,
      "ૃ": 446,
      "ે": 447,
      "ૈ": 448,
      "ૉ": 449,
      "ો": 450,
      "્": 451,
      "૧": 452,
      "૨": 453,
      "૪": 454,
      "૭": 455,
      "૮": 456,
      "ଁ": 457,
      "ଃ": 458,
      "ଆ": 459,
      "ଇ": 460,
      "ଉ": 461,
      "ଓ": 462,
      "କ": 463,
      "ଚ": 464,
      "ଛ": 465,
      "ଜ": 466,
      "ଞ": 467,
      "ଟ": 468,
      "ଢ": 469,
      "ଣ": 470,
      "ତ": 471,
      "ଥ": 472,
      "ଦ": 473,
      "ଧ": 474,
      "ନ": 475,
      "ପ": 476,
      "ବ": 477,
      "ମ": 478,
      "ଯ": 479,
      "ର": 480,
      "ଲ": 481,
      "ଳ": 482,
      "ଵ": 483,
      "ଶ": 484,
      "ଷ": 485,
      "ସ": 486,
      "ହ": 487,
      "଼": 488,
      "ା": 489,
      "ି": 490,
      "ୀ": 491,
      "ୁ": 492,
      "େ": 493,
      "ୈ": 494,
      "ୋ": 495,
      "୍": 496,
      "ୟ": 497,
      "ୱ": 498,
      "அ": 499,
      "ஆ": 500,
      "இ": 501,
      "உ": 502,
      "ஊ": 503,
      "எ": 504,
      "ஏ": 505,
      "ஐ": 506,
      "ஒ": 507,
      "க": 508,
      "ங": 509,
      "ச": 510,
      "ஜ": 511,
      "ஞ": 512,
      "ட": 513,
      "ண": 514,
      "த": 515,
      "ந": 516,
      "ன": 517,
      "ப": 518,
      "ம": 519,
      "ய": 520,
      "ர": 521,
      "ற": 522,
      "ல": 523,
      "ள": 524,
      "ழ": 525,
      "வ": 526,
      "ஷ": 527,
      "ஸ": 528,
      "ஹ": 529,
      "ா": 530,
      "ி": 531,
      "ீ": 532,
      "ு": 533,
      "ூ": 534,
      "ெ": 535,
      "ே": 536,
      "ை": 537,
      "ொ": 538,
      "ோ": 539,
      "்": 540,
      "ం": 541,
      "అ": 542,
      "ఆ": 543,
      "ఇ": 544,
      "ఈ": 545,
      "ఉ": 546,
      "ఎ": 547,
      "ఏ": 548,
      "ఒ": 549,
      "క": 550,
      "ఖ": 551,
      "గ": 552,
      "ఘ": 553,
      "చ": 554,
      "జ": 555,
      "ఞ": 556,
      "ట": 557,
      "డ": 558,
      "ణ": 559,
      "త": 560,
      "థ": 561,
      "ద": 562,
      "ధ": 563,
      "న": 564,
      "ప": 565,
      "బ": 566,
      "భ": 567,
      "మ": 568,
      "య": 569,
      "ర": 570,
      "ల": 571,
      "ళ": 572,
      "వ": 573,
      "శ": 574,
      "ష": 575,
      "స": 576,
      "హ": 577,
      "ా": 578,
      "ి": 579,
      "ీ": 580,
      "ు": 581,
      "ూ": 582,
      "ృ": 583,
      "ె": 584,
      "ే": 585,
      "ై": 586,
      "ొ": 587,
      "ో": 588,
      "ౌ": 589,
      "్": 590,
      "ಂ": 591,
      "ಅ": 592,
      "ಆ": 593,
      "ಇ": 594,
      "ಈ": 595,
      "ಉ": 596,
      "ಏ": 597,
      "ಓ": 598,
      "ಕ": 599,
      "ಖ": 600,
      "ಗ": 601,
      "ಘ": 602,
      "ಚ": 603,
      "ಜ": 604,
      "ಞ": 605,
      "ಟ": 606,
      "ಠ": 607,
      "ಡ": 608,
      "ಣ": 609,
      "ತ": 610,
      "ಥ": 611,
      "ದ": 612,
      "ಧ": 613,
      "ನ": 614,
      "ಪ": 615,
      "ಫ": 616,
      "ಬ": 617,
      "ಭ": 618,
      "ಮ": 619,
      "ಯ": 620,
      "ರ": 621,
      "ಲ": 622,
      "ಳ": 623,
      "ವ": 624,
      "ಶ": 625,
      "ಷ": 626,
      "ಸ": 627,
      "ಹ": 628,
      "ಾ": 629,
      "ಿ": 630,
      "ೀ": 631,
      "ು": 632,
      "ೂ": 633,
      "ೆ": 634,
      "ೇ": 635,
      "ೊ": 636,
      "ೋ": 637,
      "್": 638,
      "ം": 639,
      "അ": 640,
      "ആ": 641,
      "ഇ": 642,
      "ഈ": 643,
      "ഉ": 644,
      "എ": 645,
      "ഏ": 646,
      "ഐ": 647,
      "ഒ": 648,
      "ഓ": 649,
      "ക": 650,
      "ഖ": 651,
      "ഗ": 652,
      "ഘ": 653,
      "ങ": 654,
      "ച": 655,
      "ജ": 656,
      "ഞ": 657,
      "ട": 658,
      "ഠ": 659,
      "ഡ": 660,
      "ണ": 661,
      "ത": 662,
      "ഥ": 663,
      "ദ": 664,
      "ധ": 665,
      "ന": 666,
      "പ": 667,
      "ഫ": 668,
      "ബ": 669,
      "ഭ": 670,
      "മ": 671,
      "യ": 672,
      "ര": 673,
      "റ": 674,
      "ല": 675,
      "ള": 676,
      "ഴ": 677,
      "വ": 678,
      "ശ": 679,
      "ഷ": 680,
      "സ": 681,
      "ഹ": 682,
      "ാ": 683,
      "ി": 684,
      "ീ": 685,
      "ു": 686,
      "ൂ": 687,
      "ൃ": 688,
      "െ": 689,
      "േ": 690,
      "ൈ": 691,
      "ൊ": 692,
      "ോ": 693,
      "്": 694,
      "ൗ": 695,
      "ൺ": 696,
      "ൻ": 697,
      "ർ": 698,
      "ൽ": 699,
      "ൾ": 700,
      "ං": 701,
      "අ": 702,
      "ආ": 703,
      "ඇ": 704,
      "උ": 705,
      "එ": 706,
      "ඒ": 707,
      "ඔ": 708,
      "ක": 709,
      "ඛ": 710,
      "ග": 711,
      "ඝ": 712,
      "ඟ": 713,
      "ච": 714,
      "ජ": 715,
      "ට": 716,
      "ඨ": 717,
      "ඩ": 718,
      "ණ": 719,
      "ත": 720,
      "ථ": 721,
      "ද": 722,
      "ධ": 723,
      "න": 724,
      "ඳ": 725,
      "ප": 726,
      "ඵ": 727,
      "බ": 728,
      "භ": 729,
      "ම": 730,
      "ය": 731,
      "ර": 732,
      "ල": 733,
      "ව": 734,
      "ශ": 735,
      "ෂ": 736,
      "ස": 737,
      "හ": 738,
      "ළ": 739,
      "්": 740,
      "ා": 741,
      "ැ": 742,
      "ෑ": 743,
      "ි": 744,
      "ී": 745,
      "ු": 746,
      "ූ": 747,
      "ෘ": 748,
      "ෙ": 749,
      "ේ": 750,
      "ෛ": 751,
      "ො": 752,
      "ෝ": 753,
      "ก": 754,
      "ข": 755,
      "ค": 756,
      "ง": 757,
      "จ": 758,
      "ช": 759,
      "ญ": 760,
      "ฑ": 761,
      "ณ": 762,
      "ด": 763,
      "ต": 764,
      "ถ": 765,
      "ท": 766,
      "ธ": 767,
      "น": 768,
      "บ": 769,
      "ป": 770,
      "ผ": 771,
      "พ": 772,
      "ฟ": 773,
      "ภ": 774,
      "ม": 775,
      "ย": 776,
      "ร": 777,
      "ล": 778,
      "ว": 779,
      "ศ": 780,
      "ษ": 781,
      "ส": 782,
      "ห": 783,
      "อ": 784,
      "ฮ": 785,
      "ะ": 786,
      "ั": 787,
      "า": 788,
      "ำ": 789,
      "ิ": 790,
      "ี": 791,
      "ื": 792,
      "ุ": 793,
      "ู": 794,
      "เ": 795,
      "แ": 796,
      "โ": 797,
      "ใ": 798,
      "ไ": 799,
      "็": 800,
      "่": 801,
      "้": 802,
      "๊": 803,
      "์": 804,
      "င": 805,
      "စ": 806,
      "ရ": 807,
      "သ": 808,
      "ိ": 809,
      "ု": 810,
      "း": 811,
      "်": 812,
      "ህ": 813,
      "ለ": 814,
      "ል": 815,
      "ሐ": 816,
      "መ": 817,
      "ም": 818,
      "ሪ": 819,
      "ር": 820,
      "ሴ": 821,
      "ስ": 822,
      "ሶ": 823,
      "ቀ": 824,
      "በ": 825,
      "ተ": 826,
      "ቱ": 827,
      "ት": 828,
      "ች": 829,
      "ኃ": 830,
      "ነ": 831,
      "ኒ": 832,
      "ና": 833,
      "ን": 834,
      "ኝ": 835,
      "ኢ": 836,
      "እ": 837,
      "ከ": 838,
      "ኮ": 839,
      "ዓ": 840,
      "ዙ": 841,
      "የ": 842,
      "ያ": 843,
      "ይ": 844,
      "ዮ": 845,
      "ዲ": 846,
      "ድ": 847,
      "ጋ": 848,
      "ግ": 849,
      "ጠ": 850,
      "ጤ": 851,
      "ጥ": 852,
      "ጵ": 853,
      "ក": 854,
      "ខ": 855,
      "ង": 856,
      "ទ": 857,
      "ន": 858,
      "ប": 859,
      "ម": 860,
      "យ": 861,
      "រ": 862,
      "ល": 863,
      "ូ": 864,
      "ួ": 865,
      "ៀ": 866,
      "េ": 867,
      "់": 868,
      "្": 869,
      "ạ": 870,
      "ả": 871,
      "ấ": 872,
      "ầ": 873,
      "ậ": 874,
      "ắ": 875,
      "ặ": 876,
      "ẹ": 877,
      "ế": 878,
      "ề": 879,
      "ể": 880,
      "ệ": 881,
      "ọ": 882,
      "ố": 883,
      "ồ": 884,
      "ổ": 885,
      "ộ": 886,
      "ớ": 887,
      "ờ": 888,
      "ợ": 889,
      "ủ": 890,
      "ứ": 891,
      "ừ": 892,
      "ử": 893,
      "ữ": 894,
      "ự": 895,
      "​": 896,
      "‌": 897,
      "‍": 898,
      "‎": 899,
      "‏": 900,
      "–": 901,
      "—": 902,
      "‘": 903,
      "’": 904,
      "“": 905,
      "”": 906,
      "•": 907,
      "…": 908,
      "‼": 909,
      "⁉": 910,
      "⁠": 911,
      "⁣": 912,
      "₂": 913,
      "€": 914,
      "₹": 915,
      "⃣": 916,
      "™": 917,
      "ⅳ": 918,
      "∅": 919,
      "−": 920,
      "√": 921,
      "⌚": 922,
      "⌨": 923,
      "⏰": 924,
      "⏱": 925,
      "⏳": 926,
      "⏺": 927,
      "④": 928,
      "│": 929,
      "┇": 930,
      "▶": 931,
      "►": 932,
      "◀": 933,
      "●": 934,
      "★": 935,
      "☆": 936,
      "☑": 937,
      "☕": 938,
      "☘": 939,
      "☝": 940,
      "☠": 941,
      "☹": 942,
      "☺": 943,
      "♀": 944,
      "♂": 945,
      "♥": 946,
      "♦": 947,
      "♨": 948,
      "♻": 949,
      "⚒": 950,
      "⚓": 951,
      "⚔": 952,
      "⚕": 953,
      "⚖": 954,
      "⚗": 955,
      "⚙": 956,
      "⚛": 957,
      "⚠": 958,
      "⚡": 959,
      "⚪": 960,
      "⚫": 961,
      "⚾": 962,
      "⛑": 963,
      "⛓": 964,
      "⛩": 965,
      "⛺": 966,
      "⛽": 967,
      "✅": 968,
      "✈": 969,
      "✋": 970,
      "✌": 971,
      "✍": 972,
      "✏": 973,
      "✓": 974,
      "✔": 975,
      "✘": 976,
      "✨": 977,
      "✳": 978,
      "✴": 979,
      "❄": 980,
      "❌": 981,
      "❓": 982,
      "❗": 983,
      "❣": 984,
      "❤": 985,
      "➕": 986,
      "➖": 987,
      "➗": 988,
      "➡": 989,
      "⬅": 990,
      "⭐": 991,
      "⭕": 992,
      "、": 993,
      "。": 994,
      "《": 995,
      "》": 996,
      "「": 997,
      "」": 998,
      "『": 999,
      "』": 1000,
      "【": 1001,
      "】": 1002,
      "あ": 1003,
      "い": 1004,
      "が": 1005,
      "き": 1006,
      "け": 1007,
      "こ": 1008,
      "さ": 1009,
      "し": 1010,
      "た": 1011,
      "だ": 1012,
      "っ": 1013,
      "つ": 1014,
      "て": 1015,
      "で": 1016,
      "と": 1017,
      "な": 1018,
      "に": 1019,
      "の": 1020,
      "は": 1021,
      "ま": 1022,
      "み": 1023,
      "る": 1024,
      "れ": 1025,
      "ろ": 1026,
      "を": 1027,
      "゚": 1028,
      "ア": 1029,
      "ィ": 1030,
      "イ": 1031,
      "ウ": 1032,
      "エ": 1033,
      "カ": 1034,
      "ガ": 1035,
      "ク": 1036,
      "ケ": 1037,
      "サ": 1038,
      "シ": 1039,
      "ス": 1040,
      "ソ": 1041,
      "タ": 1042,
      "ツ": 1043,
      "テ": 1044,
      "ト": 1045,
      "ビ": 1046,
      "フ": 1047,
      "ブ": 1048,
      "マ": 1049,
      "ミ": 1050,
      "ュ": 1051,
      "ヨ": 1052,
      "リ": 1053,
      "ル": 1054,
      "ロ": 1055,
      "ン": 1056,
      "ー": 1057,
      "一": 1058,
      "不": 1059,
      "与": 1060,
      "业": 1061,
      "丨": 1062,
      "中": 1063,
      "么": 1064,
      "了": 1065,
      "什": 1066,
      "介": 1067,
      "代": 1068,
      "会": 1069,
      "作": 1070,
      "你": 1071,
      "供": 1072,
      "信": 1073,
      "傳": 1074,
      "入": 1075,
      "内": 1076,
      "出": 1077,
      "利": 1078,
      "勒": 1079,
      "升": 1080,
      "华": 1081,
      "南": 1082,
      "却": 1083,
      "古": 1084,
      "台": 1085,
      "史": 1086,
      "和": 1087,
      "咒": 1088,
      "哈": 1089,
      "問": 1090,
      "嘉": 1091,
      "四": 1092,
      "国": 1093,
      "國": 1094,
      "園": 1095,
      "在": 1096,
      "堂": 1097,
      "士": 1098,
      "多": 1099,
      "大": 1100,
      "天": 1101,
      "奥": 1102,
      "学": 1103,
      "學": 1104,
      "宇": 1105,
      "定": 1106,
      "宣": 1107,
      "小": 1108,
      "少": 1109,
      "尔": 1110,
      "尼": 1111,
      "局": 1112,
      "展": 1113,
      "川": 1114,
      "州": 1115,
      "工": 1116,
      "師": 1117,
      "年": 1118,
      "廟": 1119,
      "建": 1120,
      "强": 1121,
      "律": 1122,
      "德": 1123,
      "快": 1124,
      "急": 1125,
      "恐": 1126,
      "息": 1127,
      "悲": 1128,
      "我": 1129,
      "技": 1130,
      "拍": 1131,
      "提": 1132,
      "数": 1133,
      "文": 1134,
      "日": 1135,
      "时": 1136,
      "昆": 1137,
      "明": 1138,
      "是": 1139,
      "普": 1140,
      "最": 1141,
      "有": 1142,
      "期": 1143,
      "本": 1144,
      "机": 1145,
      "樂": 1146,
      "歌": 1147,
      "正": 1148,
      "武": 1149,
      "段": 1150,
      "気": 1151,
      "江": 1152,
      "池": 1153,
      "港": 1154,
      "湖": 1155,
      "滨": 1156,
      "澎": 1157,
      "澳": 1158,
      "灣": 1159,
      "片": 1160,
      "珍": 1161,
      "理": 1162,
      "生": 1163,
      "田": 1164,
      "畑": 1165,
      "發": 1166,
      "的": 1167,
      "盾": 1168,
      "看": 1169,
      "真": 1170,
      "短": 1171,
      "社": 1172,
      "神": 1173,
      "祠": 1174,
      "福": 1175,
      "科": 1176,
      "程": 1177,
      "立": 1178,
      "算": 1179,
      "簡": 1180,
      "系": 1181,
      "緊": 1182,
      "總": 1183,
      "给": 1184,
      "绵": 1185,
      "臺": 1186,
      "舞": 1187,
      "航": 1188,
      "苏": 1189,
      "葉": 1190,
      "蒙": 1191,
      "行": 1192,
      "西": 1193,
      "要": 1194,
      "解": 1195,
      "言": 1196,
      "試": 1197,
      "计": 1198,
      "身": 1199,
      "边": 1200,
      "达": 1201,
      "迪": 1202,
      "造": 1203,
      "過": 1204,
      "道": 1205,
      "達": 1206,
      "邦": 1207,
      "部": 1208,
      "重": 1209,
      "開": 1210,
      "闪": 1211,
      "阳": 1212,
      "院": 1213,
      "音": 1214,
      "題": 1215,
      "题": 1216,
      "館": 1217,
      "香": 1218,
      "験": 1219,
      "가": 1220,
      "각": 1221,
      "계": 1222,
      "고": 1223,
      "공": 1224,
      "과": 1225,
      "교": 1226,
      "그": 1227,
      "글": 1228,
      "급": 1229,
      "기": 1230,
      "까": 1231,
      "는": 1232,
      "능": 1233,
      "니": 1234,
      "대": 1235,
      "데": 1236,
      "도": 1237,
      "되": 1238,
      "든": 1239,
      "들": 1240,
      "등": 1241,
      "략": 1242,
      "러": 1243,
      "로": 1244,
      "론": 1245,
      "리": 1246,
      "마": 1247,
      "만": 1248,
      "명": 1249,
      "모": 1250,
      "문": 1251,
      "미": 1252,
      "박": 1253,
      "본": 1254,
      "분": 1255,
      "샤": 1256,
      "선": 1257,
      "설": 1258,
      "세": 1259,
      "소": 1260,
      "손": 1261,
      "수": 1262,
      "스": 1263,
      "식": 1264,
      "씨": 1265,
      "안": 1266,
      "알": 1267,
      "약": 1268,
      "어": 1269,
      "언": 1270,
      "엄": 1271,
      "영": 1272,
      "왕": 1273,
      "을": 1274,
      "이": 1275,
      "인": 1276,
      "있": 1277,
      "전": 1278,
      "조": 1279,
      "주": 1280,
      "준": 1281,
      "차": 1282,
      "초": 1283,
      "최": 1284,
      "쿠": 1285,
      "키": 1286,
      "턴": 1287,
      "토": 1288,
      "트": 1289,
      "파": 1290,
      "펜": 1291,
      "플": 1292,
      "학": 1293,
      "해": 1294,
      "화": 1295,
      "️": 1296,
      "︱": 1297,
      "！": 1298,
      "（": 1299,
      "）": 1300,
      "：": 1301,
      "｜": 1302,
      "￼": 1303,
      "𝐀": 1304,
      "𝐂": 1305,
      "𝐄": 1306,
      "𝐆": 1307,
      "𝐇": 1308,
      "𝐈": 1309,
      "𝐋": 1310,
      "𝐌": 1311,
      "𝐍": 1312,
      "𝐎": 1313,
      "𝐏": 1314,
      "𝐑": 1315,
      "𝐒": 1316,
      "𝐓": 1317,
      "𝐖": 1318,
      "𝐗": 1319,
      "𝐘": 1320,
      "𝐚": 1321,
      "𝐛": 1322,
      "𝐜": 1323,
      "𝐝": 1324,
      "𝐞": 1325,
      "𝐟": 1326,
      "𝐠": 1327,
      "𝐡": 1328,
      "𝐢": 1329,
      "𝐥": 1330,
      "𝐦": 1331,
      "𝐧": 1332,
      "𝐨": 1333,
      "𝐩": 1334,
      "𝐫": 1335,
      "𝐬": 1336,
      "𝐭": 1337,
      "𝐮": 1338,
      "𝐯": 1339,
      "𝐰": 1340,
      "𝐲": 1341,
      "𝑨": 1342,
      "𝑪": 1343,
      "𝑴": 1344,
      "𝑶": 1345,
      "𝑷": 1346,
      "𝑻": 1347,
      "𝒂": 1348,
      "𝒃": 1349,
      "𝒄": 1350,
      "𝒅": 1351,
      "𝒆": 1352,
      "𝒉": 1353,
      "𝒊": 1354,
      "𝒏": 1355,
      "𝒐": 1356,
      "𝒖": 1357,
      "𝒗": 1358,
      "𝒚": 1359,
      "𝓞": 1360,
      "𝓢": 1361,
      "𝓮": 1362,
      "𝓱": 1363,
      "𝓷": 1364,
      "𝓸": 1365,
      "𝓽": 1366,
      "𝗔": 1367,
      "𝗖": 1368,
      "𝗗": 1369,
      "𝗘": 1370,
      "𝗙": 1371,
      "𝗛": 1372,
      "𝗜": 1373,
      "𝗟": 1374,
      "𝗡": 1375,
      "𝗣": 1376,
      "𝗥": 1377,
      "𝗦": 1378,
      "𝗧": 1379,
      "𝗪": 1380,
      "𝗫": 1381,
      "𝗮": 1382,
      "𝗰": 1383,
      "𝗱": 1384,
      "𝗲": 1385,
      "𝗳": 1386,
      "𝗴": 1387,
      "𝗵": 1388,
      "𝗶": 1389,
      "𝗹": 1390,
      "𝗺": 1391,
      "𝗻": 1392,
      "𝗼": 1393,
      "𝗽": 1394,
      "𝗿": 1395,
      "𝘀": 1396,
      "𝘁": 1397,
      "𝘂": 1398,
      "𝘄": 1399,
      "𝘆": 1400,
      "𝘇": 1401,
      "𝟏": 1402,
      "𝟐": 1403,
      "𝟑": 1404,
      "𝟖": 1405,
      "𝟬": 1406,
      "𝟭": 1407,
      "𝟮": 1408,
      "𝟰": 1409,
      "𝟱": 1410,
      "𝟲": 1411,
      "𝟳": 1412,
      "𝟴": 1413,
      "𝟵": 1414,
      "🃏": 1415,
      "🅑": 1416,
      "🅢": 1417,
      "🅤": 1418,
      "🆚": 1419,
      "🇦": 1420,
      "🇨": 1421,
      "🇩": 1422,
      "🇮": 1423,
      "🇯": 1424,
      "🇲": 1425,
      "🇳": 1426,
      "🇵": 1427,
      "🇸": 1428,
      "🇹": 1429,
      "🇺": 1430,
      "🌂": 1431,
      "🌅": 1432,
      "🌆": 1433,
      "🌈": 1434,
      "🌉": 1435,
      "🌊": 1436,
      "🌋": 1437,
      "🌌": 1438,
      "🌍": 1439,
      "🌎": 1440,
      "🌏": 1441,
      "🌐": 1442,
      "🌙": 1443,
      "🌝": 1444,
      "🌞": 1445,
      "🌟": 1446,
      "🌠": 1447,
      "🌡": 1448,
      "🌧": 1449,
      "🌩": 1450,
      "🌪": 1451,
      "🌱": 1452,
      "🌳": 1453,
      "🌵": 1454,
      "🌷": 1455,
      "🌸": 1456,
      "🌹": 1457,
      "🌺": 1458,
      "🌼": 1459,
      "🌾": 1460,
      "🌿": 1461,
      "🍁": 1462,
      "🍉": 1463,
      "🍋": 1464,
      "🍌": 1465,
      "🍎": 1466,
      "🍏": 1467,
      "🍪": 1468,
      "🍬": 1469,
      "🍭": 1470,
      "🍳": 1471,
      "🍺": 1472,
      "🎀": 1473,
      "🎁": 1474,
      "🎃": 1475,
      "🎄": 1476,
      "🎇": 1477,
      "🎈": 1478,
      "🎉": 1479,
      "🎊": 1480,
      "🎓": 1481,
      "🎟": 1482,
      "🎠": 1483,
      "🎡": 1484,
      "🎤": 1485,
      "🎥": 1486,
      "🎧": 1487,
      "🎪": 1488,
      "🎬": 1489,
      "🎮": 1490,
      "🎯": 1491,
      "🎱": 1492,
      "🎳": 1493,
      "🎵": 1494,
      "🏀": 1495,
      "🏃": 1496,
      "🏆": 1497,
      "🏍": 1498,
      "🏎": 1499,
      "🏏": 1500,
      "🏗": 1501,
      "🏠": 1502,
      "🏫": 1503,
      "🏹": 1504,
      "🏻": 1505,
      "🏼": 1506,
      "🏽": 1507,
      "🐇": 1508,
      "🐊": 1509,
      "🐍": 1510,
      "🐐": 1511,
      "🐓": 1512,
      "🐕": 1513,
      "🐜": 1514,
      "🐝": 1515,
      "🐣": 1516,
      "🐦": 1517,
      "🐪": 1518,
      "🐶": 1519,
      "🐸": 1520,
      "🐻": 1521,
      "👀": 1522,
      "👁": 1523,
      "👆": 1524,
      "👇": 1525,
      "👈": 1526,
      "👉": 1527,
      "👊": 1528,
      "👋": 1529,
      "👌": 1530,
      "👍": 1531,
      "👏": 1532,
      "👑": 1533,
      "👟": 1534,
      "👥": 1535,
      "👦": 1536,
      "👧": 1537,
      "👨": 1538,
      "👩": 1539,
      "👷": 1540,
      "👹": 1541,
      "👻": 1542,
      "👽": 1543,
      "👾": 1544,
      "👿": 1545,
      "💀": 1546,
      "💁": 1547,
      "💅": 1548,
      "💇": 1549,
      "💉": 1550,
      "💊": 1551,
      "💋": 1552,
      "💌": 1553,
      "💎": 1554,
      "💐": 1555,
      "💓": 1556,
      "💔": 1557,
      "💖": 1558,
      "💗": 1559,
      "💘": 1560,
      "💙": 1561,
      "💚": 1562,
      "💛": 1563,
      "💜": 1564,
      "💝": 1565,
      "💞": 1566,
      "💡": 1567,
      "💢": 1568,
      "💣": 1569,
      "💥": 1570,
      "💦": 1571,
      "💧": 1572,
      "💨": 1573,
      "💩": 1574,
      "💪": 1575,
      "💫": 1576,
      "💯": 1577,
      "💰": 1578,
      "💻": 1579,
      "💿": 1580,
      "📂": 1581,
      "📈": 1582,
      "📉": 1583,
      "📌": 1584,
      "📐": 1585,
      "📑": 1586,
      "📒": 1587,
      "📕": 1588,
      "📖": 1589,
      "📗": 1590,
      "📘": 1591,
      "📙": 1592,
      "📚": 1593,
      "📜": 1594,
      "📝": 1595,
      "📡": 1596,
      "📢": 1597,
      "📣": 1598,
      "📦": 1599,
      "📱": 1600,
      "📲": 1601,
      "📵": 1602,
      "📸": 1603,
      "📺": 1604,
      "📽": 1605,
      "🔊": 1606,
      "🔋": 1607,
      "🔍": 1608,
      "🔎": 1609,
      "🔗": 1610,
      "🔝": 1611,
      "🔢": 1612,
      "🔥": 1613,
      "🔦": 1614,
      "🔧": 1615,
      "🔨": 1616,
      "🔩": 1617,
      "🔬": 1618,
      "🔭": 1619,
      "🔮": 1620,
      "🔴": 1621,
      "🔵": 1622,
      "🔷": 1623,
      "🔺": 1624,
      "🕉": 1625,
      "🕊": 1626,
      "🕓": 1627,
      "🕯": 1628,
      "🕳": 1629,
      "🕷": 1630,
      "🕸": 1631,
      "🖐": 1632,
      "🖕": 1633,
      "🖤": 1634,
      "🖥": 1635,
      "🖼": 1636,
      "🗝": 1637,
      "🗞": 1638,
      "🗿": 1639,
      "😀": 1640,
      "😁": 1641,
      "😂": 1642,
      "😃": 1643,
      "😄": 1644,
      "😅": 1645,
      "😆": 1646,
      "😇": 1647,
      "😈": 1648,
      "😉": 1649,
      "😊": 1650,
      "😋": 1651,
      "😌": 1652,
      "😍": 1653,
      "😎": 1654,
      "😏": 1655,
      "😐": 1656,
      "😑": 1657,
      "😔": 1658,
      "😘": 1659,
      "😛": 1660,
      "😜": 1661,
      "😝": 1662,
      "😞": 1663,
      "😠": 1664,
      "😡": 1665,
      "😢": 1666,
      "😣": 1667,
      "😤": 1668,
      "😥": 1669,
      "😦": 1670,
      "😧": 1671,
      "😨": 1672,
      "😩": 1673,
      "😪": 1674,
      "😫": 1675,
      "😬": 1676,
      "😭": 1677,
      "😮": 1678,
      "😯": 1679,
      "😰": 1680,
      "😱": 1681,
      "😲": 1682,
      "😳": 1683,
      "😴": 1684,
      "😵": 1685,
      "😶": 1686,
      "🙂": 1687,
      "🙄": 1688,
      "🙆": 1689,
      "🙉": 1690,
      "🙋": 1691,
      "🙌": 1692,
      "🙏": 1693,
      "🚀": 1694,
      "🚂": 1695,
      "🚆": 1696,
      "🚋": 1697,
      "🚌": 1698,
      "🚑": 1699,
      "🚗": 1700,
      "🚢": 1701,
      "🚥": 1702,
      "🚨": 1703,
      "🚩": 1704,
      "🚪": 1705,
      "🚫": 1706,
      "🚬": 1707,
      "🚲": 1708,
      "🛋": 1709,
      "🛏": 1710,
      "🛑": 1711,
      "🛠": 1712,
      "🛡": 1713,
      "🛩": 1714,
      "🛬": 1715,
      "🛰": 1716,
      "🛶": 1717,
      "🛸": 1718,
      "🟡": 1719,
      "🟣": 1720,
      "🟩": 1721,
      "🤌": 1722,
      "🤍": 1723,
      "🤐": 1724,
      "🤑": 1725,
      "🤒": 1726,
      "🤓": 1727,
      "🤔": 1728,
      "🤕": 1729,
      "🤖": 1730,
      "🤗": 1731,
      "🤘": 1732,
      "🤝": 1733,
      "🤟": 1734,
      "🤡": 1735,
      "🤢": 1736,
      "🤣": 1737,
      "🤤": 1738,
      "🤦": 1739,
      "🤧": 1740,
      "🤨": 1741,
      "🤩": 1742,
      "🤪": 1743,
      "🤫": 1744,
      "🤬": 1745,
      "🤭": 1746,
      "🤯": 1747,
      "🤰": 1748,
      "🤷": 1749,
      "🥀": 1750,
      "🥃": 1751,
      "🥕": 1752,
      "🥚": 1753,
      "🥥": 1754,
      "🥧": 1755,
      "🥪": 1756,
      "🥰": 1757,
      "🥱": 1758,
      "🥲": 1759,
      "🥳": 1760,
      "🥴": 1761,
      "🥵": 1762,
      "🥶": 1763,
      "🥷": 1764,
      "🥹": 1765,
      "🥺": 1766,
      "🥼": 1767,
      "🦂": 1768,
      "🦋": 1769,
      "🦖": 1770,
      "🦠": 1771,
      "🦷": 1772,
      "🦸": 1773,
      "🦹": 1774,
      "🧅": 1775,
      "🧊": 1776,
      "🧌": 1777,
      "🧐": 1778,
      "🧑": 1779,
      "🧟": 1780,
      "🧠": 1781,
      "🧥": 1782,
      "🧩": 1783,
      "🧪": 1784,
      "🧫": 1785,
      "🧬": 1786,
      "🧮": 1787,
      "🧲": 1788,
      "🧿": 1789,
      "🩺": 1790,
      "🪄": 1791,
      "🪓": 1792,
      "🪔": 1793,
      "🪙": 1794,
      "🪚": 1795,
      "🪛": 1796,
      "🪥": 1797,
      "🪨": 1798,
      "🪳": 1799,
      "🫀": 1800,
      "🫁": 1801,
      "🫠": 1802,
      "🫡": 1803,
      "🫢": 1804,
      "🫣": 1805,
      "🫨": 1806,
      "🫶": 1807,
      "en": 1808,
      "ce": 1809,
      "in": 1810,
      "sc": 1811,
      "er": 1812,
      "ien": 1813,
      "scien": 1814,
      "science": 1815,
      "on": 1816,
      "at": 1817,
      "an": 1818,
      "st": 1819,
      "ch": 1820,
      "or": 1821,
      "ic": 1822,
      "ar": 1823,
      "al": 1824,
      "ion": 1825,
      "as": 1826,
      "th": 1827,
      "ol": 1828,
      "ing": 1829,
      "re": 1830,
      "le": 1831,
      "te": 1832,
      "ts": 1833,
      "og": 1834,
      "ass": 1835,
      "cl": 1836,
      "sh": 1837,
      "class": 1838,
      "am": 1839,
      "em": 1840,
      "ct": 1841,
      "and": 1842,
      "olog": 1843,
      "ter": 1844,
      "it": 1845,
      "of": 1846,
      "ology": 1847,
      "ap": 1848,
      "se": 1849,
      "ro": 1850,
      "mat": 1851,
      "ed": 1852,
      "ex": 1853,
      "de": 1854,
      "ph": 1855,
      "ics": 1856,
      "om": 1857,
      "ist": 1858,
      "20": 1859,
      "ine": 1860,
      "ys": 1861,
      "ou": 1862,
      "vi": 1863,
      "math": 1864,
      "ra": 1865,
      "tech": 1866,
      "phys": 1867,
      "chem": 1868,
      "for": 1869,
      "ry": 1870,
      "to": 1871,
      "ation": 1872,
      "im": 1873,
      "10": 1874,
      "shor": 1875,
      "bi": 1876,
      "||": 1877,
      "un": 1878,
      "di": 1879,
      "et": 1880,
      "qu": 1881,
      "techn": 1882,
      "the": 1883,
      "est": 1884,
      "es": 1885,
      "istry": 1886,
      "maths": 1887,
      "chemistry": 1888,
      "physics": 1889,
      "technology": 1890,
      "ir": 1891,
      "ent": 1892,
      "li": 1893,
      "chap": 1894,
      "eng": 1895,
      "chapter": 1896,
      "shorts": 1897,
      "is": 1898,
      "ma": 1899,
      "la": 1900,
      "par": 1901,
      "ow": 1902,
      "ne": 1903,
      "mo": 1904,
      "com": 1905,
      "il": 1906,
      "bo": 1907,
      "um": 1908,
      "ical": 1909,
      "engine": 1910,
      "iv": 1911,
      "engineer": 1912,
      "202": 1913,
      "pro": 1914,
      "biology": 1915,
      "per": 1916,
      "engineering": 1917,
      "je": 1918,
      "ul": 1919,
      "estion": 1920,
      "ad": 1921,
      "tr": 1922,
      "question": 1923,
      "ss": 1924,
      "part": 1925,
      "ci": 1926,
      "us": 1927,
      "ut": 1928,
      "ur": 1929,
      "sp": 1930,
      "med": 1931,
      "comp": 1932,
      "ge": 1933,
      "ity": 1934,
      "by": 1935,
      "pl": 1936,
      "ers": 1937,
      "ay": 1938,
      "el": 1939,
      "up": 1940,
      "cer": 1941,
      "sir": 1942,
      "wi": 1943,
      "ure": 1944,
      "ant": 1945,
      "ction": 1946,
      "be": 1947,
      "cert": 1948,
      "wh": 1949,
      "ac": 1950,
      "you": 1951,
      "ncert": 1952,
      "ud": 1953,
      "how": 1954,
      "id": 1955,
      "ard": 1956,
      "with": 1957,
      "exam": 1958,
      "12": 1959,
      "vide": 1960,
      "lect": 1961,
      "hin": 1962,
      "video": 1963,
      "ort": 1964,
      "no": 1965,
      "fe": 1966,
      "gh": 1967,
      "ab": 1968,
      "con": 1969,
      "imp": 1970,
      "gen": 1971,
      "ke": 1972,
      "du": 1973,
      "exper": 1974,
      "201": 1975,
      "ject": 1976,
      "stud": 1977,
      "wor": 1978,
      "sol": 1979,
      "10th": 1980,
      "experim": 1981,
      "11": 1982,
      "ks": 1983,
      "ans": 1984,
      "pr": 1985,
      "questions": 1986,
      "su": 1987,
      "sy": 1988,
      "pre": 1989,
      "me": 1990,
      "bse": 1991,
      "new": 1992,
      "ot": 1993,
      "od": 1994,
      "all": 1995,
      "mar": 1996,
      "one": 1997,
      "hindi": 1998,
      "erci": 1999,
      "exerci": 2000,
      "exercise": 2001,
      "ve": 2002,
      "vir": 2003,
      "ents": 2004,
      "uter": 2005,
      "computer": 2006,
      "medic": 2007,
      "op": 2008,
      "our": 2009,
      "medicine": 2010,
      "ial": 2011,
      "are": 2012,
      "he": 2013,
      "pap": 2014,
      "cbse": 2015,
      "ti": 2016,
      "ric": 2017,
      "ri": 2018,
      "board": 2019,
      "gener": 2020,
      "project": 2021,
      "do": 2022,
      "ive": 2023,
      "ssc": 2024,
      "elect": 2025,
      "ate": 2026,
      "ok": 2027,
      "ag": 2028,
      "ver": 2029,
      "hi": 2030,
      "ution": 2031,
      "ment": 2032,
      "ep": 2033,
      "tric": 2034,
      "paper": 2035,
      "import": 2036,
      "mot": 2037,
      "bas": 2038,
      "neet": 2039,
      "dat": 2040,
      "ak": 2041,
      "co": 2042,
      "plan": 2043,
      "top": 2044,
      "str": 2045,
      "fa": 2046,
      "what": 2047,
      "ho": 2048,
      "ll": 2049,
      "lo": 2050,
      "experiment": 2051,
      "ash": 2052,
      "..": 2053,
      "ach": 2054,
      "life": 2055,
      "general": 2056,
      "ful": 2057,
      "lab": 2058,
      "col": 2059,
      "del": 2060,
      "data": 2061,
      "viral": 2062,
      "tra": 2063,
      "si": 2064,
      "्र": 2065,
      "2022": 2066,
      "net": 2067,
      "ght": 2068,
      "important": 2069,
      "fi": 2070,
      "work": 2071,
      "nd": 2072,
      "har": 2073,
      "we": 2074,
      "answ": 2075,
      "tu": 2076,
      "short": 2077,
      "fun": 2078,
      "ance": 2079,
      "gro": 2080,
      "gu": 2081,
      "sion": 2082,
      "ding": 2083,
      "dr": 2084,
      "mc": 2085,
      "ान": 2086,
      "gy": 2087,
      "less": 2088,
      "solution": 2089,
      "ram": 2090,
      "full": 2091,
      "gra": 2092,
      "stat": 2093,
      "model": 2094,
      "af": 2095,
      "po": 2096,
      "pla": 2097,
      "ory": 2098,
      "univ": 2099,
      "ang": 2100,
      "uc": 2101,
      "ear": 2102,
      "int": 2103,
      "2024": 2104,
      "ai": 2105,
      "best": 2106,
      "pra": 2107,
      "man": 2108,
      "study": 2109,
      "stem": 2110,
      "ition": 2111,
      "mcq": 2112,
      "hool": 2113,
      "school": 2114,
      "orts": 2115,
      "9th": 2116,
      "vs": 2117,
      "les": 2118,
      "unit": 2119,
      "group": 2120,
      "ber": 2121,
      "pc": 2122,
      "fic": 2123,
      "वि": 2124,
      "lesson": 2125,
      "book": 2126,
      "2023": 2127,
      "univers": 2128,
      "iz": 2129,
      "physical": 2130,
      "az": 2131,
      "ies": 2132,
      "ium": 2133,
      "2018": 2134,
      "colle": 2135,
      "chemical": 2136,
      "day": 2137,
      "duction": 2138,
      "lear": 2139,
      "pa": 2140,
      "test": 2141,
      "min": 2142,
      "ound": 2143,
      "ids": 2144,
      "ome": 2145,
      "ew": 2146,
      "ice": 2147,
      "revi": 2148,
      "hy": 2149,
      "gam": 2150,
      "tube": 2151,
      "का": 2152,
      "university": 2153,
      "pol": 2154,
      "num": 2155,
      "av": 2156,
      "act": 2157,
      "2021": 2158,
      "youtube": 2159,
      "der": 2160,
      "2019": 2161,
      "ree": 2162,
      "amil": 2163,
      "cu": 2164,
      "inter": 2165,
      "psc": 2166,
      "ill": 2167,
      "ath": 2168,
      "jee": 2169,
      "so": 2170,
      "lecture": 2171,
      "wat": 2172,
      "system": 2173,
      "car": 2174,
      "tricks": 2175,
      "ob": 2176,
      "pract": 2177,
      "my": 2178,
      "chan": 2179,
      "ary": 2180,
      "motion": 2181,
      "ster": 2182,
      "medium": 2183,
      "gk": 2184,
      "tes": 2185,
      "ज्": 2186,
      "ta": 2187,
      "ck": 2188,
      "mu": 2189,
      "sports": 2190,
      "learn": 2191,
      "12th": 2192,
      "std": 2193,
      "kids": 2194,
      "ous": 2195,
      "ved": 2196,
      "college": 2197,
      "way": 2198,
      "र्": 2199,
      "ka": 2200,
      "gan": 2201,
      "rb": 2202,
      "amaz": 2203,
      "ज्ञ": 2204,
      "able": 2205,
      "als": 2206,
      "ज्ञान": 2207,
      "electric": 2208,
      "syl": 2209,
      "tn": 2210,
      "out": 2211,
      "istics": 2212,
      "tamil": 2213,
      "tet": 2214,
      "labus": 2215,
      "//": 2216,
      "ple": 2217,
      "mag": 2218,
      "syllabus": 2219,
      "ds": 2220,
      "2020": 2221,
      "atom": 2222,
      "cse": 2223,
      "विज्ञान": 2224,
      "line": 2225,
      "vel": 2226,
      "year": 2227,
      "art": 2228,
      "your": 2229,
      "pt": 2230,
      "प्र": 2231,
      "plain": 2232,
      "action": 2233,
      "ser": 2234,
      "explain": 2235,
      "ble": 2236,
      "ps": 2237,
      "ations": 2238,
      "ational": 2239,
      "answer": 2240,
      "intro": 2241,
      "na": 2242,
      "ood": 2243,
      "sa": 2244,
      "्य": 2245,
      "के": 2246,
      "shot": 2247,
      "heal": 2248,
      "light": 2249,
      "amazing": 2250,
      "emat": 2251,
      "ack": 2252,
      "sub": 2253,
      "cy": 2254,
      "rrb": 2255,
      "educ": 2256,
      "prog": 2257,
      "ly": 2258,
      "statistics": 2259,
      "dy": 2260,
      "pe": 2261,
      "au": 2262,
      "organ": 2263,
      "br": 2264,
      "ha": 2265,
      "most": 2266,
      "why": 2267,
      "ms": 2268,
      "tren": 2269,
      "ore": 2270,
      "ali": 2271,
      "ens": 2272,
      "experiments": 2273,
      "os": 2274,
      "pu": 2275,
      "cts": 2276,
      "ld": 2277,
      "bu": 2278,
      "cour": 2279,
      "da": 2280,
      "can": 2281,
      "health": 2282,
      "home": 2283,
      "ole": 2284,
      "lish": 2285,
      "lu": 2286,
      "program": 2287,
      "hum": 2288,
      "ener": 2289,
      "stru": 2290,
      "equ": 2291,
      "gn": 2292,
      "reaction": 2293,
      "00": 2294,
      "trick": 2295,
      "ty": 2296,
      "english": 2297,
      "grade": 2298,
      "course": 2299,
      "ik": 2300,
      "water": 2301,
      "ute": 2302,
      "inst": 2303,
      "eas": 2304,
      "energy": 2305,
      "cial": 2306,
      "indi": 2307,
      "spe": 2308,
      "basic": 2309,
      "trending": 2310,
      "!!": 2311,
      "fin": 2312,
      "nt": 2313,
      "ari": 2314,
      "ong": 2315,
      "ctor": 2316,
      "sk": 2317,
      "ower": 2318,
      "ba": 2319,
      "rom": 2320,
      "introduction": 2321,
      "mathemat": 2322,
      "comm": 2323,
      "prepar": 2324,
      "free": 2325,
      "diy": 2326,
      "make": 2327,
      "utor": 2328,
      "ें": 2329,
      "11th": 2330,
      "met": 2331,
      "ces": 2332,
      "comple": 2333,
      "ess": 2334,
      "acad": 2335,
      "answers": 2336,
      "education": 2337,
      "wal": 2338,
      "csir": 2339,
      "cre": 2340,
      "ny": 2341,
      "tutor": 2342,
      "law": 2343,
      "age": 2344,
      "quiz": 2345,
      "sam": 2346,
      "िक": 2347,
      "academ": 2348,
      "electr": 2349,
      "easy": 2350,
      "rail": 2351,
      "care": 2352,
      "king": 2353,
      "students": 2354,
      "human": 2355,
      "tutorial": 2356,
      "from": 2357,
      "set": 2358,
      "01": 2359,
      "tw": 2360,
      "ya": 2361,
      "sport": 2362,
      "8th": 2363,
      "app": 2364,
      "gcse": 2365,
      "hind": 2366,
      "ime": 2367,
      "air": 2368,
      "fer": 2369,
      "mechan": 2370,
      "mart": 2371,
      "ther": 2372,
      "mach": 2373,
      "mathematics": 2374,
      "cur": 2375,
      "behind": 2376,
      "solutions": 2377,
      "gl": 2378,
      "cture": 2379,
      "railway": 2380,
      "ivity": 2381,
      "ran": 2382,
      "go": 2383,
      "ins": 2384,
      "practical": 2385,
      "14": 2386,
      "teach": 2387,
      "gd": 2388,
      "complete": 2389,
      "ft": 2390,
      "fac": 2391,
      "ip": 2392,
      "tion": 2393,
      "jects": 2394,
      "15": 2395,
      "ம்": 2396,
      "से": 2397,
      "cell": 2398,
      "dra": 2399,
      "mi": 2400,
      "ना": 2401,
      "student": 2402,
      "term": 2403,
      "explained": 2404,
      "bon": 2405,
      "get": 2406,
      "now": 2407,
      "bh": 2408,
      "ted": 2409,
      "simp": 2410,
      "use": 2411,
      "mahar": 2412,
      "revision": 2413,
      "preparation": 2414,
      "ence": 2415,
      "ntpc": 2416,
      "ast": 2417,
      "national": 2418,
      "mation": 2419,
      "ani": 2420,
      "box": 2421,
      "ashtra": 2422,
      "working": 2423,
      "maharashtra": 2424,
      "sal": 2425,
      "back": 2426,
      "ide": 2427,
      "conce": 2428,
      "food": 2429,
      "form": 2430,
      "its": 2431,
      "power": 2432,
      "rap": 2433,
      "ication": 2434,
      "matter": 2435,
      "iit": 2436,
      "bat": 2437,
      "ef": 2438,
      "ni": 2439,
      "sur": 2440,
      "ல்": 2441,
      "ிய": 2442,
      "review": 2443,
      "instit": 2444,
      "master": 2445,
      "youtubeshorts": 2446,
      "13": 2447,
      "ार": 2448,
      "this": 2449,
      "mad": 2450,
      "structure": 2451,
      "fir": 2452,
      "sign": 2453,
      "academy": 2454,
      "cul": 2455,
      "bra": 2456,
      "medical": 2457,
      "phone": 2458,
      "pi": 2459,
      "100": 2460,
      "ru": 2461,
      "cess": 2462,
      "bot": 2463,
      "using": 2464,
      "ia": 2465,
      "sl": 2466,
      "real": 2467,
      "notes": 2468,
      "institute": 2469,
      "gg": 2470,
      "mon": 2471,
      "activity": 2472,
      "machine": 2473,
      "explan": 2474,
      "series": 2475,
      "explanation": 2476,
      "cra": 2477,
      "mal": 2478,
      "bl": 2479,
      "ii": 2480,
      "object": 2481,
      "ator": 2482,
      "ek": 2483,
      "ming": 2484,
      "में": 2485,
      "mole": 2486,
      "win": 2487,
      "...": 2488,
      "सा": 2489,
      "exams": 2490,
      "key": 2491,
      "social": 2492,
      "cor": 2493,
      "ev": 2494,
      "fl": 2495,
      "30": 2496,
      "ace": 2497,
      "nam": 2498,
      "char": 2499,
      "18": 2500,
      "mic": 2501,
      "motiv": 2502,
      "view": 2503,
      "learning": 2504,
      "first": 2505,
      "projects": 2506,
      "funny": 2507,
      "electricity": 2508,
      "lc": 2509,
      "dig": 2510,
      "live": 2511,
      "very": 2512,
      "india": 2513,
      "aci": 2514,
      "nat": 2515,
      "time": 2516,
      "anim": 2517,
      "res": 2518,
      "not": 2519,
      "்க": 2520,
      "repro": 2521,
      "्या": 2522,
      "mis": 2523,
      "lay": 2524,
      "viralvideo": 2525,
      "cam": 2526,
      "vo": 2527,
      "ati": 2528,
      "stand": 2529,
      "about": 2530,
      "py": 2531,
      "led": 2532,
      "number": 2533,
      "cr": 2534,
      "jun": 2535,
      "ton": 2536,
      "lah": 2537,
      "kar": 2538,
      "ner": 2539,
      "ulti": 2540,
      "ala": 2541,
      "classes": 2542,
      "design": 2543,
      "upsc": 2544,
      "jo": 2545,
      "sum": 2546,
      "है": 2547,
      "dif": 2548,
      "organic": 2549,
      "know": 2550,
      "cent": 2551,
      "की": 2552,
      "magnet": 2553,
      "table": 2554,
      "space": 2555,
      "objective": 2556,
      "wa": 2557,
      "oll": 2558,
      "proble": 2559,
      "super": 2560,
      "equations": 2561,
      "ju": 2562,
      "after": 2563,
      "facts": 2564,
      "19": 2565,
      "वा": 2566,
      "world": 2567,
      "mcqs": 2568,
      "log": 2569,
      "nu": 2570,
      "pat": 2571,
      "श्": 2572,
      "high": 2573,
      "career": 2574,
      "कर": 2575,
      "press": 2576,
      "police": 2577,
      "cgl": 2578,
      "sun": 2579,
      "ank": 2580,
      "buil": 2581,
      "sound": 2582,
      "क्": 2583,
      "ref": 2584,
      "vious": 2585,
      "fect": 2586,
      "tips": 2587,
      "bang": 2588,
      "gre": 2589,
      "sof": 2590,
      "त्": 2591,
      "poo": 2592,
      "simple": 2593,
      "7th": 2594,
      "arts": 2595,
      "hib": 2596,
      "25": 2597,
      "previous": 2598,
      "electron": 2599,
      "boxing": 2600,
      "her": 2601,
      "inte": 2602,
      "bil": 2603,
      "ki": 2604,
      "exhib": 2605,
      "cow": 2606,
      "fy": 2607,
      "ving": 2608,
      "ित": 2609,
      "boo": 2610,
      "body": 2611,
      "plication": 2612,
      "numer": 2613,
      "train": 2614,
      "gaming": 2615,
      "aq": 2616,
      "ca": 2617,
      "mem": 2618,
      "स्": 2619,
      "tri": 2620,
      "nov": 2621,
      "fication": 2622,
      "tal": 2623,
      "wb": 2624,
      "ana": 2625,
      "fair": 2626,
      "bre": 2627,
      "hist": 2628,
      "metals": 2629,
      "cal": 2630,
      "cle": 2631,
      "सं": 2632,
      "ult": 2633,
      "lugu": 2634,
      "micro": 2635,
      "exhibition": 2636,
      "3d": 2637,
      "anal": 2638,
      "bio": 2639,
      "practice": 2640,
      "gt": 2641,
      "peri": 2642,
      "numerical": 2643,
      "mer": 2644,
      "non": 2645,
      "ode": 2646,
      "envir": 2647,
      "onment": 2648,
      "force": 2649,
      "plants": 2650,
      "differ": 2651,
      "hd": 2652,
      "kh": 2653,
      "sing": 2654,
      "ism": 2655,
      "प्रश्": 2656,
      "wallah": 2657,
      "environment": 2658,
      "ele": 2659,
      "multi": 2660,
      "rit": 2661,
      "news": 2662,
      "bal": 2663,
      "jan": 2664,
      "ments": 2665,
      "ses": 2666,
      "cir": 2667,
      "ural": 2668,
      "curr": 2669,
      "ight": 2670,
      "या": 2671,
      "disc": 2672,
      "bsc": 2673,
      "omet": 2674,
      "bin": 2675,
      "gur": 2676,
      "্র": 2677,
      "era": 2678,
      "softw": 2679,
      "erial": 2680,
      "level": 2681,
      "reactions": 2682,
      "lat": 2683,
      "smart": 2684,
      "scri": 2685,
      "ick": 2686,
      "show": 2687,
      "trans": 2688,
      "bet": 2689,
      "mr": 2690,
      "ns": 2691,
      "war": 2692,
      "arch": 2693,
      "telugu": 2694,
      "software": 2695,
      "ball": 2696,
      "blo": 2697,
      "मा": 2698,
      "robot": 2699,
      "material": 2700,
      "example": 2701,
      "solved": 2702,
      "carbon": 2703,
      "mission": 2704,
      "current": 2705,
      "16": 2706,
      "cut": 2707,
      "fr": 2708,
      "atory": 2709,
      "page": 2710,
      "bangla": 2711,
      "ga": 2712,
      "ges": 2713,
      "ios": 2714,
      "port": 2715,
      "sat": 2716,
      "zz": 2717,
      "02": 2718,
      "??": 2719,
      "mus": 2720,
      "ush": 2721,
      "atoms": 2722,
      "ியல்": 2723,
      "period": 2724,
      "dem": 2725,
      "fut": 2726,
      "end": 2727,
      "itive": 2728,
      "isode": 2729,
      "contr": 2730,
      "gi": 2731,
      "hu": 2732,
      "hand": 2733,
      "pes": 2734,
      "san": 2735,
      "sem": 2736,
      "पा": 2737,
      "scop": 2738,
      "that": 2739,
      "amik": 2740,
      "marks": 2741,
      "hyamik": 2742,
      "madhyamik": 2743,
      "history": 2744,
      "que": 2745,
      "ils": 2746,
      "sslc": 2747,
      "mechanical": 2748,
      "प्रश्न": 2749,
      "gate": 2750,
      "ste": 2751,
      "ase": 2752,
      "episode": 2753,
      "bility": 2754,
      "ting": 2755,
      "पर": 2756,
      "ssion": 2757,
      "topic": 2758,
      "status": 2759,
      "ficial": 2760,
      "tnpsc": 2761,
      "reproduction": 2762,
      "24": 2763,
      "gs": 2764,
      "online": 2765,
      "gr": 2766,
      "tv": 2767,
      "arma": 2768,
      "ysis": 2769,
      "formation": 2770,
      "based": 2771,
      "lim": 2772,
      "odi": 2773,
      "over": 2774,
      "sha": 2775,
      "types": 2776,
      "future": 2777,
      "wing": 2778,
      "like": 2779,
      "adv": 2780,
      "eplay": 2781,
      "shortvideo": 2782,
      "gameplay": 2783,
      "cules": 2784,
      "teacher": 2785,
      "cou": 2786,
      "त्र": 2787,
      "বি": 2788,
      "under": 2789,
      "compet": 2790,
      "ell": 2791,
      "prof": 2792,
      "does": 2793,
      "job": 2794,
      "kan": 2795,
      "ord": 2796,
      "meth": 2797,
      "far": 2798,
      "ों": 2799,
      "்ப": 2800,
      "ating": 2801,
      "vedant": 2802,
      "concept": 2803,
      "ite": 2804,
      "ink": 2805,
      "quant": 2806,
      "spir": 2807,
      "21": 2808,
      "bs": 2809,
      "red": 2810,
      "making": 2811,
      "week": 2812,
      "programming": 2813,
      "multiplication": 2814,
      "vol": 2815,
      "off": 2816,
      "compound": 2817,
      "doctor": 2818,
      "gyan": 2819,
      "poly": 2820,
      "method": 2821,
      "cs": 2822,
      "jar": 2823,
      "।।": 2824,
      "state": 2825,
      "formu": 2826,
      "batch": 2827,
      "standard": 2828,
      "periodic": 2829,
      "gad": 2830,
      "song": 2831,
      "|#": 2832,
      "जी": 2833,
      "ের": 2834,
      "ream": 2835,
      "fast": 2836,
      "vedantu": 2837,
      "formula": 2838,
      "50": 2839,
      "6th": 2840,
      "beng": 2841,
      "ten": 2842,
      "omen": 2843,
      "function": 2844,
      "ার": 2845,
      "alam": 2846,
      "ja": 2847,
      "son": 2848,
      "lied": 2849,
      "puzz": 2850,
      "books": 2851,
      "17": 2852,
      "ian": 2853,
      "nad": 2854,
      "pk": 2855,
      "🔥🔥": 2856,
      "ital": 2857,
      "gets": 2858,
      "motivation": 2859,
      "scope": 2860,
      "ctet": 2861,
      "dist": 2862,
      "ji": 2863,
      "यन": 2864,
      "ane": 2865,
      "ning": 2866,
      "ள்": 2867,
      "ated": 2868,
      "chsl": 2869,
      "raction": 2870,
      "motor": 2871,
      "molecules": 2872,
      "training": 2873,
      "dow": 2874,
      "और": 2875,
      "্য": 2876,
      "forens": 2877,
      "plant": 2878,
      "electro": 2879,
      "environmental": 2880,
      "ification": 2881,
      "mp": 2882,
      "sab": 2883,
      "uk": 2884,
      "lec": 2885,
      "bihar": 2886,
      "problem": 2887,
      "nutr": 2888,
      "1st": 2889,
      "60": 2890,
      "iphone": 2891,
      "रा": 2892,
      "cel": 2893,
      "innov": 2894,
      "thing": 2895,
      "secon": 2896,
      "deta": 2897,
      "agric": 2898,
      "grav": 2899,
      "forensic": 2900,
      "nutrition": 2901,
      "ination": 2902,
      "craft": 2903,
      "ben": 2904,
      "bach": 2905,
      "ker": 2906,
      "vers": 2907,
      "नि": 2908,
      "ান": 2909,
      "enter": 2910,
      "cet": 2911,
      "let": 2912,
      "lection": 2913,
      "class10": 2914,
      "process": 2915,
      "suc": 2916,
      "if": 2917,
      "ox": 2918,
      "ति": 2919,
      "thro": 2920,
      "ame": 2921,
      "laws": 2922,
      "effect": 2923,
      "oper": 2924,
      "pts": 2925,
      "biom": 2926,
      "sugg": 2927,
      "meas": 2928,
      "ashu": 2929,
      "interview": 2930,
      "क्ष": 2931,
      "bers": 2932,
      "cro": 2933,
      "ugh": 2934,
      "්‍": 2935,
      "ind": 2936,
      "magic": 2937,
      "kum": 2938,
      "xt": 2939,
      "ता": 2940,
      "पू": 2941,
      "shi": 2942,
      "edy": 2943,
      "devel": 2944,
      "admission": 2945,
      "eld": 2946,
      "elor": 2947,
      "gujar": 2948,
      "earth": 2949,
      "publ": 2950,
      "camp": 2951,
      "bengali": 2952,
      "bachelor": 2953,
      "suggestion": 2954,
      "aw": 2955,
      "ason": 2956,
      "tsh": 2957,
      "applied": 2958,
      "every": 2959,
      "gree": 2960,
      "more": 2961,
      "tgt": 2962,
      "ப்ப": 2963,
      "ship": 2964,
      "search": 2965,
      "edical": 2966,
      "concepts": 2967,
      "ometry": 2968,
      "music": 2969,
      "2nd": 2970,
      "gon": 2971,
      "ytsh": 2972,
      "को": 2973,
      "theory": 2974,
      "adity": 2975,
      "june": 2976,
      "puzzle": 2977,
      "val": 2978,
      "ye": 2979,
      "ino": 2980,
      "star": 2981,
      "cha": 2982,
      "ities": 2983,
      "edus": 2984,
      "unboxing": 2985,
      "weight": 2986,
      "athon": 2987,
      "acid": 2988,
      "quantum": 2989,
      "gas": 2990,
      "lli": 2991,
      "mam": 2992,
      "will": 2993,
      "ने": 2994,
      "strate": 2995,
      "gadgets": 2996,
      "91": 2997,
      "bro": 2998,
      "bpsc": 2999,
      "ug": 3000,
      "deep": 3001,
      "papers": 3002,
      "bases": 3003,
      "brain": 3004,
      "edusmart": 3005,
      "eer": 3006,
      "fo": 3007,
      "kit": 3008,
      "tre": 3009,
      "ले": 3010,
      "reet": 3011,
      "ement": 3012,
      "dio": 3013,
      "living": 3014,
      "ayalam": 3015,
      "fact": 3016,
      "side": 3017,
      "natural": 3018,
      "animal": 3019,
      "analysis": 3020,
      "advance": 3021,
      "जीव": 3022,
      "sabaq": 3023,
      "kumar": 3024,
      "ger": 3025,
      "nur": 3026,
      "pur": 3027,
      "sw": 3028,
      "ال": 3029,
      "erce": 3030,
      "old": 3031,
      "moder": 3032,
      "marathon": 3033,
      "cuet": 3034,
      "organis": 3035,
      "malayalam": 3036,
      "control": 3037,
      "22": 3038,
      "bt": 3039,
      "cat": 3040,
      "dro": 3041,
      "sim": 3042,
      "তি": 3043,
      "information": 3044,
      "ofun": 3045,
      "degree": 3046,
      "pharma": 3047,
      "vision": 3048,
      "videos": 3049,
      "heat": 3050,
      "colleges": 3051,
      "equation": 3052,
      "commerce": 3053,
      "through": 3054,
      "measure": 3055,
      "strategy": 3056,
      "bar": 3057,
      "lt": 3058,
      "tofun": 3059,
      "वं": 3060,
      "ும்": 3061,
      "cho": 3062,
      "chang": 3063,
      "alp": 3064,
      "research": 3065,
      "she": 3066,
      "oma": 3067,
      "plus": 3068,
      "howtofun": 3069,
      "works": 3070,
      "guy": 3071,
      "play": 3072,
      "subject": 3073,
      "subscri": 3074,
      "ytshorts": 3075,
      "modern": 3076,
      "howtofunda": 3077,
      "don": 3078,
      "sci": 3079,
      "athi": 3080,
      "ions": 3081,
      "official": 3082,
      "combin": 3083,
      "add": 3084,
      "els": 3085,
      "special": 3086,
      "drawing": 3087,
      "electronics": 3088,
      "agricult": 3089,
      "dam": 3090,
      "gar": 3091,
      "ness": 3092,
      "some": 3093,
      "women": 3094,
      "க்க": 3095,
      "ina": 3096,
      "ative": 3097,
      "chil": 3098,
      "comedy": 3099,
      "gradu": 3100,
      "watch": 3101,
      "two": 3102,
      "compounds": 3103,
      "tics": 3104,
      "ual": 3105,
      "yle": 3106,
      "एवं": 3107,
      "तर": 3108,
      "ould": 3109,
      "newton": 3110,
      "reflection": 3111,
      "competitive": 3112,
      "aditya": 3113,
      "cap": 3114,
      "center": 3115,
      "found": 3116,
      "tar": 3117,
      "vari": 3118,
      "றி": 3119,
      "வியல்": 3120,
      "score": 3121,
      "stu": 3122,
      "sel": 3123,
      "dipl": 3124,
      "come": 3125,
      "ghts": 3126,
      "mark": 3127,
      "basics": 3128,
      "numbers": 3129,
      "animals": 3130,
      "ias": 3131,
      "utes": 3132,
      "்த": 3133,
      "che": 3134,
      "ale": 3135,
      "thon": 3136,
      "classification": 3137,
      "bile": 3138,
      "quar": 3139,
      "pres": 3140,
      "vek": 3141,
      "cool": 3142,
      "र्ण": 3143,
      "calcul": 3144,
      "gujarati": 3145,
      "aut": 3146,
      "mh": 3147,
      "pot": 3148,
      "मह": 3149,
      "ient": 3150,
      "ological": 3151,
      "vigyan": 3152,
      "big": 3153,
      "duct": 3154,
      "acheer": 3155,
      "minutes": 3156,
      "samacheer": 3157,
      "raph": 3158,
      "diploma": 3159,
      "23": 3160,
      "kman": 3161,
      "ped": 3162,
      "sis": 3163,
      "tur": 3164,
      "क्या": 3165,
      "ori": 3166,
      "expl": 3167,
      "modu": 3168,
      "proces": 3169,
      "computers": 3170,
      "animation": 3171,
      "सायन": 3172,
      "build": 3173,
      "organisms": 3174,
      "gin": 3175,
      "mom": 3176,
      "nuc": 3177,
      "va": 3178,
      "sho": 3179,
      "atomic": 3180,
      "ideas": 3181,
      "digital": 3182,
      "acids": 3183,
      "pressure": 3184,
      "wbbse": 3185,
      "elements": 3186,
      "kannad": 3187,
      "innovation": 3188,
      "kannada": 3189,
      "city": 3190,
      "hol": 3191,
      "ix": 3192,
      "jay": 3193,
      "tour": 3194,
      "गण": 3195,
      "सम": 3196,
      "ன்": 3197,
      "iner": 3198,
      "any": 3199,
      "vil": 3200,
      "vivek": 3201,
      "ester": 3202,
      "nel": 3203,
      "when": 3204,
      "fire": 3205,
      "afns": 3206,
      "game": 3207,
      "myster": 3208,
      "dynam": 3209,
      "indian": 3210,
      "odia": 3211,
      "jobs": 3212,
      "पूर्ण": 3213,
      "public": 3214,
      "fit": 3215,
      "mit": 3216,
      "pd": 3217,
      "itation": 3218,
      "apple": 3219,
      "roun": 3220,
      "dec": 3221,
      "dise": 3222,
      "ential": 3223,
      "urdu": 3224,
      "2017": 3225,
      "agram": 3226,
      "field": 3227,
      "mini": 3228,
      "courses": 3229,
      "ranjan": 3230,
      "green": 3231,
      "break": 3232,
      "eraj": 3233,
      "details": 3234,
      "success": 3235,
      "develop": 3236,
      "gir": 3237,
      "hor": 3238,
      "hel": 3239,
      "nit": 3240,
      "ere": 3241,
      "anc": 3242,
      "icse": 3243,
      "around": 3244,
      "heart": 3245,
      "boards": 3246,
      "generator": 3247,
      "importance": 3248,
      "base": 3249,
      "materials": 3250,
      "down": 3251,
      "गणित": 3252,
      "03": 3253,
      "hai": 3254,
      "list": 3255,
      "mass": 3256,
      "n3": 3257,
      "sb": 3258,
      "tle": 3259,
      "அறி": 3260,
      "into": 3261,
      "neeraj": 3262,
      "ize": 3263,
      "final": 3264,
      "electrical": 3265,
      "biomedical": 3266,
      "processes": 3267,
      "pw": 3268,
      "मान": 3269,
      "वर्": 3270,
      "ক্": 3271,
      "edit": 3272,
      "bits": 3273,
      "made": 3274,
      "proper": 3275,
      "marathi": 3276,
      "labor": 3277,
      "magnetic": 3278,
      "ah": 3279,
      "bul": 3280,
      "han": 3281,
      "jr": 3282,
      "jor": 3283,
      "ko": 3284,
      "mce": 3285,
      "ng": 3286,
      "tis": 3287,
      "zone": 3288,
      "जा": 3289,
      "ला": 3290,
      "scienti": 3291,
      "requ": 3292,
      "respir": 3293,
      "tem": 3294,
      "rock": 3295,
      "ally": 3296,
      "pcs": 3297,
      "commun": 3298,
      "teaching": 3299,
      "python": 3300,
      "அறிவியல்": 3301,
      "ham": 3302,
      "pun": 3303,
      "tec": 3304,
      "whi": 3305,
      "feed": 3306,
      "place": 3307,
      "mind": 3308,
      "linear": 3309,
      "advanced": 3310,
      "module": 3311,
      "good": 3312,
      "ish": 3313,
      "lm": 3314,
      "nav": 3315,
      "pass": 3316,
      "rd": 3317,
      "vent": 3318,
      "ती": 3319,
      "পর": 3320,
      "init": 3321,
      "vid": 3322,
      "ety": 3323,
      "ney": 3324,
      "perform": 3325,
      "polit": 3326,
      "salts": 3327,
      "winner": 3328,
      "त्व": 3329,
      "intelli": 3330,
      "subscribe": 3331,
      "bla": 3332,
      "यो": 3333,
      "ons": 3334,
      "biological": 3335,
      "dis": 3336,
      "lip": 3337,
      "max": 3338,
      "ular": 3339,
      ".,": 3340,
      "famil": 3341,
      "hsc": 3342,
      "ates": 3343,
      "ano": 3344,
      "enge": 3345,
      "prin": 3346,
      "prim": 3347,
      "topics": 3348,
      "dren": 3349,
      "past": 3350,
      "channel": 3351,
      "करण": 3352,
      "circu": 3353,
      "scientific": 3354,
      "family": 3355,
      "tit": 3356,
      "প্র": 3357,
      "ங்க": 3358,
      "story": 3359,
      "oly": 3360,
      "ines": 3361,
      "ouse": 3362,
      "solve": 3363,
      "ota": 3364,
      "face": 3365,
      "love": 3366,
      "rank": 3367,
      "blood": 3368,
      "second": 3369,
      "campus": 3370,
      "children": 3371,
      "bus": 3372,
      "hit": 3373,
      "ples": 3374,
      "sm": 3375,
      "vlog": 3376,
      "हो": 3377,
      "stream": 3378,
      "chall": 3379,
      "may": 3380,
      "gence": 3381,
      "code": 3382,
      "ween": 3383,
      "building": 3384,
      "trigon": 3385,
      "between": 3386,
      "pdf": 3387,
      "tissu": 3388,
      "initial": 3389,
      "ae": 3390,
      "path": 3391,
      "tlm": 3392,
      "writ": 3393,
      "ature": 3394,
      "alge": 3395,
      "ogen": 3396,
      "should": 3397,
      "ita": 3398,
      "matri": 3399,
      "tool": 3400,
      "diagram": 3401,
      "sssc": 3402,
      "afric": 3403,
      "surroun": 3404,
      "charge": 3405,
      "just": 3406,
      "numericals": 3407,
      "quarter": 3408,
      "mcevo": 3409,
      "algebra": 3410,
      "ban": 3411,
      "bri": 3412,
      "cbt": 3413,
      "fat": 3414,
      "pure": 3415,
      "wan": 3416,
      "was": 3417,
      "ero": 3418,
      "stra": 3419,
      "ragd": 3420,
      "ply": 3421,
      "coord": 3422,
      "cycle": 3423,
      "auto": 3424,
      "problems": 3425,
      "different": 3426,
      "ragdoll": 3427,
      "flu": 3428,
      "ique": 3429,
      "mts": 3430,
      "pak": 3431,
      "गा": 3432,
      "दा": 3433,
      "ली": 3434,
      "মা": 3435,
      "ors": 3436,
      "amc": 3437,
      "excel": 3438,
      "pho": 3439,
      "ysir": 3440,
      "und": 3441,
      "look": 3442,
      "000": 3443,
      "nursing": 3444,
      "development": 3445,
      "laboratory": 3446,
      "surrounding": 3447,
      "cad": 3448,
      "dar": 3449,
      "rance": 3450,
      "sup": 3451,
      "ரு": 3452,
      "anch": 3453,
      "ogy": 3454,
      "major": 3455,
      "proba": 3456,
      "solar": 3457,
      "solid": 3458,
      "meet": 3459,
      "option": 3460,
      "head": 3461,
      "ties": 3462,
      "aching": 3463,
      "skill": 3464,
      "crash": 3465,
      "intelligence": 3466,
      "mcevoy": 3467,
      "won": 3468,
      "read": 3469,
      "reels": 3470,
      "entrance": 3471,
      "need": 3472,
      "tran": 3473,
      "syn": 3474,
      "whats": 3475,
      "delhi": 3476,
      "manag": 3477,
      "minute": 3478,
      "bhush": 3479,
      "sung": 3480,
      "difference": 3481,
      "mystery": 3482,
      "dynamics": 3483,
      "probability": 3484,
      "bhushan": 3485,
      "eth": 3486,
      "fest": 3487,
      "msc": 3488,
      "્ર": 3489,
      "indu": 3490,
      "exp": 3491,
      "const": 3492,
      "interest": 3493,
      "struction": 3494,
      "aqa": 3495,
      "पाठ": 3496,
      "girl": 3497,
      "which": 3498,
      "dna": 3499,
      "ie": 3500,
      "kid": 3501,
      "tim": 3502,
      "ze": 3503,
      "िया": 3504,
      "reg": 3505,
      "omy": 3506,
      "200": 3507,
      "ison": 3508,
      "mobile": 3509,
      "ily": 3510,
      "tru": 3511,
      "demo": 3512,
      "gravitation": 3513,
      "properties": 3514,
      "bel": 3515,
      "dine": 3516,
      "dou": 3517,
      "luc": 3518,
      "ring": 3519,
      "squ": 3520,
      "வே": 3521,
      "leep": 3522,
      "sex": 3523,
      "room": 3524,
      "ims": 3525,
      "technic": 3526,
      "loss": 3527,
      "speed": 3528,
      "essay": 3529,
      "cret": 3530,
      "ledge": 3531,
      "knowledge": 3532,
      "fying": 3533,
      "functions": 3534,
      "treat": 3535,
      "foundation": 3536,
      "nuclear": 3537,
      "political": 3538,
      "whatsapp": 3539,
      "dinesh": 3540,
      "bk": 3541,
      "hard": 3542,
      "kya": 3543,
      "mir": 3544,
      "pf": 3545,
      "vin": 3546,
      "कै": 3547,
      "ക്": 3548,
      "inary": 3549,
      "ience": 3550,
      "rel": 3551,
      "ress": 3552,
      "clin": 3553,
      "session": 3554,
      "raj": 3555,
      "iler": 3556,
      "ives": 3557,
      "aya": 3558,
      "musc": 3559,
      "salt": 3560,
      "pyq": 3561,
      "refraction": 3562,
      "guru": 3563,
      "বিজ": 3564,
      "ltd": 3565,
      "agriculture": 3566,
      "performance": 3567,
      "princi": 3568,
      "hal": 3569,
      "lam": 3570,
      "दे": 3571,
      "anu": 3572,
      "devi": 3573,
      "percent": 3574,
      "fects": 3575,
      "genet": 3576,
      "games": 3577,
      "international": 3578,
      "have": 3579,
      "simpli": 3580,
      "discu": 3581,
      "african": 3582,
      "05": 3583,
      "360": 3584,
      "jour": 3585,
      "ket": 3586,
      "lap": 3587,
      "nor": 3588,
      "tist": 3589,
      "ते": 3590,
      "था": 3591,
      "िए": 3592,
      "வி": 3593,
      "start": 3594,
      "relat": 3595,
      "text": 3596,
      "amcet": 3597,
      "mate": 3598,
      "shortsfeed": 3599,
      "mains": 3600,
      "sssb": 3601,
      "march": 3602,
      "....": 3603,
      "fiction": 3604,
      "cular": 3605,
      "්‍ය": 3606,
      "measurement": 3607,
      "challenge": 3608,
      "photo": 3609,
      "cop": 3610,
      "eamcet": 3611,
      "fil": 3612,
      "ners": 3613,
      "uary": 3614,
      "zo": 3615,
      "जन": 3616,
      "িক": 3617,
      "ற்": 3618,
      "ത്": 3619,
      "inside": 3620,
      "ande": 3621,
      "iness": 3622,
      "thesis": 3623,
      "shortsvideo": 3624,
      "parts": 3625,
      "ump": 3626,
      "partment": 3627,
      "usion": 3628,
      "upsssc": 3629,
      "anti": 3630,
      "without": 3631,
      "web": 3632,
      "hydro": 3633,
      "change": 3634,
      "samsung": 3635,
      "mechanism": 3636,
      "motives": 3637,
      "fyp": 3638,
      "clean": 3639,
      "क्षा": 3640,
      "dament": 3641,
      "महत्व": 3642,
      "management": 3643,
      "26": 3644,
      ":-": 3645,
      "bad": 3646,
      "eu": 3647,
      "fric": 3648,
      "graph": 3649,
      "kin": 3650,
      "long": 3651,
      "men": 3652,
      "mpi": 3653,
      "ose": 3654,
      "pm": 3655,
      "pet": 3656,
      "uino": 3657,
      "ঞান": 3658,
      "্ঞান": 3659,
      "ന്": 3660,
      "scientist": 3661,
      "stric": 3662,
      "ama": 3663,
      "seum": 3664,
      "ford": 3665,
      "mathszone": 3666,
      "lights": 3667,
      "movi": 3668,
      "arduino": 3669,
      "ages": 3670,
      "fundament": 3671,
      "कार": 3672,
      "museum": 3673,
      "brid": 3674,
      "mechanics": 3675,
      "digest": 3676,
      "ugc": 3677,
      "changes": 3678,
      "surroundings": 3679,
      "treatment": 3680,
      "বিজ্ঞান": 3681,
      "africanmotives": 3682,
      "friction": 3683,
      "mathszoneafricanmotives": 3684,
      "dom": 3685,
      "dav": 3686,
      "dsssb": 3687,
      "ever": 3688,
      "gal": 3689,
      "ign": 3690,
      "jam": 3691,
      "land": 3692,
      "mb": 3693,
      "yan": 3694,
      "zy": 3695,
      "ंत्र": 3696,
      "दि": 3697,
      "😂😂": 3698,
      "reason": 3699,
      "department": 3700,
      "division": 3701,
      "liqu": 3702,
      "ulty": 3703,
      "wise": 3704,
      "whe": 3705,
      "experience": 3706,
      "prat": 3707,
      "rib": 3708,
      "doc": 3709,
      "branch": 3710,
      "sky": 3711,
      "effects": 3712,
      "analy": 3713,
      "singh": 3714,
      "latest": 3715,
      "kerala": 3716,
      "olympi": 3717,
      "महत्वपूर्ण": 3718,
      "3rd": 3719,
      "aum": 3720,
      "bhar": 3721,
      "cod": 3722,
      "cast": 3723,
      "fall": 3724,
      "fraction": 3725,
      "house": 3726,
      "mine": 3727,
      "sin": 3728,
      "रसायन": 3729,
      "ष्": 3730,
      "বে": 3731,
      "সা": 3732,
      "த்த": 3733,
      "்ட": 3734,
      "erse": 3735,
      "ict": 3736,
      "than": 3737,
      "ley": 3738,
      "share": 3739,
      "det": 3740,
      "defin": 3741,
      "istic": 3742,
      "ulation": 3743,
      "construction": 3744,
      "network": 3745,
      "file": 3746,
      "workout": 3747,
      "vedic": 3748,
      "!!!": 3749,
      "evol": 3750,
      "ways": 3751,
      "্যা": 3752,
      "rocket": 3753,
      "योज": 3754,
      "business": 3755,
      "olympiad": 3756,
      ".)": 3757,
      "04": 3758,
      "40": 3759,
      "bor": 3760,
      "card": 3761,
      "gta": 3762,
      "hack": 3763,
      "igcse": 3764,
      "lan": 3765,
      "mil": 3766,
      "n2": 3767,
      "nal": 3768,
      "other": 3769,
      "pod": 3770,
      "wel": 3771,
      "wood": 3772,
      "ये": 3773,
      "सी": 3774,
      "sciences": 3775,
      "scienceexperiment": 3776,
      "ones": 3777,
      "ext": 3778,
      "physicswallah": 3779,
      "last": 3780,
      "compar": 3781,
      "prize": 3782,
      "hish": 3783,
      "load": 3784,
      "gust": 3785,
      "post": 3786,
      "universe": 3787,
      "ption": 3788,
      "august": 3789,
      "common": 3790,
      "salary": 3791,
      "हैं": 3792,
      "frien": 3793,
      "semester": 3794,
      "percentage": 3795,
      "astr": 3796,
      "bur": 3797,
      "bud": 3798,
      "cted": 3799,
      "ior": 3800,
      "kal": 3801,
      "scert": 3802,
      "sleep": 3803,
      "yog": 3804,
      "भा": 3805,
      "কর": 3806,
      "🔥|": 3807,
      "ont": 3808,
      "arm": 3809,
      "asmr": 3810,
      "assame": 3811,
      "sher": 3812,
      "mathstric": 3813,
      "main": 3814,
      "park": 3815,
      "cont": 3816,
      "mean": 3817,
      "akh": 3818,
      "grow": 3819,
      "academic": 3820,
      "faculty": 3821,
      "raphy": 3822,
      "things": 3823,
      "pharmacy": 3824,
      "graduate": 3825,
      "circuit": 3826,
      "कैसे": 3827,
      "aumsum": 3828,
      "minecraft": 3829,
      "assamese": 3830,
      "28": 3831,
      "bed": 3832,
      "cry": 3833,
      "happ": 3834,
      "ling": 3835,
      "map": 3836,
      "mel": 3837,
      "oth": 3838,
      "pen": 3839,
      "pill": 3840,
      "vac": 3841,
      "दी": 3842,
      "भी": 3843,
      "மி": 3844,
      "chi": 3845,
      "arti": 3846,
      "tery": 3847,
      "seb": 3848,
      "express": 3849,
      "toys": 3850,
      "bir": 3851,
      "unch": 3852,
      "technical": 3853,
      "their": 3854,
      "param": 3855,
      "civil": 3856,
      "plc": 3857,
      "ider": 3858,
      "duce": 3859,
      "rish": 3860,
      "agan": 3861,
      "years": 3862,
      "prepare": 3863,
      "tutorials": 3864,
      "setup": 3865,
      "integr": 3866,
      "farm": 3867,
      "combined": 3868,
      "self": 3869,
      "pedag": 3870,
      "trigonometry": 3871,
      "digestive": 3872,
      "योजना": 3873,
      ")|": 3874,
      "07": 3875,
      "29": 3876,
      "bc": 3877,
      "but": 3878,
      "cc": 3879,
      "dh": 3880,
      "date": 3881,
      "god": 3882,
      "ited": 3883,
      "pan": 3884,
      "rat": 3885,
      "ror": 3886,
      "role": 3887,
      "vation": 3888,
      "ves": 3889,
      "णु": 3890,
      "हा": 3891,
      "වි": 3892,
      "itch": 3893,
      "sed": 3894,
      "phy": 3895,
      "units": 3896,
      "dies": 3897,
      "disp": 3898,
      "ument": 3899,
      "veter": 3900,
      "open": 3901,
      "fits": 3902,
      "hydr": 3903,
      "acter": 3904,
      "metal": 3905,
      "keyboard": 3906,
      "nature": 3907,
      "electronic": 3908,
      "memo": 3909,
      "khan": 3910,
      "circul": 3911,
      "farming": 3912,
      "්‍ර": 3913,
      "sheet": 3914,
      "coordination": 3915,
      "discussion": 3916,
      "evolution": 3917,
      "gri": 3918,
      "his": 3919,
      "mor": 3920,
      "pop": 3921,
      "paf": 3922,
      "अभ": 3923,
      "පා": 3924,
      "step": 3925,
      "chr": 3926,
      "team": 3927,
      "class10th": 3928,
      "ema": 3929,
      "andfun": 3930,
      "ques": 3931,
      "quick": 3932,
      "marine": 3933,
      "plane": 3934,
      "tual": 3935,
      "guide": 3936,
      "days": 3937,
      "spect": 3938,
      "insane": 3939,
      "guruk": 3940,
      "understand": 3941,
      "award": 3942,
      "target": 3943,
      "navy": 3944,
      "tools": 3945,
      "lucent": 3946,
      "pratap": 3947,
      "mathstricks": 3948,
      "pedagogy": 3949,
      "),": 3950,
      "cg": 3951,
      "dream": 3952,
      "gagan": 3953,
      "ib": 3954,
      "kota": 3955,
      "q1": 3956,
      "sou": 3957,
      "कक्षा": 3958,
      "ख्या": 3959,
      "chat": 3960,
      "ases": 3961,
      "think": 3962,
      "lex": 3963,
      "edexcel": 3964,
      "des": 3965,
      "did": 3966,
      "uring": 3967,
      "examples": 3968,
      "ables": 3969,
      "conne": 3970,
      "virtual": 3971,
      "ources": 3972,
      "cover": 3973,
      "ization": 3974,
      "pair": 3975,
      "ather": 3976,
      "subjects": 3977,
      "alia": 3978,
      "homeop": 3979,
      "flower": 3980,
      "वाल": 3981,
      "patter": 3982,
      "count": 3983,
      "bene": 3984,
      "cross": 3985,
      "mhs": 3986,
      "fitness": 3987,
      "help": 3988,
      "්‍යා": 3989,
      "veterinary": 3990,
      "gurukul": 3991,
      "blu": 3992,
      "dc": 3993,
      "dsc": 3994,
      "gala": 3995,
      "hot": 3996,
      "ku": 3997,
      "sph": 3998,
      "saf": 3999,
      "उत्": 4000,
      "तंत्र": 4001,
      "द्य": 4002,
      "बा": 4003,
      "ही": 4004,
      "ीकरण": 4005,
      "য়": 4006,
      "eric": 4007,
      "onomy": 4008,
      "stor": 4009,
      "stop": 4010,
      "aran": 4011,
      "tel": 4012,
      "amrit": 4013,
      "roy": 4014,
      "roid": 4015,
      "expe": 4016,
      "vis": 4017,
      "impro": 4018,
      "diet": 4019,
      "theor": 4020,
      "these": 4021,
      "chapters": 4022,
      "mock": 4023,
      "geometry": 4024,
      "beaut": 4025,
      "heli": 4026,
      "cook": 4027,
      "topper": 4028,
      "hary": 4029,
      "studying": 4030,
      "ava": 4031,
      "active": 4032,
      "soci": 4033,
      "speak": 4034,
      "ctors": 4035,
      "uses": 4036,
      "machines": 4037,
      "molecular": 4038,
      "wave": 4039,
      "satis": 4040,
      "distance": 4041,
      "present": 4042,
      "வேத": 4043,
      "ற்ற": 4044,
      "artificial": 4045,
      "4th": 4046,
      "?!": 4047,
      "bay": 4048,
      "eli": 4049,
      "fan": 4050,
      "got": 4051,
      "iology": 4052,
      "kr": 4053,
      "kai": 4054,
      "len": 4055,
      "ml": 4056,
      "psy": 4057,
      "ril": 4058,
      "ven": 4059,
      "ट्र": 4060,
      "तु": 4061,
      "सब": 4062,
      "র্": 4063,
      "ாட": 4064,
      "cham": 4065,
      "lead": 4066,
      "secret": 4067,
      "adh": 4068,
      "begin": 4069,
      "exercises": 4070,
      "ials": 4071,
      "color": 4072,
      "servation": 4073,
      "battery": 4074,
      "name": 4075,
      "संख्या": 4076,
      "better": 4077,
      "gravity": 4078,
      "version": 4079,
      "deepak": 4080,
      "ancient": 4081,
      "editing": 4082,
      "tissue": 4083,
      "transport": 4084,
      "constable": 4085,
      "square": 4086,
      "muscle": 4087,
      "laptop": 4088,
      "document": 4089,
      "comparison": 4090,
      "benefits": 4091,
      "5th": 4092,
      "ible": 4093,
      "lar": 4094,
      "nano": 4095,
      "pal": 4096,
      "pul": 4097,
      "run": 4098,
      "शा": 4099,
      "invent": 4100,
      "anatom": 4101,
      "stom": 4102,
      "china": 4103,
      "alum": 4104,
      "aser": 4105,
      "them": 4106,
      "rect": 4107,
      "ography": 4108,
      "shop": 4109,
      "rah": 4110,
      "where": 4111,
      "word": 4112,
      "ground": 4113,
      "athic": 4114,
      "find": 4115,
      "baby": 4116,
      "thermo": 4117,
      "surface": 4118,
      "reality": 4119,
      "camera": 4120,
      "centre": 4121,
      "biotechnology": 4122,
      "balance": 4123,
      "overview": 4124,
      "shots": 4125,
      "synthesis": 4126,
      "anatomy": 4127,
      "aur": 4128,
      "cand": 4129,
      "hon": 4130,
      "has": 4131,
      "iq": 4132,
      "ire": 4133,
      "nc": 4134,
      "nom": 4135,
      "por": 4136,
      "riv": 4137,
      "sar": 4138,
      "ंग": 4139,
      "मै": 4140,
      "ुत": 4141,
      "বা": 4142,
      "મા": 4143,
      "ange": 4144,
      "ask": 4145,
      "recharge": 4146,
      "shan": 4147,
      "road": 4148,
      "perfect": 4149,
      "wire": 4150,
      "prelim": 4151,
      "coaching": 4152,
      "trailer": 4153,
      "angle": 4154,
      "testing": 4155,
      "mix": 4156,
      "परि": 4157,
      "nitin": 4158,
      "jrf": 4159,
      "skills": 4160,
      "blue": 4161,
      "amrita": 4162,
      "satisfying": 4163,
      "kaise": 4164,
      "psych": 4165,
      "35": 4166,
      "cpo": 4167,
      "fu": 4168,
      "hom": 4169,
      "nas": 4170,
      "pn": 4171,
      "vvi": 4172,
      "wast": 4173,
      "za": 4174,
      "ভা": 4175,
      "സ്": 4176,
      "ency": 4177,
      "cere": 4178,
      "inal": 4179,
      "scienceandfun": 4180,
      "phd": 4181,
      "ouch": 4182,
      "vidy": 4183,
      "toy": 4184,
      "today": 4185,
      "ulum": 4186,
      "idd": 4187,
      "pri": 4188,
      "area": 4189,
      "agar": 4190,
      "hydra": 4191,
      "कार्": 4192,
      "poll": 4193,
      "jeev": 4194,
      "lines": 4195,
      "educational": 4196,
      "peop": 4197,
      "careers": 4198,
      "tedx": 4199,
      "used": 4200,
      "oller": 4201,
      "ankita": 4202,
      "element": 4203,
      "demon": 4204,
      "seconds": 4205,
      "ப்பு": 4206,
      "scishow": 4207,
      "ductive": 4208,
      "disease": 4209,
      "respiration": 4210,
      "black": 4211,
      "primitive": 4212,
      "written": 4213,
      "matrices": 4214,
      "homeopathic": 4215,
      "expected": 4216,
      "documentary": 4217,
      "45": 4218,
      "95": 4219,
      "bank": 4220,
      "dic": 4221,
      "esh": 4222,
      "ff": 4223,
      "fusion": 4224,
      "ious": 4225,
      "ken": 4226,
      "lit": 4227,
      "lens": 4228,
      "smo": 4229,
      "sach": 4230,
      "sens": 4231,
      "ward": 4232,
      "wari": 4233,
      "well": 4234,
      "एक": 4235,
      "बन": 4236,
      "री": 4237,
      "रो": 4238,
      "वी": 4239,
      "শ্": 4240,
      "cele": 4241,
      "only": 4242,
      "att": 4243,
      "alu": 4244,
      "ember": 4245,
      "edu": 4246,
      "ray": 4247,
      "rain": 4248,
      "iron": 4249,
      "nets": 4250,
      "uptet": 4251,
      "optics": 4252,
      "affair": 4253,
      "lessons": 4254,
      "काश": 4255,
      "aves": 4256,
      "veda": 4257,
      "peter": 4258,
      "austr": 4259,
      "daily": 4260,
      "great": 4261,
      "🔥🔥🔥": 4262,
      "operation": 4263,
      "studies": 4264,
      "rankers": 4265,
      "indust": 4266,
      "double": 4267,
      "sexual": 4268,
      "hydraul": 4269,
      "people": 4270,
      "09": 4271,
      "bom": 4272,
      "cation": 4273,
      "cau": 4274,
      "eye": 4275,
      "hab": 4276,
      "ile": 4277,
      "ipo": 4278,
      "kine": 4279,
      "nysir": 4280,
      "next": 4281,
      "pump": 4282,
      "qn": 4283,
      "rpf": 4284,
      "vest": 4285,
      "द्": 4286,
      "पे": 4287,
      "िका": 4288,
      "স্": 4289,
      "incre": 4290,
      "scre": 4291,
      "onents": 4292,
      "ats": 4293,
      "ants": 4294,
      "annu": 4295,
      "chand": 4296,
      "ora": 4297,
      "ogle": 4298,
      "android": 4299,
      "dece": 4300,
      "radio": 4301,
      "fore": 4302,
      "quad": 4303,
      "urs": 4304,
      "ures": 4305,
      "oneshot": 4306,
      "magnets": 4307,
      "velo": 4308,
      "type": 4309,
      "google": 4310,
      "formul": 4311,
      "sunnysir": 4312,
      "november": 4313,
      "odisha": 4314,
      "competition": 4315,
      "methods": 4316,
      "distrib": 4317,
      "explor": 4318,
      "moments": 4319,
      "diseases": 4320,
      "mirror": 4321,
      "bridge": 4322,
      "astronomy": 4323,
      "pattern": 4324,
      "theorem": 4325,
      "affairs": 4326,
      "annual": 4327,
      "27": 4328,
      "80": 4329,
      "ain": 4330,
      "bow": 4331,
      "cing": 4332,
      "ec": 4333,
      "ky": 4334,
      "ler": 4335,
      "mber": 4336,
      "pgt": 4337,
      "rc": 4338,
      "ue": 4339,
      "ude": 4340,
      "van": 4341,
      "xy": 4342,
      "चा": 4343,
      "लिए": 4344,
      "सवाल": 4345,
      "বন": 4346,
      "്യ": 4347,
      "ancy": 4348,
      "army": 4349,
      "ape": 4350,
      "sets": 4351,
      "season": 4352,
      "def": 4353,
      "physiology": 4354,
      "ung": 4355,
      "lie": 4356,
      "prote": 4357,
      "plic": 4358,
      "2016": 4359,
      "prash": 4360,
      "verse": 4361,
      "fails": 4362,
      "nda": 4363,
      "take": 4364,
      "प्रकाश": 4365,
      "explains": 4366,
      "says": 4367,
      "cells": 4368,
      "draw": 4369,
      "bonding": 4370,
      "180": 4371,
      "here": 4372,
      "limited": 4373,
      "choose": 4374,
      "addition": 4375,
      "potential": 4376,
      "मानव": 4377,
      "respiratory": 4378,
      "girls": 4379,
      "principle": 4380,
      "fundamental": 4381,
      "liquid": 4382,
      "definition": 4383,
      "cardboard": 4384,
      "society": 4385,
      "industry": 4386,
      "december": 4387,
      "velocity": 4388,
      "distribution": 4389,
      "/#": 4390,
      "06": 4391,
      "36": 4392,
      "dance": 4393,
      "ffin": 4394,
      "md": 4395,
      "mes": 4396,
      "ras": 4397,
      "sn": 4398,
      "vous": 4399,
      "waves": 4400,
      "न्": 4401,
      "मे": 4402,
      "हि": 4403,
      "్ర": 4404,
      "endra": 4405,
      "sch": 4406,
      "still": 4407,
      "ths": 4408,
      "termin": 4409,
      "ister": 4410,
      "oud": 4411,
      "ising": 4412,
      "person": 4413,
      "jection": 4414,
      "update": 4415,
      "print": 4416,
      "opport": 4417,
      "tia": 4418,
      "right": 4419,
      "vern": 4420,
      "verbal": 4421,
      "neet2024": 4422,
      "traction": 4423,
      "fip": 4424,
      "study91": 4425,
      "actu": 4426,
      "systems": 4427,
      "much": 4428,
      "र्थ": 4429,
      "buy": 4430,
      "complex": 4431,
      "sample": 4432,
      "िकी": 4433,
      "ference": 4434,
      "getting": 4435,
      "माणु": 4436,
      "robotics": 4437,
      "front": 4438,
      "परमाणु": 4439,
      "polytechnic": 4440,
      "polynom": 4441,
      "everyday": 4442,
      "ক্তি": 4443,
      "communication": 4444,
      "interesting": 4445,
      "movie": 4446,
      "analytics": 4447,
      "langu": 4448,
      "friend": 4449,
      "beginners": 4450,
      "thermodynamics": 4451,
      "demonstr": 4452,
      "celebr": 4453,
      "2a": 4454,
      "case": 4455,
      "glo": 4456,
      "krish": 4457,
      "nis": 4458,
      "sst": 4459,
      "tam": 4460,
      "क्र": 4461,
      "चना": 4462,
      "वे": 4463,
      "জী": 4464,
      "ඩම": 4465,
      "sto": 4466,
      "sters": 4467,
      "alien": 4468,
      "ional": 4469,
      "reli": 4470,
      "sharma": 4471,
      "class12": 4472,
      "itor": 4473,
      "match": 4474,
      "rad": 4475,
      "||#": 4476,
      "they": 4477,
      "ength": 4478,
      "never": 4479,
      "spr": 4480,
      "before": 4481,
      "who": 4482,
      "ident": 4483,
      "febr": 4484,
      "conservation": 4485,
      "tik": 4486,
      "strong": 4487,
      "tractor": 4488,
      "shortcut": 4489,
      "aiims": 4490,
      "intern": 4491,
      "subst": 4492,
      "glass": 4493,
      "idea": 4494,
      "mony": 4495,
      "join": 4496,
      "block": 4497,
      "calculation": 4498,
      "vigyanrecharge": 4499,
      "moment": 4500,
      "inertia": 4501,
      "download": 4502,
      "placement": 4503,
      "fluid": 4504,
      "support": 4505,
      "branches": 4506,
      "coding": 4507,
      "විද": 4508,
      "පාඩම": 4509,
      "formulas": 4510,
      "february": 4511,
      "2k": 4512,
      "aj": 4513,
      "btec": 4514,
      "dition": 4515,
      "ets": 4516,
      "ired": 4517,
      "jc": 4518,
      "kes": 4519,
      "kel": 4520,
      "n4": 4521,
      "ocr": 4522,
      "ron": 4523,
      "sr": 4524,
      "sen": 4525,
      "tic": 4526,
      "try": 4527,
      "vt": 4528,
      "wn": 4529,
      "wo": 4530,
      "wil": 4531,
      "ंध": 4532,
      "कि": 4533,
      "जान": 4534,
      "दू": 4535,
      "पदा": 4536,
      "सू": 4537,
      "কি": 4538,
      "লো": 4539,
      "ழ்": 4540,
      "ில்": 4541,
      "ene": 4542,
      "remo": 4543,
      "shar": 4544,
      "emer": 4545,
      "application": 4546,
      "section": 4547,
      "desh": 4548,
      "forces": 4549,
      "1000": 4550,
      "une": 4551,
      "isnot": 4552,
      "launch": 4553,
      "neu": 4554,
      "boy": 4555,
      "ssible": 4556,
      "acts": 4557,
      "examination": 4558,
      "nobel": 4559,
      "lock": 4560,
      "viralshorts": 4561,
      "fix": 4562,
      "fight": 4563,
      "manu": 4564,
      "pcb": 4565,
      "custom": 4566,
      "lectures": 4567,
      "must": 4568,
      "skin": 4569,
      "essor": 4570,
      "govern": 4571,
      "astro": 4572,
      "night": 4573,
      "ியியல்": 4574,
      "resist": 4575,
      "junior": 4576,
      "memes": 4577,
      "disco": 4578,
      "???": 4579,
      "sanjay": 4580,
      "wonder": 4581,
      "bkp": 4582,
      "ക്ക": 4583,
      "reasoning": 4584,
      "wheel": 4585,
      "galaxy": 4586,
      "australia": 4587,
      "--": 4588,
      "08": 4589,
      "99": 4590,
      "frequ": 4591,
      "hill": 4592,
      "hala": 4593,
      "jul": 4594,
      "low": 4595,
      "mill": 4596,
      "nir": 4597,
      "tor": 4598,
      "vit": 4599,
      "कौ": 4600,
      "रचना": 4601,
      "પ્ર": 4602,
      "கள்": 4603,
      "சு": 4604,
      "டி": 4605,
      "தா": 4606,
      "ങ്": 4607,
      "insp": 4608,
      "ater": 4609,
      "chen": 4610,
      "icon": 4611,
      "thurs": 4612,
      "revol": 4613,
      "really": 4614,
      "tex": 4615,
      "assist": 4616,
      "death": 4617,
      "oun": 4618,
      "rav": 4619,
      "physic": 4620,
      "uni": 4621,
      "chemistryisnot": 4622,
      "ume": 4623,
      "ival": 4624,
      "young": 4625,
      "udh": 4626,
      "mary": 4627,
      "fail": 4628,
      "point": 4629,
      "activ": 4630,
      "internet": 4631,
      "alight": 4632,
      "ldc": 4633,
      "rapid": 4634,
      "crazy": 4635,
      "charges": 4636,
      "character": 4637,
      "lcm": 4638,
      "reproductive": 4639,
      "nervous": 4640,
      "joh": 4641,
      "microscope": 4642,
      "controller": 4643,
      "professor": 4644,
      "electrochemistry": 4645,
      "रासायन": 4646,
      "gases": 4647,
      "factory": 4648,
      "agricultural": 4649,
      "origin": 4650,
      "options": 4651,
      "relation": 4652,
      "pyqs": 4653,
      "sinhala": 4654,
      "cryst": 4655,
      "द्युत": 4656,
      "presentation": 4657,
      "सबसे": 4658,
      "ceremony": 4659,
      "sachin": 4660,
      "polynomials": 4661,
      "पदार्थ": 4662,
      "thursday": 4663,
      "chemistryisnotmystery": 4664,
      "5g": 4665,
      "500": 4666,
      "90": 4667,
      "cate": 4668,
      "ech": 4669,
      "hc": 4670,
      "mist": 4671,
      "oct": 4672,
      "pg": 4673,
      "अध": 4674,
      "गु": 4675,
      "दार": 4676,
      "नी": 4677,
      "म्": 4678,
      "তা": 4679,
      "தமி": 4680,
      "ining": 4681,
      "ann": 4682,
      "chp": 4683,
      "oria": 4684,
      "repair": 4685,
      "class9": 4686,
      "appro": 4687,
      "see": 4688,
      "rot": 4689,
      "edition": 4690,
      "phen": 4691,
      "vijay": 4692,
      "tok": 4693,
      "unacademy": 4694,
      "liz": 4695,
      "islam": 4696,
      "own": 4697,
      "moon": 4698,
      "ada": 4699,
      "ayur": 4700,
      "white": 4701,
      "abad": 4702,
      "rite": 4703,
      "manish": 4704,
      "arith": 4705,
      "kingdom": 4706,
      "background": 4707,
      "rule": 4708,
      "सामान": 4709,
      "flow": 4710,
      "resources": 4711,
      "ultimate": 4712,
      "centr": 4713,
      "करें": 4714,
      "talks": 4715,
      "sanjeev": 4716,
      "electromagnetic": 4717,
      "chain": 4718,
      "capac": 4719,
      "ancing": 4720,
      "वर्त": 4721,
      "পরি": 4722,
      "straight": 4723,
      "truth": 4724,
      "genetics": 4725,
      "photosynthesis": 4726,
      "ത്ത": 4727,
      "euph": 4728,
      "mbbs": 4729,
      "speaker": 4730,
      "prelims": 4731,
      "hydraulic": 4732,
      "language": 4733,
      "sprint": 4734,
      "government": 4735,
      "july": 4736,
      "revolution": 4737,
      "33": 4738,
      "cnc": 4739,
      "kvs": 4740,
      "pir": 4741,
      "ren": 4742,
      "ske": 4743,
      "sri": 4744,
      "tat": 4745,
      "xi": 4746,
      "पी": 4747,
      "षण": 4748,
      "সি": 4749,
      "વિ": 4750,
      "inorganic": 4751,
      "stone": 4752,
      "chse": 4753,
      "alle": 4754,
      "ashish": 4755,
      "apy": 4756,
      "apply": 4757,
      "sep": 4758,
      "separ": 4759,
      "istan": 4760,
      "vik": 4761,
      "vice": 4762,
      "mathpuzzle": 4763,
      "bigg": 4764,
      "dia": 4765,
      "ilation": 4766,
      "engineers": 4767,
      "product": 4768,
      "words": 4769,
      "price": 4770,
      "ours": 4771,
      "heav": 4772,
      "strength": 4773,
      "workshop": 4774,
      "paheli": 4775,
      "audio": 4776,
      "bust": 4777,
      "trendingshorts": 4778,
      "airman": 4779,
      "practicals": 4780,
      "joy": 4781,
      "ometric": 4782,
      "polymer": 4783,
      "राथ": 4784,
      "detail": 4785,
      "निय": 4786,
      "oxford": 4787,
      "everything": 4788,
      "foot": 4789,
      "clinic": 4790,
      "दिन": 4791,
      "भाग": 4792,
      "growth": 4793,
      "circulatory": 4794,
      "griffin": 4795,
      "cooking": 4796,
      "transportation": 4797,
      "मैराथ": 4798,
      "psychology": 4799,
      "plications": 4800,
      "discovery": 4801,
      "ങ്ങ": 4802,
      "रासायनिक": 4803,
      "सामान्य": 4804,
      ")||": 4805,
      "43": 4806,
      "70": 4807,
      "band": 4808,
      "cks": 4809,
      "dim": 4810,
      "dens": 4811,
      "eco": 4812,
      "io": 4813,
      "ius": 4814,
      "lin": 4815,
      "pma": 4816,
      "rbse": 4817,
      "write": 4818,
      "जे": 4819,
      "तथा": 4820,
      "दो": 4821,
      "बि": 4822,
      "সম": 4823,
      "లు": 4824,
      "്ട": 4825,
      "anna": 4826,
      "arjun": 4827,
      "rec": 4828,
      "assign": 4829,
      "cli": 4830,
      "root": 4831,
      "dest": 4832,
      "radi": 4833,
      "101": 4834,
      "bill": 4835,
      "mahe": 4836,
      "2025": 4837,
      "aday": 4838,
      "adda": 4839,
      "spot": 4840,
      "compilation": 4841,
      "ayan": 4842,
      "being": 4843,
      "become": 4844,
      "acks": 4845,
      "accel": 4846,
      "youth": 4847,
      "akes": 4848,
      "्रिया": 4849,
      "ances": 4850,
      "angles": 4851,
      "ailed": 4852,
      "unities": 4853,
      "विद्युत": 4854,
      "soil": 4855,
      "cancer": 4856,
      "install": 4857,
      "skysir": 4858,
      "create": 4859,
      "gdp": 4860,
      "bottle": 4861,
      "crack": 4862,
      "magnetism": 4863,
      "highlights": 4864,
      "संरचना": 4865,
      "handwritten": 4866,
      "steel": 4867,
      "craftpill": 4868,
      "garh": 4869,
      "familyguy": 4870,
      "writing": 4871,
      "matrix": 4872,
      "algebraic": 4873,
      "dark": 4874,
      "festival": 4875,
      "simplification": 4876,
      "journey": 4877,
      "welcome": 4878,
      "understanding": 4879,
      "pollution": 4880,
      "sanjaykumar": 4881,
      "assistant": 4882,
      "मैराथन": 4883,
      "acceler": 4884,
      "craftpiller": 4885,
      "300": 4886,
      "aer": 4887,
      "ake": 4888,
      "aero": 4889,
      "bes": 4890,
      "dog": 4891,
      "econ": 4892,
      "fly": 4893,
      "ging": 4894,
      "gold": 4895,
      "hop": 4896,
      "iup": 4897,
      "iques": 4898,
      "link": 4899,
      "mas": 4900,
      "mur": 4901,
      "ture": 4902,
      "ust": 4903,
      "wr": 4904,
      "west": 4905,
      "ंक": 4906,
      "इं": 4907,
      "दु": 4908,
      "धार": 4909,
      "তর": 4910,
      "না": 4911,
      "িয়": 4912,
      "ளி": 4913,
      "வக": 4914,
      "cement": 4915,
      "stet": 4916,
      "icy": 4917,
      "tham": 4918,
      "repe": 4919,
      "shik": 4920,
      "applications": 4921,
      "desk": 4922,
      "descri": 4923,
      "phil": 4924,
      "vivo": 4925,
      "mah": 4926,
      "part1": 4927,
      "usir": 4928,
      "spider": 4929,
      "fees": 4930,
      "genius": 4931,
      "marvel": 4932,
      "hiba": 4933,
      "travel": 4934,
      "worksheet": 4935,
      "harsh": 4936,
      "states": 4937,
      "angana": 4938,
      "deriv": 4939,
      "amazon": 4940,
      "finding": 4941,
      "creative": 4942,
      "िक्रिया": 4943,
      "thermal": 4944,
      "mixt": 4945,
      "window": 4946,
      "wbcs": 4947,
      "smartphone": 4948,
      "fastest": 4949,
      "tension": 4950,
      "simulation": 4951,
      "variable": 4952,
      "turn": 4953,
      "वर्ग": 4954,
      "temper": 4955,
      "solidworks": 4956,
      "device": 4957,
      "safety": 4958,
      "beauti": 4959,
      "nasa": 4960,
      "diction": 4961,
      "little": 4962,
      "bombay": 4963,
      "screen": 4964,
      "skele": 4965,
      "arjuna": 4966,
      "iupac": 4967,
      "55": 4968,
      "btech": 4969,
      "bha": 4970,
      "call": 4971,
      "egg": 4972,
      "gp": 4973,
      "gram": 4974,
      "had": 4975,
      "jet": 4976,
      "kv": 4977,
      "kat": 4978,
      "kir": 4979,
      "mpsc": 4980,
      "nar": 4981,
      "oon": 4982,
      "oil": 4983,
      "oid": 4984,
      "pion": 4985,
      "ping": 4986,
      "pad": 4987,
      "rati": 4988,
      "tne": 4989,
      "xyle": 4990,
      "yes": 4991,
      "zero": 4992,
      "~~": 4993,
      "ंदी": 4994,
      "दवा": 4995,
      "बार": 4996,
      "मि": 4997,
      "টি": 4998,
      "ন্": 4999,
      "ને": 5000,
      "્ય": 5001,
      "வர": 5002,
      "ිය": 5003,
      "ension": 5004,
      "sty": 5005,
      "clip": 5006,
      "itance": 5007,
      "secur": 5008,
      "dev": 5009,
      "dete": 5010,
      "phi": 5011,
      "yson": 5012,
      "technew": 5013,
      "lax": 5014,
      "usrb": 5015,
      "spring": 5016,
      "components": 5017,
      "gency": 5018,
      "kesh": 5019,
      "sust": 5020,
      "prep": 5021,
      "aging": 5022,
      "mental": 5023,
      "cos": 5024,
      "planet": 5025,
      "ashusir": 5026,
      "fish": 5027,
      "static": 5028,
      "many": 5029,
      "cute": 5030,
      "ज्या": 5031,
      "tnusrb": 5032,
      "save": 5033,
      "speech": 5034,
      "metic": 5035,
      "therapy": 5036,
      "curric": 5037,
      "realistic": 5038,
      "wind": 5039,
      "fyjc": 5040,
      "transform": 5041,
      "archite": 5042,
      "nadu": 5043,
      "mppsc": 5044,
      "measurements": 5045,
      "समीकरण": 5046,
      "breaking": 5047,
      "ক্ষ": 5048,
      "ங்கள்": 5049,
      "tissues": 5050,
      "detailed": 5051,
      "podcast": 5052,
      "meaning": 5053,
      "अभिक्रिया": 5054,
      "telangana": 5055,
      "inventions": 5056,
      "waste": 5057,
      "हिंदी": 5058,
      "opportunities": 5059,
      "global": 5060,
      "විද්‍යා": 5061,
      "euphoria": 5062,
      "dimension": 5063,
      "assignment": 5064,
      "beautiful": 5065,
      "xylem": 5066,
      "technews": 5067,
      "aver": 5068,
      "dal": 5069,
      "fing": 5070,
      "flo": 5071,
      "gun": 5072,
      "give": 5073,
      "hons": 5074,
      "iev": 5075,
      "jap": 5076,
      "kare": 5077,
      "ktet": 5078,
      "laser": 5079,
      "mt": 5080,
      "mol": 5081,
      "nts": 5082,
      "nation": 5083,
      "oh": 5084,
      "pic": 5085,
      "put": 5086,
      "pay": 5087,
      "pande": 5088,
      "sil": 5089,
      "wow": 5090,
      "तक": 5091,
      "ल्": 5092,
      "পা": 5093,
      "ச்": 5094,
      "மு": 5095,
      "స్": 5096,
      "ಾನ": 5097,
      "ും": 5098,
      "ශ්‍ර": 5099,
      "🔥#": 5100,
      "🤩🤩": 5101,
      "endo": 5102,
      "injection": 5103,
      "chro": 5104,
      "icle": 5105,
      "ars": 5106,
      "alex": 5107,
      "three": 5108,
      "ola": 5109,
      "tele": 5110,
      "ograph": 5111,
      "ters": 5112,
      "visi": 5113,
      "race": 5114,
      "forest": 5115,
      "ima": 5116,
      "imm": 5117,
      "etc": 5118,
      "etic": 5119,
      "technique": 5120,
      "esar": 5121,
      "ession": 5122,
      "ird": 5123,
      "masters": 5124,
      "combust": 5125,
      "boot": 5126,
      "production": 5127,
      "ultra": 5128,
      "civi": 5129,
      "compos": 5130,
      "antra": 5131,
      "ortaday": 5132,
      "note": 5133,
      "meets": 5134,
      "virus": 5135,
      "covid": 5136,
      "host": 5137,
      "ashortaday": 5138,
      "guess": 5139,
      "early": 5140,
      "pradeep": 5141,
      "nums": 5142,
      "carto": 5143,
      "प्रति": 5144,
      "sais": 5145,
      "cycl": 5146,
      "cyber": 5147,
      "hair": 5148,
      "push": 5149,
      "humans": 5150,
      "digit": 5151,
      "result": 5152,
      "்கள்": 5153,
      "higher": 5154,
      "cadet": 5155,
      "पाद": 5156,
      "steam": 5157,
      "247": 5158,
      "profession": 5159,
      "fasting": 5160,
      "succe": 5161,
      "कोश": 5162,
      "combination": 5163,
      "market": 5164,
      "सम्": 5165,
      "required": 5166,
      "tember": 5167,
      "community": 5168,
      "titude": 5169,
      "regional": 5170,
      "half": 5171,
      "जनन": 5172,
      "hydrocarbon": 5173,
      "scientists": 5174,
      "उत्तर": 5175,
      "eligi": 5176,
      "रोग": 5177,
      "printing": 5178,
      "emergency": 5179,
      "characteristics": 5180,
      "september": 5181,
      "ratio": 5182,
      "security": 5183,
      "curriculum": 5184,
      "විද්‍යාව": 5185,
      "combustion": 5186,
      "!?": 5187,
      ".#": 5188,
      "4k": 5189,
      "bit": 5190,
      "dd": 5191,
      "ded": 5192,
      "ee": 5193,
      "fem": 5194,
      "fru": 5195,
      "foll": 5196,
      "gau": 5197,
      "obile": 5198,
      "s7": 5199,
      "tical": 5200,
      "ان": 5201,
      "अब": 5202,
      "एँ": 5203,
      "टा": 5204,
      "पु": 5205,
      "सर": 5206,
      "सि": 5207,
      "ত্": 5208,
      "ত্র": 5209,
      "ুর": 5210,
      "য়ন": 5211,
      "மற்ற": 5212,
      "ுப்பு": 5213,
      "ర్": 5214,
      "പ്": 5215,
      "റി": 5216,
      "😱😱": 5217,
      "ini": 5218,
      "scor": 5219,
      "scal": 5220,
      "eral": 5221,
      "sciencefacts": 5222,
      "atmo": 5223,
      "stic": 5224,
      "chart": 5225,
      "alakh": 5226,
      "aspir": 5227,
      "ogam": 5228,
      "shiv": 5229,
      "class11": 5230,
      "april": 5231,
      "determin": 5232,
      "visu": 5233,
      "imon": 5234,
      "image": 5235,
      "die": 5236,
      "direct": 5237,
      "ision": 5238,
      "owing": 5239,
      "mov": 5240,
      "coming": 5241,
      "bots": 5242,
      "byju": 5243,
      "aye": 5244,
      "beha": 5245,
      "idation": 5246,
      "confi": 5247,
      "condition": 5248,
      "ducing": 5249,
      "solder": 5250,
      "akar": 5251,
      "strial": 5252,
      "fai": 5253,
      "lover": 5254,
      "anger": 5255,
      "healthcare": 5256,
      "there": 5257,
      "iii": 5258,
      "reproduce": 5259,
      "वाले": 5260,
      "gamingpc": 5261,
      "talk": 5262,
      "cutoff": 5263,
      "bangladesh": 5264,
      "switch": 5265,
      "graduation": 5266,
      "check": 5267,
      "lipp": 5268,
      "ragdolls": 5269,
      "technician": 5270,
      "genetic": 5271,
      "film": 5272,
      "zoology": 5273,
      "expressions": 5274,
      "hydrogen": 5275,
      "christ": 5276,
      "south": 5277,
      "improve": 5278,
      "வேதியியல்": 5279,
      "theme": 5280,
      "द्ध": 5281,
      "tiktok": 5282,
      "substances": 5283,
      "activities": 5284,
      "categ": 5285,
      "hcf": 5286,
      "heavy": 5287,
      "climate": 5288,
      "pandey": 5289,
      "esaral": 5290,
      "composition": 5291,
      "மற்றும்": 5292,
      "atmosph": 5293,
      "behavi": 5294,
      ",#": 5295,
      "44": 5296,
      "75": 5297,
      "bai": 5298,
      "blip": 5299,
      "dj": 5300,
      "dent": 5301,
      "fre": 5302,
      "four": 5303,
      "gseb": 5304,
      "hp": 5305,
      "hun": 5306,
      "hil": 5307,
      "hssc": 5308,
      "kas": 5309,
      "ksh": 5310,
      "lor": 5311,
      "liner": 5312,
      "nes": 5313,
      "oj": 5314,
      "pil": 5315,
      "pack": 5316,
      "rol": 5317,
      "rpsc": 5318,
      "sadh": 5319,
      "tro": 5320,
      "ub": 5321,
      "wash": 5322,
      "गत": 5323,
      "गे": 5324,
      "सभी": 5325,
      "हु": 5326,
      "ौत": 5327,
      "লা": 5328,
      "লে": 5329,
      "கா": 5330,
      "ர்": 5331,
      "schol": 5332,
      "ona": 5333,
      "stics": 5334,
      "style": 5335,
      "org": 5336,
      "olysis": 5337,
      "ami": 5338,
      "apur": 5339,
      "expo": 5340,
      "dele": 5341,
      "omic": 5342,
      "foryou": 5343,
      "tooth": 5344,
      "unique": 5345,
      "divers": 5346,
      "esome": 5347,
      "libr": 5348,
      "mac": 5349,
      "maha": 5350,
      "mode": 5351,
      "comment": 5352,
      "comput": 5353,
      "elon": 5354,
      "elli": 5355,
      "elds": 5356,
      "ureka": 5357,
      "uda": 5358,
      "abs": 5359,
      "conver": 5360,
      "keto": 5361,
      "solving": 5362,
      "oney": 5363,
      "ource": 5364,
      "factor": 5365,
      "ाने": 5366,
      "models": 5367,
      "minister": 5368,
      "tain": 5369,
      "explaination": 5370,
      "ematics": 5371,
      "mathematical": 5372,
      "govt": 5373,
      "bhu": 5374,
      "useful": 5375,
      "powered": 5376,
      "effic": 5377,
      "surger": 5378,
      "pie": 5379,
      "sounds": 5380,
      "स्त": 5381,
      "स्थ": 5382,
      "breath": 5383,
      "could": 5384,
      "multiplicationtricks": 5385,
      "volume": 5386,
      "songs": 5387,
      "oxidation": 5388,
      "developer": 5389,
      "awesome": 5390,
      "drop": 5391,
      "diagrams": 5392,
      "clinical": 5393,
      "andeep": 5394,
      "border": 5395,
      "paramedical": 5396,
      "rahul": 5397,
      "कार्बन": 5398,
      "petergriffin": 5399,
      "krishna": 5400,
      "internship": 5401,
      "momentum": 5402,
      "neuro": 5403,
      "manufact": 5404,
      "कौन": 5405,
      "inspire": 5406,
      "தமிழ்": 5407,
      "paheliyan": 5408,
      "wrong": 5409,
      "repeated": 5410,
      "windows": 5411,
      "philipp": 5412,
      "architecture": 5413,
      "average": 5414,
      "succeed": 5415,
      "कोशिका": 5416,
      "eligibility": 5417,
      "female": 5418,
      "visual": 5419,
      "soldering": 5420,
      "category": 5421,
      "blippi": 5422,
      "):": 5423,
      "**": 5424,
      "dan": 5425,
      "eating": 5426,
      "gation": 5427,
      "ht": 5428,
      "hacks": 5429,
      "iation": 5430,
      "ipl": 5431,
      "jal": 5432,
      "kon": 5433,
      "kim": 5434,
      "kari": 5435,
      "mph": 5436,
      "mkr": 5437,
      "nh": 5438,
      "nagar": 5439,
      "ober": 5440,
      "pin": 5441,
      "pend": 5442,
      "rk": 5443,
      "rup": 5444,
      "rang": 5445,
      "rrc": 5446,
      "sper": 5447,
      "sak": 5448,
      "tent": 5449,
      "tai": 5450,
      "vy": 5451,
      "ंड": 5452,
      "गिक": 5453,
      "गति": 5454,
      "च्": 5455,
      "बंध": 5456,
      "मित": 5457,
      "लो": 5458,
      "लयन": 5459,
      "सान": 5460,
      "রা": 5461,
      "અને": 5462,
      "ાન": 5463,
      "ண்ட": 5464,
      "நி": 5465,
      "மா": 5466,
      "மை": 5467,
      "யி": 5468,
      "வா": 5469,
      "ವಿ": 5470,
      "න්": 5471,
      "සර": 5472,
      "erz": 5473,
      "aren": 5474,
      "aries": 5475,
      "alter": 5476,
      "ality": 5477,
      "recor": 5478,
      "reacts": 5479,
      "relax": 5480,
      "americ": 5481,
      "ander": 5482,
      "mated": 5483,
      "edity": 5484,
      "ough": 5485,
      "fort": 5486,
      "lift": 5487,
      "iss": 5488,
      "lage": 5489,
      "neil": 5490,
      "nell": 5491,
      "boys": 5492,
      "usa": 5493,
      "utical": 5494,
      "media": 5495,
      "ghai": 5496,
      "conference": 5497,
      "keep": 5498,
      "aller": 5499,
      "vector": 5500,
      "doing": 5501,
      "aka": 5502,
      "akul": 5503,
      "fields": 5504,
      "weather": 5505,
      "guaran": 5506,
      "pos": 5507,
      "विलयन": 5508,
      "programs": 5509,
      "grades": 5510,
      "inste": 5511,
      "!!!!": 5512,
      "essential": 5513,
      "िक्": 5514,
      "electrolysis": 5515,
      "range": 5516,
      "bhav": 5517,
      "madhu": 5518,
      "ators": 5519,
      "event": 5520,
      "evalu": 5521,
      "flame": 5522,
      "pyram": 5523,
      "logic": 5524,
      "heredity": 5525,
      "member": 5526,
      "guration": 5527,
      "portion": 5528,
      "hub": 5529,
      "limit": 5530,
      "coun": 5531,
      "volcan": 5532,
      "publication": 5533,
      "variables": 5534,
      "circuits": 5535,
      "মাধ": 5536,
      "industrial": 5537,
      "देख": 5538,
      "journal": 5539,
      "normal": 5540,
      "bharat": 5541,
      "displa": 5542,
      "steps": 5543,
      "flowering": 5544,
      "बाद": 5545,
      "royal": 5546,
      "october": 5547,
      "वर्तन": 5548,
      "adda247": 5549,
      "spiderman": 5550,
      "🤩🤩🔥": 5551,
      "cartoon": 5552,
      "पादप": 5553,
      "diversity": 5554,
      "surgery": 5555,
      "guarante": 5556,
      "evaluation": 5557,
      "##": 5558,
      "bell": 5559,
      "den": 5560,
      "ether": 5561,
      "einste": 5562,
      "gce": 5563,
      "gsh": 5564,
      "hat": 5565,
      "him": 5566,
      "ika": 5567,
      "jab": 5568,
      "kash": 5569,
      "mid": 5570,
      "nv": 5571,
      "nou": 5572,
      "nai": 5573,
      "oc": 5574,
      "oci": 5575,
      "pow": 5576,
      "psi": 5577,
      "sudh": 5578,
      "tap": 5579,
      "vet": 5580,
      "ات": 5581,
      "अव": 5582,
      "अम्": 5583,
      "कु": 5584,
      "खा": 5585,
      "चे": 5586,
      "छे": 5587,
      "नही": 5588,
      "पढ़": 5589,
      "भौत": 5590,
      "रण": 5591,
      "কে": 5592,
      "ரி": 5593,
      "ಗಳ": 5594,
      "റ്": 5595,
      "👍👍": 5596,
      "ences": 5597,
      "inate": 5598,
      "scam": 5599,
      "atic": 5600,
      "sti": 5601,
      "chak": 5602,
      "assess": 5603,
      "ements": 5604,
      "dead": 5605,
      "oman": 5606,
      "via": 5607,
      "too": 5608,
      "tox": 5609,
      "bike": 5610,
      "unt": 5611,
      "unity": 5612,
      "quest": 5613,
      "liver": 5614,
      "engg": 5615,
      "maker": 5616,
      "bob": 5617,
      "adap": 5618,
      "upp": 5619,
      "2015": 5620,
      "worth": 5621,
      "sym": 5622,
      "mein": 5623,
      "marri": 5624,
      "agro": 5625,
      "site": 5626,
      "fullbody": 5627,
      "groups": 5628,
      "bernou": 5629,
      "athle": 5630,
      "introducing": 5631,
      "lightning": 5632,
      "pub": 5633,
      "samveda": 5634,
      "teachers": 5635,
      "ipment": 5636,
      "matters": 5637,
      "iitjee": 5638,
      "survi": 5639,
      "rules": 5640,
      "ggle": 5641,
      "flash": 5642,
      "motivational": 5643,
      "joe": 5644,
      "summer": 5645,
      "स्था": 5646,
      "transl": 5647,
      "giant": 5648,
      "semin": 5649,
      "queen": 5650,
      "grass": 5651,
      "ারণ": 5652,
      "ার্": 5653,
      "oxide": 5654,
      "operator": 5655,
      "player": 5656,
      "ன்ன": 5657,
      "hammad": 5658,
      "placements": 5659,
      "mayo": 5660,
      "autocad": 5661,
      "differentiation": 5662,
      "pakistan": 5663,
      "bktv": 5664,
      "principles": 5665,
      "copper": 5666,
      "kinematics": 5667,
      "সায়ন": 5668,
      "yogesh": 5669,
      "akhali": 5670,
      "display": 5671,
      "visit": 5672,
      "rankersgurukul": 5673,
      "kinetic": 5674,
      "exploring": 5675,
      "resistance": 5676,
      "vitam": 5677,
      "தாவர": 5678,
      "john": 5679,
      "lization": 5680,
      "central": 5681,
      "density": 5682,
      "acceleration": 5683,
      "ளின்": 5684,
      "temperature": 5685,
      "finger": 5686,
      "japan": 5687,
      "ographic": 5688,
      "configuration": 5689,
      "scholar": 5690,
      "manufacturing": 5691,
      "gshseb": 5692,
      "अम्ल": 5693,
      "bernoulli": 5694,
      "32": 5695,
      "38": 5696,
      "64": 5697,
      "98": 5698,
      "bag": 5699,
      "baz": 5700,
      "bca": 5701,
      "clear": 5702,
      "dbs": 5703,
      "fli": 5704,
      "fur": 5705,
      "gb": 5706,
      "gup": 5707,
      "gpt": 5708,
      "ise": 5709,
      "jok": 5710,
      "kap": 5711,
      "kore": 5712,
      "nba": 5713,
      "oy": 5714,
      "rate": 5715,
      "som": 5716,
      "tak": 5717,
      "vr": 5718,
      "vine": 5719,
      "want": 5720,
      "wall": 5721,
      "ware": 5722,
      "|@": 5723,
      "कमा": 5724,
      "ग्र": 5725,
      "जगत": 5726,
      "द्र": 5727,
      "पह": 5728,
      "प्": 5729,
      "भार": 5730,
      "रे": 5731,
      "वना": 5732,
      "કર": 5733,
      "ந்த": 5734,
      "ాల": 5735,
      "್ಯ": 5736,
      "ില": 5737,
      "ේණ": 5738,
      "💥💥": 5739,
      "infin": 5740,
      "inking": 5741,
      "scence": 5742,
      "stup": 5743,
      "choud": 5744,
      "ara": 5745,
      "asing": 5746,
      "thor": 5747,
      "thal": 5748,
      "oltu": 5749,
      "reel": 5750,
      "reve": 5751,
      "reverse": 5752,
      "legen": 5753,
      "clo": 5754,
      "shad": 5755,
      "shob": 5756,
      "shriv": 5757,
      "anda": 5758,
      "iti": 5759,
      "itary": 5760,
      "edureka": 5761,
      "deb": 5762,
      "decor": 5763,
      "phot": 5764,
      "phones": 5765,
      "vices": 5766,
      "techshorts": 5767,
      "biot": 5768,
      "techniques": 5769,
      "lifest": 5770,
      "paralle": 5771,
      "moving": 5772,
      "promo": 5773,
      "jeema": 5774,
      "plat": 5775,
      "plate": 5776,
      "ayush": 5777,
      "uppcs": 5778,
      "betes": 5779,
      "hindu": 5780,
      "feature": 5781,
      "impact": 5782,
      "ductor": 5783,
      "expert": 5784,
      "ricket": 5785,
      "rise": 5786,
      "generation": 5787,
      "sscadda247": 5788,
      "fibre": 5789,
      "drone": 5790,
      "possible": 5791,
      "schools": 5792,
      "bert": 5793,
      "pain": 5794,
      "paul": 5795,
      "काल": 5796,
      "policy": 5797,
      "avai": 5798,
      "myths": 5799,
      "tamilnadu": 5800,
      "healthy": 5801,
      "creating": 5802,
      "setting": 5803,
      "machining": 5804,
      "astava": 5805,
      "summary": 5806,
      "स्ता": 5807,
      "microcontroller": 5808,
      "balloon": 5809,
      "satelli": 5810,
      "musk": 5811,
      "semicon": 5812,
      "profit": 5813,
      "methodology": 5814,
      "agricoltu": 5815,
      "effective": 5816,
      "ships": 5817,
      "weightage": 5818,
      "choice": 5819,
      "newtons": 5820,
      "president": 5821,
      "explore": 5822,
      "nucle": 5823,
      "reading": 5824,
      "copy": 5825,
      "happy": 5826,
      "integrated": 5827,
      "farmlife": 5828,
      "spective": 5829,
      "ट्रिक": 5830,
      "candle": 5831,
      "wireless": 5832,
      "sensor": 5833,
      "quadrat": 5834,
      "actually": 5835,
      "वेश": 5836,
      "nirwan": 5837,
      "गुण": 5838,
      "diabetes": 5839,
      "aerospace": 5840,
      "ශ්‍රේණ": 5841,
      "displacement": 5842,
      "guaranteed": 5843,
      "einstein": 5844,
      "assessment": 5845,
      "bktvok": 5846,
      "gupta": 5847,
      "stupid": 5848,
      "shobhit": 5849,
      "agricoltura": 5850,
      ",/": 5851,
      "31": 5852,
      "34": 5853,
      "37": 5854,
      "aa": 5855,
      "ade": 5856,
      "bte": 5857,
      "bbc": 5858,
      "cin": 5859,
      "din": 5860,
      "dum": 5861,
      "ders": 5862,
      "danger": 5863,
      "ese": 5864,
      "father": 5865,
      "gol": 5866,
      "hli": 5867,
      "hus": 5868,
      "jk": 5869,
      "mud": 5870,
      "nan": 5871,
      "nomen": 5872,
      "oce": 5873,
      "oso": 5874,
      "ration": 5875,
      "ris": 5876,
      "roll": 5877,
      "rogen": 5878,
      "sand": 5879,
      "sli": 5880,
      "say": 5881,
      "sure": 5882,
      "sav": 5883,
      "swing": 5884,
      "sandeep": 5885,
      "tyson": 5886,
      "vines": 5887,
      "wali": 5888,
      "would": 5889,
      "xe": 5890,
      "yam": 5891,
      "आवेश": 5892,
      "कित": 5893,
      "जब": 5894,
      "पन": 5895,
      "बल": 5896,
      "मजे": 5897,
      "यौ": 5898,
      "रह": 5899,
      "लि": 5900,
      "वार": 5901,
      "ातु": 5902,
      "ूल": 5903,
      "আলো": 5904,
      "কা": 5905,
      "বল": 5906,
      "ভৌ": 5907,
      "শক্তি": 5908,
      "ষ্": 5909,
      "েণ": 5910,
      "ાર": 5911,
      "தம்": 5912,
      "னா": 5913,
      "ாம்": 5914,
      "ట్": 5915,
      "ಜ್": 5916,
      "್ರ": 5917,
      "🙏🏻": 5918,
      "🤣🤣": 5919,
      "induction": 5920,
      "inher": 5921,
      "inspir": 5922,
      "scale": 5923,
      "ato": 5924,
      "stick": 5925,
      "aring": 5926,
      "arab": 5927,
      "alkan": 5928,
      "tha": 5929,
      "rest": 5930,
      "resp": 5931,
      "remember": 5932,
      "leg": 5933,
      "teen": 5934,
      "associ": 5935,
      "clature": 5936,
      "ands": 5937,
      "offi": 5938,
      "selection": 5939,
      "degrass": 5940,
      "rac": 5941,
      "technogam": 5942,
      "lis": 5943,
      "isro": 5944,
      "makes": 5945,
      "pari": 5946,
      "mod": 5947,
      "ullah": 5948,
      "adav": 5949,
      "plas": 5950,
      "updat": 5951,
      "acy": 5952,
      "ncertscience": 5953,
      "udy": 5954,
      "fee": 5955,
      "aba": 5956,
      "prevent": 5957,
      "otra": 5958,
      "allic": 5959,
      "tier": 5960,
      "coal": 5961,
      "hosp": 5962,
      "achiev": 5963,
      "labs": 5964,
      "lable": 5965,
      "mann": 5966,
      "universities": 5967,
      "tesla": 5968,
      "tage": 5969,
      "taste": 5970,
      "र्म": 5971,
      "magical": 5972,
      "प्रस्ता": 5973,
      "healing": 5974,
      "bub": 5975,
      "homework": 5976,
      "tricky": 5977,
      "150": 5978,
      "नाव": 5979,
      "powerful": 5980,
      "nie": 5981,
      "pire": 5982,
      "10012": 5983,
      "mones": 5984,
      "objectives": 5985,
      "digestion": 5986,
      "miss": 5987,
      "vocation": 5988,
      "tons": 5989,
      "designs": 5990,
      "cae": 5991,
      "khat": 5992,
      "discover": 5993,
      "blocks": 5994,
      "limits": 5995,
      "advant": 5996,
      "spirit": 5997,
      "gadget": 5998,
      "puzzles": 5999,
      "oxy": 6000,
      "stars": 6001,
      "hormones": 6002,
      "pune": 6003,
      "প্রশ্": 6004,
      "trigonometric": 6005,
      "halo": 6006,
      "simplilearn": 6007,
      "petrole": 6008,
      "ന്ന": 6009,
      "movies": 6010,
      "fundamentals": 6011,
      "budget": 6012,
      "happens": 6013,
      "circulation": 6014,
      "emade": 6015,
      "kotawe": 6016,
      "connect": 6017,
      "connection": 6018,
      "stories": 6019,
      "homemade": 6020,
      "prashant": 6021,
      "demonstration": 6022,
      "wild": 6023,
      "सूत्र": 6024,
      "frequency": 6025,
      "अध्या": 6026,
      "approach": 6027,
      "separation": 6028,
      "biggest": 6029,
      "football": 6030,
      "ecosystem": 6031,
      "mahesh": 6032,
      "philoso": 6033,
      "gpstr": 6034,
      "tneb": 6035,
      "ntse": 6036,
      "सम्पूर्ण": 6037,
      "library": 6038,
      "philippines": 6039,
      "मिति": 6040,
      "ವಿಜ್": 6041,
      "madhukar": 6042,
      "volcano": 6043,
      "jokes": 6044,
      "कमाल": 6045,
      "choudhary": 6046,
      "shrivastava": 6047,
      "lifestyle": 6048,
      "available": 6049,
      "quadratic": 6050,
      "ශ්‍රේණිය": 6051,
      "nomenclature": 6052,
      "मजेदार": 6053,
      "यौगिक": 6054,
      "ভৌত": 6055,
      "inheritance": 6056,
      "degrasse": 6057,
      "technogamerz": 6058,
      "प्रस्तावना": 6059,
      "প্রশ্ন": 6060,
      "petroleum": 6061,
      "42": 6062,
      "bm": 6063,
      "bba": 6064,
      "cd": 6065,
      "cure": 6066,
      "cricket": 6067,
      "eat": 6068,
      "evs": 6069,
      "fal": 6070,
      "five": 6071,
      "hall": 6072,
      "hours": 6073,
      "java": 6074,
      "kam": 6075,
      "kset": 6076,
      "krit": 6077,
      "lon": 6078,
      "lass": 6079,
      "mut": 6080,
      "nta": 6081,
      "q2": 6082,
      "rog": 6083,
      "xel": 6084,
      "xml": 6085,
      "इड": 6086,
      "ओं": 6087,
      "कह": 6088,
      "ची": 6089,
      "टी": 6090,
      "ड़": 6091,
      "ढ़": 6092,
      "रु": 6093,
      "रू": 6094,
      "शी": 6095,
      "চা": 6096,
      "মি": 6097,
      "শ্র": 6098,
      "ના": 6099,
      "டு": 6100,
      "ட்ட": 6101,
      "క్": 6102,
      "్య": 6103,
      "ಞಾನ": 6104,
      "್ತ": 6105,
      "ണ്ട": 6106,
      "വി": 6107,
      "💖🥰": 6108,
      "eness": 6109,
      "ceutical": 6110,
      "inj": 6111,
      "ints": 6112,
      "sco": 6113,
      "scen": 6114,
      "ond": 6115,
      "sts": 6116,
      "ston": 6117,
      "stan": 6118,
      "station": 6119,
      "stress": 6120,
      "order": 6121,
      "aro": 6122,
      "arun": 6123,
      "arora": 6124,
      "alk": 6125,
      "alco": 6126,
      "always": 6127,
      "alarm": 6128,
      "thi": 6129,
      "thom": 6130,
      "ols": 6131,
      "reduce": 6132,
      "sham": 6133,
      "shala": 6134,
      "eme": 6135,
      "terms": 6136,
      "sequ": 6137,
      "sell": 6138,
      "rout": 6139,
      "rosion": 6140,
      "matic": 6141,
      "matemat": 6142,
      "edge": 6143,
      "excret": 6144,
      "deled": 6145,
      "format": 6146,
      "forms": 6147,
      "total": 6148,
      "imran": 6149,
      "biome": 6150,
      "dire": 6151,
      "dium": 6152,
      "dible": 6153,
      "esis": 6154,
      "lia": 6155,
      "nepal": 6156,
      "ivlog": 6157,
      "proportion": 6158,
      "ssb": 6159,
      "ely": 6160,
      "wif": 6161,
      "acus": 6162,
      "accor": 6163,
      "abacus": 6164,
      "conversion": 6165,
      "convocation": 6166,
      "solu": 6167,
      "priv": 6168,
      "sugar": 6169,
      "ody": 6170,
      "vectors": 6171,
      "ssccgl": 6172,
      "oka": 6173,
      "string": 6174,
      "track": 6175,
      "siem": 6176,
      "affect": 6177,
      "विष": 6178,
      "minivlog": 6179,
      "intermit": 6180,
      "internal": 6181,
      "cars": 6182,
      "aust": 6183,
      "bring": 6184,
      "msbte": 6185,
      "david": 6186,
      "commence": 6187,
      "walk": 6188,
      "nye": 6189,
      "micha": 6190,
      "bond": 6191,
      "bhai": 6192,
      "nios": 6193,
      "slow": 6194,
      "corrosion": 6195,
      "sums": 6196,
      "wait": 6197,
      "built": 6198,
      "soft": 6199,
      "hero": 6200,
      "wbp": 6201,
      "प्रश्नाव": 6202,
      "january": 6203,
      "circle": 6204,
      "wars": 6205,
      "robotic": 6206,
      "satur": 6207,
      "iphone14": 6208,
      "crop": 6209,
      "crow": 6210,
      "indic": 6211,
      "shift": 6212,
      "pharmaceutical": 6213,
      "तरी": 6214,
      "baseball": 6215,
      "जादू": 6216,
      "primary": 6217,
      "kidney": 6218,
      "true": 6219,
      "related": 6220,
      "textbook": 6221,
      "james": 6222,
      "milk": 6223,
      "shergarh": 6224,
      "vacancy": 6225,
      "beauty": 6226,
      "champion": 6227,
      "wordpress": 6228,
      "angel": 6229,
      "shanghai": 6230,
      "ভাবে": 6231,
      "priya": 6232,
      "habit": 6233,
      "crystal": 6234,
      "ayurveda": 6235,
      "arithmetic": 6236,
      "ങ്ങൾ": 6237,
      "வகுப்பு": 6238,
      "mixtures": 6239,
      "sadhana": 6240,
      "breathing": 6241,
      "alternat": 6242,
      "ಗಳು": 6243,
      "seminar": 6244,
      "bazar": 6245,
      "dbs10012": 6246,
      "reveal": 6247,
      "jeemains": 6248,
      "dangerous": 6249,
      "philosophy": 6250,
      "ವಿಜ್ಞಾನ": 6251,
      "alcohol": 6252,
      "excretory": 6253,
      "according": 6254,
      "intermittent": 6255,
      "commencement": 6256,
      "michael": 6257,
      "प्रश्नावली": 6258,
      ").": 6259,
      "47": 6260,
      "avi": 6261,
      "bone": 6262,
      "bution": 6263,
      "bacter": 6264,
      "csc": 6265,
      "css": 6266,
      "cab": 6267,
      "dry": 6268,
      "fc": 6269,
      "fab": 6270,
      "fram": 6271,
      "fell": 6272,
      "gion": 6273,
      "hk": 6274,
      "haz": 6275,
      "hence": 6276,
      "jang": 6277,
      "l1": 6278,
      "mers": 6279,
      "mort": 6280,
      "mouse": 6281,
      "ots": 6282,
      "pict": 6283,
      "q3": 6284,
      "sit": 6285,
      "sort": 6286,
      "tom": 6287,
      "tation": 6288,
      "vor": 6289,
      "woman": 6290,
      "yt": 6291,
      "zh": 6292,
      "на": 6293,
      "عل": 6294,
      "अप": 6295,
      "आप": 6296,
      "एं": 6297,
      "कृ": 6298,
      "निक": 6299,
      "पार": 6300,
      "पद्ध": 6301,
      "मु": 6302,
      "रि": 6303,
      "लव": 6304,
      "वै": 6305,
      "सार": 6306,
      "কো": 6307,
      "দে": 6308,
      "নী": 6309,
      "ভি": 6310,
      "যু": 6311,
      "াল": 6312,
      "্ব": 6313,
      "સ્": 6314,
      "இய": 6315,
      "கம்": 6316,
      "து": 6317,
      "னி": 6318,
      "மும்": 6319,
      "కా": 6320,
      "న్": 6321,
      "වසර": 6322,
      "සා": 6323,
      "ense": 6324,
      "ced": 6325,
      "infl": 6326,
      "invest": 6327,
      "scular": 6328,
      "iency": 6329,
      "anil": 6330,
      "anya": 6331,
      "chick": 6332,
      "orien": 6333,
      "alph": 6334,
      "alga": 6335,
      "ionic": 6336,
      "reduction": 6337,
      "regre": 6338,
      "reaching": 6339,
      "tell": 6340,
      "clay": 6341,
      "shant": 6342,
      "shred": 6343,
      "classroom": 6344,
      "ams": 6345,
      "eds": 6346,
      "edic": 6347,
      "extre": 6348,
      "vish": 6349,
      "ryan": 6350,
      "unk": 6351,
      "unlock": 6352,
      "issb": 6353,
      "para": 6354,
      "parent": 6355,
      "iling": 6356,
      "boat": 6357,
      "prop": 6358,
      "perspective": 6359,
      "part2": 6360,
      "cific": 6361,
      "spl": 6362,
      "spin": 6363,
      "anta": 6364,
      "beat": 6365,
      "ghter": 6366,
      "abhish": 6367,
      "confir": 6368,
      "conca": 6369,
      "contri": 6370,
      "ansion": 6371,
      "prediction": 6372,
      "oti": 6373,
      "projectile": 6374,
      "mentation": 6375,
      "epic": 6376,
      "aki": 6377,
      "toppr": 6378,
      "factors": 6379,
      "lost": 6380,
      "colour": 6381,
      "hari": 6382,
      "driv": 6383,
      "fully": 6384,
      "uck": 6385,
      "prakash": 6386,
      "jee2024": 6387,
      "cardi": 6388,
      "//#": 6389,
      "services": 6390,
      "्यों": 6391,
      "subtit": 6392,
      "subtraction": 6393,
      "progress": 6394,
      "ensive": 6395,
      "osis": 6396,
      "olecules": 6397,
      "easily": 6398,
      "animated": 6399,
      "botany": 6400,
      "monitor": 6401,
      "male": 6402,
      "corona": 6403,
      "lcc": 6404,
      "्यास": 6405,
      "joint": 6406,
      "tablet": 6407,
      "patna": 6408,
      "intext": 6409,
      "triple": 6410,
      "single": 6411,
      "frid": 6412,
      "bengal": 6413,
      "jiggle": 6414,
      "innovative": 6415,
      "निर्": 6416,
      "biomolecules": 6417,
      "क्षार": 6418,
      "gujarat": 6419,
      "value": 6420,
      "க்கிய": 6421,
      "potato": 6422,
      "dynamic": 6423,
      "decim": 6424,
      "breakdown": 6425,
      "nitrogen": 6426,
      "punch": 6427,
      "optional": 6428,
      "ethics": 6429,
      "expansion": 6430,
      "devices": 6431,
      "fypシ": 6432,
      "graphs": 6433,
      "bharti": 6434,
      "fractions": 6435,
      "military": 6436,
      "सीख": 6437,
      "friends": 6438,
      "kalvi": 6439,
      "yoga": 6440,
      "maps": 6441,
      "vacc": 6442,
      "अभ्यास": 6443,
      "ibps": 6444,
      "්‍යාස": 6445,
      "toppers": 6446,
      "leader": 6447,
      "alumin": 6448,
      "vidyakul": 6449,
      "कार्य": 6450,
      "elementary": 6451,
      "cause": 6452,
      "defence": 6453,
      "protein": 6454,
      "জীবন": 6455,
      "religion": 6456,
      "2k18": 6457,
      "srm": 6458,
      "नियम": 6459,
      "aerotra": 6460,
      "economic": 6461,
      "वर्गीकरण": 6462,
      "sustain": 6463,
      "ohm": 6464,
      "cycling": 6465,
      "hydrocarbons": 6466,
      "organs": 6467,
      "कुछ": 6468,
      "नहीं": 6469,
      "married": 6470,
      "respon": 6471,
      "अध्याय": 6472,
      "siemens": 6473,
      "fabric": 6474,
      "concave": 6475,
      "aerotrade": 6476,
      "1e": 6477,
      "51": 6478,
      "?#": 6479,
      "ave": 6480,
      "cit": 6481,
      "cru": 6482,
      "during": 6483,
      "flip": 6484,
      "gst": 6485,
      "hay": 6486,
      "ig": 6487,
      "iy": 6488,
      "ier": 6489,
      "kle": 6490,
      "l2": 6491,
      "lun": 6492,
      "mou": 6493,
      "money": 6494,
      "nm": 6495,
      "nab": 6496,
      "npc": 6497,
      "nwal": 6498,
      "oo": 6499,
      "pit": 6500,
      "pac": 6501,
      "rid": 6502,
      "rational": 6503,
      "sul": 6504,
      "swe": 6505,
      "smi": 6506,
      "sank": 6507,
      "sources": 6508,
      "tin": 6509,
      "tag": 6510,
      "tcc": 6511,
      "ustr": 6512,
      "vu": 6513,
      "vex": 6514,
      "vict": 6515,
      "yu": 6516,
      "zen": 6517,
      "ري": 6518,
      "अन": 6519,
      "गी": 6520,
      "चो": 6521,
      "पो": 6522,
      "बी": 6523,
      "बै": 6524,
      "यों": 6525,
      "शु": 6526,
      "কার": 6527,
      "ডি": 6528,
      "তু": 6529,
      "মিক": 6530,
      "সের": 6531,
      "ண்": 6532,
      "பாட": 6533,
      "ஸ்": 6534,
      "අභ": 6535,
      "ර්": 6536,
      "🤔🤔": 6537,
      "stute": 6538,
      "arial": 6539,
      "alg": 6540,
      "allied": 6541,
      "alaya": 6542,
      "ased": 6543,
      "then": 6544,
      "thetic": 6545,
      "reci": 6546,
      "report": 6547,
      "shu": 6548,
      "shap": 6549,
      "class9th": 6550,
      "ologies": 6551,
      "ofphysics": 6552,
      "seba": 6553,
      "robots": 6554,
      "2000": 6555,
      "rakesh": 6556,
      "bie": 6557,
      "bis": 6558,
      "etric": 6559,
      "isa": 6560,
      "iso": 6561,
      "ows": 6562,
      "proof": 6563,
      "produ": 6564,
      "adhd": 6565,
      "advice": 6566,
      "party": 6567,
      "medschool": 6568,
      "company": 6569,
      "gear": 6570,
      "geographic": 6571,
      "beli": 6572,
      "abd": 6573,
      "impo": 6574,
      "keen": 6575,
      "2014": 6576,
      "solids": 6577,
      "prime": 6578,
      "preset": 6579,
      "vey": 6580,
      "veer": 6581,
      "boardexam": 6582,
      "door": 6583,
      "faster": 6584,
      "lose": 6585,
      "viralshort": 6586,
      "harvest": 6587,
      "wei": 6588,
      "guid": 6589,
      "drive": 6590,
      "pool": 6591,
      "points": 6592,
      "manoj": 6593,
      "berg": 6594,
      "विष्": 6595,
      "testimon": 6596,
      "miner": 6597,
      "avan": 6598,
      "illation": 6599,
      "illustr": 6600,
      "myth": 6601,
      "muhammad": 6602,
      "र्ट": 6603,
      "प्रकार": 6604,
      "lymph": 6605,
      "organism": 6606,
      "trends": 6607,
      "programme": 6608,
      "programmer": 6609,
      "cream": 6610,
      "railways": 6611,
      "facil": 6612,
      "battle": 6613,
      "medicalschool": 6614,
      "corpor": 6615,
      "namoka": 6616,
      "cris": 6617,
      "juice": 6618,
      "patwari": 6619,
      "क्ला": 6620,
      "boost": 6621,
      "gamingsetup": 6622,
      "memory": 6623,
      "स्ट": 6624,
      "showcase": 6625,
      "transfer": 6626,
      "gift": 6627,
      "shah": 6628,
      "shake": 6629,
      "functional": 6630,
      "letstute": 6631,
      "क्षे": 6632,
      "theoryofphysics": 6633,
      "btc": 6634,
      "variation": 6635,
      "autom": 6636,
      "turning": 6637,
      "shock": 6638,
      "decision": 6639,
      "horiz": 6640,
      "bull": 6641,
      "communic": 6642,
      "প্রযু": 6643,
      "secondary": 6644,
      "ogenesis": 6645,
      "brian": 6646,
      "coordinate": 6647,
      "wonders": 6648,
      "synthetic": 6649,
      "times": 6650,
      "filter": 6651,
      "cleaning": 6652,
      "liquids": 6653,
      "buds": 6654,
      "content": 6655,
      "contact": 6656,
      "melc": 6657,
      "integration": 6658,
      "chris": 6659,
      "chatgpt": 6660,
      "வேதம்": 6661,
      "rilater": 6662,
      "candy": 6663,
      "માં": 6664,
      "fuel": 6665,
      "iddle": 6666,
      "incredible": 6667,
      "quadrilater": 6668,
      "actuarial": 6669,
      "original": 6670,
      "spotlight": 6671,
      "professional": 6672,
      "gaurav": 6673,
      "behavior": 6674,
      "computing": 6675,
      "taiwan": 6676,
      "মাধ্য": 6677,
      "भौतिक": 6678,
      "scholarship": 6679,
      "semiconductor": 6680,
      "hospital": 6681,
      "advantages": 6682,
      "শ্রেণ": 6683,
      "routine": 6684,
      "private": 6685,
      "पद्धति": 6686,
      "लवण": 6687,
      "algae": 6688,
      "shredded": 6689,
      "extreme": 6690,
      "abhishek": 6691,
      "්‍යාසය": 6692,
      "sustainable": 6693,
      "අභ්‍යාසය": 6694,
      "विष्कार": 6695,
      "namokaul": 6696,
      "প্রযুক্তি": 6697,
      ")-": 6698,
      "39": 6699,
      "48": 6700,
      "53": 6701,
      "66": 6702,
      "77": 6703,
      "78": 6704,
      "_ji": 6705,
      "_guru": 6706,
      "adi": 6707,
      "away": 6708,
      "ability": 6709,
      "aims": 6710,
      "cp": 6711,
      "cup": 6712,
      "cable": 6713,
      "cds": 6714,
      "dp": 6715,
      "eka": 6716,
      "eyes": 6717,
      "fts": 6718,
      "fed": 6719,
      "ffic": 6720,
      "ged": 6721,
      "gest": 6722,
      "hur": 6723,
      "hole": 6724,
      "iest": 6725,
      "ili": 6726,
      "ila": 6727,
      "jiv": 6728,
      "kill": 6729,
      "kalam": 6730,
      "lic": 6731,
      "las": 6732,
      "lum": 6733,
      "mang": 6734,
      "mult": 6735,
      "nst": 6736,
      "nolog": 6737,
      "nical": 6738,
      "nik": 6739,
      "ocs": 6740,
      "rt": 6741,
      "rar": 6742,
      "rics": 6743,
      "task": 6744,
      "uq": 6745,
      "ury": 6746,
      "vard": 6747,
      "wer": 6748,
      "wick": 6749,
      "xii": 6750,
      "yadav": 6751,
      "ón": 6752,
      "το": 6753,
      "بي": 6754,
      "ول": 6755,
      "ंब": 6756,
      "ंतर": 6757,
      "उस": 6758,
      "क्यों": 6759,
      "डि": 6760,
      "तो": 6761,
      "बो": 6762,
      "यही": 6763,
      "शिक्": 6764,
      "सन": 6765,
      "हम": 6766,
      "हर": 6767,
      "দ্": 6768,
      "নু": 6769,
      "বহ": 6770,
      "২০": 6771,
      "નો": 6772,
      "મી": 6773,
      "વા": 6774,
      "સા": 6775,
      "િત": 6776,
      "ું": 6777,
      "டை": 6778,
      "ணு": 6779,
      "படி": 6780,
      "லை": 6781,
      "ప్ర": 6782,
      "ാം": 6783,
      "ත්": 6784,
      "හා": 6785,
      "科技": 6786,
      "ening": 6787,
      "ender": 6788,
      "inf": 6789,
      "erk": 6790,
      "sciencefun": 6791,
      "anj": 6792,
      "stay": 6793,
      "stri": 6794,
      "chin": 6795,
      "ica": 6796,
      "arity": 6797,
      "alore": 6798,
      "tho": 6799,
      "thak": 6800,
      "react": 6801,
      "lego": 6802,
      "tesh": 6803,
      "teck": 6804,
      "ogn": 6805,
      "clar": 6806,
      "shay": 6807,
      "amb": 6808,
      "anding": 6809,
      "sea": 6810,
      "rome": 6811,
      "mative": 6812,
      "degre": 6813,
      "deped": 6814,
      "dehli": 6815,
      "phase": 6816,
      "ists": 6817,
      "istudy": 6818,
      "ragh": 6819,
      "tos": 6820,
      "iment": 6821,
      "imag": 6822,
      "qual": 6823,
      "lig": 6824,
      "lians": 6825,
      "laksh": 6826,
      "mother": 6827,
      "comes": 6828,
      "ilogy": 6829,
      "ults": 6830,
      "trt": 6831,
      "tranding": 6832,
      "usb": 6833,
      "geography": 6834,
      "plans": 6835,
      "uppsc": 6836,
      "whole": 6837,
      "account": 6838,
      "udhary": 6839,
      "ida": 6840,
      "examwinner": 6841,
      "convex": 6842,
      "gene": 6843,
      "genous": 6844,
      "worst": 6845,
      "preview": 6846,
      "oneplus": 6847,
      "aga": 6848,
      "basket": 6849,
      "size": 6850,
      "fisher": 6851,
      "weak": 6852,
      "tuition": 6853,
      "tuber": 6854,
      "drama": 6855,
      "statics": 6856,
      "afat": 6857,
      "posi": 6858,
      "manual": 6859,
      "pcm": 6860,
      "ized": 6861,
      "tests": 6862,
      "ministry": 6863,
      "hya": 6864,
      "cube": 6865,
      "interactive": 6866,
      "soap": 6867,
      "cardio": 6868,
      "chanics": 6869,
      "र्फ": 6870,
      "kaj": 6871,
      "yearly": 6872,
      "प्रकरण": 6873,
      "nahi": 6874,
      "struct": 6875,
      "indigenous": 6876,
      "mechanic": 6877,
      "bhas": 6878,
      "iitbombay": 6879,
      "slc": 6880,
      "slander": 6881,
      "साइं": 6882,
      "corner": 6883,
      "numberblocks": 6884,
      "summative": 6885,
      "logarith": 6886,
      "sunil": 6887,
      "bangalore": 6888,
      "intelugu": 6889,
      "meme": 6890,
      "memor": 6891,
      "स्त्र": 6892,
      "microorganisms": 6893,
      "differential": 6894,
      "multiple": 6895,
      "balancing": 6896,
      "binocs": 6897,
      "transformation": 6898,
      "blox": 6899,
      "cutting": 6900,
      "gain": 6901,
      "orders": 6902,
      "voltage": 6903,
      "vedantumath": 6904,
      "jabi": 6905,
      "ள்ள": 6906,
      "mpsi": 6907,
      "processing": 6908,
      "ifas": 6909,
      "index": 6910,
      "chaudhary": 6911,
      "nurse": 6912,
      "simply": 6913,
      "changed": 6914,
      "க்கள்": 6915,
      "graduates": 6916,
      "cheap": 6917,
      "calculate": 6918,
      "ன்ற": 6919,
      "bulb": 6920,
      "require": 6921,
      "punjab": 6922,
      "punjabi": 6923,
      "blaze": 6924,
      "disney": 6925,
      "pathshala": 6926,
      "kidz": 6927,
      "relations": 6928,
      "lamp": 6929,
      "north": 6930,
      "வினா": 6931,
      "relatable": 6932,
      "antibiot": 6933,
      "graphics": 6934,
      "বেশ": 6935,
      "morning": 6936,
      "lenses": 6937,
      "alumni": 6938,
      "fusion360": 6939,
      "personal": 6940,
      "remote": 6941,
      "சுற்ற": 6942,
      "chennai": 6943,
      "mistakes": 6944,
      "ayurvedic": 6945,
      "manishsudh": 6946,
      "capacitor": 6947,
      "পরিমা": 6948,
      "িয়া": 6949,
      "description": 6950,
      "derivation": 6951,
      "kiran": 6952,
      "~~#": 6953,
      "दवाई": 6954,
      "ज्यामिति": 6955,
      "முக்கிய": 6956,
      "civilians": 6957,
      "hostel": 6958,
      "follow": 6959,
      "सिर्फ": 6960,
      "determinants": 6961,
      "movements": 6962,
      "atmospheric": 6963,
      "deleted": 6964,
      "macbook": 6965,
      "efficiency": 6966,
      "pendulum": 6967,
      "बंधित": 6968,
      "রাসায়ন": 6969,
      "position": 6970,
      "pyramid": 6971,
      "parallel": 6972,
      "platform": 6973,
      "mudgal": 6974,
      "ocean": 6975,
      "arabic": 6976,
      "alkanes": 6977,
      "oxygen": 6978,
      "biomechanics": 6979,
      "wifistudy": 6980,
      "saturated": 6981,
      "bacteria": 6982,
      "fellow": 6983,
      "jangid": 6984,
      "chicken": 6985,
      "regression": 6986,
      "contribution": 6987,
      "बैच": 6988,
      "believ": 6989,
      "impossible": 6990,
      "facilities": 6991,
      "क्षेत्र": 6992,
      "মাধ্যমিক": 6993,
      "_guru_ji": 6994,
      "federal": 6995,
      "nical_guru_ji": 6996,
      "tecknical_guru_ji": 6997,
      "degrees": 6998,
      "basketball": 6999,
      "साइंस": 7000,
      "manishsudhakar": 7001,
      "রাসায়নিক": 7002,
      "41": 7003,
      "97": 7004,
      "aids": 7005,
      "aster": 7006,
      "bol": 7007,
      "bine": 7008,
      "bum": 7009,
      "bound": 7010,
      "bath": 7011,
      "bres": 7012,
      "cus": 7013,
      "core": 7014,
      "dri": 7015,
      "dha": 7016,
      "dino": 7017,
      "ei": 7018,
      "fs": 7019,
      "fel": 7020,
      "flex": 7021,
      "gou": 7022,
      "gma": 7023,
      "gers": 7024,
      "gard": 7025,
      "hav": 7026,
      "iot": 7027,
      "ific": 7028,
      "iya": 7029,
      "jon": 7030,
      "jim": 7031,
      "lok": 7032,
      "lower": 7033,
      "mum": 7034,
      "niv": 7035,
      "nus": 7036,
      "pon": 7037,
      "pand": 7038,
      "pick": 7039,
      "pitch": 7040,
      "q4": 7041,
      "q5": 7042,
      "sne": 7043,
      "sans": 7044,
      "s1e": 7045,
      "tı": 7046,
      "tables": 7047,
      "ues": 7048,
      "اء": 7049,
      "ار": 7050,
      "आसान": 7051,
      "इस": 7052,
      "उन": 7053,
      "घट": 7054,
      "चु": 7055,
      "ज़": 7056,
      "डा": 7057,
      "डी": 7058,
      "णा": 7059,
      "शत": 7060,
      "सक": 7061,
      "्म": 7062,
      "অনু": 7063,
      "উত্": 7064,
      "ব্য": 7065,
      "ির": 7066,
      "িৎ": 7067,
      "য়া": 7068,
      "જ્": 7069,
      "ઞાન": 7070,
      "રા": 7071,
      "િક": 7072,
      "உப": 7073,
      "சி": 7074,
      "பா": 7075,
      "பரு": 7076,
      "லம்": 7077,
      "ுக": 7078,
      "ொரு": 7079,
      "జీ": 7080,
      "తి": 7081,
      "കൾ": 7082,
      "ച്": 7083,
      "തി": 7084,
      "ദ്യ": 7085,
      "നെ": 7086,
      "രി": 7087,
      "ല്": 7088,
      "නය": 7089,
      "නු": 7090,
      "මා": 7091,
      "රසා": 7092,
      "😭😭": 7093,
      "infe": 7094,
      "instr": 7095,
      "inner": 7096,
      "info": 7097,
      "sclass": 7098,
      "atp": 7099,
      "anth": 7100,
      "stro": 7101,
      "street": 7102,
      "chlor": 7103,
      "asy": 7104,
      "thinking": 7105,
      "oli": 7106,
      "ression": 7107,
      "lee": 7108,
      "lets": 7109,
      "leaf": 7110,
      "left": 7111,
      "clerk": 7112,
      "amp": 7113,
      "emb": 7114,
      "emo": 7115,
      "empl": 7116,
      "emot": 7117,
      "tering": 7118,
      "itution": 7119,
      "aptitude": 7120,
      "select": 7121,
      "rope": 7122,
      "roblox": 7123,
      "decomposition": 7124,
      "istration": 7125,
      "outs": 7126,
      "oustics": 7127,
      "vign": 7128,
      "mathshorts": 7129,
      "rag": 7130,
      "bigyan": 7131,
      "lives": 7132,
      "isation": 7133,
      "ission": 7134,
      "lad": 7135,
      "lakh": 7136,
      "neur": 7137,
      "mobil": 7138,
      "engineerguy": 7139,
      "proto": 7140,
      "trin": 7141,
      "trilogy": 7142,
      "uration": 7143,
      "median": 7144,
      "gee": 7145,
      "gel": 7146,
      "pler": 7147,
      "plust": 7148,
      "access": 7149,
      "acoustics": 7150,
      "ghat": 7151,
      "abc": 7152,
      "cons": 7153,
      "conduct": 7154,
      "dual": 7155,
      "symb": 7156,
      "mega": 7157,
      "tip": 7158,
      "agra": 7159,
      "neet2023": 7160,
      "aku": 7161,
      "planes": 7162,
      "fake": 7163,
      "loop": 7164,
      "colli": 7165,
      "webin": 7166,
      "weird": 7167,
      "drdo": 7168,
      "poster": 7169,
      "plastic": 7170,
      "universal": 7171,
      "paint": 7172,
      "ometer": 7173,
      "hypo": 7174,
      "athlet": 7175,
      "wati": 7176,
      "learner": 7177,
      "kage": 7178,
      "प्रा": 7179,
      "sage": 7180,
      "sahil": 7181,
      "lywood": 7182,
      "brut": 7183,
      "trend": 7184,
      "instagram": 7185,
      "yakeen": 7186,
      "machiner": 7187,
      "going": 7188,
      "ipur": 7189,
      "michi": 7190,
      "bones": 7191,
      "anish": 7192,
      "backed": 7193,
      "raps": 7194,
      "culture": 7195,
      "bravo": 7196,
      "medicalstudent": 7197,
      "monster": 7198,
      "flour": 7199,
      "results": 7200,
      "notation": 7201,
      "known": 7202,
      "spacetime": 7203,
      "supercross": 7204,
      "highest": 7205,
      "ankit": 7206,
      "booster": 7207,
      "triangles": 7208,
      "trivia": 7209,
      "talent": 7210,
      "histor": 7211,
      "3dprinting": 7212,
      "discipl": 7213,
      "beta": 7214,
      "balls": 7215,
      "বিশ্": 7216,
      "weekly": 7217,
      "tennis": 7218,
      "biharboard": 7219,
      "admissions": 7220,
      "valent": 7221,
      "broken": 7222,
      "kitchen": 7223,
      "swim": 7224,
      "catal": 7225,
      "simul": 7226,
      "pharmac": 7227,
      "mht": 7228,
      "महा": 7229,
      "vascular": 7230,
      "जादु": 7231,
      "disorders": 7232,
      "होते": 7233,
      "challeng": 7234,
      "pathak": 7235,
      "brief": 7236,
      "automatic": 7237,
      "ருக்க": 7238,
      "anubhav": 7239,
      "wheat": 7240,
      "্যাল": 7241,
      "welding": 7242,
      "pills": 7243,
      "pankaj": 7244,
      "vessel": 7245,
      "haryana": 7246,
      "colorful": 7247,
      "running": 7248,
      "river": 7249,
      "માન": 7250,
      "asked": 7251,
      "roadmap": 7252,
      "smoking": 7253,
      "rainbow": 7254,
      "স্থ": 7255,
      "lieve": 7256,
      "celebration": 7257,
      "sense": 7258,
      "किसे": 7259,
      "কিভাবে": 7260,
      "remove": 7261,
      "crystals": 7262,
      "rotational": 7263,
      "વિજ્": 7264,
      "धारा": 7265,
      "shikari": 7266,
      "skeletal": 7267,
      "ज्यादा": 7268,
      "प्रतिशत": 7269,
      "fruit": 7270,
      "റിയ": 7271,
      "conditioning": 7272,
      "convert": 7273,
      "html": 7274,
      "relaxing": 7275,
      "powers": 7276,
      "chakra": 7277,
      "symposi": 7278,
      "photography": 7279,
      "satellite": 7280,
      "bubble": 7281,
      "कहते": 7282,
      "scenes": 7283,
      "revealed": 7284,
      "cscs": 7285,
      "alpha": 7286,
      "vaccine": 7287,
      "isotop": 7288,
      "क्लास": 7289,
      "lakshya": 7290,
      "sanskrit": 7291,
      "উত্তর": 7292,
      "உபநி": 7293,
      "රසාය": 7294,
      "plustwo": 7295,
      "machinery": 7296,
      "जादुई": 7297,
      "anubhavsir": 7298,
      "વિજ્ઞાન": 7299,
      "symposium": 7300,
      "62": 7301,
      "72": 7302,
      "::": 7303,
      "aar": 7304,
      "awar": 7305,
      "bing": 7306,
      "bans": 7307,
      "bms": 7308,
      "cien": 7309,
      "cot": 7310,
      "cpu": 7311,
      "dun": 7312,
      "dad": 7313,
      "dho": 7314,
      "dhar": 7315,
      "dney": 7316,
      "echo": 7317,
      "fol": 7318,
      "fare": 7319,
      "giv": 7320,
      "hir": 7321,
      "hidd": 7322,
      "hslc": 7323,
      "jing": 7324,
      "jord": 7325,
      "jump": 7326,
      "kw": 7327,
      "kur": 7328,
      "kins": 7329,
      "lot": 7330,
      "late": 7331,
      "n1": 7332,
      "nso": 7333,
      "osc": 7334,
      "pas": 7335,
      "pum": 7336,
      "rum": 7337,
      "s2": 7338,
      "smar": 7339,
      "sgt": 7340,
      "spark": 7341,
      "swati": 7342,
      "uga": 7343,
      "uae": 7344,
      "uakhali": 7345,
      "var": 7346,
      "vai": 7347,
      "ww": 7348,
      "wad": 7349,
      "yal": 7350,
      "yap": 7351,
      "اي": 7352,
      "دي": 7353,
      "आए": 7354,
      "आविष्कार": 7355,
      "ऐसे": 7356,
      "गो": 7357,
      "चय": 7358,
      "चक्र": 7359,
      "जो": 7360,
      "टॉ": 7361,
      "णी": 7362,
      "दर्": 7363,
      "धातु": 7364,
      "बस": 7365,
      "बे": 7366,
      "बना": 7367,
      "मो": 7368,
      "लें": 7369,
      "वन": 7370,
      "वनि": 7371,
      "श्र": 7372,
      "।#": 7373,
      "অধ": 7374,
      "ক্র": 7375,
      "গঠ": 7376,
      "গত": 7377,
      "গতি": 7378,
      "জন": 7379,
      "তড়": 7380,
      "মো": 7381,
      "মান": 7382,
      "রণ": 7383,
      "সং": 7384,
      "ুন": 7385,
      "য়ে": 7386,
      "ત્ર": 7387,
      "ર્": 7388,
      "உட": 7389,
      "உல": 7390,
      "தி": 7391,
      "மங்க": 7392,
      "லங்க": 7393,
      "ంట": 7394,
      "లో": 7395,
      "ಡಿ": 7396,
      "ತ್ತ": 7397,
      "್ನ": 7398,
      "നി": 7399,
      "മാ": 7400,
      "‎@": 7401,
      "𝐭𝐞": 7402,
      "cept": 7403,
      "inju": 7404,
      "ering": 7405,
      "anium": 7406,
      "anju": 7407,
      "sting": 7408,
      "store": 7409,
      "chol": 7410,
      "chine": 7411,
      "chest": 7412,
      "orption": 7413,
      "icles": 7414,
      "rele": 7415,
      "redo": 7416,
      "lest": 7417,
      "teeth": 7418,
      "assam": 7419,
      "close": 7420,
      "shal": 7421,
      "emia": 7422,
      "ito": 7423,
      "itis": 7424,
      "itment": 7425,
      "apor": 7426,
      "seep": 7427,
      "secre": 7428,
      "roots": 7429,
      "matt": 7430,
      "mat26": 7431,
      "exter": 7432,
      "dee": 7433,
      "ousi": 7434,
      "rai": 7435,
      "ravi": 7436,
      "forever": 7437,
      "town": 7438,
      "todd": 7439,
      "unknown": 7440,
      "dix": 7441,
      "diag": 7442,
      "quake": 7443,
      "esity": 7444,
      "ently": 7445,
      "liam": 7446,
      "liye": 7447,
      "chapter1": 7448,
      "layou": 7449,
      "parik": 7450,
      "nee": 7451,
      "modi": 7452,
      "mohit": 7453,
      "cies": 7454,
      "urance": 7455,
      "spinal": 7456,
      "ceram": 7457,
      "bean": 7458,
      "besh": 7459,
      "believe": 7460,
      "youtuber": 7461,
      "noti": 7462,
      "feb": 7463,
      "feel": 7464,
      "due": 7465,
      "suit": 7466,
      "pregn": 7467,
      "bseb": 7468,
      "oda": 7469,
      "opa": 7470,
      "tile": 7471,
      "sscchsl": 7472,
      "menti": 7473,
      "cost": 7474,
      "coil": 7475,
      "strap": 7476,
      "hoc": 7477,
      ".....": 7478,
      "tract": 7479,
      "sik": 7480,
      "fied": 7481,
      "funni": 7482,
      "guard": 7483,
      "gujr": 7484,
      "drink": 7485,
      "drug": 7486,
      "drives": 7487,
      "ाना": 7488,
      "gym": 7489,
      "angular": 7490,
      "lesnar": 7491,
      "विध": 7492,
      "izing": 7493,
      "pahu": 7494,
      "mining": 7495,
      "ewater": 7496,
      "revise": 7497,
      "hyper": 7498,
      "avin": 7499,
      "athan": 7500,
      "sodium": 7501,
      "obesity": 7502,
      "र्षण": 7503,
      "yourself": 7504,
      "nave": 7505,
      "peek": 7506,
      "peeka": 7507,
      "brand": 7508,
      "hain": 7509,
      "pura": 7510,
      "homeschool": 7511,
      "equili": 7512,
      "speedy": 7513,
      "wale": 7514,
      "aircraft": 7515,
      "ferti": 7516,
      "structures": 7517,
      "pixel": 7518,
      "ruitment": 7519,
      "slime": 7520,
      "month": 7521,
      "mala": 7522,
      "blow": 7523,
      "iisc": 7524,
      "correct": 7525,
      "even": 7526,
      "charging": 7527,
      "views": 7528,
      "reson": 7529,
      "resource": 7530,
      "layer": 7531,
      "crine": 7532,
      "waj": 7533,
      "patuakhali": 7534,
      "triangle": 7535,
      "calss": 7536,
      "merge": 7537,
      "nonmetals": 7538,
      "differences": 7539,
      "script": 7540,
      "मात्र": 7541,
      "hands": 7542,
      "mechanicalkeyboard": 7543,
      "परा": 7544,
      "grand": 7545,
      "বিদ": 7546,
      "undergraduate": 7547,
      "doctors": 7548,
      "jain": 7549,
      "aneous": 7550,
      "ukla": 7551,
      "bending": 7552,
      "निकाल": 7553,
      "entertain": 7554,
      "earthquake": 7555,
      "yeh": 7556,
      "started": 7557,
      "brow": 7558,
      "brother": 7559,
      "donnell": 7560,
      "address": 7561,
      "foundations": 7562,
      "cheat": 7563,
      "calculations": 7564,
      "orith": 7565,
      "explos": 7566,
      "giri": 7567,
      "tecnolog": 7568,
      "while": 7569,
      "politics": 7570,
      "vlogs": 7571,
      "fatafat": 7572,
      "ready": 7573,
      "exponents": 7574,
      "rooms": 7575,
      "guruji": 7576,
      "देशा": 7577,
      "விலங்க": 7578,
      "relative": 7579,
      "website": 7580,
      "domin": 7581,
      "த்தில்": 7582,
      "sleeping": 7583,
      "contin": 7584,
      "birth": 7585,
      "paramedic": 7586,
      "opening": 7587,
      "popular": 7588,
      "safal": 7589,
      "artificialintelligence": 7590,
      "largest": 7591,
      "nanotechnology": 7592,
      "pull": 7593,
      "शास्त्र": 7594,
      "iqtest": 7595,
      "bluetooth": 7596,
      "wastewater": 7597,
      "smoke": 7598,
      "increase": 7599,
      "bowling": 7600,
      "ecz": 7601,
      "mdcat": 7602,
      "friendly": 7603,
      "demonstrations": 7604,
      "joints": 7605,
      "blockchain": 7606,
      "kelvin": 7607,
      "physicist": 7608,
      "পরিবেশ": 7609,
      "joynews": 7610,
      "recogn": 7611,
      "recruitment": 7612,
      "hope": 7613,
      "dictionary": 7614,
      "skeleton": 7615,
      "grammar": 7616,
      "transformer": 7617,
      "dimensions": 7618,
      "dalton": 7619,
      "endocrine": 7620,
      "alexmaths": 7621,
      "marketing": 7622,
      "aspirants": 7623,
      "christian": 7624,
      "washing": 7625,
      "udaan": 7626,
      "america": 7627,
      "athletes": 7628,
      "translation": 7629,
      "vitamin": 7630,
      "flix": 7631,
      "korea": 7632,
      "કરણ": 7633,
      "decoration": 7634,
      "ayushi": 7635,
      "teenage": 7636,
      "updated": 7637,
      "trickymaths": 7638,
      "khatri": 7639,
      "ভৌতবিজ্ঞান": 7640,
      "solubility": 7641,
      "alternative": 7642,
      "निर्देशा": 7643,
      "lungs": 7644,
      "package": 7645,
      "algorith": 7646,
      "products": 7647,
      "guidance": 7648,
      "illustration": 7649,
      "lymphatic": 7650,
      "automobile": 7651,
      "horizon": 7652,
      "quadrilaterals": 7653,
      "wicket": 7654,
      "उसके": 7655,
      "हमार": 7656,
      "thakur": 7657,
      "raghu": 7658,
      "வினாக்கள்": 7659,
      "পরিমাপ": 7660,
      "goutham": 7661,
      "sneak": 7662,
      "infection": 7663,
      "ghatna": 7664,
      "webinar": 7665,
      "brutal": 7666,
      "hidden": 7667,
      "jordan": 7668,
      "গঠন": 7669,
      "তড়িৎ": 7670,
      "injury": 7671,
      "chinese": 7672,
      "redox": 7673,
      "secrets": 7674,
      "mat2611": 7675,
      "funniest": 7676,
      "pahuja": 7677,
      "peekaboo": 7678,
      "equilibri": 7679,
      "निर्देशांक": 7680,
      "!)": 7681,
      "2d": 7682,
      "400": 7683,
      "54": 7684,
      "74": 7685,
      "?|": 7686,
      "aid": 7687,
      "ajay": 7688,
      "bd": 7689,
      "bg": 7690,
      "bbo": 7691,
      "bak": 7692,
      "bane": 7693,
      "cce": 7694,
      "cil": 7695,
      "cri": 7696,
      "dol": 7697,
      "dhor": 7698,
      "esc": 7699,
      "egy": 7700,
      "fon": 7701,
      "fash": 7702,
      "fill": 7703,
      "gé": 7704,
      "glu": 7705,
      "gran": 7706,
      "hs": 7707,
      "hour": 7708,
      "hang": 7709,
      "hota": 7710,
      "iter": 7711,
      "iles": 7712,
      "jer": 7713,
      "jum": 7714,
      "jai": 7715,
      "kt": 7716,
      "kha": 7717,
      "lers": 7718,
      "mens": 7719,
      "mantra": 7720,
      "middle": 7721,
      "nic": 7722,
      "nak": 7723,
      "nani": 7724,
      "nbc": 7725,
      "ov": 7726,
      "occ": 7727,
      "q9": 7728,
      "ré": 7729,
      "rus": 7730,
      "rsm": 7731,
      "sé": 7732,
      "sad": 7733,
      "squar": 7734,
      "source": 7735,
      "tan": 7736,
      "tog": 7737,
      "tun": 7738,
      "tles": 7739,
      "tpub": 7740,
      "uv": 7741,
      "uce": 7742,
      "ura": 7743,
      "uss": 7744,
      "vya": 7745,
      "wit": 7746,
      "went": 7747,
      "wai": 7748,
      "winter": 7749,
      "yar": 7750,
      "zi": 7751,
      "éme": 7752,
      "ímic": 7753,
      "अति": 7754,
      "आर": 7755,
      "खे": 7756,
      "खो": 7757,
      "गै": 7758,
      "छो": 7759,
      "जै": 7760,
      "तत्व": 7761,
      "दय": 7762,
      "ध्": 7763,
      "बद": 7764,
      "बहु": 7765,
      "बच्": 7766,
      "यु": 7767,
      "लन": 7768,
      "वर": 7769,
      "शल": 7770,
      "सु": 7771,
      "सो": 7772,
      "हार": 7773,
      "ां": 7774,
      "ेली": 7775,
      "ोत्": 7776,
      "গ্যা": 7777,
      "চ্": 7778,
      "নি": 7779,
      "পদ": 7780,
      "প্": 7781,
      "যো": 7782,
      "লের": 7783,
      "হা": 7784,
      "ંગ": 7785,
      "ક્ર": 7786,
      "તા": 7787,
      "ભા": 7788,
      "શ્": 7789,
      "அள": 7790,
      "சே": 7791,
      "நம்": 7792,
      "ரா": 7793,
      "ளும்": 7794,
      "வத": 7795,
      "வை": 7796,
      "ைப்ப": 7797,
      "త్": 7798,
      "ಪ್ರ": 7799,
      "ಾಗ": 7800,
      "കള": 7801,
      "ട്ട": 7802,
      "ണി": 7803,
      "ണ്": 7804,
      "രു": 7805,
      "്ര": 7806,
      "ක්": 7807,
      "තය": 7808,
      "ම්": 7809,
      "ස්": 7810,
      "𝐥𝐚": 7811,
      "eno": 7812,
      "enjoy": 7813,
      "inde": 7814,
      "inverse": 7815,
      "invisi": 7816,
      "scin": 7817,
      "scat": 7818,
      "ery": 7819,
      "erep": 7820,
      "atar": 7821,
      "atics": 7822,
      "athy": 7823,
      "ativity": 7824,
      "stage": 7825,
      "chal": 7826,
      "chau": 7827,
      "arth": 7828,
      "alan": 7829,
      "ales": 7830,
      "aso": 7831,
      "thre": 7832,
      "rey": 7833,
      "reen": 7834,
      "reactivity": 7835,
      "leash": 7836,
      "lemon": 7837,
      "legal": 7838,
      "teaser": 7839,
      "club": 7840,
      "shel": 7841,
      "shak": 7842,
      "shape": 7843,
      "shukla": 7844,
      "amita": 7845,
      "emy": 7846,
      "andre": 7847,
      "ologie": 7848,
      "aph": 7849,
      "sec": 7850,
      "seed": 7851,
      "sector": 7852,
      "rosh": 7853,
      "rohit": 7854,
      "matics": 7855,
      "exist": 7856,
      "dean": 7857,
      "omer": 7858,
      "vibe": 7859,
      "vibr": 7860,
      "forward": 7861,
      "tosh": 7862,
      "imed": 7863,
      "imum": 7864,
      "unbeliev": 7865,
      "diaries": 7866,
      "dioxide": 7867,
      "dirac": 7868,
      "quran": 7869,
      "quipment": 7870,
      "químic": 7871,
      "technologies": 7872,
      "esth": 7873,
      "physicsfun": 7874,
      "liter": 7875,
      "chapterwise": 7876,
      "isi": 7877,
      "maint": 7878,
      "mahab": 7879,
      "nep": 7880,
      "mob": 7881,
      "boss": 7882,
      "uments": 7883,
      "ivers": 7884,
      "ively": 7885,
      "promotion": 7886,
      "projection": 7887,
      "ador": 7888,
      "adhy": 7889,
      "adole": 7890,
      "trol": 7891,
      "trap": 7892,
      "particle": 7893,
      "cia": 7894,
      "cid": 7895,
      "uttar": 7896,
      "uru": 7897,
      "uries": 7898,
      "medi": 7899,
      "pling": 7900,
      "ups": 7901,
      "upgra": 7902,
      "antic": 7903,
      "beam": 7904,
      "ardwaj": 7905,
      "nothing": 7906,
      "ghousi": 7907,
      "abol": 7908,
      "gents": 7909,
      "kee": 7910,
      "2013": 7911,
      "printer": 7912,
      "prising": 7913,
      "mech": 7914,
      "otic": 7915,
      "veget": 7916,
      "opin": 7917,
      "rier": 7918,
      "riya": 7919,
      "generative": 7920,
      "agi": 7921,
      "verma": 7922,
      "ep01": 7923,
      "ep02": 7924,
      "akhand": 7925,
      "covalent": 7926,
      "local": 7927,
      "lokesh": 7928,
      "cold": 7929,
      "colon": 7930,
      "colum": 7931,
      "collage": 7932,
      "traffic": 7933,
      "sites": 7934,
      "्रो": 7935,
      "netflix": 7936,
      "fights": 7937,
      "fibres": 7938,
      "ndrome": 7939,
      "harat": 7940,
      "aff": 7941,
      "groupd": 7942,
      "mins": 7943,
      "avoid": 7944,
      "youtubeshort": 7945,
      "cule": 7946,
      "cuts": 7947,
      "illino": 7948,
      "soon": 7949,
      "tau": 7950,
      "tax": 7951,
      "learnfatafat": 7952,
      "kaush": 7953,
      "kawas": 7954,
      "ज्ञानिक": 7955,
      "service": 7956,
      "explaining": 7957,
      "brush": 7958,
      "canon": 7959,
      "canada": 7960,
      "equipment": 7961,
      "gnm": 7962,
      "instant": 7963,
      "baad": 7964,
      "commission": 7965,
      "metall": 7966,
      "metabol": 7967,
      "appear": 7968,
      "airpod": 7969,
      "machin": 7970,
      "inson": 7971,
      "mish": 7972,
      "bhag": 7973,
      "bhatt": 7974,
      "bhardwaj": 7975,
      "sale": 7976,
      "ideal": 7977,
      "surprising": 7978,
      "months": 7979,
      "blog": 7980,
      "blowing": 7981,
      "ekam": 7982,
      "molecule": 7983,
      "साथ": 7984,
      "flat": 7985,
      "voice": 7986,
      "atish": 7987,
      "organicchemistry": 7988,
      "knows": 7989,
      "patel": 7990,
      "256": 7991,
      "kirad": 7992,
      "3ddesign": 7993,
      "biochemistry": 7994,
      "यां": 7995,
      "binary": 7996,
      "smartwork": 7997,
      "transgen": 7998,
      "मापन": 7999,
      "fron": 8000,
      "ushank": 8001,
      "ended": 8002,
      "sanullah": 8003,
      "santosh": 8004,
      "semi": 8005,
      "episodes": 8006,
      "বিক্র": 8007,
      "formulae": 8008,
      "sony": 8009,
      "benz": 8010,
      "निचो": 8011,
      "operating": 8012,
      "interviews": 8013,
      "क्ष्म": 8014,
      "adityaran": 8015,
      "broke": 8016,
      "लेना": 8017,
      "germany": 8018,
      "الم": 8019,
      "cats": 8020,
      "playing": 8021,
      "playlist": 8022,
      "addic": 8023,
      "specialist": 8024,
      "க்கு": 8025,
      "tarun": 8026,
      "calculus": 8027,
      "mysteries": 8028,
      "breakthrough": 8029,
      "helps": 8030,
      "editor": 8031,
      "ahsanullah": 8032,
      "tecquipment": 8033,
      "পরমা": 8034,
      "होगा": 8035,
      "africa": 8036,
      "fluids": 8037,
      "headphones": 8038,
      "needs": 8039,
      "rings": 8040,
      "vincent": 8041,
      "discuss": 8042,
      "வில்": 8043,
      "්‍යු": 8044,
      "menstru": 8045,
      "😂😂😂": 8046,
      "definite": 8047,
      "্যায়": 8048,
      "born": 8049,
      "burn": 8050,
      "asmrsounds": 8051,
      "happen": 8052,
      "हाइड": 8053,
      "grip": 8054,
      "planets": 8055,
      "dreams": 8056,
      "counting": 8057,
      "improv": 8058,
      "large": 8059,
      "balanced": 8060,
      "honest": 8061,
      "attack": 8062,
      "causes": 8063,
      "kinetics": 8064,
      "पेपर": 8065,
      "chandra": 8066,
      "জীব": 8067,
      "aliens": 8068,
      "trying": 8069,
      "सूक्ष्म": 8070,
      "johns": 8071,
      "mistake": 8072,
      "তাপ": 8073,
      "announ": 8074,
      "phenomen": 8075,
      "ത്തി": 8076,
      "बिना": 8077,
      "destroy": 8078,
      "নাম": 8079,
      "வகைப்ப": 8080,
      "detect": 8081,
      "ক্ষা": 8082,
      "float": 8083,
      "പ്ര": 8084,
      "scalar": 8085,
      "atmosphere": 8086,
      "hunting": 8087,
      "packtpub": 8088,
      "மான": 8089,
      "record": 8090,
      "essentials": 8091,
      "अवस्था": 8092,
      "survival": 8093,
      "infinity": 8094,
      "legends": 8095,
      "debunk": 8096,
      "features": 8097,
      "golf": 8098,
      "husband": 8099,
      "risk": 8100,
      "inspiring": 8101,
      "association": 8102,
      "lisation": 8103,
      "javascript": 8104,
      "reduced": 8105,
      "selling": 8106,
      "indicator": 8107,
      "habitats": 8108,
      "picture": 8109,
      "cardiac": 8110,
      "coronavirus": 8111,
      "decimal": 8112,
      "leadership": 8113,
      "nmms": 8114,
      "nabamita": 8115,
      "yuth": 8116,
      "testimonial": 8117,
      "বহার": 8118,
      "imagination": 8119,
      "cardiovascular": 8120,
      "முக்கியமான": 8121,
      "उनके": 8122,
      "ব্যবহার": 8123,
      "ല്ല": 8124,
      "instruments": 8125,
      "stroke": 8126,
      "mobilerep": 8127,
      "symbols": 8128,
      "athletic": 8129,
      "বিশ্ব": 8130,
      "shikaripura": 8131,
      "awareness": 8132,
      "टॉप": 8133,
      "உடல்": 8134,
      "உலகம்": 8135,
      "toddlers": 8136,
      "diagno": 8137,
      "layout": 8138,
      "notification": 8139,
      "pregnancy": 8140,
      "resonance": 8141,
      "entertainment": 8142,
      "tecnologia": 8143,
      "bbosa": 8144,
      "dhoran": 8145,
      "fashion": 8146,
      "occup": 8147,
      "rsmssb": 8148,
      "ध्वनि": 8149,
      "চ্ছ": 8150,
      "ભાગ": 8151,
      "நம்மை": 8152,
      "unbelievable": 8153,
      "química": 8154,
      "mahabharat": 8155,
      "adolescence": 8156,
      "uttarakhand": 8157,
      "illinois": 8158,
      "kawasaki": 8159,
      "পরমাণ": 8160,
      "வகைப்பாட": 8161,
      "mobilerepair": 8162,
      ")/": 8163,
      "1m": 8164,
      "3000": 8165,
      "3éme": 8166,
      "46": 8167,
      "4u": 8168,
      "85": 8169,
      "aim": 8170,
      "bric": 8171,
      "bhi": 8172,
      "baba": 8173,
      "cm": 8174,
      "cav": 8175,
      "csat": 8176,
      "cision": 8177,
      "dot": 8178,
      "dop": 8179,
      "doll": 8180,
      "fla": 8181,
      "fant": 8182,
      "fda": 8183,
      "fran": 8184,
      "fmt": 8185,
      "gf": 8186,
      "gor": 8187,
      "gic": 8188,
      "gut": 8189,
      "gaya": 8190,
      "hr": 8191,
      "hen": 8192,
      "hant": 8193,
      "hate": 8194,
      "hong": 8195,
      "igarh": 8196,
      "jy": 8197,
      "jen": 8198,
      "jes": 8199,
      "jant": 8200,
      "jack": 8201,
      "kay": 8202,
      "kho": 8203,
      "khar": 8204,
      "l4": 8205,
      "lunch": 8206,
      "mand": 8207,
      "mri": 8208,
      "mba": 8209,
      "nine": 8210,
      "nice": 8211,
      "nick": 8212,
      "oste": 8213,
      "osssc": 8214,
      "pte": 8215,
      "pour": 8216,
      "pep": 8217,
      "rx": 8218,
      "rand": 8219,
      "rtet": 8220,
      "rna": 8221,
      "rural": 8222,
      "rors": 8223,
      "ridd": 8224,
      "s9": 8225,
      "sd": 8226,
      "sent": 8227,
      "sus": 8228,
      "sut": 8229,
      "sai": 8230,
      "sari": 8231,
      "sagar": 8232,
      "soda": 8233,
      "sreen": 8234,
      "tt": 8235,
      "tum": 8236,
      "tari": 8237,
      "uum": 8238,
      "vair": 8239,
      "vora": 8240,
      "wu": 8241,
      "wed": 8242,
      "wine": 8243,
      "yat": 8244,
      "ди": 8245,
      "ро": 8246,
      "ور": 8247,
      "ية": 8248,
      "ंतु": 8249,
      "अणु": 8250,
      "ईंध": 8251,
      "ऑक्": 8252,
      "ख़": 8253,
      "खतर": 8254,
      "गर": 8255,
      "जंतु": 8256,
      "टे": 8257,
      "तृ": 8258,
      "नु": 8259,
      "पट": 8260,
      "पि": 8261,
      "पै": 8262,
      "पढ़": 8263,
      "फा": 8264,
      "बु": 8265,
      "ब्": 8266,
      "मूल": 8267,
      "रान": 8268,
      "लती": 8269,
      "लगा": 8270,
      "वल": 8271,
      "व्य": 8272,
      "व्या": 8273,
      "षक": 8274,
      "सों": 8275,
      "िर": 8276,
      "ीक्षा": 8277,
      "ঙ্": 8278,
      "জি": 8279,
      "টা": 8280,
      "পি": 8281,
      "ভে": 8282,
      "রে": 8283,
      "লি": 8284,
      "শা": 8285,
      "সূ": 8286,
      "ীক্ষা": 8287,
      "ুল": 8288,
      "જી": 8289,
      "દ્ય": 8290,
      "યા": 8291,
      "ુત": 8292,
      "ର୍": 8293,
      "அன்ற": 8294,
      "உயி": 8295,
      "கி": 8296,
      "ணி": 8297,
      "பு": 8298,
      "ழில்": 8299,
      "வு": 8300,
      "గు": 8301,
      "డి": 8302,
      "త్ర": 8303,
      "ని": 8304,
      "లా": 8305,
      "ರ್": 8306,
      "കാ": 8307,
      "ടി": 8308,
      "സം": 8309,
      "ാന": 8310,
      "ുന്ന": 8311,
      "ൻസ്": 8312,
      "ප්‍ර": 8313,
      "ික": 8314,
      "𝐂𝐡": 8315,
      "😍#": 8316,
      "😱|": 8317,
      "🤯|": 8318,
      "ented": 8319,
      "inver": 8320,
      "ients": 8321,
      "onion": 8322,
      "onam": 8323,
      "attem": 8324,
      "atives": 8325,
      "anm": 8326,
      "anic": 8327,
      "anime": 8328,
      "anush": 8329,
      "stack": 8330,
      "cher": 8331,
      "chet": 8332,
      "chel": 8333,
      "chip": 8334,
      "chester": 8335,
      "icum": 8336,
      "arsh": 8337,
      "arium": 8338,
      "alok": 8339,
      "alkal": 8340,
      "asar": 8341,
      "asex": 8342,
      "thou": 8343,
      "third": 8344,
      "rep": 8345,
      "lementation": 8346,
      "tee": 8347,
      "tesi": 8348,
      "assador": 8349,
      "cloud": 8350,
      "shs": 8351,
      "classical": 8352,
      "amd": 8353,
      "amu": 8354,
      "aman": 8355,
      "eman": 8356,
      "ologist": 8357,
      "aper": 8358,
      "apps": 8359,
      "apset": 8360,
      "seg": 8361,
      "row": 8362,
      "robert": 8363,
      "roopa": 8364,
      "matric": 8365,
      "eda": 8366,
      "excre": 8367,
      "exempl": 8368,
      "excav": 8369,
      "dear": 8370,
      "desi": 8371,
      "dept": 8372,
      "dekh": 8373,
      "php": 8374,
      "2050": 8375,
      "vii": 8376,
      "ravin": 8377,
      "chemist": 8378,
      "forkids": 8379,
      "fortn": 8380,
      "toca": 8381,
      "imaging": 8382,
      "unleash": 8383,
      "died": 8384,
      "divide": 8385,
      "dileep": 8386,
      "quali": 8387,
      "espn": 8388,
      "irri": 8389,
      "shortsyoutube": 8390,
      "isra": 8391,
      "island": 8392,
      "mak": 8393,
      "madr": 8394,
      "laugh": 8395,
      "ically": 8396,
      "engineered": 8397,
      "prom": 8398,
      "prove": 8399,
      "ulary": 8400,
      "tron": 8401,
      "trip": 8402,
      "truck": 8403,
      "part3": 8404,
      "cie": 8405,
      "compan": 8406,
      "geous": 8407,
      "plot": 8408,
      "plug": 8409,
      "erson": 8410,
      "upper": 8411,
      "wiz": 8412,
      "wish": 8413,
      "wide": 8414,
      "wifi": 8415,
      "idhi": 8416,
      "feat": 8417,
      "conf": 8418,
      "convers": 8419,
      "concentr": 8420,
      "implementation": 8421,
      "ductors": 8422,
      "2011": 8423,
      "solute": 8424,
      "sydney": 8425,
      "syndrome": 8426,
      "precision": 8427,
      "oty": 8428,
      "oding": 8429,
      "allen": 8430,
      "optical": 8431,
      "hear": 8432,
      "height": 8433,
      "tiwari": 8434,
      "rich": 8435,
      "ago": 8436,
      "agon": 8437,
      "hika": 8438,
      "basis": 8439,
      "neetmotivation": 8440,
      "akan": 8441,
      "akash": 8442,
      "tops": 8443,
      "hote": 8444,
      "lovers": 8445,
      "location": 8446,
      "..#": 8447,
      "tradition": 8448,
      "nett": 8449,
      "fig": 8450,
      "files": 8451,
      "fiber": 8452,
      "harm": 8453,
      "harvard": 8454,
      "weap": 8455,
      "shortcuts": 8456,
      "fungi": 8457,
      "gya": 8458,
      "rama": 8459,
      "ramanu": 8460,
      "earbuds": 8461,
      "pradi": 8462,
      "studywith": 8463,
      "mcqncert": 8464,
      "विक": 8465,
      "pah": 8466,
      "pascal": 8467,
      "hyder": 8468,
      "hybrid": 8469,
      "aths": 8470,
      "carb": 8471,
      "carbo": 8472,
      "carniv": 8473,
      "obser": 8474,
      "objects": 8475,
      "arya": 8476,
      "cker": 8477,
      "mush": 8478,
      "tntet": 8479,
      "please": 8480,
      "nawali": 8481,
      "nabis": 8482,
      "saint": 8483,
      "्यू": 8484,
      "peb": 8485,
      "bron": 8486,
      "orescence": 8487,
      "cannabis": 8488,
      "ikol": 8489,
      "specific": 8490,
      "finance": 8491,
      "mathematic": 8492,
      "commit": 8493,
      "diya": 8494,
      "csirnet": 8495,
      "creation": 8496,
      "humanities": 8497,
      "imeter": 8498,
      "airforce": 8499,
      "gland": 8500,
      "goc": 8501,
      "goals": 8502,
      "goyal": 8503,
      "draft": 8504,
      "mike": 8505,
      "नाक": 8506,
      "bonds": 8507,
      "nia": 8508,
      "nitesh": 8509,
      "surge": 8510,
      "survey": 8511,
      "ியா": 8512,
      "cult": 8513,
      "rub": 8514,
      "slam": 8515,
      "monash": 8516,
      "bling": 8517,
      "blind": 8518,
      "correlation": 8519,
      "evapor": 8520,
      "flor": 8521,
      "cambridge": 8522,
      "vo2": 8523,
      "vocab": 8524,
      "diffic": 8525,
      "diffusion": 8526,
      "century": 8527,
      "logistic": 8528,
      "करे": 8529,
      "क्ट": 8530,
      "reflex": 8531,
      "त्वा": 8532,
      "25000": 8533,
      "membr": 8534,
      "talking": 8535,
      "संग्र": 8536,
      "microbiology": 8537,
      "practice91": 8538,
      "্রা": 8539,
      "transmission": 8540,
      "mrs": 8541,
      "scopy": 8542,
      "प्रश्नोत्": 8543,
      "परीक्षा": 8544,
      "quantities": 8545,
      "redmi": 8546,
      "volum": 8547,
      "distillation": 8548,
      "electrostatics": 8549,
      "celular": 8550,
      "निया": 8551,
      "measuring": 8552,
      "पूछे": 8553,
      "shield": 8554,
      "ப்படி": 8555,
      "valency": 8556,
      "starter": 8557,
      "chait": 8558,
      "foss": 8559,
      "लेने": 8560,
      "जीवविज्ञान": 8561,
      "german": 8562,
      "pursu": 8563,
      "organisation": 8564,
      "simil": 8565,
      "changing": 8566,
      "capsu": 8567,
      "coolest": 8568,
      "turns": 8569,
      "explo": 8570,
      "modules": 8571,
      "village": 8572,
      "mittal": 8573,
      "applewatch": 8574,
      "round": 8575,
      "successful": 8576,
      "property": 8577,
      "bulbs": 8578,
      "navneet": 8579,
      "passing": 8580,
      "तीय": 8581,
      "পর্ব": 8582,
      "পরীক্ষা": 8583,
      "vidence": 8584,
      "ranked": 8585,
      "smd": 8586,
      "small": 8587,
      "pathway": 8588,
      "justice": 8589,
      "looking": 8590,
      "supply": 8591,
      "majors": 8592,
      "timel": 8593,
      "muscles": 8594,
      "anurag": 8595,
      "europe": 8596,
      "ന്ത": 8597,
      "कारी": 8598,
      "analytical": 8599,
      "falling": 8600,
      "সাই": 8601,
      "த்து": 8602,
      "burning": 8603,
      "করণ": 8604,
      "করে": 8605,
      "others": 8606,
      "vacuum": 8607,
      "birds": 8608,
      "butter": 8609,
      "spectrum": 8610,
      "gaganpratap": 8611,
      "didn": 8612,
      "spher": 8613,
      "distances": 8614,
      "stomach": 8615,
      "परिणा": 8616,
      "परिचय": 8617,
      "fuels": 8618,
      "increasing": 8619,
      "chandigarh": 8620,
      "prashnawali": 8621,
      "message": 8622,
      "rasayan": 8623,
      "opportunity": 8624,
      "2k19": 8625,
      "kelly": 8626,
      "जाने": 8627,
      "जानिए": 8628,
      "ழ்வில்": 8629,
      "astrophysics": 8630,
      "frequently": 8631,
      "torque": 8632,
      "कौशल": 8633,
      "texas": 8634,
      "relationship": 8635,
      "annivers": 8636,
      "વિદ્ય": 8637,
      "applying": 8638,
      "bigger": 8639,
      "दोस्त": 8640,
      "maheikol": 8641,
      "golden": 8642,
      "दुनिया": 8643,
      "descript": 8644,
      "mixture": 8645,
      "devnani": 8646,
      "cosmetic": 8647,
      "planetarium": 8648,
      "windmill": 8649,
      "paying": 8650,
      "silver": 8651,
      "ச்ச": 8652,
      "chromat": 8653,
      "chromo": 8654,
      "civilization": 8655,
      "fruits": 8656,
      "अबकी": 8657,
      "पुष्": 8658,
      "aspirant": 8659,
      "movement": 8660,
      "behaviour": 8661,
      "pilot": 8662,
      "கார": 8663,
      "apuram": 8664,
      "absorption": 8665,
      "factorization": 8666,
      "sperm": 8667,
      "வாழ்வில்": 8668,
      "arena": 8669,
      "toxic": 8670,
      "adaptation": 8671,
      "ার্থ": 8672,
      "पहेली": 8673,
      "प्त": 8674,
      "legend": 8675,
      "clock": 8676,
      "shadows": 8677,
      "वारी": 8678,
      "office": 8679,
      "officer": 8680,
      "prevention": 8681,
      "achieving": 8682,
      "spiritual": 8683,
      "maheshwari": 8684,
      "💖🥰~": 8685,
      "injuries": 8686,
      "stanford": 8687,
      "thomas": 8688,
      "sequence": 8689,
      "direction": 8690,
      "विषय": 8691,
      "bhaiya": 8692,
      "तरीका": 8693,
      "hazel": 8694,
      "sorting": 8695,
      "علم": 8696,
      "वैज्ञानिक": 8697,
      "inflorescence": 8698,
      "unlockstudy": 8699,
      "subtitle": 8700,
      "aluminium": 8701,
      "minerals": 8702,
      "communicable": 8703,
      "ambassador": 8704,
      "logarithms": 8705,
      "dinosa": 8706,
      "hypothesis": 8707,
      "swimming": 8708,
      "bansal": 8709,
      "ciencia": 8710,
      "मात्रक": 8711,
      "परावर्तन": 8712,
      "বিদ্যাল": 8713,
      "recognition": 8714,
      "equilibrium": 8715,
      "jumps": 8716,
      "mensuration": 8717,
      "séance": 8718,
      "together": 8719,
      "खोज": 8720,
      "invisible": 8721,
      "scattering": 8722,
      "chauhan": 8723,
      "nepali": 8724,
      "opinion": 8725,
      "airpods": 8726,
      "বিক্রিয়া": 8727,
      "addiction": 8728,
      "menstrual": 8729,
      "improvement": 8730,
      "phenomena": 8731,
      "বিশ্ববিদ্যাল": 8732,
      "நம்மைச்": 8733,
      "vairal": 8734,
      "ईंधन": 8735,
      "खतरनाक": 8736,
      "அன்றாட": 8737,
      "attempt": 8738,
      "asexual": 8739,
      "excretion": 8740,
      "exemplar": 8741,
      "fortnite": 8742,
      "irrigation": 8743,
      "madras": 8744,
      "ramanujan": 8745,
      "hyderabad": 8746,
      "evaporation": 8747,
      "vocabulary": 8748,
      "परिणाम": 8749,
      "anniversary": 8750,
      "વિદ્યુત": 8751,
      "दोस्तों": 8752,
      ")#": 8753,
      ".-": 8754,
      "./": 8755,
      "76": 8756,
      "?🤔": 8757,
      "ax": 8758,
      "aqu": 8759,
      "aud": 8760,
      "aesth": 8761,
      "aatish": 8762,
      "bac": 8763,
      "boun": 8764,
      "cq": 8765,
      "cas": 8766,
      "cof": 8767,
      "civ": 8768,
      "cke": 8769,
      "cnet": 8770,
      "cles": 8771,
      "dw": 8772,
      "dre": 8773,
      "dle": 8774,
      "dash": 8775,
      "drish": 8776,
      "ecet": 8777,
      "easter": 8778,
      "evidence": 8779,
      "fold": 8780,
      "gne": 8781,
      "hem": 8782,
      "iet": 8783,
      "ians": 8784,
      "iacad": 8785,
      "jj": 8786,
      "js": 8787,
      "jit": 8788,
      "jcert": 8789,
      "jac": 8790,
      "jendra": 8791,
      "kol": 8792,
      "kom": 8793,
      "knew": 8794,
      "kot": 8795,
      "kyle": 8796,
      "l5": 8797,
      "lds": 8798,
      "mj": 8799,
      "mun": 8800,
      "nin": 8801,
      "nest": 8802,
      "ntu": 8803,
      "oe": 8804,
      "ozone": 8805,
      "pab": 8806,
      "ppsc": 8807,
      "pip": 8808,
      "panch": 8809,
      "q6": 8810,
      "q7": 8811,
      "rr": 8812,
      "rs": 8813,
      "rising": 8814,
      "sbi": 8815,
      "sath": 8816,
      "sna": 8817,
      "tm": 8818,
      "tou": 8819,
      "tay": 8820,
      "tab": 8821,
      "tict": 8822,
      "takes": 8823,
      "tantra": 8824,
      "tough": 8825,
      "uro": 8826,
      "upl": 8827,
      "uish": 8828,
      "vf": 8829,
      "vas": 8830,
      "vul": 8831,
      "vind": 8832,
      "wen": 8833,
      "wester": 8834,
      "xl": 8835,
      "yo": 8836,
      "yas": 8837,
      "yola": 8838,
      "zom": 8839,
      "ül": 8840,
      "ικ": 8841,
      "κα": 8842,
      "μα": 8843,
      "ре": 8844,
      "ст": 8845,
      "تو": 8846,
      "سي": 8847,
      "فر": 8848,
      "وت": 8849,
      "अंतर": 8850,
      "ओगे": 8851,
      "कं": 8852,
      "कत": 8853,
      "किया": 8854,
      "गिकी": 8855,
      "गजब": 8856,
      "घु": 8857,
      "चन": 8858,
      "जि": 8859,
      "जरू": 8860,
      "धर्म": 8861,
      "बता": 8862,
      "लक": 8863,
      "लॉ": 8864,
      "लवे": 8865,
      "सत": 8866,
      "हल": 8867,
      "हृ": 8868,
      "ीय": 8869,
      "ुपा": 8870,
      "ोगिकी": 8871,
      "ौद्य": 8872,
      "আচ": 8873,
      "এস": 8874,
      "গু": 8875,
      "চি": 8876,
      "তৈ": 8877,
      "ধারণ": 8878,
      "বম": 8879,
      "ভর্": 8880,
      "যা": 8881,
      "লন": 8882,
      "শন": 8883,
      "সব": 8884,
      "ંખ": 8885,
      "ક્": 8886,
      "ગણ": 8887,
      "પા": 8888,
      "વી": 8889,
      "િયા": 8890,
      "ବି": 8891,
      "அமை": 8892,
      "என்ன": 8893,
      "டதம்": 8894,
      "தனி": 8895,
      "நோ": 8896,
      "மூ": 8897,
      "ய்கள்": 8898,
      "ற்ப": 8899,
      "ழு": 8900,
      "வீ": 8901,
      "வெ": 8902,
      "ுள்ள": 8903,
      "చే": 8904,
      "టి": 8905,
      "తె": 8906,
      "మా": 8907,
      "రా": 8908,
      "వి": 8909,
      "ಯೋ": 8910,
      "ಾಸ": 8911,
      "ചോ": 8912,
      "രം": 8913,
      "ള്": 8914,
      "ുത": 8915,
      "ණය": 8916,
      "මි": 8917,
      "වන": 8918,
      "ยน": 8919,
      "⁣⁣": 8920,
      "✅#": 8921,
      "️⃣": 8922,
      "🍎🍎": 8923,
      "😇😇": 8924,
      "😎😎": 8925,
      "😘😘": 8926,
      "🤯🤯": 8927,
      "ena": 8928,
      "enance": 8929,
      "enium": 8930,
      "cee": 8931,
      "incl": 8932,
      "informat": 8933,
      "sca": 8934,
      "scan": 8935,
      "scar": 8936,
      "oning": 8937,
      "onent": 8938,
      "atl": 8939,
      "anol": 8940,
      "anmol": 8941,
      "stition": 8942,
      "stages": 8943,
      "chh": 8944,
      "chair": 8945,
      "orth": 8946,
      "orange": 8947,
      "ico": 8948,
      "icks": 8949,
      "ark": 8950,
      "alo": 8951,
      "alive": 8952,
      "allah": 8953,
      "albert": 8954,
      "olo": 8955,
      "ret": 8956,
      "remed": 8957,
      "repr": 8958,
      "refin": 8959,
      "recomm": 8960,
      "replication": 8961,
      "reference": 8962,
      "retro": 8963,
      "tek": 8964,
      "teas": 8965,
      "tspsc": 8966,
      "ogram": 8967,
      "clos": 8968,
      "click": 8969,
      "class8": 8970,
      "amines": 8971,
      "amobile": 8972,
      "emi": 8973,
      "ologic": 8974,
      "itud": 8975,
      "edunit": 8976,
      "excl": 8977,
      "extra": 8978,
      "deli": 8979,
      "dell": 8980,
      "deser": 8981,
      "depress": 8982,
      "phon": 8983,
      "istani": 8984,
      "oul": 8985,
      "ount": 8986,
      "viii": 8987,
      "viva": 8988,
      "mathtricks": 8989,
      "mathmatics": 8990,
      "raipur": 8991,
      "formed": 8992,
      "toi": 8993,
      "images": 8994,
      "104": 8995,
      "bies": 8996,
      "bible": 8997,
      "unve": 8998,
      "united": 8999,
      "dir": 9000,
      "diss": 9001,
      "dikha": 9002,
      "ett": 9003,
      "eswar": 9004,
      "physics91": 9005,
      "iran": 9006,
      "irling": 9007,
      "entry": 9008,
      "entrepr": 9009,
      "lite": 9010,
      "isn": 9011,
      "isol": 9012,
      "mai": 9013,
      "lady": 9014,
      "lava": 9015,
      "parody": 9016,
      "near": 9017,
      "comfort": 9018,
      "ility": 9019,
      "bod": 9020,
      "boon": 9021,
      "proced": 9022,
      "pert": 9023,
      "perimeter": 9024,
      "jeet": 9025,
      "trik": 9026,
      "troll": 9027,
      "ssm": 9028,
      "ssian": 9029,
      "user": 9030,
      "uti": 9031,
      "compe": 9032,
      "compiler": 9033,
      "gec": 9034,
      "bee": 9035,
      "bey": 9036,
      "bela": 9037,
      "becoming": 9038,
      "bearing": 9039,
      "because": 9040,
      "acup": 9041,
      "aclearn": 9042,
      "iden": 9043,
      "nose": 9044,
      "noakhali": 9045,
      "noise": 9046,
      "fear": 9047,
      "feet": 9048,
      "fever": 9049,
      "ghar": 9050,
      "abstra": 9051,
      "abroad": 9052,
      "conta": 9053,
      "consum": 9054,
      "dubai": 9055,
      "experts": 9056,
      "worlds": 9057,
      "11s": 9058,
      "preci": 9059,
      "presets": 9060,
      "meat": 9061,
      "heating": 9062,
      "sscgd": 9063,
      "agun": 9064,
      "again": 9065,
      "higg": 9066,
      "co2": 9067,
      "cox": 9068,
      "coke": 9069,
      "cock": 9070,
      "faces": 9071,
      "fascin": 9072,
      "collect": 9073,
      "collo": 9074,
      "six": 9075,
      "fighter": 9076,
      "wear": 9077,
      "dru": 9078,
      "raman": 9079,
      "grad": 9080,
      "statist": 9081,
      "modeling": 9082,
      "poem": 9083,
      "aire": 9084,
      "izha": 9085,
      "collection": 9086,
      "paas": 9087,
      "illusion": 9088,
      "soc": 9089,
      "aryotic": 9090,
      "stere": 9091,
      "muth": 9092,
      "12thclass": 9093,
      "ousness": 9094,
      "र्ड": 9095,
      "र्जा": 9096,
      "plex": 9097,
      "प्रभा": 9098,
      "प्रौद्य": 9099,
      "saar": 9100,
      "केंड": 9101,
      "cyto": 9102,
      "progression": 9103,
      "aug": 9104,
      "audi": 9105,
      "author": 9106,
      "organomet": 9107,
      "buff": 9108,
      "arihant": 9109,
      "ski": 9110,
      "skit": 9111,
      "freefire": 9112,
      "same": 9113,
      "humanity": 9114,
      "airplanes": 9115,
      "curry": 9116,
      "curios": 9117,
      "glow": 9118,
      "ranking": 9119,
      "goal": 9120,
      "teaches": 9121,
      "सेकेंड": 9122,
      "dragon": 9123,
      "नाम": 9124,
      "bham": 9125,
      "bhati": 9126,
      "sales": 9127,
      "foods": 9128,
      "iitmotivation": 9129,
      "nishant": 9130,
      "ியுள்ள": 9131,
      "reviews": 9132,
      "mastering": 9133,
      "signal": 9134,
      "pious": 9135,
      "pigs": 9136,
      "realme": 9137,
      "mond": 9138,
      "monday": 9139,
      "cradle": 9140,
      "winning": 9141,
      "...#": 9142,
      "keywords": 9143,
      "cornell": 9144,
      "naming": 9145,
      "charger": 9146,
      "karo": 9147,
      "हैरान": 9148,
      "centri": 9149,
      "superstition": 9150,
      "वाली": 9151,
      "logo": 9152,
      "pooja": 9153,
      "bodybuilding": 9154,
      "wbchse": 9155,
      "संबंधित": 9156,
      "microbes": 9157,
      "circular": 9158,
      "smartwatch": 9159,
      "scription": 9160,
      "warri": 9161,
      "माग": 9162,
      "frog": 9163,
      "gaon": 9164,
      "gajendra": 9165,
      "portable": 9166,
      "demy": 9167,
      "endurance": 9168,
      "gie": 9169,
      "hua": 9170,
      "huong": 9171,
      "handmade": 9172,
      "पास": 9173,
      "पाचन": 9174,
      "scopes": 9175,
      "steph": 9176,
      "grid": 9177,
      "advancing": 9178,
      "cough": 9179,
      "couple": 9180,
      "profile": 9181,
      "profiles": 9182,
      "kanpur": 9183,
      "polygon": 9184,
      "vedantuclass9": 9185,
      "jaiv": 9186,
      "nado": 9187,
      "motors": 9188,
      "electrostatic": 9189,
      "mppolice": 9190,
      "innovations": 9191,
      "brown": 9192,
      "braintest": 9193,
      "focus": 9194,
      "trek": 9195,
      "الإ": 9196,
      "الا": 9197,
      "catch": 9198,
      "barbie": 9199,
      "subjective": 9200,
      "subscribers": 9201,
      "childho": 9202,
      "reflections": 9203,
      "various": 9204,
      "studio": 9205,
      "selenium": 9206,
      "holes": 9207,
      "mysterious": 9208,
      "bullet": 9209,
      "जाओगे": 9210,
      "tecnis": 9211,
      "disappear": 9212,
      "another": 9213,
      "channels": 9214,
      "titans": 9215,
      "olymp": 9216,
      "होता": 9217,
      "banking": 9218,
      "banaye": 9219,
      "automation": 9220,
      "cadre": 9221,
      "headset": 9222,
      "expensive": 9223,
      "timer": 9224,
      "ियाँ": 9225,
      "trust": 9226,
      "belly": 9227,
      "dineshthakur": 9228,
      "hardware": 9229,
      "vinay": 9230,
      "sessions": 9231,
      "filtr": 9232,
      "websites": 9233,
      "cleaner": 9234,
      "longitud": 9235,
      "ignite": 9236,
      "दिमाग": 9237,
      "bharath": 9238,
      "ष्मा": 9239,
      "বেন": 9240,
      "த்தி": 9241,
      "thanks": 9242,
      "hacker": 9243,
      "posts": 9244,
      "buddha": 9245,
      "pencil": 9246,
      "மின்ன": 9247,
      "panel": 9248,
      "hydration": 9249,
      "awards": 9250,
      "covered": 9251,
      "sphere": 9252,
      "तंत्रिका": 9253,
      "য়ে": 9254,
      "storage": 9255,
      "improving": 9256,
      "lene": 9257,
      "leading": 9258,
      "vidyalaya": 9259,
      "hydraulics": 9260,
      "ecology": 9261,
      "protection": 9262,
      "scheme": 9263,
      "personality": 9264,
      "celebrating": 9265,
      "tamanna": 9266,
      "क्रम": 9267,
      "stove": 9268,
      "relief": 9269,
      "radhika": 9270,
      "किस": 9271,
      "eneur": 9272,
      "neutr": 9273,
      "skincare": 9274,
      "resistivity": 9275,
      "million": 9276,
      "tornado": 9277,
      "inspired": 9278,
      "failure": 9279,
      "गुरु": 9280,
      "म्ब": 9281,
      "approved": 9282,
      "phenol": 9283,
      "flowers": 9284,
      "capacitance": 9285,
      "vikram": 9286,
      "radiation": 9287,
      "dogs": 9288,
      "flying": 9289,
      "hopkins": 9290,
      "muruga": 9291,
      "धारित": 9292,
      "derivatives": 9293,
      "tnea": 9294,
      "detection": 9295,
      "detector": 9296,
      "dimensional": 9297,
      "cybersecurity": 9298,
      "resultant": 9299,
      "😱😱😱": 9300,
      "scored": 9301,
      "faith": 9302,
      "gamingpcbuild": 9303,
      "fresher": 9304,
      "pilates": 9305,
      "roles": 9306,
      "efficient": 9307,
      "neuroscience": 9308,
      "visualization": 9309,
      "spermat": 9310,
      "american": 9311,
      "lifting": 9312,
      "allergy": 9313,
      "pyramids": 9314,
      "റ്റ": 9315,
      "translational": 9316,
      "kapil": 9317,
      "रेलवे": 9318,
      "nucleus": 9319,
      "paribesh": 9320,
      "plasma": 9321,
      "ncertscienceintelugu": 9322,
      "cdpo": 9323,
      "london": 9324,
      "rogan": 9325,
      "চাপ": 9326,
      "matematika": 9327,
      "walkthrough": 9328,
      "iphone14pro": 9329,
      "कृति": 9330,
      "ালী": 9331,
      "oriented": 9332,
      "oriental": 9333,
      "spinning": 9334,
      "confirm": 9335,
      "confirmed": 9336,
      "सीखें": 9337,
      "mouth": 9338,
      "sweet": 9339,
      "smith": 9340,
      "பாடத்தில்": 9341,
      "shubham": 9342,
      "corporate": 9343,
      "crispr": 9344,
      "multiv": 9345,
      "rtx": 9346,
      "शिक्षक": 9347,
      "科技大": 9348,
      "reactor": 9349,
      "dehlipolice": 9350,
      "qualities": 9351,
      "fisheries": 9352,
      "structural": 9353,
      "சுற்றியுள்ள": 9354,
      "having": 9355,
      "घटना": 9356,
      "सकते": 9357,
      "conductivity": 9358,
      "historical": 9359,
      "cataly": 9360,
      "challenges": 9361,
      "vessels": 9362,
      "માનવ": 9363,
      "உபநிடதம்": 9364,
      "රසායනය": 9365,
      "cotton": 9366,
      "ంటే": 9367,
      "external": 9368,
      "pariksha": 9369,
      "hockey": 9370,
      "explosive": 9371,
      "continu": 9372,
      "हमारे": 9373,
      "जैव": 9374,
      "গ্যাসের": 9375,
      "পদার্থ": 9376,
      "சேர்": 9377,
      "roshphysics": 9378,
      "literacy": 9379,
      "maintenance": 9380,
      "ghousiamobile": 9381,
      "kaushal": 9382,
      "metallur": 9383,
      "machinist": 9384,
      "mishra": 9385,
      "benzene": 9386,
      "हाइड्रो": 9387,
      "johnson": 9388,
      "riddles": 9389,
      "पटवारी": 9390,
      "সূত্র": 9391,
      "જીવ": 9392,
      "excavator": 9393,
      "companies": 9394,
      "harmful": 9395,
      "carbohydr": 9396,
      "membrane": 9397,
      "संग्रह": 9398,
      "chaitanya": 9399,
      "similarity": 9400,
      "drishti": 9401,
      "pabna": 9402,
      "tictaclearn": 9403,
      "western": 9404,
      "हृदय": 9405,
      "তৈর": 9406,
      "ভর্তি": 9407,
      "ગણિત": 9408,
      "அமைப்பு": 9409,
      "நோய்கள்": 9410,
      "తెలు": 9411,
      "ള്ള": 9412,
      "eduniti": 9413,
      "depression": 9414,
      "dikhao": 9415,
      "entrepreneur": 9416,
      "abstract": 9417,
      "प्रौद्योगिकी": 9418,
      "organometallic": 9419,
      "vedantuclass910": 9420,
      "childhood": 9421,
      "tecnisiacad": 9422,
      "longitudinal": 9423,
      ")(": 9424,
      ".|": 9425,
      ".||": 9426,
      "220": 9427,
      "52": 9428,
      "57": 9429,
      "58": 9430,
      "5000": 9431,
      "69": 9432,
      "8pm": 9433,
      "93": 9434,
      "aas": 9435,
      "aks": 9436,
      "afa": 9437,
      "agents": 9438,
      "bcom": 9439,
      "bles": 9440,
      "cb": 9441,
      "cé": 9442,
      "cities": 9443,
      "dut": 9444,
      "dur": 9445,
      "dai": 9446,
      "dancing": 9447,
      "e_": 9448,
      "ez": 9449,
      "fro": 9450,
      "fow": 9451,
      "fay": 9452,
      "gem": 9453,
      "gil": 9454,
      "gby": 9455,
      "gach": 9456,
      "gill": 9457,
      "gos": 9458,
      "gator": 9459,
      "gates": 9460,
      "gavin": 9461,
      "hh": 9462,
      "honey": 9463,
      "iis": 9464,
      "iel": 9465,
      "ipe": 9466,
      "iled": 9467,
      "jh": 9468,
      "jin": 9469,
      "jsc": 9470,
      "jas": 9471,
      "jup": 9472,
      "jod": 9473,
      "jash": 9474,
      "jason": 9475,
      "km": 9476,
      "kun": 9477,
      "kno": 9478,
      "kab": 9479,
      "kits": 9480,
      "kind": 9481,
      "kaku": 9482,
      "kssm": 9483,
      "lk": 9484,
      "lr": 9485,
      "lsi": 9486,
      "mm": 9487,
      "mul": 9488,
      "mik": 9489,
      "mess": 9490,
      "mold": 9491,
      "ned": 9492,
      "nag": 9493,
      "naz": 9494,
      "nord": 9495,
      "oter": 9496,
      "ock": 9497,
      "oven": 9498,
      "p1": 9499,
      "pth": 9500,
      "pist": 9501,
      "pto": 9502,
      "pok": 9503,
      "ports": 9504,
      "piz": 9505,
      "pink": 9506,
      "pbs": 9507,
      "padh": 9508,
      "rud": 9509,
      "rdr": 9510,
      "rated": 9511,
      "roller": 9512,
      "rgb": 9513,
      "s3": 9514,
      "sap": 9515,
      "s20": 9516,
      "sud": 9517,
      "sid": 9518,
      "sda": 9519,
      "sgo": 9520,
      "smal": 9521,
      "s24": 9522,
      "santra": 9523,
      "té": 9524,
      "tas": 9525,
      "tree": 9526,
      "tank": 9527,
      "touch": 9528,
      "tanish": 9529,
      "tologie": 9530,
      "uf": 9531,
      "ui": 9532,
      "ux": 9533,
      "uts": 9534,
      "vv": 9535,
      "vour": 9536,
      "vash": 9537,
      "wol": 9538,
      "wound": 9539,
      "wani": 9540,
      "were": 9541,
      "xper": 9542,
      "xia": 9543,
      "yer": 9544,
      "ystem": 9545,
      "yari": 9546,
      "zar": 9547,
      "zim": 9548,
      "zplay": 9549,
      "|😇😇": 9550,
      "εί": 9551,
      "ен": 9552,
      "ог": 9553,
      "ол": 9554,
      "حص": 9555,
      "وم": 9556,
      "ंख": 9557,
      "ंद्र": 9558,
      "आस": 9559,
      "आवर्त": 9560,
      "आधारित": 9561,
      "उप": 9562,
      "ऊतक": 9563,
      "ऊर्जा": 9564,
      "ऊष्मा": 9565,
      "कर्षण": 9566,
      "खिक": 9567,
      "गए": 9568,
      "गया": 9569,
      "घा": 9570,
      "चर": 9571,
      "चों": 9572,
      "जल": 9573,
      "जहर": 9574,
      "ठा": 9575,
      "तू": 9576,
      "तिक": 9577,
      "दंग": 9578,
      "धु": 9579,
      "नंब": 9580,
      "पं": 9581,
      "भर्": 9582,
      "मशी": 9583,
      "रै": 9584,
      "रक्": 9585,
      "लड़": 9586,
      "वसन": 9587,
      "शन": 9588,
      "शरी": 9589,
      "ोट": 9590,
      "ोजन": 9591,
      "এক": 9592,
      "ঔষ": 9593,
      "কম": 9594,
      "কী": 9595,
      "খা": 9596,
      "দের": 9597,
      "নে": 9598,
      "নবম": 9599,
      "বং": 9600,
      "বো": 9601,
      "ব্": 9602,
      "ম্ব": 9603,
      "যৌ": 9604,
      "রসায়ন": 9605,
      "ল্": 9606,
      "শি": 9607,
      "শব্": 9608,
      "সমাধ": 9609,
      "্ধ": 9610,
      "એક": 9611,
      "કા": 9612,
      "કે": 9613,
      "ધો": 9614,
      "રંગ": 9615,
      "୍ୟ": 9616,
      "அணு": 9617,
      "செ": 9618,
      "ட்கள்": 9619,
      "நு": 9620,
      "ன்ப": 9621,
      "பெ": 9622,
      "பண்": 9623,
      "ோட்ட": 9624,
      "ంద": 9625,
      "కు": 9626,
      "క్ర": 9627,
      "నం": 9628,
      "వా": 9629,
      "వర్": 9630,
      "శా": 9631,
      "సై": 9632,
      "ತರ": 9633,
      "ಪಾ": 9634,
      "ಭಾಗ": 9635,
      "ಮಾ": 9636,
      "ರೇ": 9637,
      "ಶ್ನ": 9638,
      "ഖ്യ": 9639,
      "ടെ": 9640,
      "തെ": 9641,
      "പി": 9642,
      "യൻസ്": 9643,
      "വര": 9644,
      "ശ്ര": 9645,
      "സയൻസ്": 9646,
      "ാവ": 9647,
      "ുക": 9648,
      "ുമ": 9649,
      "රේ": 9650,
      "සමා": 9651,
      "𝐂𝐥𝐚": 9652,
      "𝐞𝐦": 9653,
      "𝐢𝐬": 9654,
      "𝐫𝐲": 9655,
      "𝐬𝐬": 9656,
      "𝐭𝐫𝐲": 9657,
      "🇮🇳": 9658,
      "😂#": 9659,
      "😱🔥": 9660,
      "enzy": 9661,
      "enough": 9662,
      "ceiling": 9663,
      "inc": 9664,
      "inn": 9665,
      "inks": 9666,
      "insi": 9667,
      "instruction": 9668,
      "inclin": 9669,
      "scus": 9670,
      "scene": 9671,
      "eras": 9672,
      "erup": 9673,
      "science_": 9674,
      "ony": 9675,
      "onic": 9676,
      "onaut": 9677,
      "attraction": 9678,
      "attitude": 9679,
      "ante": 9680,
      "anap": 9681,
      "anup": 9682,
      "anthon": 9683,
      "sten": 9684,
      "stell": 9685,
      "stirling": 9686,
      "chu": 9687,
      "chit": 9688,
      "chep": 9689,
      "chill": 9690,
      "ork": 9691,
      "ored": 9692,
      "icar": 9693,
      "icul": 9694,
      "arc": 9695,
      "aler": 9696,
      "alli": 9697,
      "alks": 9698,
      "alone": 9699,
      "aldo": 9700,
      "almost": 9701,
      "alken": 9702,
      "album": 9703,
      "asu": 9704,
      "asis": 9705,
      "thy": 9706,
      "thag": 9707,
      "thium": 9708,
      "thru": 9709,
      "thank": 9710,
      "reha": 9711,
      "recombin": 9712,
      "respect": 9713,
      "represent": 9714,
      "remix": 9715,
      "representation": 9716,
      "lean": 9717,
      "leag": 9718,
      "lever": 9719,
      "leeds": 9720,
      "tess": 9721,
      "tedu": 9722,
      "tewal": 9723,
      "assemb": 9724,
      "clas": 9725,
      "cloning": 9726,
      "shine": 9727,
      "classjokes": 9728,
      "amin": 9729,
      "amine": 9730,
      "emble": 9731,
      "empire": 9732,
      "andtricks": 9733,
      "itz": 9734,
      "itage": 9735,
      "oft": 9736,
      "sey": 9737,
      "seat": 9738,
      "sects": 9739,
      "secs": 9740,
      "rob": 9741,
      "rover": 9742,
      "roman": 9743,
      "mata": 9744,
      "ede": 9745,
      "edi": 9746,
      "excer": 9747,
      "exchange": 9748,
      "extraction": 9749,
      "extension": 9750,
      "dey": 9751,
      "pharm": 9752,
      "omi": 9753,
      "oms": 9754,
      "omics": 9755,
      "ysia": 9756,
      "outra": 9757,
      "viol": 9758,
      "vibes": 9759,
      "mathtrick": 9760,
      "ract": 9761,
      "rays": 9762,
      "rafi": 9763,
      "forza": 9764,
      "tower": 9765,
      "bich": 9766,
      "biog": 9767,
      "una": 9768,
      "uncture": 9769,
      "diam": 9770,
      "disk": 9771,
      "quality": 9772,
      "techno": 9773,
      "esp": 9774,
      "irsty": 9775,
      "entangle": 9776,
      "livest": 9777,
      "lithium": 9778,
      "engage": 9779,
      "isen": 9780,
      "issu": 9781,
      "maam": 9782,
      "mafi": 9783,
      "macro": 9784,
      "mazi": 9785,
      "parents": 9786,
      "neb": 9787,
      "necess": 9788,
      "mos": 9789,
      "move": 9790,
      "mohan": 9791,
      "illa": 9792,
      "bose": 9793,
      "bodies": 9794,
      "boston": 9795,
      "ivation": 9796,
      "proud": 9797,
      "produce": 9798,
      "jeff": 9799,
      "ultr": 9800,
      "ado": 9801,
      "adp": 9802,
      "adam": 9803,
      "adding": 9804,
      "admin": 9805,
      "adama": 9806,
      "partial": 9807,
      "partner": 9808,
      "particles": 9809,
      "cident": 9810,
      "spss": 9811,
      "geeth": 9812,
      "upgrade": 9813,
      "been": 9814,
      "acs": 9815,
      "acdem": 9816,
      "udc": 9817,
      "udvash": 9818,
      "ido": 9819,
      "idle": 9820,
      "idem": 9821,
      "12v": 9822,
      "ghaz": 9823,
      "aber": 9824,
      "abhin": 9825,
      "abhi": 9826,
      "absolute": 9827,
      "contra": 9828,
      "contest": 9829,
      "consci": 9830,
      "condens": 9831,
      "impul": 9832,
      "keam": 9833,
      "kepler": 9834,
      "kson": 9835,
      "prism": 9836,
      "suf": 9837,
      "mete": 9838,
      "meter": 9839,
      "megh": 9840,
      "marit": 9841,
      "vegas": 9842,
      "computerscience": 9843,
      "medicinal": 9844,
      "ops": 9845,
      "optim": 9846,
      "medicines": 9847,
      "areas": 9848,
      "hearing": 9849,
      "cbseboard": 9850,
      "riz": 9851,
      "ries": 9852,
      "dose": 9853,
      "agent": 9854,
      "epi": 9855,
      "neetbiology": 9856,
      "aktu": 9857,
      "akshay": 9858,
      "akül": 9859,
      "coin": 9860,
      "coach": 9861,
      "fawad": 9862,
      "hoo": 9863,
      "llc": 9864,
      "loo": 9865,
      "los": 9866,
      "ache": 9867,
      "acher": 9868,
      "achie": 9869,
      "lifescience": 9870,
      "fulness": 9871,
      "colors": 9872,
      "colours": 9873,
      "networking": 9874,
      "hara": 9875,
      "hardest": 9876,
      "gui": 9877,
      "mcdonnell": 9878,
      "ानी": 9879,
      "pose": 9880,
      "anga": 9881,
      "angry": 9882,
      "inta": 9883,
      "manip": 9884,
      "stemeducation": 9885,
      "berman": 9886,
      "berty": 9887,
      "izen": 9888,
      "izer": 9889,
      "chemicals": 9890,
      "pawan": 9891,
      "pacific": 9892,
      "minimum": 9893,
      "hyas": 9894,
      "gamer": 9895,
      "interpre": 9896,
      "interfac": 9897,
      "intersection": 9898,
      "watt": 9899,
      "carrier": 9900,
      "practicum": 9901,
      "gkgs": 9902,
      "learnandfun": 9903,
      "collegelife": 9904,
      "kah": 9905,
      "kaur": 9906,
      "kajal": 9907,
      "rbc": 9908,
      "///": 9909,
      "magnes": 9910,
      "artist": 9911,
      "ptb": 9912,
      "प्रे": 9913,
      "प्रमु": 9914,
      "actions": 9915,
      "sery": 9916,
      "navi": 9917,
      "sa2": 9918,
      "saq": 9919,
      "said": 9920,
[...]
