<unk>	0
<s>	0
</s>	0
,	-3.22528
s	-3.34016
▁the	-3.3472
.	-3.38389
▁and	-3.662
▁of	-3.90762
▁to	-3.96822
▁a	-4.02694
▁in	-4.39228
▁I	-4.43083
'	-4.54208
▁	-4.84887
ing	-4.85281
▁is	-4.97725
▁that	-4.97795
t	-4.98375
▁for	-5.04519
-	-5.2034
▁The	-5.21102
▁it	-5.21123
ed	-5.23136
▁with	-5.23613
▁was	-5.34213
▁as	-5.36847
▁on	-5.46096
▁my	-5.48318
d	-5.63448
▁me	-5.70918
▁this	-5.71071
▁or	-5.83271
▁he	-5.8455
▁have	-5.85078
m	-5.85487
▁an	-5.87827
▁by	-5.89039
▁his	-5.89576
▁her	-5.90478
▁(	-5.91362
ly	-5.91366
▁be	-5.9373
▁but	-5.95271
▁from	-5.95452
y	-6.05196
▁are	-6.06449
▁has	-6.14503
)	-6.15264
▁its	-6.16001
▁film	-6.16649
▁not	-6.17484
e	-6.18673
▁their	-6.19049
▁she	-6.21884
▁at	-6.26714
▁"	-6.28025
er	-6.28114
al	-6.30462
n	-6.38847
▁can	-6.39118
▁about	-6.40521
▁been	-6.42125
▁It	-6.44706
’	-6.46015
re	-6.46976
▁we	-6.47205
▁him	-6.49307
▁you	-6.55468
▁were	-6.56579
▁also	-6.56971
▁had	-6.5735
▁like	-6.60103
▁one	-6.60452
▁time	-6.60594
▁which	-6.60852
"	-6.60946
ve	-6.61537
▁out	-6.62128
▁In	-6.62442
?	-6.63195
▁all	-6.65166
▁some	-6.65309
es	-6.67492
▁so	-6.67553
▁up	-6.69603
:	-6.69857
▁who	-6.70035
▁This	-6.72174
▁they	-6.72421
▁A	-6.72767
th	-6.73134
▁our	-6.73346
▁movie	-6.7346
in	-6.75168
▁more	-6.75967
▁into	-6.76542
▁other	-6.77142
▁just	-6.81257
▁He	-6.84783
▁would	-6.86751
a	-6.87272
▁if	-6.8889
▁when	-6.89828
c	-6.9124
o	-6.93445
▁over	-6.95338
or	-6.9771
r	-6.97947
g	-7.03273
▁such	-7.06646
▁do	-7.07712
i	-7.08973
▁S	-7.08998
▁any	-7.11339
▁relationship	-7.13128
▁re	-7.1371
le	-7.14892
▁what	-7.15043
l	-7.15398
▁how	-7.15433
▁between	-7.15585
▁them	-7.16782
S	-7.18981
▁feel	-7.19448
on	-7.19451
▁even	-7.1955
▁well	-7.21228
▁want	-7.22332
▁first	-7.22769
▁don	-7.23491
▁there	-7.23673
▁made	-7.24149
ic	-7.24308
ation	-7.25559
▁because	-7.26194
▁However	-7.28341
▁no	-7.28343
▁both	-7.29553
an	-7.29763
▁being	-7.30038
te	-7.30851
▁only	-7.30899
▁years	-7.31711
▁where	-7.32772
▁make	-7.32898
▁through	-7.33506
ion	-7.33708
▁life	-7.33863
▁really	-7.34737
M	-7.35106
ll	-7.35795
▁these	-7.3602
▁most	-7.36144
▁while	-7.37125
▁We	-7.37391
▁than	-7.37582
u	-7.37861
▁after	-7.37954
▁work	-7.3841
▁She	-7.3923
f	-7.40104
▁characters	-7.40628
▁de	-7.41171
▁back	-7.41826
▁could	-7.42913
▁story	-7.43249
▁know	-7.43285
p	-7.43916
ar	-7.44196
▁So	-7.44807
k	-7.44916
▁family	-7.4513
▁get	-7.45256
;	-7.45524
),	-7.4566
▁may	-7.46083
b	-7.46863
▁people	-7.46887
I	-7.47439
il	-7.4752
▁19	-7.47576
en	-7.48318
▁during	-7.4952
).	-7.50022
▁world	-7.50032
▁various	-7.50294
▁two	-7.50357
▁way	-7.51042
ur	-7.5142
▁now	-7.5165
▁My	-7.53376
F	-7.53705
▁situation	-7.54433
A	-7.55188
▁new	-7.553
▁often	-7.55538
▁C	-7.56465
▁said	-7.56516
ity	-7.56711
C	-7.5739
▁including	-7.57746
▁making	-7.58427
it	-7.58546
▁very	-7.58884
▁together	-7.59372
▁us	-7.60853
▁i	-7.61907
▁go	-7.61972
▁character	-7.62067
▁experience	-7.62086
▁much	-7.62109
▁W	-7.62166
ers	-7.62385
▁As	-7.62579
▁role	-7.62799
▁known	-7.62839
▁should	-7.63055
▁will	-7.63806
w	-7.63938
▁didn	-7.64167
▁E	-7.64835
et	-7.65022
▁un	-7.65345
▁love	-7.6585
h	-7.66065
▁each	-7.66165
▁part	-7.66179
at	-7.66296
▁own	-7.66827
ra	-7.66886
ro	-7.68549
▁good	-7.68678
▁help	-7.69219
▁action	-7.70526
▁While	-7.7092
▁off	-7.71338
▁B	-7.71612
▁F	-7.71984
▁around	-7.72682
▁significant	-7.73197
▁long	-7.73517
▁18	-7.73525
▁am	-7.73796
▁see	-7.7387
/	-7.74194
▁left	-7.74248
ne	-7.74509
▁development	-7.74912
P	-7.75036
▁still	-7.76791
▁did	-7.76864
▁many	-7.76903
▁find	-7.76942
▁things	-7.77218
▁never	-7.77377
us	-7.77584
▁end	-7.78179
el	-7.78455
▁think	-7.78494
▁These	-7.78819
▁used	-7.79142
▁within	-7.79583
▁told	-7.79696
▁advice	-7.80621
D	-7.80717
▁since	-7.8086
▁under	-7.81058
is	-7.8131
▁feeling	-7.81331
▁found	-7.81354
▁without	-7.81495
▁use	-7.8238
ol	-7.83353
▁One	-7.83441
ive	-7.83653
▁f	-7.83693
able	-7.83699
▁then	-7.84257
!	-7.84967
▁different	-7.84967
ism	-7.85031
▁history	-7.85109
▁something	-7.857
▁before	-7.86128
se	-7.86716
la	-7.87781
ry	-7.87935
▁felt	-7.88308
▁w	-7.88367
▁P	-7.88677
▁plot	-7.88688
▁But	-7.88744
▁few	-7.88991
to	-7.89107
est	-7.89416
▁your	-7.89835
▁home	-7.90188
▁They	-7.90243
▁T	-7.90373
ian	-7.90843
T	-7.91075
▁'	-7.91133
▁social	-7.9148
ent	-7.91731
ma	-7.91963
▁2	-7.92001
▁G	-7.92073
▁always	-7.92318
de	-7.92406
man	-7.92847
▁need	-7.93302
▁place	-7.93453
ment	-7.93641
▁got	-7.9384
▁too	-7.94039
ia	-7.94103
▁cultural	-7.9449
▁take	-7.94496
ta	-7.94648
▁friends	-7.94893
ist	-7.95446
O	-7.95884
▁year	-7.96234
ce	-7.96783
ri	-7.96983
▁To	-7.9703
ir	-7.97116
▁going	-7.97165
li	-7.97325
as	-7.97604
z	-7.97755
▁K	-7.97918
The	-7.98036
▁down	-7.98368
co	-7.98388
▁1	-7.98652
L	-7.99032
▁day	-7.99231
▁understand	-7.99552
▁thought	-7.99627
▁here	-7.99647
▁same	-8.00156
▁overall	-8.00193
▁leaving	-8.00211
B	-8.00408
um	-8.00544
▁M	-8.00817
▁myself	-8.02154
▁best	-8.02727
▁every	-8.02903
ies	-8.03006
▁friend	-8.0304
▁result	-8.0313
E	-8.03137
▁political	-8.0315
▁support	-8.03619
▁impact	-8.03801
▁became	-8.04308
N	-8.04407
▁viewers	-8.04532
ate	-8.05027
▁co	-8.05284
▁moments	-8.05325
▁D	-8.05405
▁early	-8.05474
▁depth	-8.05545
▁O	-8.0612
▁those	-8.06223
na	-8.06234
ul	-8.06471
▁right	-8.06584
▁cast	-8.07054
ge	-8.07292
▁state	-8.0794
▁point	-8.0805
ness	-8.08582
ch	-8.08957
un	-8.08962
lo	-8.09146
▁human	-8.09318
▁ex	-8.09481
▁great	-8.09488
▁little	-8.09643
▁throughout	-8.10063
▁-	-8.10131
▁emotional	-8.11071
ad	-8.1134
id	-8.11912
hi	-8.11965
H	-8.12882
▁g	-8.12969
▁For	-8.13116
am	-8.13222
▁st	-8.13252
▁city	-8.13319
▁With	-8.13415
▁narrative	-8.13418
▁power	-8.13755
▁started	-8.14016
▁come	-8.14392
▁3	-8.14498
▁United	-8.14534
▁everyone	-8.15151
▁His	-8.15712
▁boyfriend	-8.1576
▁doesn	-8.15829
▁language	-8.1583
▁become	-8.1589
▁provide	-8.16022
▁might	-8.16025
▁De	-8.16029
▁p	-8.16046
▁century	-8.1649
▁several	-8.16659
▁high	-8.16795
▁another	-8.1689
the	-8.17237
▁region	-8.1751
▁performances	-8.17513
▁set	-8.17779
ine	-8.18519
ck	-8.1865
▁say	-8.18831
▁personal	-8.19275
ton	-8.19647
▁further	-8.19804
▁system	-8.20474
▁later	-8.20914
▁country	-8.21612
▁lot	-8.21629
▁humor	-8.21814
▁And	-8.21857
▁truly	-8.21967
▁across	-8.23208
▁played	-8.23379
me	-8.2342
▁name	-8.23425
▁bit	-8.23592
▁R	-8.24015
▁N	-8.2418
▁short	-8.24546
▁audience	-8.24743
▁times	-8.24813
ant	-8.257
▁hand	-8.25765
▁government	-8.25827
W	-8.25887
be	-8.25938
ter	-8.25979
▁feels	-8.26112
▁unique	-8.2636
▁until	-8.26492
▁U	-8.26528
▁care	-8.26648
▁New	-8.26664
▁sense	-8.26683
▁recently	-8.27069
he	-8.27208
▁lack	-8.27487
▁Re	-8.27791
ha	-8.28064
▁due	-8.28402
▁American	-8.28444
▁again	-8.28809
up	-8.28812
▁Ma	-8.28837
▁bad	-8.28881
sh	-8.28898
▁does	-8.29423
▁important	-8.2944
ary	-8.29469
tic	-8.2949
▁dis	-8.29791
▁potential	-8.30171
▁community	-8.30218
▁period	-8.3033
▁Additionally	-8.30666
▁music	-8.30668
▁husband	-8.30947
...	-8.31122
▁local	-8.31144
▁issue	-8.31298
▁house	-8.31613
ci	-8.32168
▁War	-8.3224
pe	-8.32475
▁H	-8.33171
v	-8.33389
▁t	-8.33534
▁c	-8.33599
▁believe	-8.33619
▁issues	-8.33802
▁range	-8.33957
▁past	-8.33979
G	-8.34028
▁asked	-8.3433
▁man	-8.34383
R	-8.34439
▁last	-8.34445
▁approach	-8.35213
▁went	-8.35226
▁let	-8.3539
▁having	-8.35582
▁economic	-8.35691
▁scenes	-8.3583
▁individuals	-8.36207
▁better	-8.3624
▁group	-8.36709
▁away	-8.36743
▁public	-8.36777
ated	-8.37121
▁school	-8.37289
▁rather	-8.37576
▁called	-8.37699
▁give	-8.37927
less	-8.38066
▁against	-8.38146
▁On	-8.38546
age	-8.38713
▁wanted	-8.38968
▁anything	-8.38972
no	-8.39013
ut	-8.39232
▁area	-8.3925
▁sister	-8.39463
ful	-8.39506
▁similar	-8.3955
▁effects	-8.3956
▁b	-8.39665
▁e	-8.39674
▁When	-8.39685
▁con	-8.39844
ti	-8.40179
▁car	-8.40359
ty	-8.40585
▁Furthermore	-8.4066
ous	-8.41216
▁three	-8.41219
▁call	-8.4129
▁hard	-8.41336
ni	-8.41535
▁parents	-8.42243
▁strong	-8.42365
ted	-8.42413
▁understanding	-8.42478
▁future	-8.42695
▁live	-8.42711
fi	-8.42941
▁attention	-8.43076
ag	-8.43151
▁though	-8.43343
▁partner	-8.43475
and	-8.43484
2	-8.43578
▁among	-8.43664
land	-8.43976
▁real	-8.44035
x	-8.44346
▁numerous	-8.45
▁why	-8.45273
va	-8.45839
▁series	-8.4611
▁process	-8.46301
▁States	-8.46468
▁providing	-8.46764
▁wife	-8.4683
▁girlfriend	-8.46939
▁present	-8.47178
▁months	-8.47251
▁person	-8.47288
ect	-8.4755
▁There	-8.4755
▁audiences	-8.47674
▁L	-8.47692
▁By	-8.48083
▁At	-8.48093
▁ability	-8.48123
nd	-8.48147
▁sequences	-8.48216
▁international	-8.48259
min	-8.483
▁main	-8.48313
▁seemed	-8.48388
▁came	-8.48463
▁pre	-8.48691
▁open	-8.48831
▁tried	-8.49117
▁Now	-8.49592
▁journey	-8.49673
▁di	-8.49737
▁show	-8.49752
▁genuinely	-8.49911
▁special	-8.49965
▁heart	-8.50011
ba	-8.50023
▁play	-8.50394
vi	-8.5052
im	-8.50779
▁trying	-8.50851
▁Le	-8.50949
▁create	-8.50959
▁someone	-8.5104
ish	-8.51132
▁war	-8.51227
▁research	-8.51466
▁natural	-8.51487
▁population	-8.51557
go	-8.51856
▁diverse	-8.51907
▁La	-8.52057
ence	-8.52108
ie	-8.52123
▁thing	-8.52284
ling	-8.52471
▁visual	-8.52611
▁4	-8.52669
▁From	-8.52984
1	-8.53065
son	-8.53066
om	-8.53087
▁law	-8.53238
▁quite	-8.53463
▁difficult	-8.53549
▁ever	-8.53567
▁growth	-8.53614
U	-8.53673
▁small	-8.53678
▁Despi	-8.53975
▁ago	-8.54112
▁leave	-8.54134
▁seems	-8.54278
▁feelings	-8.54359
▁start	-8.54492
▁After	-8.54641
ical	-8.5466
–	-8.54677
▁mom	-8.54705
ho	-8.54737
▁major	-8.54915
ial	-8.54982
▁nothing	-8.55046
▁scene	-8.55275
▁pro	-8.55286
▁son	-8.55317
▁post	-8.55382
▁modern	-8.55572
▁crucial	-8.55613
▁captivating	-8.55649
▁historical	-8.55677
ating	-8.55755
▁close	-8.55873
hether	-8.56202
▁wrong	-8.56409
▁form	-8.56654
ally	-8.57226
▁challenges	-8.57234
▁far	-8.57395
ure	-8.57499
▁along	-8.5757
▁keep	-8.57643
ke	-8.57673
ance	-8.57676
▁stunning	-8.58055
▁young	-8.58193
▁took	-8.58363
ot	-8.58651
▁put	-8.58705
▁original	-8.59213
▁anyone	-8.59727
▁team	-8.59728
▁Hey	-8.59983
▁storyline	-8.60167
▁mo	-8.60368
▁events	-8.60518
▁How	-8.60622
▁brother	-8.60634
▁seen	-8.6069
▁addition	-8.61022
▁Co	-8.61161
▁hurt	-8.61219
▁water	-8.61232
▁education	-8.61288
▁share	-8.61458
▁job	-8.61625
▁sure	-8.61733
▁Al	-8.6177
ga	-8.62177
▁change	-8.62239
▁night	-8.62716
▁daughter	-8.62738
▁particularly	-8.62869
▁everything	-8.63049
▁led	-8.63094
▁established	-8.63217
▁leading	-8.63307
▁certain	-8.634
▁religious	-8.63436
ca	-8.63792
▁decision	-8.63941
▁second	-8.64429
▁complex	-8.64503
▁level	-8.64658
▁talk	-8.64721
▁St	-8.64725
▁career	-8.64905
▁makes	-8.64939
em	-8.65015
per	-8.65043
▁balance	-8.65442
▁saying	-8.65692
▁World	-8.6572
▁rich	-8.65744
▁light	-8.65776
▁production	-8.65825
▁mind	-8.65944
▁r	-8.6595
▁comedy	-8.66025
▁space	-8.66057
▁head	-8.66064
ber	-8.66088
▁Pa	-8.66104
bo	-8.66141
▁elements	-8.66258
▁performance	-8.6657
▁trust	-8.66641
▁towards	-8.66656
▁An	-8.6678
▁commitment	-8.66805
di	-8.66888
▁address	-8.66949
der	-8.67162
ak	-8.67289
”	-8.67895
ru	-8.68034
▁old	-8.68091
▁connection	-8.68114
▁John	-8.68114
▁self	-8.6816
op	-8.68243
▁military	-8.68303
▁languages	-8.6834
▁20	-8.68376
▁once	-8.68413
é	-8.68425
▁include	-8.68431
mi	-8.68434
▁side	-8.68668
▁wasn	-8.68722
▁“	-8.68802
▁number	-8.68805
▁example	-8.69041
ow	-8.69165
ities	-8.69221
▁University	-8.69495
▁5	-8.69503
▁town	-8.69538
▁seeking	-8.69882
▁move	-8.70223
da	-8.70294
▁national	-8.70403
▁information	-8.70464
▁couple	-8.70535
▁doing	-8.70586
▁Ro	-8.70713
wa	-8.70849
▁sub	-8.70913
▁tell	-8.70983
▁getting	-8.71014
▁What	-8.71092
▁ancient	-8.71122
▁Li	-8.71151
▁nature	-8.71208
▁father	-8.7122
▁influence	-8.7123
▁watch	-8.71532
▁less	-8.71907
tra	-8.72289
K	-8.72358
les	-8.72393
▁ma	-8.72465
▁Ka	-8.72473
▁control	-8.72569
▁fact	-8.72578
mon	-8.72596
nt	-8.72752
▁concept	-8.72788
mp	-8.72797
▁money	-8.7304
▁Ha	-8.7315
▁behavior	-8.73203
▁10	-8.73354
▁began	-8.73489
▁next	-8.7359
ized	-8.73631
▁Moreover	-8.73763
▁non	-8.73773
▁late	-8.73859
▁d	-8.73899
▁British	-8.74109
▁almost	-8.74112
▁Bo	-8.74191
▁bring	-8.74201
▁large	-8.74207
▁days	-8.74397
V	-8.74449
rs	-8.74739
one	-8.74741
▁appreciate	-8.74753
▁enough	-8.74983
▁taking	-8.75029
▁inter	-8.75137
▁importance	-8.75155
▁mother	-8.75339
▁face	-8.75397
mer	-8.75431
▁Sa	-8.7554
ver	-8.75549
▁decided	-8.75698
out	-8.75887
▁line	-8.75935
ka	-8.75972
▁especially	-8.76203
▁art	-8.76234
pa	-8.76338
ph	-8.76458
▁whole	-8.7655
▁Ra	-8.76586
".	-8.76613
▁ensure	-8.76742
▁Me	-8.76769
▁traditional	-8.76968
▁AITA	-8.77009
▁position	-8.77056
ization	-8.77136
ran	-8.77177
▁If	-8.77202
▁remains	-8.77561
▁17	-8.77723
▁hope	-8.77769
▁Some	-8.77869
▁No	-8.78009
▁term	-8.78024
▁age	-8.78109
▁guy	-8.78122
▁blend	-8.78131
▁room	-8.78253
▁beyond	-8.78537
▁company	-8.78537
▁completely	-8.78689
▁must	-8.78763
▁couldn	-8.78806
▁offers	-8.78822
▁question	-8.78873
▁communication	-8.789
▁Ba	-8.79017
."	-8.79175
▁based	-8.79224
ell	-8.79336
▁culture	-8.79359
▁members	-8.79678
▁society	-8.79721
ud	-8.79736
▁pretty	-8.79813
▁creating	-8.79905
tro	-8.7993
▁European	-8.80201
▁success	-8.80211
ach	-8.80886
▁actors	-8.80944
▁engaging	-8.80966
▁kind	-8.81003
▁Dur	-8.81085
do	-8.81169
▁vibrant	-8.81198
▁energy	-8.81385
▁style	-8.81398
▁French	-8.81758
▁aim	-8.81867
▁financial	-8.81909
▁friendship	-8.82071
▁Do	-8.82139
ship	-8.82197
▁per	-8.8223
▁concerns	-8.82303
▁acting	-8.82483
che	-8.82568
▁try	-8.82749
▁North	-8.82779
▁wide	-8.82843
▁field	-8.82948
▁&	-8.83162
ction	-8.83239
gu	-8.8335
▁sound	-8.83473
▁order	-8.83683
▁living	-8.83789
▁already	-8.83837
▁common	-8.84045
ward	-8.84221
▁script	-8.84244
ite	-8.8434
▁design	-8.84518
sp	-8.84558
▁land	-8.84615
▁look	-8.84628
▁lives	-8.84768
▁South	-8.84793
mo	-8.84932
▁legal	-8.84982
dy	-8.8505
ah	-8.85208
▁simply	-8.85231
▁fully	-8.8528
▁contribute	-8.85408
▁others	-8.85484
▁given	-8.85688
▁advance	-8.85806
▁health	-8.85865
▁ultimately	-8.85899
▁instead	-8.8596
▁specific	-8.86081
▁capture	-8.86239
▁actually	-8.86276
con	-8.86566
▁saw	-8.86592
ig	-8.8664
▁big	-8.86754
▁themes	-8.87019
▁else	-8.87087
▁English	-8.87187
▁located	-8.87384
▁Con	-8.87416
ex	-8.87508
▁Roman	-8.8761
ang	-8.8763
lu	-8.87896
▁lead	-8.87933
▁enjoy	-8.8817
ster	-8.88254
▁reason	-8.88307
▁week	-8.88349
ner	-8.8837
po	-8.88411
▁ensur	-8.88435
▁means	-8.88455
▁girl	-8.88501
▁particular	-8.88559
▁6	-8.88691
▁adventure	-8.88731
▁won	-8.88766
▁himself	-8.8888
▁upset	-8.88955
▁kids	-8.88965
▁children	-8.89138
▁individual	-8.89175
▁maintain	-8.89179
sta	-8.8918
▁aspects	-8.89402
▁takes	-8.89462
▁context	-8.89484
▁women	-8.89484
▁brought	-8.89534
▁insights	-8.89673
▁serves	-8.89696
▁continues	-8.90081
▁dating	-8.90222
ning	-8.90272
▁global	-8.90397
▁visually	-8.90485
gen	-8.90668
▁tension	-8.90706
▁science	-8.90912
side	-8.91032
▁V	-8.91121
▁knowledge	-8.91216
▁Mo	-8.91226
▁sex	-8.91255
▁child	-8.91257
led	-8.91259
▁chemistry	-8.91371
▁environment	-8.91582
▁impressive	-8.91947
▁Vi	-8.92006
time	-8.9206
▁efforts	-8.92138
▁pacing	-8.92199
▁activities	-8.92406
os	-8.92447
▁portrayal	-8.92639
▁talking	-8.92654
▁data	-8.92686
▁Ca	-8.9272
▁value	-8.92793
▁done	-8.92833
ide	-8.92875
▁countries	-8.92981
▁text	-8.93047
ac	-8.93134
▁true	-8.93141
▁emotions	-8.93504
▁comes	-8.93505
▁systems	-8.93515
▁quality	-8.9378
▁needs	-8.93794
▁communities	-8.93979
oc	-8.93983
▁offer	-8.94065
▁party	-8.94081
▁areas	-8.94156
▁dialogue	-8.94244
▁genre	-8.94298
▁Ho	-8.9442
▁era	-8.94476
▁Am	-8.94575
▁aspect	-8.94649
▁either	-8.94668
cu	-8.94798
▁Ta	-8.94845
▁industry	-8.94934
ions	-8.9501
▁deep	-8.95066
▁conversation	-8.95148
▁professional	-8.9516
▁ch	-8.95221
▁storytelling	-8.95308
▁using	-8.95322
▁itself	-8.95577
▁figure	-8.95598
▁media	-8.95642
▁moment	-8.9566
▁National	-8.95684
av	-8.95708
▁following	-8.95731
▁genuine	-8.95737
▁fails	-8.95743
▁exceptional	-8.95889
▁deal	-8.95916
▁interest	-8.96014
▁Na	-8.9602
▁7	-8.96054
▁ba	-8.96054
▁remarkable	-8.96061
▁Lo	-8.96068
▁clear	-8.96278
▁idea	-8.96384
▁sometimes	-8.96444
▁experiences	-8.9661
▁Da	-8.96667
▁seem	-8.96715
ab	-8.96821
▁turn	-8.97166
▁forced	-8.97308
▁least	-8.97422
bi	-8.97467
▁imp	-8.97487
▁offering	-8.9753
▁services	-8.97546
▁screen	-8.97939
▁works	-8.98026
▁popular	-8.98083
▁developed	-8.9812
▁Thank	-8.98189
▁Pro	-8.98263
▁break	-8.98294
▁full	-8.98343
▁multiple	-8.98357
▁sh	-8.98418
▁continue	-8.98618
we	-8.9871
Y	-8.99026
▁perspective	-8.99279
▁prominent	-8.99519
▁films	-8.99734
▁season	-8.99755
▁la	-9.00032
▁en	-9.00095
▁top	-9.00253
▁physical	-9.00315
▁taken	-9.00439
ard	-9.0053
▁Their	-9.00554
▁subject	-9.00586
▁lost	-9.00661
▁problem	-9.00675
▁access	-9.00688
▁food	-9.00714
▁15	-9.00724
▁mean	-9.00767
▁looking	-9.00768
cy	-9.00925
▁J	-9.00961
▁landscape	-9.01026
▁species	-9.01047
▁death	-9.01078
▁business	-9.01188
▁contributions	-9.01192
▁pay	-9.01212
▁comedic	-9.01228
▁li	-9.01279
▁establish	-9.01336
▁half	-9.01379
▁single	-9.01381
▁mark	-9.01411
▁involved	-9.01505
▁working	-9.016
▁yet	-9.01786
▁All	-9.02316
▁Ja	-9.02334
▁upon	-9.02373
rr	-9.02379
▁usually	-9.02483
▁provides	-9.02551
▁served	-9.02821
▁key	-9.02852
▁dad	-9.02897
▁Si	-9.02935
▁reflect	-9.03042
▁layer	-9.03047
▁million	-9.03333
▁highly	-9.03336
▁faced	-9.03398
▁enhance	-9.03441
▁features	-9.03517
▁Mar	-9.0375
▁po	-9.04093
▁stay	-9.04204
▁cause	-9.0421
▁Se	-9.04338
ten	-9.04379
j	-9.04399
ai	-9.04413
▁account	-9.04432
▁course	-9.04441
lin	-9.04453
▁market	-9.04727
▁member	-9.04734
▁game	-9.04844
▁four	-9.04877
▁16	-9.04992
▁handle	-9.04996
▁students	-9.05005
▁continued	-9.05055
▁heritage	-9.05089
▁supporting	-9.05114
▁German	-9.05151
que	-9.05211
▁quickly	-9.05274
▁memorable	-9.05325
▁themselves	-9.05384
▁(19	-9.05462
ub	-9.0551
ology	-9.05534
▁held	-9.05589
▁Her	-9.05645
▁ask	-9.05702
▁II	-9.05725
▁Its	-9.0573
▁isn	-9.05764
au	-9.06054
▁respect	-9.06095
▁director	-9.06131
▁trade	-9.0646
▁considered	-9.06513
tu	-9.06518
▁intense	-9.06579
▁air	-9.06586
ler	-9.06587
▁background	-9.06589
▁happened	-9.0661
▁greatly	-9.06629
▁book	-9.06653
▁navigate	-9.06756
▁scientific	-9.06756
▁Ga	-9.06796
▁stop	-9.06804
▁thrilling	-9.06873
▁plays	-9.07046
▁woman	-9.07057
▁phone	-9.0712
▁forward	-9.07143
ile	-9.07269
▁explore	-9.07277
▁Reddit	-9.07283
▁Church	-9.07419
▁engaged	-9.07467
▁Di	-9.07568
▁recent	-9.07874
▁adds	-9.0795
▁presence	-9.07965
▁beginning	-9.0809
▁Su	-9.08098
▁detail	-9.08169
lic	-9.08169
▁setting	-9.08224
pi	-9.08265
ring	-9.08294
▁terms	-9.0835
▁Should	-9.08635
▁title	-9.08697
▁tri	-9.08816
▁engage	-9.08963
▁central	-9.08986
▁fun	-9.08992
▁iconic	-9.09003
]	-9.09064
▁body	-9.09119
ap	-9.09128
▁fair	-9.09132
▁focus	-9.09155
▁rights	-9.09193
▁charm	-9.09207
▁island	-9.09361
▁general	-9.09474
act	-9.09696
▁resources	-9.09772
ron	-9.09852
▁wedding	-9.09976
▁eclipse	-9.10052
tion	-9.10057
▁boundaries	-9.10239
▁word	-9.10365
▁effectively	-9.10373
▁manage	-9.10437
▁read	-9.1047
▁Or	-9.10559
ors	-9.10606
ative	-9.10611
▁college	-9.10612
▁Be	-9.10693
▁failed	-9.10792
▁structure	-9.10809
▁Ne	-9.10981
▁predictable	-9.10997
▁–	-9.11112
ator	-9.11162
▁matter	-9.1117
▁able	-9.11276
▁wonder	-9.11431
▁k	-9.11605
▁fans	-9.1164
iv	-9.11735
▁talent	-9.11788
▁entire	-9.11851
▁today	-9.12189
▁rest	-9.12227
▁opportunities	-9.12248
▁Any	-9.12258
▁constantly	-9.1237
row	-9.12414
pp	-9.12665
tan	-9.12735
▁service	-9.12863
▁relationships	-9.129
▁movies	-9.1302
▁writing	-9.13076
▁perfect	-9.13318
▁atmosphere	-9.13332
▁experienced	-9.13407
hu	-9.13425
▁Another	-9.1353
▁fight	-9.13562
ill	-9.13574
▁final	-9.13581
▁behind	-9.13653
▁touch	-9.13668
du	-9.13808
sa	-9.13815
▁renowned	-9.14042
▁Europe	-9.14095
com	-9.14103
▁8	-9.14111
(	-9.14158
▁promote	-9.14299
▁n	-9.14365
▁flow	-9.14384
bu	-9.14665
▁conflict	-9.14724
ped	-9.15161
ki	-9.15206
▁cinematography	-9.15274
▁flat	-9.15276
▁hours	-9.15377
ations	-9.15405
▁refer	-9.15832
▁protect	-9.1591
credibly	-9.15996
▁essential	-9.16055
ja	-9.16119
ize	-9.16292
▁Th	-9.16312
▁primarily	-9.16458
▁voice	-9.16475
▁Kingdom	-9.16661
▁bu	-9.16741
lan	-9.1676
▁Po	-9.16807
▁Throughout	-9.16869
▁fan	-9.16904
▁Car	-9.16954
▁case	-9.16969
▁India	-9.1697
▁guidance	-9.17191
▁wants	-9.1751
▁vi	-9.17513
▁appreciated	-9.17534
▁mi	-9.17638
In	-9.17681
red	-9.17687
▁free	-9.17701
val	-9.17799
▁worth	-9.17859
▁Christian	-9.17963
▁9	-9.17988
▁excitement	-9.18126
▁attempt	-9.18381
▁Te	-9.18387
▁low	-9.18391
▁married	-9.18397
▁That	-9.18791
▁lies	-9.18867
ld	-9.18873
▁moved	-9.18975
▁response	-9.19004
▁Bar	-9.19047
▁practices	-9.19054
▁sc	-9.19058
▁academic	-9.19072
▁actions	-9.19116
▁type	-9.19122
▁current	-9.19145
▁h	-9.19161
tri	-9.19173
▁se	-9.19206
▁meet	-9.19244
▁run	-9.19352
,"	-9.19392
3	-9.19418
▁asshole	-9.19418
▁symbol	-9.19515
▁Man	-9.19526
▁words	-9.19539
▁Fa	-9.19548
▁significance	-9.19617
▁study	-9.19656
▁giving	-9.19665
▁released	-9.19801
▁regard	-9.19814
▁network	-9.19853
fe	-9.20027
▁shared	-9.20051
▁Empire	-9.2044
▁possible	-9.20509
▁lasting	-9.20564
▁serve	-9.20638
▁total	-9.20759
ably	-9.20761
ious	-9.20792
4	-9.2083
▁[	-9.21086
ens	-9.21108
▁Z	-9.21159
io	-9.2139
▁purpose	-9.21478
▁capital	-9.21563
line	-9.21941
▁movement	-9.21991
▁center	-9.22079
▁ended	-9.22175
king	-9.22315
▁stage	-9.22322
▁critical	-9.22388
▁test	-9.22415
▁states	-9.22421
ug	-9.2244
▁station	-9.2245
▁event	-9.22535
llowing	-9.22558
▁met	-9.22588
▁message	-9.22603
day	-9.22627
ier	-9.22651
▁happy	-9.22669
▁Union	-9.22704
ep	-9.22713
▁primary	-9.22738
▁travel	-9.22879
▁v	-9.22934
▁vital	-9.22951
▁although	-9.23023
den	-9.23058
wi	-9.23086
her	-9.23103
▁transport	-9.23166
▁effort	-9.23314
▁School	-9.23516
▁Although	-9.23521
▁cr	-9.2362
▁created	-9.23683
▁goes	-9.23694
▁provided	-9.23706
▁allowed	-9.23732
▁says	-9.23766
▁lackluster	-9.238
▁causing	-9.23801
▁fine	-9.23826
▁named	-9.2399
▁Mi	-9.24018
▁Not	-9.24054
▁club	-9.24167
▁centuries	-9.243
▁received	-9.24349
▁class	-9.24349
▁however	-9.24369
▁honest	-9.24388
▁needed	-9.24394
ability	-9.2449
▁bo	-9.24504
▁nation	-9.24563
▁notable	-9.24577
▁extensive	-9.24658
old	-9.24704
▁groups	-9.24973
▁meaning	-9.25027
▁telling	-9.2506
▁classic	-9.25216
▁distinct	-9.25286
▁Indian	-9.2538
▁building	-9.25432
▁consist	-9.2546
▁list	-9.25509
vo	-9.25569
▁host	-9.25574
▁add	-9.25691
▁attempts	-9.25693
ham	-9.25728
",	-9.25795
▁challenging	-9.25814
▁kept	-9.25821
▁necessary	-9.25959
▁surrounding	-9.25959
▁technology	-9.26105
▁extra	-9.26137
▁struggles	-9.2614
▁identity	-9.26178
▁opportunity	-9.26178
let	-9.26258
▁fear	-9.26297
▁forces	-9.26299
▁falls	-9.26385
▁musical	-9.26446
▁visuals	-9.26466
10	-9.26834
▁mental	-9.26968
cc	-9.27052
▁animation	-9.27131
▁East	-9.27138
▁gained	-9.2719
▁minutes	-9.27236
▁front	-9.27332
▁step	-9.27354
nch	-9.27422
▁recognition	-9.27425
▁allow	-9.27475
▁watching	-9.2761
▁dark	-9.27651
▁prevent	-9.2766
▁Dr	-9.2774
▁app	-9.27778
▁franchise	-9.28092
▁content	-9.28093
▁ca	-9.28442
▁emotionally	-9.28601
▁typically	-9.28864
▁despite	-9.29063
men	-9.29159
ff	-9.29215
ley	-9.29235
way	-9.29276
ft	-9.2931
▁First	-9.29319
▁breathtaking	-9.29363
▁deeply	-9.29368
▁changes	-9.29566
ists	-9.29572
▁direction	-9.29596
qui	-9.29628
▁actor	-9.29716
ee	-9.29724
▁built	-9.29816
▁gets	-9.29923
▁outside	-9.29946
7	-9.30069
▁becomes	-9.30166
▁limited	-9.30188
▁cover	-9.30383
▁dynamic	-9.30391
▁pa	-9.30464
ble	-9.30492
▁coming	-9.30511
pl	-9.30546
▁playing	-9.3071
▁intricate	-9.30728
▁asking	-9.30814
▁Jo	-9.30824
▁skills	-9.30846
▁becoming	-9.30882
▁sexual	-9.30908
▁previous	-9.30916
ya	-9.31
▁former	-9.31143
▁al	-9.31258
▁America	-9.31362
▁lo	-9.31379
▁Gu	-9.31418
▁fellow	-9.31663
▁men	-9.31702
▁Ju	-9.31783
▁fall	-9.31946
ign	-9.3207
▁l	-9.32256
▁Ch	-9.32401
▁exploration	-9.32421
▁River	-9.3252
▁hold	-9.3255
▁etc	-9.3257
▁Pe	-9.32597
ip	-9.32607
▁Lu	-9.32653
▁develop	-9.32775
▁adding	-9.32777
▁protagonist	-9.32887
▁West	-9.32898
▁12	-9.32942
of	-9.32963
▁probably	-9.32965
▁mis	-9.33023
▁Through	-9.33028
▁generally	-9.33307
by	-9.33371
▁interests	-9.3347
nk	-9.33471
▁starting	-9.33509
▁alone	-9.33539
▁expect	-9.33601
▁X	-9.3373
▁keeps	-9.33748
▁programs	-9.33752
▁chance	-9.33777
▁im	-9.33782
▁Since	-9.33838
▁ground	-9.33851
▁eventually	-9.33867
▁cinematic	-9.3392
▁regions	-9.34005
▁Qu	-9.34029
▁lacking	-9.34037
so	-9.34086
▁actively	-9.34133
▁ho	-9.34142
▁entertaining	-9.34244
▁entertainment	-9.34313
▁Bu	-9.34319
ified	-9.34385
▁ta	-9.34604
▁Greek	-9.34618
▁values	-9.34665
ung	-9.34706
▁appeal	-9.34711
6	-9.34879
▁Mu	-9.34929
▁York	-9.35176
back	-9.35201
▁super	-9.35227
▁reaction	-9.35282
ng	-9.35333
▁version	-9.35337
▁largest	-9.35357
▁marked	-9.35445
▁Act	-9.35477
▁written	-9.35492
▁Ri	-9.35589
▁deliver	-9.35631
▁visit	-9.35723
being	-9.35758
▁Col	-9.35769
▁view	-9.35914
▁thinking	-9.36046
▁spend	-9.36081
▁attack	-9.36138
▁vast	-9.36154
ov	-9.36279
▁environmental	-9.36371
▁computer	-9.36378
▁France	-9.36389
▁month	-9.36402
▁hit	-9.36413
▁romantic	-9.36459
0	-9.36499
▁degree	-9.3654
▁official	-9.36569
▁King	-9.36772
▁Fi	-9.36807
▁apart	-9.36849
▁source	-9.37003
▁five	-9.37046
▁England	-9.37108
▁drama	-9.37138
eg	-9.3716
▁force	-9.37167
▁rule	-9.37206
ible	-9.37311
▁allows	-9.37403
▁heavily	-9.37434
▁gave	-9.37436
▁showcas	-9.37471
▁record	-9.37555
▁loss	-9.37577
▁profound	-9.37603
▁instance	-9.37679
if	-9.37693
▁edge	-9.37782
▁somewhat	-9.37784
▁powerful	-9.37804
▁responsible	-9.37842
▁bi	-9.3785
▁emerged	-9.37927
▁traditions	-9.38032
▁comp	-9.38082
▁compelling	-9.38089
▁14	-9.38142
tin	-9.3819
▁shaping	-9.38253
ever	-9.38264
rac	-9.3827
▁finish	-9.38297
▁bond	-9.38361
▁exchange	-9.38418
▁wouldn	-9.38527
▁deeper	-9.38541
▁successfully	-9.38555
▁trip	-9.3856
▁brings	-9.38614
▁shape	-9.38639
▁soundtrack	-9.38665
use	-9.38702
▁enjoyable	-9.3873
▁fell	-9.38796
▁bringing	-9.38829
▁serious	-9.38892
▁soon	-9.38938
▁delivers	-9.38998
▁cut	-9.39015
▁Western	-9.39081
▁maybe	-9.39088
▁near	-9.39134
▁Over	-9.39161
▁separate	-9.39162
▁perfectly	-9.3918
▁struggling	-9.39411
▁Hu	-9.39415
▁visitors	-9.3951
▁du	-9.39516
▁Hi	-9.39609
▁pain	-9.39618
▁China	-9.39687
▁associated	-9.39708
▁female	-9.39745
cent	-9.39765
▁act	-9.39869
▁model	-9.39941
for	-9.39952
▁institutions	-9.40049
▁seat	-9.40062
▁May	-9.4011
▁beloved	-9.40164
▁stuff	-9.40179
▁sleep	-9.40247
▁reach	-9.40253
▁video	-9.40264
▁sign	-9.40391
▁baby	-9.40427
▁foundation	-9.4044
▁date	-9.40489
▁Catholic	-9.40499
▁star	-9.4061
▁desire	-9.40651
cl	-9.40782
all	-9.40813
port	-9.40855
▁score	-9.40949
▁State	-9.40977
▁beauty	-9.41005
bb	-9.41007
DR	-9.41012
▁involve	-9.41037
▁pi	-9.4105
istic	-9.4128
▁independent	-9.41344
00	-9.4159
izing	-9.41606
▁pick	-9.41748
▁television	-9.4194
▁organizations	-9.41948
▁landscapes	-9.42047
ok	-9.42137
▁Ru	-9.42289
rit	-9.42316
▁nice	-9.42356
▁private	-9.42453
▁Pi	-9.42653
og	-9.42704
▁introduced	-9.42788
▁spirit	-9.42875
▁lacked	-9.42931
▁Here	-9.43069
▁fostering	-9.43121
▁red	-9.43146
▁Go	-9.43193
har	-9.43241
▁believed	-9.43257
▁longer	-9.43299
par	-9.43322
▁cat	-9.43394
▁connect	-9.43741
▁sa	-9.43825
▁Chinese	-9.43836
▁effortlessly	-9.43836
ven	-9.43841
▁widely	-9.43898
▁Sea	-9.43921
cle	-9.43978
▁path	-9.43993
▁promoting	-9.4401
▁viewing	-9.44059
▁11	-9.44066
▁funny	-9.44194
ther	-9.44221
▁wanting	-9.44355
▁Instead	-9.44359
des	-9.44436
ris	-9.44593
▁shift	-9.44622
▁tend	-9.44707
▁delivering	-9.44773
dic	-9.44798
▁International	-9.44798
▁six	-9.44814
▁progress	-9.44849
lar	-9.44874
▁shot	-9.44917
▁conditions	-9.44957
▁Even	-9.45159
▁beautiful	-9.45232
pro	-9.45312
▁picture	-9.45414
nu	-9.45564
J	-9.45646
ise	-9.45788
▁weeks	-9.4583
▁filled	-9.45863
▁captivate	-9.45945
ire	-9.45949
my	-9.45999
ned	-9.46025
hy	-9.46066
▁amount	-9.46119
▁highlight	-9.46173
▁sought	-9.46213
▁Sp	-9.46325
▁artistic	-9.46379
vis	-9.46387
fer	-9.46462
end	-9.46512
ana	-9.46521
ari	-9.46548
▁London	-9.46569
▁worldwide	-9.4657
▁consider	-9.46572
▁clean	-9.46575
nes	-9.46633
▁valuable	-9.46659
▁learn	-9.46778
▁fresh	-9.46836
▁university	-9.46838
ition	-9.46909
▁sets	-9.46999
▁seek	-9.47015
▁substance	-9.47107
▁football	-9.47109
▁finally	-9.47126
▁bank	-9.47217
▁material	-9.47268
rd	-9.47294
ey	-9.47346
▁influential	-9.47377
20	-9.47457
▁anti	-9.47477
▁bother	-9.47573
▁supposed	-9.47604
ath	-9.47631
▁caused	-9.47659
▁district	-9.4792
igh	-9.47976
▁location	-9.48019
▁cl	-9.48071
▁treat	-9.48152
▁forms	-9.48167
▁essence	-9.48192
▁uncomfortable	-9.48283
▁Ar	-9.48291
▁bar	-9.48379
▁literature	-9.48465
▁predecessor	-9.48465
ual	-9.48468
▁south	-9.48505
▁distance	-9.48529
▁positive	-9.48647
▁status	-9.4883
▁third	-9.4883
▁City	-9.48914
▁Latin	-9.49046
▁gain	-9.49061
qu	-9.4909
▁stand	-9.49162
▁contact	-9.49197
▁Cha	-9.49218
uch	-9.4928
▁animated	-9.49289
▁roles	-9.4929
ple	-9.49402
ay	-9.49455
top	-9.49542
▁House	-9.49769
ney	-9.49783
▁talented	-9.49789
▁risk	-9.49842
▁return	-9.49863
▁constant	-9.49941
▁plans	-9.49986
▁o	-9.50048
▁ob	-9.50079
▁You	-9.501
bl	-9.50157
▁organization	-9.50211
▁legacy	-9.50211
▁battle	-9.50304
▁stories	-9.50307
ium	-9.50328
▁laugh	-9.50339
nder	-9.50413
▁Ireland	-9.50495
ular	-9.50557
▁surface	-9.50583
tru	-9.50613
▁contributing	-9.50676
▁testament	-9.50676
▁seeing	-9.50687
▁included	-9.50741
tle	-9.50769
▁guess	-9.5077
▁maintaining	-9.50908
ose	-9.50931
▁comprehensive	-9.50956
▁extremely	-9.51085
van	-9.51269
▁intellectual	-9.51331
▁stands	-9.51379
our	-9.51393
▁Russian	-9.51397
▁cop	-9.51397
▁recognized	-9.51424
▁seamlessly	-9.51443
▁argue	-9.51445
▁argument	-9.51462
▁studies	-9.51518
chi	-9.51595
▁attract	-9.5165
ice	-9.51685
▁gift	-9.51706
▁James	-9.51708
▁horror	-9.51894
▁mention	-9.51948
▁economy	-9.51989
▁born	-9.51991
ea	-9.52102
▁surprise	-9.522
▁ten	-9.52347
▁marriage	-9.52367
▁significantly	-9.52376
enhancing	-9.52462
▁30	-9.52471
▁clever	-9.52485
ates	-9.52492
▁fire	-9.52497
▁noticed	-9.52507
▁Per	-9.52556
ological	-9.52559
9	-9.52615
art	-9.52627
▁invest	-9.52755
▁interactions	-9.5287
▁cannot	-9.52959
▁leaves	-9.53165
▁techniques	-9.53168
▁exhibit	-9.53223
▁normal	-9.53229
mm	-9.53342
▁Ex	-9.5341
▁digital	-9.53415
▁court	-9.53513
▁suspense	-9.53584
ec	-9.53591
az	-9.53602
▁available	-9.53606
▁William	-9.53606
▁Sun	-9.53644
▁commonly	-9.53668
▁healthy	-9.53681
▁collection	-9.53683
▁initially	-9.53709
▁dog	-9.53723
▁knew	-9.53798
▁dedication	-9.53798
▁Sha	-9.54008
▁Pre	-9.54095
▁haven	-9.54128
▁Cl	-9.54171
provoking	-9.54183
▁birthday	-9.5419
▁release	-9.54213
▁awe	-9.54264
gi	-9.54294
▁Great	-9.54474
▁13	-9.54579
ib	-9.54653
▁cost	-9.54665
▁mentioned	-9.5473
log	-9.54731
▁Sarah	-9.54771
▁anymore	-9.54793
▁parts	-9.54846
▁unexpected	-9.54861
▁Republic	-9.5489
ker	-9.54958
wn	-9.55021
▁growing	-9.55042
▁Ge	-9.55106
▁policies	-9.55153
▁simple	-9.55153
▁Park	-9.55177
▁fe	-9.55178
▁office	-9.55306
▁educational	-9.55326
▁Germany	-9.55342
▁disappointed	-9.55443
▁moving	-9.55446
▁novel	-9.55452
▁includes	-9.55461
▁avoid	-9.55544
▁stress	-9.55545
▁secret	-9.55641
ban	-9.55977
form	-9.56008
▁immediately	-9.56023
pos	-9.56147
▁currently	-9.56228
▁confused	-9.5623
19	-9.56242
▁absolutely	-9.56252
▁check	-9.5633
▁ha	-9.56341
▁viewer	-9.5638
nce	-9.56438
▁comment	-9.56526
▁standard	-9.56548
▁moral	-9.56549
▁suggest	-9.56571
▁spiritual	-9.56733
▁kid	-9.56783
▁potentially	-9.56889
▁shows	-9.56897
▁base	-9.5691
▁medical	-9.5693
▁justice	-9.56942
▁regional	-9.57015
▁produced	-9.5707
▁Earth	-9.57121
▁encounter	-9.5722
▁referred	-9.57337
▁Has	-9.57373
▁fields	-9.57392
ral	-9.5743
▁worked	-9.57478
ade	-9.57518
fl	-9.57524
▁jokes	-9.57534
▁author	-9.57553
▁review	-9.57557
▁Ti	-9.57651
▁communicate	-9.5772
▁El	-9.57755
▁enabl	-9.578
dimensional	-9.57855
▁Ye	-9.57856
▁spoken	-9.57875
▁express	-9.57939
▁boasts	-9.58126
▁finding	-9.58175
▁ship	-9.58228
▁security	-9.58239
▁build	-9.58243
▁prop	-9.58298
▁multi	-9.58312
▁passed	-9.58501
▁lines	-9.58569
ren	-9.58621
▁choice	-9.58621
▁amazing	-9.58622
▁added	-9.58658
br	-9.58794
▁resonate	-9.58827
▁size	-9.5883
▁sea	-9.58955
▁drive	-9.5905
▁competition	-9.59128
▁variety	-9.59229
▁Well	-9.59232
▁hair	-9.59274
ain	-9.59317
▁Ph	-9.59358
▁TV	-9.59439
▁practice	-9.5946
▁expectations	-9.59551
▁dedicated	-9.59636
▁Che	-9.59639
▁ending	-9.5985
gan	-9.59853
kin	-9.59917
▁plan	-9.59918
work	-9.59947
▁construction	-9.59958
▁lately	-9.59968
▁considering	-9.60016
▁August	-9.60044
▁approximate	-9.60147
▁struggle	-9.60151
▁guys	-9.6017
mal	-9.60211
▁fast	-9.60273
▁rely	-9.60278
▁sad	-9.60364
▁boy	-9.60377
▁College	-9.60454
▁extend	-9.60541
▁passion	-9.60602
50	-9.60612
▁Mc	-9.60674
▁establishment	-9.60742
▁conversations	-9.60763
▁online	-9.60881
▁solid	-9.60907
▁cons	-9.60943
rt	-9.61007
aw	-9.61097
%	-9.61192
▁village	-9.61279
ick	-9.61297
▁rise	-9.61326
▁document	-9.61358
▁God	-9.6143
▁program	-9.61442
▁direct	-9.6145
ries	-9.61513
▁healthcare	-9.61596
ult	-9.61654
▁Sch	-9.61686
▁ideas	-9.61819
▁problems	-9.61846
▁TL	-9.61879
▁solar	-9.61944
▁related	-9.62098
▁function	-9.62098
▁doubt	-9.62113
▁Tra	-9.62218
▁Today	-9.62267
8	-9.62277
▁black	-9.62321
▁Arab	-9.62474
▁possess	-9.62501
gar	-9.62653
year	-9.62692
▁excessive	-9.62745
nic	-9.62811
5	-9.62867
oo	-9.62914
▁reputation	-9.6295
▁accept	-9.63032
gr	-9.63149
▁sent	-9.6322
▁successful	-9.6326
fu	-9.63299
▁election	-9.63331
▁increasingly	-9.6341
▁interesting	-9.63421
▁broke	-9.63422
▁project	-9.6344
▁characterized	-9.63493
▁remain	-9.63509
▁Africa	-9.63631
▁turned	-9.63664
▁unnecessary	-9.6369
▁leadership	-9.63702
▁radio	-9.63948
▁north	-9.63962
▁urban	-9.6401
▁Har	-9.64069
▁comments	-9.6409
▁na	-9.64095
za	-9.64151
▁Council	-9.64222
▁teams	-9.64223
▁sort	-9.64282
▁worse	-9.64332
▁Ki	-9.64411
like	-9.64429
ko	-9.64432
▁mess	-9.64462
▁acts	-9.64516
▁US	-9.64554
ory	-9.646
▁management	-9.64604
▁followed	-9.64617
ue	-9.64621
▁larger	-9.64668
▁expressed	-9.64684
▁speak	-9.647
ina	-9.64716
▁published	-9.64758
▁mission	-9.64768
ef	-9.64803
▁slow	-9.64833
▁demand	-9.64837
▁honor	-9.64977
▁planning	-9.64987
▁Soviet	-9.65079
over	-9.65096
▁schools	-9.65141
▁innovative	-9.65187
▁dinner	-9.65187
▁exist	-9.65237
▁Many	-9.65261
▁herself	-9.65511
▁tale	-9.65642
▁challenge	-9.65657
▁para	-9.65778
nna	-9.65798
▁theory	-9.66103
▁save	-9.66158
▁President	-9.66161
▁fundamental	-9.66161
▁independence	-9.66161
rate	-9.66202
▁treatment	-9.66227
▁middle	-9.6627
▁watched	-9.66338
▁higher	-9.66339
▁San	-9.66378
▁Ni	-9.66401
ze	-9.66412
▁immense	-9.66597
▁changed	-9.66624
▁buy	-9.66767
▁designed	-9.66822
▁agreed	-9.66832
▁initiatives	-9.66924
▁standards	-9.67008
▁practical	-9.67035
▁remember	-9.67159
▁weak	-9.67172
000	-9.67173
▁older	-9.6721
▁alike	-9.67221
off	-9.67325
▁contributed	-9.67402
lit	-9.67551
▁require	-9.67664
▁em	-9.67689
▁analysis	-9.67695
ants	-9.67706
▁male	-9.67728
▁le	-9.67735
▁blood	-9.67806
ack	-9.67831
ps	-9.67854
ification	-9.67861
▁managed	-9.67886
▁Under	-9.67963
▁Spanish	-9.68027
ny	-9.68062
▁serving	-9.681
▁Age	-9.6821
lie	-9.68275
▁names	-9.68418
▁dance	-9.68421
▁truth	-9.68472
▁factors	-9.68478
▁January	-9.68583
▁(20	-9.68598
▁structures	-9.68635
ctor	-9.68826
▁subsequent	-9.68871
▁evidence	-9.68917
▁technical	-9.69029
rn	-9.69069
▁delve	-9.69078
▁gone	-9.69116
▁remind	-9.69223
▁mid	-9.6928
▁immers	-9.69343
▁March	-9.69363
▁recommend	-9.69366
atory	-9.69369
▁campaign	-9.69478
▁meeting	-9.69553
▁realm	-9.69593
▁reasons	-9.69889
▁County	-9.69904
▁April	-9.69929
▁religion	-9.69929
▁division	-9.69941
▁Bra	-9.70008
▁messages	-9.70062
▁influenced	-9.70094
▁expected	-9.7013
▁concern	-9.7024
▁fund	-9.70276
▁Redditors	-9.70295
▁follow	-9.70362
well	-9.70405
▁negative	-9.70495
▁formed	-9.70744
ong	-9.7076
▁manner	-9.70894
▁plant	-9.70897
▁December	-9.7095
▁mu	-9.71054
▁complexity	-9.71215
▁holds	-9.7135
▁questions	-9.71368
▁Party	-9.71374
▁Star	-9.71429
▁signal	-9.71443
▁site	-9.71526
▁stability	-9.71569
▁roll	-9.71593
▁September	-9.71637
▁authority	-9.71697
▁Tom	-9.71711
▁reached	-9.71793
▁reality	-9.71825
▁residents	-9.71868
▁train	-9.71897
ged	-9.71973
▁remained	-9.71985
▁display	-9.72049
▁sports	-9.72086
▁block	-9.7212
▁foster	-9.72126
▁cities	-9.72164
▁gra	-9.72175
▁complete	-9.72176
▁improve	-9.72207
▁unfold	-9.72213
▁pressure	-9.72233
▁consequences	-9.72305
▁threat	-9.72402
▁explain	-9.72405
▁Canada	-9.72445
▁November	-9.72445
▁diversity	-9.72445
▁mistake	-9.72451
▁players	-9.72483
▁principles	-9.7249
▁capturing	-9.7256
▁pivotal	-9.7256
▁Other	-9.72607
▁platform	-9.72626
▁feature	-9.72627
▁investment	-9.72638
▁mere	-9.72639
▁length	-9.72682
▁push	-9.72715
▁keeping	-9.72716
▁Robert	-9.72801
▁transition	-9.72916
▁reign	-9.7303
▁happen	-9.73078
▁linguistic	-9.73082
▁rock	-9.73084
▁tradition	-9.73097
▁rate	-9.73146
▁Australian	-9.73179
▁gas	-9.73184
▁lacks	-9.73199
▁eyes	-9.73207
▁ro	-9.73282
▁June	-9.73324
▁responsibility	-9.73375
▁park	-9.73416
▁Gra	-9.73453
dr	-9.73459
making	-9.73478
▁episode	-9.73492
▁strategic	-9.73492
▁operations	-9.73607
▁policy	-9.73609
▁conflicts	-9.73639
▁applications	-9.73714
▁exploring	-9.73727
▁hero	-9.73829
Each	-9.7386
▁Com	-9.73878
tern	-9.73961
vent	-9.74129
▁Can	-9.74181
▁j	-9.74194
▁training	-9.74288
▁appearance	-9.74331
▁perform	-9.74372
▁sport	-9.74484
▁coast	-9.74525
▁table	-9.74527
long	-9.74545
▁Ke	-9.74644
▁president	-9.74669
▁disease	-9.7467
▁installment	-9.74812
▁explained	-9.74859
uck	-9.74987
▁enduring	-9.75029
▁turns	-9.751
▁unsure	-9.7515
▁adapt	-9.75168
pla	-9.75234
▁damage	-9.75285
▁loved	-9.75296
ino	-9.75374
▁Central	-9.75382
tur	-9.75488
▁groundbreaking	-9.75502
▁Islamic	-9.75557
▁Recently	-9.75621
▁spent	-9.75622
▁ruin	-9.75624
▁sector	-9.75633
▁occasionally	-9.75755
▁va	-9.75851
▁offered	-9.75891
▁majority	-9.75915
▁talked	-9.7592
▁transformation	-9.75937
▁efficient	-9.75967
▁incredible	-9.75981
▁mutual	-9.75981
▁sat	-9.76081
▁tone	-9.76159
▁Unfortunately	-9.76221
▁follows	-9.76235
*	-9.76258
▁white	-9.76341
▁ways	-9.76419
▁store	-9.76453
▁sequel	-9.76462
bel	-9.76562
▁news	-9.7661
▁root	-9.76673
▁expression	-9.76692
▁showcases	-9.76698
▁letter	-9.7672
▁dynamics	-9.76753
▁poor	-9.76868
▁ride	-9.76894
right	-9.76913
▁founded	-9.76948
▁river	-9.7707
▁traced	-9.77078
▁comfortable	-9.77092
▁grand	-9.77093
light	-9.77099
▁arts	-9.77114
▁vote	-9.77132
▁scholars	-9.77147
▁trans	-9.77164
▁popularity	-9.77181
tch	-9.77192
fa	-9.77202
▁Han	-9.77377
▁families	-9.77431
▁caught	-9.77442
▁July	-9.7749
▁absolute	-9.77526
tter	-9.7769
▁origins	-9.77706
lay	-9.77747
▁hear	-9.77788
▁mad	-9.77872
▁politics	-9.77919
lor	-9.77929
▁unit	-9.7796
▁generations	-9.78003
car	-9.78036
▁innovation	-9.78041
▁mountain	-9.78041
lock	-9.78056
▁tired	-9.78165
▁Mon	-9.78259
ace	-9.78268
▁km	-9.78373
▁Michael	-9.78409
▁grew	-9.7841
▁Art	-9.78517
▁spread	-9.78532
▁convey	-9.78534
▁existence	-9.78555
▁portray	-9.78562
▁lower	-9.78652
▁enthusiasts	-9.78653
▁Ad	-9.78669
ept	-9.78777
▁mine	-9.78839
sha	-9.78872
▁Then	-9.78899
▁student	-9.78954
can	-9.78979
▁Australia	-9.78986
matic	-9.78987
▁meaningful	-9.79015
▁Peter	-9.79073
▁hour	-9.79106
▁send	-9.79141
▁dress	-9.7915
▁expanded	-9.792
▁image	-9.79275
▁elected	-9.79276
")	-9.79337
ping	-9.79457
lia	-9.79493
▁guilty	-9.79494
▁Fu	-9.795
▁points	-9.79564
▁increased	-9.79635
▁foreign	-9.79648
▁disappointment	-9.79657
▁effective	-9.79712
▁ensemble	-9.79771
▁premise	-9.79771
▁processes	-9.7978
hen	-9.79789
▁questioning	-9.7979
ek	-9.79826
▁critic	-9.79857
air	-9.79862
lig	-9.79878
▁superhero	-9.79895
▁collaboration	-9.79926
▁contemporary	-9.8002
▁rules	-9.80066
▁door	-9.80298
▁African	-9.8034
bor	-9.80347
▁younger	-9.80353
▁creation	-9.80397
▁ongoing	-9.80408
▁learning	-9.8048
▁climate	-9.80521
▁hate	-9.80599
▁Bi	-9.80762
▁Lake	-9.80797
ore	-9.80798
▁distinctive	-9.80842
vol	-9.8088
▁affect	-9.80896
▁te	-9.80935
▁strike	-9.81025
▁contain	-9.81027
▁target	-9.81151
▁incident	-9.81151
▁invested	-9.81227
kh	-9.81254
▁suggestions	-9.81297
▁Our	-9.81338
▁Sam	-9.81375
▁Black	-9.81404
▁impression	-9.81444
▁opinion	-9.81551
▁extended	-9.81553
yn	-9.81573
▁levels	-9.81725
▁prioritize	-9.81738
iff	-9.81761
▁meant	-9.81863
▁dead	-9.81874
▁decades	-9.81905
▁lose	-9.81963
▁fr	-9.81981
ese	-9.81983
▁eye	-9.82033
▁channel	-9.82039
▁debate	-9.82045
▁safety	-9.82059
xi	-9.82069
based	-9.82091
▁directly	-9.82116
▁strength	-9.82122
▁square	-9.82128
▁interested	-9.8215
ER	-9.82172
packed	-9.82184
▁relatable	-9.82191
▁eat	-9.82226
▁drink	-9.82422
▁cross	-9.82459
▁directed	-9.82567
▁vision	-9.82578
ash	-9.82593
str	-9.82611
▁province	-9.82679
▁cur	-9.82705
mar	-9.82747
term	-9.82754
▁Ya	-9.82779
▁committed	-9.82815
low	-9.82901
rk	-9.82905
▁enable	-9.83054
▁transportation	-9.83064
▁above	-9.83072
▁household	-9.8308
▁Un	-9.83189
▁conclusion	-9.83322
▁Asia	-9.83383
30	-9.83541
▁peace	-9.83638
▁earlier	-9.8371
▁heartwarming	-9.8371
▁piece	-9.83714
bin	-9.83725
▁camera	-9.83764
▁additional	-9.83822
▁thoughts	-9.83921
▁miles	-9.84007
▁frequently	-9.84081
fo	-9.84083
▁newspaper	-9.841
▁initial	-9.84225
ius	-9.84244
▁Ben	-9.84268
ria	-9.84306
▁wonderful	-9.84347
▁neighbor	-9.84356
▁authenticity	-9.84388
▁immersive	-9.84406
▁answer	-9.84501
▁familiar	-9.84622
▁heard	-9.84625
ency	-9.84651
▁insight	-9.84656
ock	-9.84776
▁mix	-9.84788
▁users	-9.84871
▁commercial	-9.84884
▁execution	-9.84896
tel	-9.84902
lum	-9.84906
▁rent	-9.84908
▁Bas	-9.84954
▁mostly	-9.84983
▁October	-9.85146
▁police	-9.85147
▁wondering	-9.852
12	-9.85261
▁territory	-9.85278
▁widespread	-9.85278
▁advancements	-9.85308
ments	-9.8532
▁Irish	-9.85417
play	-9.85576
▁Also	-9.85583
200	-9.8559
▁Fe	-9.85611
▁torn	-9.85618
yl	-9.85624
▁excellent	-9.85674
▁easy	-9.85674
mate	-9.85688
ically	-9.85704
▁High	-9.8571
▁According	-9.8575
35	-9.85785
▁infrastructure	-9.85806
▁topic	-9.85917
law	-9.85924
▁pursuit	-9.85938
▁contrast	-9.85938
▁institution	-9.85988
▁focused	-9.86025
▁leader	-9.86056
▁wait	-9.86093
▁intriguing	-9.86204
▁spectacle	-9.86204
▁receive	-9.86247
▁died	-9.86278
pur	-9.86297
▁alternative	-9.86337
▁societal	-9.86337
▁Following	-9.86344
▁wall	-9.86346
▁grow	-9.86402
▁witnessed	-9.86448
▁casual	-9.86471
▁types	-9.86508
▁easily	-9.86603
▁search	-9.86612
▁band	-9.86931
▁spending	-9.86964
▁thank	-9.87051
▁rank	-9.87054
▁fiction	-9.87105
▁listen	-9.87136
▁church	-9.87139
▁worry	-9.87139
▁artists	-9.87154
▁universe	-9.87273
▁animals	-9.87337
▁romance	-9.87407
▁famous	-9.87407
▁reference	-9.87448
▁girls	-9.87474
▁Paul	-9.87533
▁helped	-9.8754
▁race	-9.87556
▁parties	-9.87576
▁looks	-9.87728
but	-9.87728
▁occur	-9.87779
▁core	-9.87892
ough	-9.88001
▁explores	-9.88006
▁*	-9.88179
▁En	-9.88275
▁countless	-9.8837
▁match	-9.88374
ou	-9.88409
▁twists	-9.88486
▁immerse	-9.88606
▁miss	-9.88617
▁Science	-9.88625
▁angry	-9.8863
▁plants	-9.88654
▁25	-9.88667
▁21	-9.88731
▁su	-9.88736
▁tough	-9.88758
▁philosophy	-9.88761
▁limit	-9.88762
▁hoping	-9.88775
▁Mal	-9.88908
han	-9.88912
▁earned	-9.88929
X	-9.8893
phy	-9.88959
0,000	-9.88976
▁strain	-9.89035
▁architectural	-9.89035
▁accused	-9.89037
▁calling	-9.89142
▁Eastern	-9.89172
▁turning	-9.8921
pic	-9.89289
▁street	-9.89308
▁ignore	-9.89309
▁witty	-9.89332
▁appear	-9.89341
15	-9.89403
16	-9.89409
▁engagement	-9.89425
▁Beyond	-9.89445
▁decisions	-9.89453
▁portrayed	-9.89487
▁Ko	-9.89505
▁admit	-9.89557
▁heartfelt	-9.89583
▁wit	-9.89714
▁Bur	-9.8972
▁command	-9.8972
▁crime	-9.89726
▁seats	-9.89781
fully	-9.89904
▁federal	-9.89996
▁escape	-9.90004
▁link	-9.90022
▁weight	-9.90087
▁General	-9.90113
▁definitely	-9.90134
▁failing	-9.90164
▁prestigious	-9.90272
▁charismatic	-9.90292
body	-9.90364
▁honestly	-9.90379
▁extraordinary	-9.90411
▁arm	-9.90415
▁beautifully	-9.90419
vers	-9.90438
▁element	-9.90484
▁syn	-9.90521
ute	-9.90529
▁track	-9.90561
▁disc	-9.90572
▁combination	-9.90595
▁texts	-9.90636
▁disjointed	-9.90688
▁witness	-9.90743
▁freedom	-9.90837
▁respective	-9.90928
ase	-9.90959
▁hilarious	-9.90967
▁Muslim	-9.90967
▁George	-9.90967
▁disappointing	-9.91026
▁achievements	-9.91164
▁consistently	-9.91166
zo	-9.91191
▁researchers	-9.91192
lip	-9.91247
▁array	-9.91248
▁join	-9.91256
▁pull	-9.91293
▁supportive	-9.91504
▁situations	-9.91553
▁1980	-9.91571
ger	-9.91644
▁master	-9.91709
press	-9.91729
▁League	-9.91806
▁stupid	-9.91806
▁framework	-9.91812
mun	-9.91834
▁sit	-9.91848
▁perspectives	-9.9185
aries	-9.91852
▁pass	-9.91871
▁encourage	-9.91872
ram	-9.91883
▁vary	-9.91903
▁sounds	-9.91949
▁walk	-9.92044
▁ethnic	-9.92088
▁huge	-9.92089
▁goals	-9.921
wer	-9.92166
▁method	-9.92225
▁embark	-9.92229
▁worst	-9.9223
▁civil	-9.92269
▁cinema	-9.92344
▁substantial	-9.9237
▁machine	-9.9237
▁spot	-9.92373
war	-9.92375
bar	-9.92409
▁fi	-9.92419
▁violence	-9.92512
▁component	-9.92512
▁facing	-9.92512
gue	-9.9268
▁magic	-9.92696
▁faith	-9.92719
▁Wi	-9.92734
oid	-9.92831
▁citizens	-9.92849
▁joined	-9.9291
▁convoluted	-9.92937
▁wealth	-9.92945
▁internal	-9.92949
▁weekend	-9.9296
ians	-9.92985
not	-9.9307
ood	-9.93079
▁flick	-9.9308
some	-9.93091
▁representation	-9.93157
pping	-9.9319
▁Northern	-9.93223
▁round	-9.93241
script	-9.93303
▁movements	-9.93311
▁Of	-9.93354
▁murder	-9.93365
ised	-9.93478
▁hang	-9.93493
pan	-9.93504
▁cheap	-9.93508
win	-9.93519
▁wave	-9.93538
▁Ku	-9.9354
ray	-9.93561
burg	-9.93621
▁Mor	-9.93682
▁distribution	-9.93698
▁Je	-9.93713
▁evolved	-9.93729
▁broad	-9.93747
▁advantage	-9.93794
▁destination	-9.93794
▁intended	-9.93794
▁Born	-9.93826
▁1990	-9.93833
▁Sc	-9.93853
▁scar	-9.93872
▁opinions	-9.93915
ev	-9.93929
▁choices	-9.93938
▁hospital	-9.94081
▁basically	-9.94097
▁administrative	-9.94225
▁revolves	-9.94274
▁Jack	-9.94287
▁outstanding	-9.94306
▁figures	-9.94311
▁Chi	-9.9436
▁cases	-9.94391
▁fit	-9.94392
▁carry	-9.94404
night	-9.94451
▁average	-9.94515
▁matters	-9.94546
▁voiced	-9.94569
▁powers	-9.94581
▁games	-9.9465
▁candidate	-9.94658
ix	-9.94932
▁filmmakers	-9.94951
▁required	-9.9498
▁Bro	-9.94997
▁Pri	-9.95064
▁Pu	-9.95102
▁produce	-9.95171
▁cell	-9.95285
▁opening	-9.95409
▁respond	-9.95433
▁da	-9.95484
▁active	-9.95508
▁materials	-9.9556
▁experiment	-9.95675
▁Italian	-9.95678
▁nearly	-9.95712
▁argued	-9.95791
▁Au	-9.95809
▁combined	-9.95816
▁methods	-9.95825
▁commendable	-9.95827
▁Bri	-9.95856
▁road	-9.95862
bit	-9.95902
ura	-9.95982
▁slightly	-9.96051
▁throw	-9.961
▁labor	-9.96129
▁sustainable	-9.96135
▁books	-9.96246
▁properties	-9.96261
▁card	-9.96307
▁adaptation	-9.96311
▁sharing	-9.9641
▁Cu	-9.96423
▁overly	-9.96437
33	-9.96471
▁comic	-9.96506
▁advocate	-9.96556
ich	-9.96561
gra	-9.96581
lli	-9.96638
▁Mr	-9.96638
lk	-9.96644
▁muscle	-9.96703
▁repeat	-9.96714
▁Part	-9.96731
▁Most	-9.96757
▁patient	-9.96851
▁southern	-9.96851
▁jump	-9.96863
▁Day	-9.96882
▁teacher	-9.96955
▁facilitate	-9.97
▁standout	-9.97024
▁weird	-9.97157
▁regular	-9.97173
▁condition	-9.97173
▁decide	-9.97237
▁pen	-9.97291
rap	-9.9737
▁unwavering	-9.97444
▁severe	-9.97448
▁expertise	-9.97449
▁looked	-9.97454
▁adult	-9.97492
▁projects	-9.97647
▁Mark	-9.97712
▁compared	-9.97721
▁bed	-9.9773
▁literary	-9.97742
▁succeed	-9.97742
▁unforgettable	-9.97742
▁drug	-9.97742
▁joy	-9.97744
▁west	-9.97813
▁parent	-9.97819
▁Middle	-9.97891
▁morning	-9.97891
▁report	-9.97913
▁Don	-9.9797
▁Lastly	-9.9799
verse	-9.98008
▁defensive	-9.9804
▁league	-9.9804
▁budget	-9.98212
▁laughter	-9.98234
▁protection	-9.98241
▁code	-9.98263
ient	-9.98276
ox	-9.98324
▁border	-9.98412
▁Christianity	-9.98456
▁formation	-9.98488
▁running	-9.98523
▁Ab	-9.98577
▁determination	-9.98591
▁composed	-9.98641
▁aircraft	-9.98644
ene	-9.98686
▁pop	-9.98745
▁birth	-9.98781
▁strategies	-9.98791
bra	-9.98793
▁awkward	-9.98942
▁okay	-9.98942
▁minor	-9.98996
▁highest	-9.99028
ku	-9.99161
▁resilience	-9.99244
▁shock	-9.99333
▁doctor	-9.99359
▁songs	-9.9937
▁facilitat	-9.99394
▁24	-9.99406
ford	-9.99407
zi	-9.99441
ane	-9.99446
rated	-9.99451
▁apartment	-9.99483
▁Christmas	-9.99549
▁taste	-9.99573
39	-9.99665
dom	-9.99672
▁cultures	-9.99741
▁Paris	-9.99745
▁Italy	-9.9975
▁seven	-9.99779
▁judgment	-9.99852
▁notice	-9.99852
▁willing	-9.99885
▁epic	-9.99931
berg	-10.0011
▁wish	-10.0019
▁greater	-10.0034
▁changing	-10.0035
ric	-10.0041
hand	-10.0042
▁prove	-10.0046
▁evident	-10.0046
▁heavy	-10.0046
▁beliefs	-10.0048
▁whenever	-10.005
▁Shi	-10.0058
▁intensity	-10.0062
▁broader	-10.0066
▁safe	-10.0067
▁2000	-10.007
▁Russia	-10.0076
▁task	-10.0077
ob	-10.008
▁scientists	-10.0081
▁straight	-10.0092
▁request	-10.0092
▁functions	-10.0105
▁east	-10.0108
▁realize	-10.0108
illa	-10.0118
▁Sh	-10.0118
▁spa	-10.0119
▁shallow	-10.0123
▁missed	-10.0125
▁detract	-10.0139
▁CGI	-10.0139
▁income	-10.014
▁encompasses	-10.0151
▁Islam	-10.0151
▁museum	-10.0154
▁proceed	-10.0154
▁Lin	-10.0161
▁products	-10.0162
▁sources	-10.0162
▁fuel	-10.0163
▁discussions	-10.0205
▁delightful	-10.0208
hal	-10.0209
lon	-10.021
iti	-10.0214
▁details	-10.0215
▁activity	-10.0217
▁architecture	-10.0217
▁hub	-10.0219
▁Pan	-10.0226
▁brain	-10.0227
▁describe	-10.0227
▁divided	-10.0231
itch	-10.0231
▁dated	-10.0232
▁gathering	-10.0235
▁complexities	-10.0239
▁win	-10.0239
don	-10.024
mark	-10.0241
▁undoubtedly	-10.0248
▁cycle	-10.0248
▁cater	-10.0248
▁raised	-10.0261
hir	-10.0268
▁shown	-10.0276
field	-10.0279
▁acknowledge	-10.0295
▁gender	-10.0295
▁outcome	-10.0295
▁advanced	-10.03
▁Alex	-10.03
▁Like	-10.0302
▁Mary	-10.0305
▁strengths	-10.0305
▁product	-10.0306
▁villain	-10.031
▁gives	-10.0321
▁resolution	-10.0326
▁cousin	-10.0326
▁2020	-10.0329
▁(1	-10.034
▁David	-10.0342
▁spark	-10.0342
▁Tu	-10.0346
▁fish	-10.0349
▁Award	-10.035
▁Revolution	-10.0356
▁indelible	-10.0358
gy	-10.0362
▁effect	-10.0364
pha	-10.0368
ji	-10.0381
▁pe	-10.0383
ugh	-10.0384
▁relative	-10.0386
▁Cor	-10.0387
▁Parliament	-10.0389
▁exciting	-10.0389
▁kingdom	-10.039
▁engineering	-10.04
▁suggested	-10.0411
▁solely	-10.0422
▁employ	-10.0426
▁gradually	-10.0427
11	-10.0437
ik	-10.0443
ica	-10.0445
▁dates	-10.0446
▁favorite	-10.0454
▁dismiss	-10.0455
▁credit	-10.0463
▁paper	-10.0473
▁discovered	-10.0475
ctive	-10.0479
▁Du	-10.048
▁photo	-10.0485
which	-10.0486
▁Tri	-10.0497
▁Island	-10.0505
▁emotion	-10.0514
▁California	-10.0517
▁worried	-10.0517
▁formal	-10.0521
▁EU	-10.0522
▁Moon	-10.0526
▁timeless	-10.0527
▁defeat	-10.0533
▁note	-10.0545
BA	-10.0545
pen	-10.0546
uff	-10.0547
▁favor	-10.0548
▁delicate	-10.0549
▁presented	-10.055
▁colonial	-10.0551
▁property	-10.0551
▁farm	-10.0552
▁please	-10.0561
▁compromise	-10.0565
▁identify	-10.0565
▁bomb	-10.0567
put	-10.0571
pel	-10.058
▁tells	-10.0581
▁breaking	-10.0584
▁secure	-10.0592
▁promise	-10.0594
▁accurate	-10.0598
▁consonant	-10.0598
▁lake	-10.0604
▁represents	-10.0609
cho	-10.0612
▁min	-10.0612
▁waste	-10.0621
hr	-10.0625
▁mechanism	-10.063
▁connections	-10.0639
▁opened	-10.0643
▁ideal	-10.0645
▁Last	-10.0649
▁player	-10.0655
▁Just	-10.0658
ville	-10.0658
▁daily	-10.0663
▁entirely	-10.0667
▁fiancé	-10.0679
▁king	-10.068
▁inject	-10.068
▁hasn	-10.0687
▁discussing	-10.0691
ulation	-10.0693
ata	-10.0694
▁steps	-10.0705
▁industrial	-10.0707
▁mono	-10.0707
ama	-10.0714
▁format	-10.0716
ST	-10.0721
duction	-10.0724
▁territories	-10.0728
▁adopted	-10.0729
▁Men	-10.0729
▁eager	-10.0744
▁2011	-10.0746
▁suffer	-10.0747
ome	-10.0753
▁animal	-10.0753
▁rushed	-10.0755
34	-10.0758
▁software	-10.0761
18	-10.0764
▁Gi	-10.0771
▁Academy	-10.0777
36	-10.078
Q	-10.0781
most	-10.0782
▁Red	-10.0784
▁February	-10.0794
▁frustrated	-10.0794
▁timing	-10.0794
▁Royal	-10.0794
▁showcase	-10.0826
▁DVD	-10.0827
▁composition	-10.0827
▁masterpiece	-10.0827
▁bio	-10.0829
▁2016	-10.0829
▁seriously	-10.0831
▁agree	-10.0833
▁overwhelming	-10.0844
▁terrible	-10.0844
▁breath	-10.0844
▁units	-10.0845
▁catch	-10.085
▁shine	-10.0854
▁ready	-10.0856
▁realized	-10.0857
▁relations	-10.086
▁circumstances	-10.086
bil	-10.0863
▁poorly	-10.0864
▁western	-10.0868
arch	-10.0868
point	-10.087
▁custom	-10.0871
▁appointed	-10.0877
now	-10.0891
▁kick	-10.0896
▁objective	-10.0897
▁pr	-10.0898
▁charming	-10.0905
▁defend	-10.091
▁route	-10.0912
▁combat	-10.0927
▁creative	-10.0927
▁abilities	-10.0927
▁bra	-10.0928
29	-10.0932
25	-10.0933
▁tax	-10.0936
PA	-10.0936
▁Prince	-10.0944
▁1970	-10.0948
21	-10.0948
cus	-10.0951
▁expressing	-10.0957
q	-10.0957
▁expansion	-10.096
▁integral	-10.096
▁occurred	-10.0962
▁specifically	-10.0967
▁described	-10.0967
▁ages	-10.0968
▁achieve	-10.0971
▁scale	-10.0973
char	-10.0973
▁distant	-10.0977
▁originally	-10.1
▁board	-10.1007
▁industries	-10.1011
▁sun	-10.102
▁decline	-10.1026
▁claims	-10.1027
▁therapy	-10.1029
▁sacrifice	-10.103
▁mood	-10.1045
▁ski	-10.1045
room	-10.1061
▁reduced	-10.1061
▁Football	-10.1062
ister	-10.1068
▁tries	-10.1069
▁agreement	-10.107
▁agricultural	-10.1079
▁fulfill	-10.1079
vin	-10.1079
▁interpretation	-10.109
ean	-10.1092
32	-10.1094
▁clearly	-10.1096
▁conduct	-10.1096
▁22	-10.1097
▁sequence	-10.11
▁county	-10.1117
▁Louis	-10.113
▁depict	-10.1133
▁craft	-10.1136
lash	-10.1136
▁Egypt	-10.114
ille	-10.1143
▁interact	-10.1145
▁excited	-10.1147
teen	-10.1154
▁Bre	-10.1155
▁numbers	-10.116
ify	-10.1163
▁perhaps	-10.1164
▁societies	-10.1164
▁uninspired	-10.1164
bro	-10.1165
▁lived	-10.1171
▁domestic	-10.1181
▁flag	-10.1181
▁developing	-10.1181
▁press	-10.1185
head	-10.1186
▁laid	-10.119
lam	-10.1192
▁greatest	-10.1193
wood	-10.1195
▁ball	-10.12
screen	-10.1206
▁Old	-10.1207
13	-10.1211
▁centers	-10.1223
midst	-10.1224
▁selfish	-10.1224
▁resource	-10.1226
▁characteristics	-10.123
die	-10.1232
▁chase	-10.1237
rie	-10.1239
▁obvious	-10.124
pri	-10.124
▁regulat	-10.1252
▁inside	-10.1252
▁Mac	-10.1257
ara	-10.1258
▁bf	-10.1259
▁collect	-10.1267
▁capacity	-10.1267
▁article	-10.1267
▁attend	-10.1276
app	-10.1276
▁Tre	-10.1277
▁publication	-10.1279
▁likely	-10.1281
pon	-10.1283
▁historic	-10.1289
▁aims	-10.1289
▁Q	-10.1289
▁reduc	-10.1289
▁addressing	-10.1291
▁harm	-10.1292
▁networks	-10.1294
14	-10.1296
▁according	-10.1302
▁contract	-10.1302
dis	-10.1303
▁equal	-10.1305
▁Sta	-10.1307
hood	-10.1312
▁habitat	-10.1315
▁emphasis	-10.1319
▁differences	-10.1319
▁afford	-10.132
▁Henry	-10.132
▁Charles	-10.1321
▁alongside	-10.1326
▁executed	-10.1328
▁indigenous	-10.1337
▁warm	-10.1337
▁1960	-10.1342
▁criticism	-10.1342
38	-10.1343
cha	-10.1347
▁governance	-10.1347
▁Mil	-10.1349
▁northern	-10.1354
▁shouldn	-10.1356
▁encompass	-10.1358
▁certainly	-10.1371
▁employed	-10.1378
▁killed	-10.1383
▁Richard	-10.1389
▁empire	-10.1389
▁ver	-10.139
▁Overall	-10.1391
▁enchanting	-10.1392
mag	-10.1397
▁concerned	-10.14
▁pace	-10.1402
itude	-10.1404
44	-10.1405
▁thus	-10.1408
▁collective	-10.1411
▁align	-10.1411
80	-10.1419
tting	-10.1422
▁personality	-10.1426
nny	-10.1428
chan	-10.1429
▁preserve	-10.1432
▁defined	-10.1434
▁exhilarating	-10.1442
▁introduction	-10.1442
▁originality	-10.1449
▁represented	-10.1456
▁charisma	-10.1457
▁basic	-10.1459
▁accus	-10.1461
▁Time	-10.1462
▁desired	-10.1464
▁bri	-10.1464
▁Hall	-10.1467
▁Sal	-10.1468
▁rid	-10.1468
▁bill	-10.1473
▁thriller	-10.1475
▁People	-10.1477
▁twist	-10.1478
▁roommate	-10.1479
▁measures	-10.1492
▁companies	-10.1495
▁hinder	-10.1495
pul	-10.1498
▁topics	-10.1499
lim	-10.15
▁deserves	-10.1505
▁disrupt	-10.1513
▁zone	-10.1513
▁2019	-10.1516
ette	-10.1519
▁Will	-10.1521
lot	-10.1522
▁aesthetic	-10.153
▁captivated	-10.1531
▁evil	-10.1532
▁Gar	-10.1535
▁smaller	-10.1535
arian	-10.1541
▁enjoyed	-10.1542
▁readers	-10.1546
▁recognize	-10.1548
▁Japanese	-10.1549
jo	-10.1549
▁settlement	-10.1552
▁sick	-10.1553
▁branch	-10.1554
▁coach	-10.1561
▁sensitive	-10.1566
▁judge	-10.1566
▁III	-10.1566
▁tree	-10.1568
▁Bal	-10.1571
▁foot	-10.1582
▁intelligence	-10.1584
▁picturesque	-10.1584
▁shake	-10.1586
place	-10.1586
▁losing	-10.1591
▁--	-10.1596
▁appeared	-10.16
▁gem	-10.1601
▁micro	-10.1602
▁frame	-10.1602
▁captured	-10.1607
▁color	-10.1609
▁invited	-10.161
.5	-10.1611
▁organ	-10.1613
graph	-10.1616
IL	-10.162
▁calm	-10.162
gal	-10.1623
▁Law	-10.1626
rin	-10.1631
ending	-10.1631
▁dynasty	-10.1638
▁facilities	-10.1638
▁Second	-10.1638
▁generation	-10.1644
cies	-10.1644
▁obviously	-10.1648
▁qua	-10.1653
tric	-10.1665
inspiring	-10.1667
▁appears	-10.1669
▁bought	-10.1674
▁Smith	-10.1674
inary	-10.1681
▁sold	-10.1681
▁input	-10.1683
▁BC	-10.1685
iz	-10.1688
▁Edit	-10.1689
▁Thanks	-10.1691
▁involving	-10.1692
▁stream	-10.1697
ception	-10.17
▁showcased	-10.1704
▁forgettable	-10.171
▁valid	-10.171
▁50	-10.1716
tres	-10.1717
▁classical	-10.1728
▁chemical	-10.1728
▁putting	-10.1731
ound	-10.1732
▁stone	-10.1732
▁print	-10.1743
▁mar	-10.1745
house	-10.1754
▁Christ	-10.1757
hearted	-10.1765
▁/	-10.177
▁officially	-10.1771
▁feet	-10.1774
▁Jewish	-10.1783
▁vowel	-10.1783
▁0	-10.1783
▁god	-10.1783
▁creativity	-10.1801
▁sorry	-10.1801
▁officer	-10.1801
▁Let	-10.1807
morph	-10.1812
▁supported	-10.1816
▁Army	-10.1819
▁council	-10.1819
▁speech	-10.1819
▁box	-10.1821
▁dam	-10.1822
▁section	-10.1823
▁Hollywood	-10.1837
▁suit	-10.1838
▁Min	-10.1842
▁reaching	-10.1844
▁proper	-10.1851
▁apologize	-10.1857
ature	-10.1858
▁2010	-10.186
40	-10.186
▁tools	-10.1873
24	-10.189
▁driving	-10.1893
▁embarrass	-10.1893
▁endearing	-10.1893
▁count	-10.19
run	-10.1905
17	-10.1907
▁benefit	-10.1908
▁joke	-10.1909
▁battles	-10.1911
▁backdrop	-10.1911
▁mixed	-10.1912
▁starts	-10.1912
▁featur	-10.1917
▁cells	-10.1918
▁closely	-10.192
▁unity	-10.192
▁actual	-10.1923
▁fail	-10.1924
▁leads	-10.1926
elect	-10.1931
▁portion	-10.1939
▁frustration	-10.1948
▁unfortunately	-10.1957
▁Ver	-10.1959
▁complain	-10.1967
37	-10.1976
▁Bill	-10.1982
▁photograph	-10.1986
▁empower	-10.1986
reliance	-10.1987
▁inspire	-10.1987
▁except	-10.1987
▁devices	-10.1989
ili	-10.2003
▁smooth	-10.2004
▁pursue	-10.2005
▁increase	-10.2005
▁compar	-10.2007
▁Bay	-10.2015
down	-10.2021
uk	-10.2022
▁administration	-10.2022
▁memory	-10.2023
▁patterns	-10.2023
▁planned	-10.2024
▁attraction	-10.2032
uri	-10.2037
take	-10.2039
▁colon	-10.204
▁govern	-10.204
▁split	-10.2041
▁benefits	-10.2044
▁Tur	-10.2046
SA	-10.2048
▁breakup	-10.205
▁wind	-10.2054
▁exactly	-10.2059
▁stretch	-10.206
▁stopped	-10.2063
▁react	-10.207
▁gotten	-10.2072
▁stars	-10.208
▁pure	-10.208
▁price	-10.208
▁Spain	-10.208
▁introduce	-10.208
▁joint	-10.2081
▁pieces	-10.2084
other	-10.2085
▁previously	-10.2089
▁Air	-10.2091
▁cold	-10.2095
▁Every	-10.2096
▁Mer	-10.21
▁die	-10.21
ola	-10.2105
▁factor	-10.2108
gram	-10.2115
▁intimate	-10.2116
▁Dutch	-10.2117
▁raise	-10.2118
▁Hill	-10.2119
▁writers	-10.2121
▁represent	-10.2133
▁happiness	-10.2135
▁solution	-10.2141
▁crafted	-10.2142
65	-10.2147
stor	-10.2149
▁comfort	-10.215
▁aware	-10.2153
▁literally	-10.2154
▁shoot	-10.2154
▁bodies	-10.2154
▁consistent	-10.2155
▁platforms	-10.2162
▁magical	-10.2167
▁harsh	-10.2173
▁whom	-10.2174
▁equally	-10.2183
▁goal	-10.2189
▁locations	-10.219
▁oldest	-10.2191
▁loving	-10.2192
▁deserve	-10.22
▁claimed	-10.2203
▁dream	-10.2203
▁quiet	-10.2211
▁bear	-10.2216
vision	-10.2217
▁arguments	-10.2222
▁Y	-10.2224
▁cap	-10.2224
▁whatever	-10.2229
▁tournament	-10.223
▁thousands	-10.223
▁compete	-10.2233
31	-10.2245
ense	-10.2246
▁fantasy	-10.2249
▁tongue	-10.2249
▁cutting	-10.225
▁arise	-10.2254
▁nations	-10.2257
▁strengthen	-10.2262
▁decent	-10.2263
▁confusing	-10.2268
▁ecological	-10.2268
▁annual	-10.2269
▁mainly	-10.227
▁elections	-10.2276
▁song	-10.2278
▁options	-10.2283
▁Japan	-10.2288
▁web	-10.229
▁designs	-10.2292
▁aid	-10.2292
▁happens	-10.2293
▁formula	-10.2293
▁refused	-10.2294
ani	-10.2294
▁reading	-10.2299
dia	-10.2299
▁showed	-10.23
60	-10.2301
responsibilities	-10.2306
▁schedule	-10.2306
▁mass	-10.2309
▁liked	-10.2316
▁intention	-10.2317
cri	-10.2326
▁operation	-10.2327
preserving	-10.2334
▁bone	-10.2344
▁trouble	-10.2345
zy	-10.2352
▁object	-10.2354
position	-10.2356
▁department	-10.2364
▁Ocean	-10.2364
▁Reg	-10.2365
▁2015	-10.2367
life	-10.237
▁mouth	-10.2371
▁dreams	-10.2373
▁confronted	-10.2379
ography	-10.2379
▁dilemma	-10.2384
▁triumph	-10.2384
▁Minister	-10.2384
▁Val	-10.239
▁staying	-10.239
▁Nations	-10.2393
▁epi	-10.2399
range	-10.2399
▁anxiety	-10.2403
▁medieval	-10.2403
▁Institute	-10.2403
▁resistance	-10.2404
▁Director	-10.2406
▁stick	-10.2409
▁Force	-10.2417
▁occasion	-10.2422
▁prefer	-10.2426
▁confront	-10.2433
▁Par	-10.2438
cer	-10.2438
▁connected	-10.2445
▁tourist	-10.2449
▁customer	-10.2449
▁Rome	-10.2457
▁belief	-10.2459
▁eastern	-10.2461
▁phase	-10.2462
▁writer	-10.2464
▁arc	-10.2466
▁derived	-10.2469
▁extreme	-10.2473
▁temperature	-10.2481
▁loyalty	-10.2482
look	-10.2496
▁Disney	-10.2501
▁enter	-10.2501
▁overcome	-10.2501
▁odd	-10.2501
▁2022	-10.2502
get	-10.2503
▁teachings	-10.2506
22	-10.2507
▁personalities	-10.2514
▁oil	-10.2514
▁complement	-10.252
▁prowess	-10.252
▁difference	-10.2522
▁abuse	-10.2527
ju	-10.2528
▁Cup	-10.2531
▁(18	-10.2533
▁vocal	-10.254
▁accessible	-10.2543
▁elevate	-10.2549
ole	-10.2556
▁CD	-10.2561
▁Though	-10.2561
town	-10.2568
▁otherwise	-10.2571
▁laughs	-10.2579
▁screenplay	-10.2581
▁thrill	-10.2583
▁artist	-10.2584
41	-10.2585
▁lie	-10.2589
wise	-10.2593
▁cool	-10.2596
▁actress	-10.2599
▁hot	-10.2601
▁fighting	-10.2602
▁Grand	-10.2604
▁pal	-10.2605
▁demonstrated	-10.2615
64	-10.2618
▁imagination	-10.2619
▁choose	-10.2619
▁native	-10.2623
hold	-10.2624
▁shaped	-10.2625
mid	-10.2632
▁leaders	-10.2633
▁excellence	-10.2639
▁restaurant	-10.2639
▁correct	-10.2639
▁Austria	-10.2639
▁praise	-10.2639
▁rural	-10.264
▁underdeveloped	-10.2641
▁conflicted	-10.2642
▁awful	-10.2642
▁totally	-10.2644
east	-10.2645
45	-10.2645
▁onto	-10.2647
▁increasing	-10.2651
▁cooperation	-10.2658
▁unfair	-10.2658
▁victim	-10.2658
▁theater	-10.2671
ux	-10.2675
▁relies	-10.2679
▁draw	-10.2683
state	-10.269
▁expense	-10.2698
▁Britain	-10.2698
▁evolution	-10.2706
ook	-10.2712
▁kill	-10.2712
▁returned	-10.2714
▁Company	-10.2718
▁Jesus	-10.2719
▁distract	-10.2719
▁brief	-10.2719
▁preservation	-10.272
▁sell	-10.2722
▁fuck	-10.2725
▁1950	-10.2729
23	-10.2736
▁eight	-10.2738
▁Court	-10.2739
▁2014	-10.274
qua	-10.2744
▁regret	-10.2748
▁typical	-10.2752
▁waiting	-10.2756
ala	-10.2758
▁technologies	-10.2758
▁external	-10.2758
▁improved	-10.276
▁achieved	-10.2761
▁existing	-10.2764
▁2018	-10.2781
▁occurs	-10.2782
▁skill	-10.2782
▁brilliant	-10.2792
▁Vietnam	-10.2799
▁Association	-10.2799
▁Ultimately	-10.2799
▁relevant	-10.2799
▁protein	-10.2799
pol	-10.2799
▁missing	-10.2799
▁100	-10.2818
▁adrenaline	-10.2819
▁defense	-10.2819
▁slapstick	-10.2819
▁finance	-10.2819
▁weapon	-10.2819
▁nearby	-10.2821
dding	-10.2824
▁Fo	-10.2836
▁guest	-10.2839
▁brand	-10.2842
▁helping	-10.2846
▁par	-10.2846
▁cook	-10.2852
▁Battle	-10.2859
▁rough	-10.2863
ken	-10.2863
lines	-10.2868
▁involvement	-10.2868
born	-10.287
▁rare	-10.2877
▁wrote	-10.288
▁26	-10.2884
watch	-10.2885
comp	-10.2887
▁roots	-10.2889
▁flaws	-10.289
▁Bond	-10.289
▁Ed	-10.2894
▁privacy	-10.29
▁green	-10.29
▁promotion	-10.2901
▁2021	-10.2902
▁broadcast	-10.2904
▁democratic	-10.2921
▁guard	-10.2921
▁buildings	-10.2922
▁update	-10.2925
▁Dan	-10.2926
▁counter	-10.2927
▁AD	-10.2932
▁creatures	-10.2942
ON	-10.2943
yr	-10.2944
▁specialized	-10.2951
▁emphasiz	-10.2965
▁height	-10.2972
▁regarded	-10.2978
▁Washington	-10.2982
▁fault	-10.2982
55	-10.2985
eng	-10.2996
SI	-10.2999
▁appropriate	-10.3003
▁supply	-10.3003
▁summer	-10.3004
▁ruler	-10.3004
gel	-10.301
▁wear	-10.3011
▁aren	-10.3013
pre	-10.3019
▁rebuild	-10.3022
▁showing	-10.3022
▁stood	-10.3027
part	-10.3035
▁soul	-10.3038
▁Post	-10.304
▁diminish	-10.3044
ini	-10.3045
ech	-10.3051
stone	-10.3051
▁paid	-10.3052
action	-10.3054
90	-10.3056
▁attracted	-10.3058
▁destroy	-10.3065
▁gun	-10.3065
▁Lord	-10.3068
▁Ser	-10.3081
▁nor	-10.3104
▁Ber	-10.3104
▁striking	-10.3106
▁lighthearted	-10.3107
cast	-10.3116
▁combines	-10.3116
▁reduce	-10.3117
▁shit	-10.3117
▁file	-10.312
▁paying	-10.3122
▁standing	-10.3123
▁claim	-10.3127
▁Museum	-10.3127
▁variation	-10.3127
▁via	-10.3132
yo	-10.3134
▁replaced	-10.3146
▁Pacific	-10.3148
▁sibling	-10.3148
▁landmark	-10.315
▁relat	-10.3151
▁objects	-10.3154
▁ran	-10.3162
▁Mag	-10.3165
?"	-10.3167
▁basketball	-10.3169
▁blue	-10.3169
metric	-10.317
dent	-10.3172
▁habit	-10.3176
▁discuss	-10.3177
▁contains	-10.3189
▁promising	-10.319
▁biggest	-10.319
▁2023	-10.3191
▁1996	-10.3193
rick	-10.3195
▁usual	-10.3195
▁everyday	-10.32
▁23	-10.32
▁gap	-10.3203
view	-10.3205
▁lay	-10.3207
▁fix	-10.3209
▁Rock	-10.321
▁efficiency	-10.3211
▁thrive	-10.3211
▁speed	-10.3211
▁seemingly	-10.3212
▁realistic	-10.3217
▁page	-10.3223
▁agent	-10.3226
▁explaining	-10.3226
▁camp	-10.323
▁statement	-10.323
▁integrity	-10.3232
▁exploit	-10.3232
▁obtain	-10.3232
▁excuse	-10.3232
▁spec	-10.3234
▁Government	-10.3253
▁pet	-10.327
▁festival	-10.3274
▁possibly	-10.3274
▁strive	-10.3274
▁Saint	-10.3275
▁auto	-10.3284
▁reveal	-10.3285
▁uncle	-10.3286
adi	-10.3288
▁Iraq	-10.3288
lac	-10.3298
▁emphasize	-10.3306
▁holiday	-10.3316
▁integration	-10.3316
▁determined	-10.3329
▁gripping	-10.3338
▁railway	-10.3338
▁2012	-10.334
je	-10.3343
atic	-10.3355
▁drawn	-10.3355
▁Congress	-10.3359
▁childhood	-10.3361
than	-10.3368
▁announced	-10.337
▁random	-10.3381
▁anyway	-10.3383
▁Democratic	-10.3383
unk	-10.3392
▁dealing	-10.3394
▁passenger	-10.3402
▁cultivat	-10.3402
gged	-10.3403
▁instrument	-10.3405
▁affected	-10.3407
▁27	-10.3408
▁resort	-10.3423
▁conservation	-10.3425
500	-10.3427
54	-10.3432
▁feed	-10.3438
▁begin	-10.3444
aff	-10.3444
▁garnered	-10.3445
▁mesmerizing	-10.3445
▁tackle	-10.3445
▁Islands	-10.3446
▁2017	-10.3447
▁initiate	-10.345
▁enjoyment	-10.346
▁bridge	-10.3461
▁crying	-10.3461
▁Korea	-10.3467
▁basis	-10.3467
relatively	-10.3475
▁intrigue	-10.3488
▁mystery	-10.3488
66	-10.3501
▁opt	-10.3507
▁motion	-10.3508
IS	-10.3509
▁Southern	-10.351
▁accepted	-10.3511
▁holding	-10.3511
▁Fast	-10.3527
▁incorporate	-10.3531
▁Canadian	-10.3531
▁Society	-10.3531
▁divorce	-10.3531
▁soldiers	-10.3531
▁origin	-10.354
▁solutions	-10.3546
70	-10.3551
▁wider	-10.3553
▁believable	-10.3553
▁disorder	-10.3553
▁2008	-10.3554
▁genetic	-10.3557
▁evoke	-10.3557
▁grown	-10.3558
round	-10.3559
▁flight	-10.356
even	-10.356
▁elevat	-10.3564
nia	-10.3567
▁capabilities	-10.3575
▁nuclear	-10.3575
▁philosophical	-10.3575
▁subplot	-10.3575
▁teaching	-10.3576
▁persist	-10.3576
▁Found	-10.3582
▁CE	-10.3587
▁union	-10.3588
board	-10.359
ball	-10.359
▁pair	-10.359
▁Because	-10.3597
▁census	-10.3597
▁neglect	-10.3597
▁double	-10.3597
▁depending	-10.36
▁hook	-10.36
▁80	-10.3605
▁drop	-10.3608
▁proposed	-10.3619
▁saving	-10.3619
known	-10.3623
▁businesses	-10.3626
An	-10.3631
▁meticulously	-10.3638
▁Scotland	-10.364
▁reliable	-10.364
▁2006	-10.3642
ologist	-10.3642
▁representing	-10.3643
42	-10.3646
▁reminder	-10.3646
▁celebration	-10.3662
▁imagine	-10.3662
▁association	-10.3662
▁2001	-10.3664
▁sites	-10.3679
▁explored	-10.3682
He	-10.3687
▁Maybe	-10.3691
itive	-10.3692
▁launched	-10.3698
▁technological	-10.3707
▁charge	-10.3715
break	-10.3716
▁Nor	-10.372
▁generate	-10.3727
AT	-10.3728
▁Boy	-10.3729
▁expand	-10.373
EC	-10.3733
▁Comp	-10.3739
▁partial	-10.374
▁dramatic	-10.3743
hole	-10.3749
▁loud	-10.3756
▁yes	-10.3759
▁determine	-10.376
▁chosen	-10.3764
ez	-10.3769
▁ridiculous	-10.3773
▁domain	-10.3773
▁Trans	-10.3774
▁heat	-10.3774
▁representative	-10.3774
▁ju	-10.378
▁appealing	-10.3792
▁impossible	-10.3795
▁wild	-10.3795
▁Civil	-10.3795
nor	-10.3797
▁speakers	-10.3801
▁diplomatic	-10.3806
▁discover	-10.3806
▁Both	-10.3812
▁metal	-10.3817
▁relentless	-10.3818
▁operates	-10.3826
▁participate	-10.3827
▁Jim	-10.3835
▁dispute	-10.3841
▁Are	-10.3847
▁seamless	-10.3858
key	-10.3859
▁expecting	-10.3861
▁Inter	-10.3861
▁pregnant	-10.3862
▁abandon	-10.3862
▁superior	-10.3862
oh	-10.3871
▁user	-10.3873
class	-10.3874
▁frustrating	-10.3885
▁palpable	-10.3885
▁preferences	-10.3885
▁toxic	-10.3886
Ch	-10.3889
▁Once	-10.3896
▁celebrated	-10.3897
▁wood	-10.3898
ional	-10.3903
▁(25	-10.3905
▁respected	-10.3906
▁inspired	-10.3908
▁alien	-10.391
▁rarely	-10.3915
▁unlike	-10.3918
▁partnership	-10.3918
▁arrived	-10.3924
▁adults	-10.3924
▁40	-10.3925
▁gags	-10.3931
▁28	-10.3934
▁District	-10.3953
▁explanation	-10.3953
▁flourish	-10.3953
▁mathematics	-10.3953
▁pioneer	-10.3953
▁embrac	-10.3954
▁indicat	-10.3954
▁none	-10.3959
▁guide	-10.396
▁poly	-10.3965
▁motivations	-10.3969
▁suddenly	-10.3975
▁2007	-10.3977
▁airport	-10.3979
ita	-10.3985
lly	-10.3986
▁belong	-10.3993
▁purchase	-10.3998
▁disconnected	-10.3998
▁apparently	-10.4
▁authorities	-10.4002
▁Egyptian	-10.4006
ake	-10.4008
▁Kong	-10.4008
▁gene	-10.4009
▁borders	-10.401
Z	-10.4011
▁corner	-10.4019
SE	-10.402
▁studio	-10.4021
▁relief	-10.4021
▁hunt	-10.4021
▁ties	-10.4031
▁trial	-10.4042
▁Initially	-10.4044
▁mathematical	-10.4044
▁narrow	-10.4044
▁remote	-10.4044
▁foremost	-10.4044
onym	-10.4047
▁Ann	-10.405
▁minute	-10.4057
67	-10.4061
▁dull	-10.4063
▁programming	-10.4067
▁busy	-10.4069
▁staff	-10.407
▁Have	-10.4073
iness	-10.4079
!"	-10.408
▁inner	-10.4082
▁Ram	-10.4083
▁criminal	-10.4089
▁superficial	-10.4089
▁Cri	-10.409
▁2005	-10.4091
▁chain	-10.4093
56	-10.4093
▁indicate	-10.4094
▁brush	-10.4099
▁evolve	-10.41
▁universal	-10.4112
▁chair	-10.4115
▁inspiring	-10.4116
▁lifestyle	-10.4117
▁happening	-10.4128
relied	-10.4135
▁Social	-10.4136
▁exclusive	-10.4136
read	-10.4137
▁informed	-10.4143
stitut	-10.4149
▁treated	-10.4155
▁circle	-10.4159
▁views	-10.4162
cut	-10.4165
▁Good	-10.4165
▁Why	-10.4172
▁Cro	-10.418
▁barely	-10.4182
▁intentions	-10.419
▁celebrate	-10.4192
▁2004	-10.4206
vil	-10.4214
▁considerable	-10.4215
▁define	-10.4216
▁examin	-10.4219
Man	-10.4224
▁convince	-10.4228
▁nerve	-10.4229
▁quant	-10.4231
▁hotel	-10.4235
kar	-10.4237
▁write	-10.4241
▁agriculture	-10.4251
▁contrived	-10.4251
▁underwhelmed	-10.4251
▁disaster	-10.4251
▁trail	-10.4252
cap	-10.4261
▁studied	-10.4275
▁opposition	-10.4275
▁transfer	-10.4275
▁below	-10.4277
ivity	-10.428
nger	-10.4284
▁Asian	-10.4284
27	-10.4287
▁reforms	-10.429
▁painful	-10.4291
▁colors	-10.4292
▁disciplines	-10.4297
▁arrangement	-10.4298
▁globe	-10.4298
▁Before	-10.4298
▁divine	-10.4298
▁strict	-10.4298
▁rude	-10.4299
▁executive	-10.4299
wan	-10.4303
last	-10.4303
▁marine	-10.4303
▁humanity	-10.4305
used	-10.431
▁prior	-10.4315
▁vessel	-10.4322
▁drag	-10.4322
▁civilizations	-10.4322
finite	-10.4323
▁Directed	-10.4334
▁differ	-10.434
▁eating	-10.4341
▁champion	-10.4344
▁fishing	-10.4344
▁resid	-10.4344
▁Service	-10.4345
▁qualities	-10.4345
▁sweet	-10.4345
▁website	-10.4345
-19	-10.4345
▁2013	-10.4348
▁credits	-10.4348
▁pack	-10.4355
▁Mont	-10.4356
related	-10.4361
▁Republican	-10.4362
RA	-10.4364
ax	-10.4364
▁Jane	-10.4365
▁organized	-10.4365
▁apologized	-10.4367
▁Frank	-10.4369
▁workers	-10.4369
▁producer	-10.4369
shire	-10.437
▁Pol	-10.4372
▁tip	-10.4375
▁semi	-10.4378
▁quick	-10.4389
▁survival	-10.4392
▁complicated	-10.4404
count	-10.4409
▁attempted	-10.4413
standing	-10.4415
▁database	-10.4416
▁afraid	-10.4416
▁rival	-10.4416
▁ranging	-10.4416
RE	-10.4418
▁application	-10.4419
▁beat	-10.4422
▁inform	-10.4426
07	-10.4431
bert	-10.4433
bon	-10.4434
▁arch	-10.4439
fall	-10.444
ula	-10.4443
▁Va	-10.4444
▁temp	-10.4448
▁entertain	-10.4448
itarian	-10.445
▁hearing	-10.4454
▁strange	-10.4457
▁drawing	-10.4462
▁exercise	-10.4464
▁predominant	-10.4464
▁underwhelming	-10.4464
▁chat	-10.4464
▁fourth	-10.4465
▁2002	-10.4465
▁aunt	-10.4466
▁biological	-10.4466
▁leg	-10.447
▁edition	-10.4475
bol	-10.4477
▁army	-10.4481
phon	-10.4485
▁forget	-10.4486
▁vehicle	-10.4488
▁painting	-10.4489
▁incorporat	-10.4491
▁Region	-10.4498
▁pushing	-10.4504
paced	-10.4509
▁jealous	-10.4512
▁understood	-10.4512
▁reserve	-10.4512
▁sitting	-10.4512
▁Ly	-10.4518
▁speaking	-10.4519
52	-10.4522
lov	-10.4525
▁accident	-10.4534
2)	-10.4538
▁transform	-10.4539
▁capable	-10.4541
▁cel	-10.4543
▁ecosystems	-10.4552
▁Later	-10.4555
▁expert	-10.4556
ime	-10.4557
▁improvement	-10.4559
▁implications	-10.456
▁complements	-10.456
▁san	-10.4561
▁dialects	-10.4563
▁upper	-10.4564
57	-10.4571
▁impress	-10.4574
▁engine	-10.4577
▁volume	-10.4584
▁ethical	-10.4584
non	-10.4585
▁affecting	-10.4588
▁disagreement	-10.4589
OR	-10.4589
yard	-10.4598
▁endeavors	-10.4599
▁unable	-10.4601
▁Mari	-10.4603
▁accolades	-10.4608
▁prison	-10.4608
▁shortcomings	-10.4608
▁THE	-10.4608
▁compound	-10.4609
▁pride	-10.461
▁reform	-10.4612
▁satisfying	-10.4632
▁psychological	-10.4632
▁Jones	-10.4635
▁boring	-10.4638
▁shut	-10.4638
▁begins	-10.4642
▁momentum	-10.4647
▁measure	-10.4651
▁UN	-10.4653
▁rapid	-10.4654
grad	-10.4654
▁glimpse	-10.4656
▁imaginative	-10.4656
▁Please	-10.4656
▁cancel	-10.4659
▁spin	-10.4668
▁See	-10.4672
▁affairs	-10.4673
▁Hindu	-10.4681
▁Club	-10.4684
▁tap	-10.4689
▁highlighting	-10.4697
▁tear	-10.4697
▁Hol	-10.4698
0%	-10.47
▁cohesive	-10.4705
▁banter	-10.4705
▁publishing	-10.4705
▁1998	-10.471
▁regime	-10.4718
TA	-10.4719
▁overreacting	-10.4729
▁floor	-10.473
▁2009	-10.4731
▁hanging	-10.4741
▁heighten	-10.4743
▁journal	-10.4747
▁Mexico	-10.4754
▁horrible	-10.4754
▁survive	-10.4754
▁Mountain	-10.4754
▁resolve	-10.4755
▁regulations	-10.4756
▁lend	-10.4765
▁closer	-10.4769
▁consumer	-10.477
▁featured	-10.4777
▁Constitution	-10.4779
▁fashion	-10.4779
▁memories	-10.4779
▁tight	-10.4779
load	-10.4784
▁awards	-10.4786
▁neuro	-10.4798
▁gather	-10.4799
▁predict	-10.48
▁Yu	-10.4803
▁matches	-10.4803
▁Research	-10.4803
▁Zealand	-10.4803
▁invasion	-10.4803
▁covered	-10.4803
▁operating	-10.4804
▁granted	-10.4804
▁bedroom	-10.4804
TV	-10.4806
rop	-10.4806
▁Anyway	-10.4807
▁Stra	-10.481
who	-10.481
vic	-10.4811
▁**	-10.4812
Th	-10.4812
▁stable	-10.482
▁editing	-10.4821
▁classes	-10.4825
▁intimacy	-10.4828
▁carbon	-10.483
▁delivered	-10.4844
Co	-10.4846
▁apparent	-10.485
▁port	-10.4852
omy	-10.4852
▁precise	-10.4853
▁housing	-10.4853
▁enhanced	-10.4856
▁revolutioniz	-10.4857
▁BCE	-10.486
▁remaining	-10.4862
▁Hong	-10.4862
liners	-10.4873
omb	-10.4874
▁Thomas	-10.4877
▁closure	-10.4877
▁hidden	-10.4877
▁hall	-10.4878
▁discussion	-10.4879
▁inclusive	-10.488
▁awarded	-10.4882
▁sto	-10.489
▁shocked	-10.489
▁scared	-10.4894
▁Za	-10.4897
▁Year	-10.4898
▁distinguish	-10.4899
▁appreciation	-10.4902
▁historian	-10.4902
▁venture	-10.4902
▁blame	-10.4903
28	-10.4911
▁notion	-10.4912
▁passing	-10.4916
▁invite	-10.4917
▁UK	-10.4918
▁Plan	-10.492
AR	-10.4921
▁spann	-10.4922
▁sum	-10.4923
▁fate	-10.4927
▁depend	-10.4927
▁Valley	-10.4928
**	-10.4934
▁gang	-10.4943
▁Arabic	-10.4944
friend	-10.4946
▁authentic	-10.4947
▁ring	-10.4949
▁Street	-10.4952
▁anticipated	-10.496
zan	-10.4963
power	-10.4976
nie	-10.4977
▁situated	-10.4977
▁monitor	-10.4977
▁extent	-10.4978
▁steal	-10.4978
▁Brown	-10.4979
48	-10.4981
▁admitted	-10.4983
▁subtle	-10.4983
▁stereotypes	-10.4985
43	-10.4992
▁reported	-10.4992
▁handled	-10.4992
▁pattern	-10.5001
cker	-10.5001
▁refreshing	-10.5002
▁descend	-10.5002
▁skillfully	-10.5003
▁latter	-10.5005
worthy	-10.5009
***	-10.5017
▁improving	-10.5028
▁politician	-10.5028
▁yourself	-10.5028
▁trauma	-10.5028
▁2003	-10.5029
mann	-10.503
▁Set	-10.5046
meter	-10.5052
▁dominant	-10.5053
▁retain	-10.5053
▁internet	-10.5053
▁dear	-10.5056
▁undeniabl	-10.5058
▁entertained	-10.5059
▁stock	-10.5062
▁inspiration	-10.5078
▁applied	-10.5078
▁expertly	-10.5081
▁fat	-10.5103
▁Department	-10.5104
▁transmission	-10.5104
▁Emily	-10.5104
▁legendary	-10.5106
▁bird	-10.5106
▁del	-10.5108
▁hurtful	-10.5119
▁bustling	-10.5129
▁chapter	-10.5129
▁scenario	-10.5129
▁Dar	-10.514
blo	-10.5141
▁recorded	-10.5142
▁surprised	-10.5149
▁earning	-10.515
▁definition	-10.5155
▁organisms	-10.5155
▁kiss	-10.5156
mount	-10.5159
▁undermine	-10.5168
▁exhaust	-10.518
▁infection	-10.518
▁Kha	-10.5182
▁interview	-10.5182
▁embrace	-10.5185
▁cheating	-10.5187
▁Wood	-10.5189
▁proved	-10.5189
▁fantastic	-10.5198
▁Max	-10.5204
world	-10.5204
▁Israel	-10.5206
▁monster	-10.5206
▁laughing	-10.5216
▁clothes	-10.5231
▁crazy	-10.5231
53	-10.5232
logical	-10.5238
▁regardless	-10.524
▁alter	-10.5247
▁cancer	-10.5256
▁Google	-10.5257
▁chief	-10.5257
▁Center	-10.5257
▁Green	-10.5258
▁carried	-10.5258
▁centre	-10.5258
▁constructed	-10.526
▁blow	-10.5264
▁placed	-10.5267
▁finished	-10.5269
rounded	-10.5276
▁Sar	-10.5277
▁correspond	-10.5283
▁overwhelmed	-10.5283
▁vulnerability	-10.5283
▁Vo	-10.5289
▁Holy	-10.5291
▁Book	-10.5294
▁strongly	-10.5298
▁secondary	-10.53
▁lock	-10.5301
Consequently	-10.5309
▁Recogniz	-10.5309
▁medicine	-10.5309
▁attended	-10.5311
hel	-10.5311
▁mode	-10.5314
▁Sir	-10.5319
▁functional	-10.5323
miss	-10.5332
▁unnecessarily	-10.5335
▁vacation	-10.5335
▁Two	-10.5335
▁somehow	-10.5343
!!!	-10.5353
aught	-10.5355
▁Greece	-10.5361
▁royal	-10.5361
BC	-10.5361
▁plain	-10.5361
connect	-10.5362
▁stuck	-10.5368
▁refuse	-10.5378
▁inhabited	-10.5386
▁rugby	-10.5387
▁inhabitants	-10.5387
59	-10.5393
▁pose	-10.5395
▁walking	-10.5401
51	-10.5404
▁adopt	-10.5406
▁empathy	-10.5413
▁trigger	-10.5414
▁Albert	-10.5416
▁hill	-10.5419
▁coverage	-10.5421
▁clichés	-10.5427
gro	-10.5428
▁completed	-10.5438
▁Nevertheless	-10.544
▁fascinating	-10.544
▁repetitive	-10.544
▁scream	-10.544
found	-10.5445
▁distribut	-10.5457
▁physically	-10.5461
▁burn	-10.5464
▁Commission	-10.5466
▁Ottoman	-10.5466
▁prominence	-10.5466
▁wrestling	-10.5466
▁intervention	-10.5466
▁promised	-10.5471
ously	-10.5475
▁studying	-10.5477
▁thin	-10.5477
▁principle	-10.5482
▁continent	-10.5484
though	-10.5487
▁instrumental	-10.5488
▁annoying	-10.5492
▁autonomy	-10.5492
▁plenty	-10.5492
▁summary	-10.5492
▁formidable	-10.5492
▁debt	-10.5493
▁assistance	-10.5494
▁grant	-10.5496
roll	-10.5497
▁implement	-10.5509
▁Arm	-10.5514
ppy	-10.5517
▁desperate	-10.5518
▁impeccable	-10.5519
ifying	-10.552
▁gf	-10.5536
▁focusing	-10.5537
▁occasional	-10.5543
▁conference	-10.5545
▁earliest	-10.5545
▁kilometers	-10.5545
▁phenomena	-10.5545
▁Francis	-10.5545
▁outdoor	-10.5545
▁convert	-10.5546
▁forgive	-10.5547
▁Out	-10.5548
▁ill	-10.555
▁lit	-10.5551
▁geographical	-10.5563
▁anger	-10.5568
▁gold	-10.5571
▁Visually	-10.5572
▁barrier	-10.5572
▁commentary	-10.5579
▁Free	-10.5581
▁owner	-10.5591
▁supernatural	-10.5598
▁switch	-10.5598
▁victory	-10.5598
▁drunk	-10.5599
▁segment	-10.5599
coming	-10.56
▁tourism	-10.56
▁rapidly	-10.5601
▁assumed	-10.5603
▁Life	-10.5605
▁campus	-10.5608
▁struggled	-10.5611
▁detailed	-10.5618
▁implemented	-10.5626
▁assist	-10.5628
▁loose	-10.5628
osis	-10.5645
▁undeniable	-10.5647
▁sudden	-10.5652
▁Committee	-10.5652
▁disrespectful	-10.5652
▁welcome	-10.5652
▁electronic	-10.5653
eight	-10.5655
▁31	-10.5655
lop	-10.5662
▁tune	-10.5663
▁costumes	-10.5667
▁maintained	-10.5667
▁1991	-10.5679
▁procedure	-10.5679
▁surprising	-10.5679
▁Releas	-10.5679
▁homo	-10.5679
▁Er	-10.5682
▁monarch	-10.5683
▁secur	-10.5683
▁awareness	-10.5683
▁Lee	-10.5685
▁equality	-10.5689
▁Tim	-10.5694
▁affection	-10.5695
▁Tar	-10.5704
▁ocean	-10.5706
▁sharp	-10.5706
▁solidified	-10.5708
▁massive	-10.5711
▁fill	-10.5719
▁chose	-10.572
▁peaceful	-10.5722
▁ambitious	-10.5733
▁competitive	-10.5733
▁equipment	-10.5733
▁fricative	-10.5733
▁silly	-10.5733
▁temple	-10.5736
▁uneven	-10.5739
▁Die	-10.574
▁selection	-10.5741
▁measurement	-10.5743
▁sail	-10.5751
▁Den	-10.5754
▁fought	-10.576
▁garden	-10.576
▁session	-10.576
▁span	-10.5762
▁assert	-10.5762
▁Bell	-10.5764
▁tract	-10.5765
▁focuses	-10.5765
▁combin	-10.5767
▁manager	-10.5769
▁Was	-10.5775
▁Ken	-10.5777
▁Tru	-10.5783
▁confess	-10.5787
▁recover	-10.5787
▁requirements	-10.5789
word	-10.5791
▁clash	-10.5793
pho	-10.5796
▁Bel	-10.5808
▁lover	-10.5808
▁disturb	-10.5814
▁inconsistent	-10.5814
▁reinforc	-10.5814
▁safeguard	-10.5814
▁ritual	-10.5814
▁attitude	-10.5815
▁Far	-10.5822
▁debut	-10.5827
▁Bank	-10.5832
▁verb	-10.5832
with	-10.5836
▁utilized	-10.5839
rum	-10.584
▁advocating	-10.5842
▁emerging	-10.5842
▁twice	-10.5842
▁trend	-10.5842
▁connecting	-10.5842
▁attractive	-10.5853
anda	-10.5858
▁destruction	-10.5869
▁transcend	-10.5869
▁smart	-10.5869
▁recreational	-10.5874
▁1999	-10.5874
▁realism	-10.5875
▁expanding	-10.5884
▁(24	-10.5885
▁Queen	-10.5897
▁burden	-10.5897
▁grandeur	-10.5897
▁glaring	-10.5897
▁sight	-10.5897
▁slave	-10.5898
▁financially	-10.5918
▁confusion	-10.5924
▁convincing	-10.5924
▁legislation	-10.5924
▁professor	-10.5924
▁suppress	-10.5924
▁Emma	-10.5924
▁29	-10.5925
▁label	-10.5927
▁bunch	-10.5928
▁Tro	-10.5933
▁sake	-10.5934
▁Due	-10.5935
▁fabric	-10.5952
▁protest	-10.5952
▁classification	-10.5954
▁signed	-10.596
75	-10.5978
▁Melbourne	-10.5979
▁convenient	-10.5979
▁intelligent	-10.5979
▁hype	-10.598
▁passport	-10.5981
▁voiceless	-10.5989
▁ahead	-10.5991
ground	-10.5992
▁killer	-10.6005
▁Atlantic	-10.6007
▁Bulgaria	-10.6007
▁artificial	-10.6007
▁prompt	-10.6008
▁observation	-10.6008
▁dropped	-10.6009
▁observed	-10.6009
▁graphic	-10.601
▁option	-10.6014
▁interpret	-10.6017
▁justified	-10.6018
▁fairly	-10.6018
▁Up	-10.602
och	-10.6025
▁excel	-10.6034
NA	-10.6035
▁aspirations	-10.6035
▁elicit	-10.6035
▁silent	-10.6035
▁Class	-10.6036
articulat	-10.6037
more	-10.6038
▁(28	-10.6039
▁(26	-10.6039
&	-10.604
▁passionate	-10.6044
▁performed	-10.6049
▁cash	-10.6053
▁absence	-10.6063
▁agencies	-10.6063
▁White	-10.6063
▁Edward	-10.6065
▁window	-10.6066
▁acclaim	-10.6066
▁hung	-10.6067
▁Ven	-10.6078
▁dimension	-10.6081
▁planet	-10.6082
▁cherish	-10.6091
agon	-10.6097
▁Native	-10.6103
▁SIL	-10.6104
fra	-10.6109
▁territorial	-10.6119
▁peak	-10.6122
▁1997	-10.6124
▁1930	-10.6131
▁replace	-10.6137
Ro	-10.6138
star	-10.6142
▁danger	-10.6142
▁regularly	-10.6142
west	-10.6142
▁Fran	-10.6144
▁accuracy	-10.6147
▁trading	-10.6147
▁Cambridge	-10.6147
▁Indonesia	-10.6147
26	-10.6163
ibility	-10.6169
▁flaw	-10.617
▁Scottish	-10.6177
▁Armenian	-10.618
▁MIL	-10.6181
▁jurisdiction	-10.6204
▁nostalgia	-10.6204
▁relax	-10.6204
▁articulation	-10.6204
▁acquired	-10.6212
▁Harry	-10.6214
list	-10.6217
▁squa	-10.6218
▁discussed	-10.6219
▁formulaic	-10.6222
▁socio	-10.6223
▁delivery	-10.623
▁ambition	-10.6232
▁lovable	-10.6232
▁Daniel	-10.6232
▁medium	-10.6233
▁dry	-10.6233
▁agency	-10.6233
▁Wales	-10.6233
▁Harris	-10.6236
▁classified	-10.6236
▁runtime	-10.6238
▁acted	-10.6247
▁Pra	-10.6252
▁governor	-10.6255
▁Ford	-10.6257
▁(3	-10.6258
▁Gil	-10.6259
▁Florida	-10.6261
▁stellar	-10.6261
▁album	-10.6261
▁coworker	-10.6261
▁stayed	-10.6263
▁restore	-10.6265
AFL	-10.6269
▁broken	-10.6276
EN	-10.6283
▁closed	-10.6285
▁crisis	-10.6289
▁Senate	-10.6289
▁select	-10.629
▁Championship	-10.629
▁electro	-10.6292
▁sale	-10.6295
▁angle	-10.6304
▁exact	-10.6317
▁physics	-10.6318
▁desperately	-10.6319
▁cry	-10.6322
▁Martin	-10.6327
▁civilian	-10.6336
▁claiming	-10.634
water	-10.6341
▁receiving	-10.6347
▁republic	-10.6347
▁voting	-10.6347
▁Coast	-10.6347
▁Cap	-10.6348
▁quo	-10.6349
▁heated	-10.6352
▁snap	-10.6361
dropping	-10.6361
▁Road	-10.6368
▁curiosity	-10.6376
▁disregard	-10.6376
▁expensive	-10.6376
▁rhythm	-10.6376
▁crew	-10.6376
▁complet	-10.6377
95	-10.6377
media	-10.6385
▁60	-10.6388
▁spoke	-10.6388
▁Cur	-10.6389
▁nine	-10.639
▁(30	-10.6396
▁legend	-10.6403
▁Little	-10.6405
▁amusing	-10.6405
▁accent	-10.6405
05	-10.6407
▁interaction	-10.6412
level	-10.6412
▁tense	-10.6412
maker	-10.6426
▁offensive	-10.6433
▁Cat	-10.6435
▁1992	-10.6439
letting	-10.645
▁castle	-10.6454
▁clichéd	-10.6458
▁Establish	-10.6463
▁philosopher	-10.6463
Ar	-10.6464
▁brilliantly	-10.6472
▁driven	-10.6478
▁engineer	-10.648
01	-10.648
▁evolving	-10.6481
▁Finally	-10.6481
▁Dam	-10.6483
worth	-10.6483
▁Korean	-10.6491
▁nostalgic	-10.6492
▁displayed	-10.651
ED	-10.6518
▁boast	-10.6519
ural	-10.652
▁opposite	-10.6521
▁universities	-10.6521
▁routine	-10.6521
▁fruit	-10.6521
▁norms	-10.6522
▁emphasized	-10.6529
▁usage	-10.6541
▁branches	-10.6543
▁cult	-10.6543
▁investigation	-10.655
▁crush	-10.655
85	-10.6579
▁principal	-10.658
▁lawyer	-10.6581
!!	-10.6594
▁billion	-10.6595
▁consideration	-10.6605
▁salvage	-10.6609
▁Group	-10.6609
▁chaos	-10.6609
▁Arch	-10.6609
▁logic	-10.661
▁firm	-10.6612
▁falling	-10.6613
▁1989	-10.6614
▁approaches	-10.6625
▁electric	-10.6627
▁grab	-10.6632
▁utiliz	-10.6634
▁Syria	-10.6635
AP	-10.6638
▁brutal	-10.6639
▁detached	-10.6639
▁hundred	-10.6639
▁racial	-10.6639
▁weather	-10.6639
▁discipline	-10.6641
▁luck	-10.6641
▁demanding	-10.6647
5%	-10.6661
▁shower	-10.6665
▁uncertain	-10.6666
▁Situat	-10.6669
▁meticulous	-10.6671
post	-10.6675
▁Big	-10.6677
▁Adam	-10.6679
▁controlling	-10.6683
▁entered	-10.669
care	-10.6691
▁managing	-10.6698
ING	-10.67
▁conducted	-10.6702
▁carefully	-10.6704
▁electrical	-10.6705
▁Count	-10.6705
▁Firstly	-10.6716
▁friendly	-10.6718
▁forever	-10.6726
▁Perhaps	-10.6728
▁undergo	-10.6729
▁peer	-10.673
avi	-10.6733
▁theories	-10.6734
▁personally	-10.6739
▁worship	-10.6758
98	-10.6764
▁guilt	-10.6765
▁humorous	-10.6785
▁creep	-10.6788
▁neighborhood	-10.6789
▁1993	-10.6793
▁discovery	-10.6798
▁convention	-10.6816
▁camaraderie	-10.6818
▁eliminat	-10.6818
▁Right	-10.6818
▁immediate	-10.6821
▁About	-10.6821
▁graduate	-10.6843
▁Netherlands	-10.6848
▁Orthodox	-10.6848
▁Similarly	-10.6848
▁draft	-10.6848
▁Seeking	-10.685
De	-10.6878
▁Standard	-10.6879
▁troops	-10.6879
▁explicit	-10.6879
▁venue	-10.6879
▁contest	-10.6879
▁horse	-10.688
▁texted	-10.6882
▁Chris	-10.6884
▁exception	-10.6886
▁overshadowed	-10.689
▁solidify	-10.6895
▁90	-10.6897
99	-10.6898
▁compris	-10.69
FC	-10.6901
▁Education	-10.6909
▁participant	-10.6909
▁stumble	-10.6909
▁unreasonable	-10.6909
▁versatility	-10.6909
▁drain	-10.6909
▁cro	-10.6921
▁skin	-10.6924
scale	-10.6928
step	-10.6929
▁Char	-10.6931
▁suck	-10.6939
▁Byzantine	-10.694
▁neither	-10.694
▁70	-10.6941
▁Unlike	-10.6941
87	-10.6956
▁Ten	-10.6962
▁operated	-10.6965
▁Eu	-10.6966
▁pursued	-10.6967
▁Assembly	-10.697
▁symptoms	-10.697
▁egg	-10.6974
▁suffered	-10.6976
itic	-10.6981
LA	-10.6986
▁assume	-10.6996
▁inappropriate	-10.7001
▁radical	-10.7001
▁inherent	-10.7001
▁drawback	-10.7002
print	-10.7004
▁instantly	-10.7012
▁progressive	-10.7016
▁armed	-10.7027
▁killing	-10.7029
▁sci	-10.7029
▁ice	-10.7029
▁monument	-10.7032
▁senior	-10.7032
▁therefore	-10.7032
▁spell	-10.7032
▁curve	-10.7035
▁colorful	-10.7035
▁journalist	-10.7036
▁distinguished	-10.7036
69	-10.7044
▁iron	-10.7059
troducing	-10.7062
▁alcohol	-10.7062
▁Federal	-10.7062
▁borrow	-10.7062
▁blind	-10.7062
IC	-10.7072
▁catchy	-10.7075
▁grace	-10.7076
▁respectful	-10.7077
▁acid	-10.7084
92	-10.7087
▁Long	-10.7089
▁Mediterranean	-10.7093
▁tapestry	-10.7093
▁Alexander	-10.7093
▁concert	-10.7093
▁milestone	-10.7093
▁nuanced	-10.7093
▁Kevin	-10.7094
▁van	-10.7107
08	-10.7111
68	-10.7117
servation	-10.7119
▁ghost	-10.7124
▁plate	-10.7126
▁Ban	-10.7127
▁failure	-10.7128
▁acceptance	-10.713
▁(27	-10.7131
▁Human	-10.7138
hara	-10.714
▁payment	-10.7144
▁Pen	-10.7151
▁organic	-10.7153
▁encouraging	-10.7156
▁dumb	-10.7156
▁poet	-10.7157
▁1994	-10.7161
▁slowly	-10.7172
ella	-10.7173
▁Emperor	-10.7187
▁spoil	-10.7187
▁premier	-10.7187
▁dishes	-10.7188
inter	-10.7189
rse	-10.719
phone	-10.7193
▁implementation	-10.7198
▁Carl	-10.7198
under	-10.721
No	-10.7214
▁alphabet	-10.7218
▁Known	-10.7218
▁shopping	-10.7219
▁Georgia	-10.722
▁1940	-10.7228
▁detect	-10.7229
▁shop	-10.723
▁lying	-10.7231
▁opera	-10.7234
▁demonstrate	-10.7237
pounding	-10.7238
76	-10.7239
estial	-10.7239
▁install	-10.7244
▁cheated	-10.7246
▁folk	-10.725
▁sky	-10.725
▁frequent	-10.7254
ographic	-10.727
▁device	-10.7275
ique	-10.7278
▁confirm	-10.7281
▁flirt	-10.7281
▁demonstrat	-10.7299
▁Music	-10.73
▁map	-10.7308
▁permanent	-10.7313
▁courage	-10.7313
▁adjust	-10.7313
▁boat	-10.732
▁insult	-10.7327
58	-10.7328
▁plane	-10.7329
▁sand	-10.7335
▁Ze	-10.7339
▁Mike	-10.7343
▁magazine	-10.7345
▁crowd	-10.7345
▁enrich	-10.7346
ME	-10.7347
▁employment	-10.7352
▁Gri	-10.7353
▁constitutional	-10.7364
▁wearing	-10.7373
▁coordinate	-10.7376
▁insecurities	-10.7376
▁insurance	-10.7376
▁Serbia	-10.7378
▁prime	-10.7378
▁winning	-10.7379
▁wake	-10.7382
▁kinda	-10.7384
89	-10.7387
▁items	-10.7392
▁phonetic	-10.7394
▁Who	-10.7394
▁Bob	-10.7404
▁Van	-10.7405
▁insecure	-10.7408
▁invaluable	-10.7408
La	-10.741
▁dominate	-10.7412
person	-10.7415
93	-10.742
▁Pope	-10.742
▁Berlin	-10.7421
▁Stone	-10.7423
▁shame	-10.7442
▁1995	-10.7447
▁subsequently	-10.7454
▁Victoria	-10.7456
▁attending	-10.7457
TH	-10.7459
96	-10.7466
▁bathroom	-10.7473
▁inclusion	-10.7473
▁suspect	-10.7473
▁Brazil	-10.7473
▁Tamil	-10.7473
▁translate	-10.7474
rich	-10.7474
▁Ji	-10.7477
▁Order	-10.7482
BS	-10.75
▁monarchy	-10.75
western	-10.7501
▁firmly	-10.7502
▁controversial	-10.7505
▁discourse	-10.7505
▁exaggerated	-10.7505
▁manufacturing	-10.7505
▁vulnerable	-10.7505
▁cartoon	-10.7505
you	-10.7508
▁terror	-10.7509
▁Bir	-10.7516
▁belonging	-10.7519
▁bag	-10.7527
▁nephew	-10.7537
▁tropes	-10.7537
▁chart	-10.7555
▁sustain	-10.7565
▁trace	-10.7568
▁restrict	-10.7569
occupied	-10.757
▁Province	-10.757
▁yesterday	-10.757
▁steam	-10.757
▁mild	-10.7575
▁grade	-10.7578
▁utilize	-10.7578
▁launch	-10.7581
▁rush	-10.7582
▁VI	-10.7583
▁stem	-10.7596
▁accomplish	-10.7602
▁tissue	-10.7602
▁duration	-10.7602
▁Your	-10.7604
▁delight	-10.7604
▁Super	-10.7609
▁reporting	-10.761
▁Best	-10.7612
cultural	-10.7622
63	-10.7623
▁unless	-10.7623
▁distinction	-10.7626
▁characteristic	-10.7628
▁geometry	-10.7635
▁ourselves	-10.7635
▁producing	-10.7635
▁suitable	-10.7642
▁Sri	-10.7647
▁cooking	-10.7663
▁Protestant	-10.7668
▁appointment	-10.7668
▁arrival	-10.7668
▁martial	-10.7668
▁anxious	-10.7668
▁Airport	-10.7669
▁Sunday	-10.7671
▁clinic	-10.7672
▁transformed	-10.7675
06	-10.7675
▁documentary	-10.7676
▁rating	-10.7685
▁incorporated	-10.7696
▁Texas	-10.7701
▁welfare	-10.7701
▁violent	-10.7701
▁Home	-10.7702
▁linger	-10.7708
Al	-10.7709
!)	-10.7709
▁suffering	-10.7723
▁embraced	-10.7725
▁arguing	-10.7734
▁maritime	-10.7734
▁Did	-10.7735
▁crossed	-10.7739
▁wooden	-10.7742
▁fantastical	-10.7743
97	-10.776
▁Mel	-10.7761
▁cleverly	-10.7762
▁stronger	-10.7764
▁identified	-10.7767
▁committee	-10.7767
▁polite	-10.7767
▁ordinary	-10.7767
▁utterly	-10.7767
▁nasal	-10.7769
▁Jackson	-10.7772
▁wisdom	-10.78
▁depression	-10.78
▁Night	-10.78
▁lunch	-10.78
▁alliance	-10.78
▁dangerous	-10.7807
▁(23	-10.7819
ndra	-10.7823
▁corporation	-10.7833
▁exclud	-10.7833
▁Feeling	-10.7833
▁soft	-10.7833
88	-10.7839
▁Bea	-10.7844
▁bored	-10.7845
away	-10.7846
▁poll	-10.7847
▁proud	-10.7848
▁Romania	-10.7853
▁phenomenon	-10.7867
▁traffic	-10.7867
▁smile	-10.7867
▁cement	-10.7867
▁adoption	-10.7875
▁adapted	-10.7882
▁teach	-10.7883
▁removed	-10.7891
▁apply	-10.7891
▁ticket	-10.79
▁Land	-10.7901
▁Nu	-10.7918
face	-10.7919
▁pool	-10.7923
▁sym	-10.7927
▁broadcasting	-10.7928
▁observe	-10.7932
▁Supreme	-10.7934
▁legislative	-10.7934
▁defining	-10.7934
▁arrest	-10.7934
▁Rather	-10.794
▁unknown	-10.7941
▁editor	-10.7943
▁cord	-10.7948
▁responded	-10.7956
▁(22	-10.7958
▁yearning	-10.7959
▁selected	-10.7963
▁caricature	-10.7968
▁satellite	-10.7968
▁betrayed	-10.7968
▁proportion	-10.7968
▁reflection	-10.7968
▁Health	-10.7969
▁Office	-10.7971
▁Indo	-10.7973
▁Oh	-10.7977
▁technique	-10.7987
hard	-10.7989
▁assess	-10.7999
▁accommodate	-10.8002
▁conservative	-10.8002
▁coherent	-10.8002
▁innocent	-10.8002
▁wildlife	-10.8002
▁crap	-10.8014
▁ruled	-10.8015
▁scholarly	-10.8019
▁rejected	-10.8021
NE	-10.8025
▁choreographed	-10.8033
▁experiencing	-10.8036
▁treasure	-10.8036
▁distress	-10.8036
▁entry	-10.8036
▁sustainability	-10.8037
▁Bengal	-10.8037
▁Division	-10.8038
iya	-10.804
▁Joe	-10.8041
gie	-10.8058
▁respectively	-10.8068
▁brilliance	-10.807
▁participation	-10.807
▁renewable	-10.807
▁niece	-10.807
▁entity	-10.8071
▁boundary	-10.8072
78	-10.8075
▁audio	-10.8078
▁reject	-10.8086
▁skilled	-10.8092
▁elaborate	-10.8104
▁Captain	-10.8104
▁lush	-10.8104
▁limitations	-10.8107
▁diet	-10.8111
03	-10.8126
stream	-10.8126
discovery	-10.8128
▁settled	-10.8131
▁Port	-10.8133
▁Railway	-10.8138
▁discomfort	-10.8138
▁kitchen	-10.8138
▁occupation	-10.8138
▁priest	-10.8139
▁entities	-10.8139
▁psycho	-10.8139
▁mentor	-10.8141
▁Gen	-10.8142
▁revolutionary	-10.8142
▁Zo	-10.8153
94	-10.8153
▁boss	-10.8169
▁emerge	-10.8173
▁Governor	-10.8173
▁absurd	-10.8173
▁analyze	-10.8173
▁possibility	-10.8173
▁hip	-10.819
▁walked	-10.82
▁alive	-10.82
▁acclaimed	-10.8204
ific	-10.8206
▁Jordan	-10.8207
▁explosion	-10.8207
▁virtual	-10.8207
▁mobile	-10.8207
▁mysterious	-10.8207
▁Amy	-10.821
46	-10.8215
300	-10.8226
▁electoral	-10.8242
▁glass	-10.8242
style	-10.8243
▁jaw	-10.8245
ancy	-10.8248
▁earth	-10.8255
▁string	-10.8262
▁charged	-10.8263
▁thriving	-10.8277
▁flawlessly	-10.8277
▁Lewis	-10.8277
▁Croatia	-10.8278
▁plus	-10.8278
▁pilot	-10.8279
▁bright	-10.8284
generated	-10.8285
▁thoroughly	-10.8287
▁load	-10.8299
RO	-10.8301
▁revolution	-10.8303
crafted	-10.8304
everal	-10.8308
▁(21	-10.831
hop	-10.831
▁annoyed	-10.8312
▁faculty	-10.8312
▁marvel	-10.8313
▁storm	-10.8313
mitted	-10.8314
▁journalism	-10.8318
▁Prime	-10.834
▁democracy	-10.8347
▁explosive	-10.8347
▁teeth	-10.8347
▁Angeles	-10.8355
▁rain	-10.8356
▁latest	-10.8367
quality	-10.8371
86	-10.8376
▁recognizing	-10.8382
▁Lanka	-10.8383
▁civilization	-10.8385
▁essentially	-10.8386
▁Cam	-10.8388
▁ear	-10.8389
▁continuous	-10.8391
04	-10.8409
gna	-10.8414
▁loan	-10.8415
▁revenue	-10.8418
▁compensate	-10.8418
▁Hello	-10.8418
▁enthusiast	-10.8418
▁notably	-10.8419
▁provision	-10.8421
itz	-10.8423
von	-10.8434
▁properly	-10.8435
▁nuance	-10.8453
▁System	-10.8453
▁climax	-10.8453
▁favour	-10.8453
▁fierce	-10.8453
▁fifth	-10.8453
▁declared	-10.8453
▁conventional	-10.8455
▁decade	-10.8456
▁Creek	-10.8456
▁perception	-10.8456
▁bigger	-10.8458
▁1987	-10.846
▁sentence	-10.846
cellular	-10.8462
▁superb	-10.8479
▁quest	-10.8481
after	-10.8483
name	-10.8487
▁pregnancy	-10.8489
▁temporary	-10.8489
▁turmoil	-10.8489
▁clarity	-10.8489
▁yelling	-10.8489
▁vivid	-10.8489
▁ruling	-10.8489
▁emergence	-10.8489
▁fur	-10.8496
▁Sho	-10.85
▁corona	-10.8509
▁successor	-10.8515
▁confrontation	-10.8516
▁flu	-10.852
77	-10.8522
sexual	-10.8524
▁precision	-10.8524
▁cheese	-10.8524
▁Radio	-10.8525
▁Lately	-10.8525
▁scholarship	-10.8525
▁Hav	-10.8534
▁Vol	-10.8535
▁cable	-10.8542
Re	-10.855
IN	-10.8554
79	-10.8557
▁Ukraine	-10.856
▁corporate	-10.856
▁pursuing	-10.856
▁unconvincing	-10.856
▁jerk	-10.856
▁Anna	-10.8571
▁Nazi	-10.858
American	-10.859
bri	-10.86
▁Matt	-10.8603
▁marry	-10.8604
▁teenager	-10.8618
path	-10.8629
▁noble	-10.8631
▁abundant	-10.8632
▁lecture	-10.8632
09	-10.8638
▁ultimate	-10.8641
▁oversee	-10.8649
▁Shan	-10.865
▁continuously	-10.866
▁poverty	-10.8669
▁Public	-10.8669
▁comparison	-10.8669
▁renamed	-10.8669
▁bishop	-10.8669
▁client	-10.867
▁suburb	-10.8671
47	-10.8673
▁Story	-10.8675
▁Earl	-10.8683
49	-10.8692
▁loyal	-10.8703
▁Corporation	-10.8705
▁chronic	-10.8705
conscious	-10.8706
▁tenure	-10.8713
CE	-10.8713
made	-10.8713
▁ecosystem	-10.8716
▁indeed	-10.8718
▁revealed	-10.8724
▁fixed	-10.8724
▁Virginia	-10.8728
▁Euro	-10.8731
84	-10.8734
▁category	-10.8741
▁dollar	-10.8742
▁furious	-10.8742
▁transformative	-10.8743
▁employee	-10.8745
▁profit	-10.8747
▁Anti	-10.8748
gger	-10.875
▁porn	-10.875
▁fake	-10.8752
▁gay	-10.8756
aire	-10.8765
▁consumption	-10.8778
▁infectious	-10.8778
▁nurturing	-10.8778
hur	-10.8782
▁musicians	-10.8789
profit	-10.881
▁controlled	-10.8811
free	-10.8815
rchaeological	-10.8815
▁neutral	-10.8815
▁confidence	-10.8815
▁masterfully	-10.8816
82	-10.882
later	-10.882
▁percent	-10.8821
▁Such	-10.8832
▁equipped	-10.8852
▁exposure	-10.8852
▁prevalent	-10.8852
▁Turkey	-10.8852
▁delv	-10.8859
▁minority	-10.8864
▁emergency	-10.8889
▁rollercoaster	-10.8889
▁refusing	-10.8889
▁quarter	-10.8889
▁robust	-10.8889
▁repair	-10.8889
▁regain	-10.8889
▁winter	-10.89
▁Pakistan	-10.8926
▁attached	-10.8926
▁warfare	-10.8926
▁cheer	-10.8928
▁corruption	-10.8929
utter	-10.8932
▁ratio	-10.8936
▁Jake	-10.8943
▁encouraged	-10.8946
century	-10.8959
▁fragment	-10.8963
▁density	-10.8963
▁error	-10.8963
▁Batman	-10.8963
▁thrown	-10.8967
▁fiance	-10.8968
▁collaborate	-10.897
▁Gold	-10.8979
▁Chan	-10.8979
▁bound	-10.8995
kov	-10.8995
zar	-10.8998
▁Switzerland	-10.9001
▁shadow	-10.9001
▁investigate	-10.9001
▁originated	-10.9002
▁designated	-10.9019
▁Four	-10.903
cell	-10.9034
▁compassion	-10.9035
▁Scott	-10.9036
▁Elizabeth	-10.9038
▁cheesy	-10.9038
▁devastating	-10.9038
▁disappear	-10.9038
▁raising	-10.9038
▁tedious	-10.9038
▁rational	-10.9039
▁embody	-10.904
just	-10.9048
▁deriv	-10.9066
▁transmit	-10.9075
▁Caribbean	-10.9076
▁equivalent	-10.9076
▁underwent	-10.9076
▁pleasure	-10.9076
▁Film	-10.9076
▁Water	-10.9077
▁generic	-10.9077
▁municipality	-10.9081
wick	-10.9083
uv	-10.9086
▁flavor	-10.9114
▁clarify	-10.9114
▁gesture	-10.9114
▁knock	-10.9114
▁visible	-10.9114
▁insisted	-10.9114
▁culminat	-10.9115
02	-10.9118
▁feast	-10.9122
where	-10.9127
▁prioritiz	-10.9128
▁escalated	-10.9135
▁Buddhist	-10.9152
▁attributed	-10.9152
▁frequency	-10.9152
▁poignant	-10.9152
▁prosperity	-10.9152
▁proximity	-10.9152
▁rigorous	-10.9152
▁immune	-10.9152
▁license	-10.9152
▁composer	-10.9152
▁divide	-10.9154
▁declined	-10.9156
▁Hard	-10.9159
▁resist	-10.916
▁carries	-10.9161
▁sentimental	-10.917
▁noise	-10.9183
called	-10.9189
▁Columbia	-10.919
▁sphere	-10.919
▁resonance	-10.919
building	-10.919
▁medication	-10.919
▁Sky	-10.9191
▁dragged	-10.9191
▁mature	-10.9191
▁minister	-10.9192
▁integrated	-10.9207
▁examination	-10.9208
▁Jr	-10.9218
▁Philippine	-10.9228
▁Windows	-10.9228
▁imagery	-10.924
▁vice	-10.9255
▁magnificent	-10.9267
▁Which	-10.9267
▁Yo	-10.9267
▁Add	-10.9268
▁winner	-10.9271
▁lady	-10.9278
▁perceived	-10.928
▁rub	-10.9283
▁participated	-10.929
▁reasonable	-10.9297
▁dialect	-10.93
▁deploy	-10.9305
▁biodiversity	-10.9305
▁perpetuat	-10.9305
▁Andrew	-10.9306
▁Where	-10.9306
▁More	-10.9316
▁extract	-10.9317
▁mum	-10.9327
speaking	-10.9343
▁Santa	-10.9343
▁library	-10.9344
▁sculpture	-10.9344
▁easier	-10.9344
▁desert	-10.9345
▁thereby	-10.9345
▁Spring	-10.935
▁1982	-10.935
▁1920	-10.9369
▁End	-10.9376
▁difficulties	-10.9381
▁resentment	-10.9383
▁revelation	-10.9383
▁liberal	-10.9383
▁aftermath	-10.9383
▁steel	-10.9383
▁revered	-10.9384
ologies	-10.9385
▁enforcement	-10.9386
▁ease	-10.9393
▁finger	-10.9397
▁cute	-10.9411
▁Love	-10.9418
▁creature	-10.9421
▁Economic	-10.9422
▁Joseph	-10.9422
▁entitled	-10.9422
▁jazz	-10.9422
▁hint	-10.9422
▁Mongol	-10.9423
▁settlers	-10.9424
▁Power	-10.9426
▁revolv	-10.9429
▁Brad	-10.9435
▁meters	-10.9443
▁overshadow	-10.9447
relationship	-10.9461
▁coherence	-10.9461
▁Denmark	-10.9462
oriented	-10.9469
▁1975	-10.9469
▁Golden	-10.9472
fact	-10.9489
▁participating	-10.9501
▁separation	-10.9501
▁undergraduate	-10.9501
▁Ancient	-10.9501
▁parallel	-10.9501
▁exposed	-10.9501
▁Movie	-10.9501
friendly	-10.9504
▁1988	-10.9507
▁weigh	-10.9508
▁chill	-10.9513
▁plea	-10.9525
▁churches	-10.954
▁Throwaway	-10.954
▁devastated	-10.954
▁Three	-10.954
▁crown	-10.9541
▁1984	-10.9546
▁strip	-10.9547
▁bull	-10.956
corp	-10.9578
▁privilege	-10.958
▁transparency	-10.958
▁vampire	-10.958
▁mythology	-10.958
▁thick	-10.958
▁keen	-10.9581
▁letdown	-10.9585
▁Gene	-10.9592
▁cul	-10.9604
▁Jean	-10.9605
▁(32	-10.9605
hrew	-10.962
▁Indigenous	-10.962
▁abundance	-10.966
▁guarantee	-10.966
▁tireless	-10.966
▁storage	-10.966
▁wanna	-10.966
advice	-10.9661
stein	-10.9666
▁passage	-10.9666
▁hide	-10.9669
▁Early	-10.9686
▁opposed	-10.97
▁translation	-10.97
▁email	-10.97
▁reddit	-10.97
▁Sometimes	-10.97
▁wishes	-10.9735
ccompanied	-10.974
utonomous	-10.974
▁betrayal	-10.974
▁metropolitan	-10.974
▁abroad	-10.974
▁outdated	-10.9741
▁Jeff	-10.9747
book	-10.9762
▁helpful	-10.9774
developed	-10.9779
▁Illinois	-10.9781
▁decrease	-10.9781
▁discrimination	-10.9781
▁Looking	-10.9781
▁tea	-10.9782
▁1983	-10.9785
▁Among	-10.9786
▁estate	-10.9787
▁affair	-10.9793
▁contribution	-10.9793
▁Hunt	-10.9795
how	-10.9797
▁municipal	-10.9816
▁disheartening	-10.9821
▁gritty	-10.9821
▁orchestra	-10.9821
writer	-10.9824
▁shore	-10.9827
▁rip	-10.9827
▁Karen	-10.9828
▁prepared	-10.985
rack	-10.9857
▁solve	-10.9859
▁mathematician	-10.9862
▁nutrient	-10.9862
▁Murphy	-10.9862
▁description	-10.9862
▁withdraw	-10.9862
▁inviting	-10.9862
▁gym	-10.9864
▁ownership	-10.9865
driven	-10.9865
▁TLDR	-10.9865
▁simultaneously	-10.9867
You	-10.9869
▁twin	-10.9871
▁estimate	-10.9888
▁depiction	-10.9895
▁Oxford	-10.9903
▁attachment	-10.9903
▁trilogy	-10.9903
▁activist	-10.9903
▁NOT	-10.9904
▁parliamentar	-10.9942
▁enzyme	-10.9944
▁opponent	-10.9944
▁refine	-10.9946
▁fluid	-10.9948
▁duo	-10.9955
▁thoughtful	-10.9955
▁Still	-10.9957
61	-10.9958
▁Victorian	-10.9965
▁Wall	-10.9969
▁Thus	-10.9973
▁Chicago	-10.9986
▁abrupt	-10.9986
▁ceremony	-10.9986
▁copyright	-10.9986
▁uncover	-10.9986
▁rail	-10.9986
▁detective	-10.9991
▁electricity	-10.9993
▁grave	-10.9993
▁fictional	-11.0001
▁cliché	-11.0012
▁(17	-11.0022
▁Historic	-11.0025
▁Buddhism	-11.0027
▁Representative	-11.0027
▁chamber	-11.0027
▁Treaty	-11.0027
while	-11.0032
notch	-11.0032
▁graduated	-11.0035
▁Final	-11.0043
▁Fish	-11.0044
▁consent	-11.0044
▁Dark	-11.0054
▁sacrific	-11.0062
▁commission	-11.0069
▁athletic	-11.0069
▁colleague	-11.0069
▁consolidat	-11.0069
▁maintenance	-11.0069
▁Modern	-11.0069
▁intertwine	-11.0069
▁Spider	-11.0069
▁Sultan	-11.0069
▁inequality	-11.0069
good	-11.0069
▁Secretary	-11.0071
▁index	-11.0073
74	-11.0076
▁raw	-11.0077
▁constitution	-11.0085
▁geo	-11.0087
▁stranger	-11.0088
▁Solar	-11.0096
▁acquir	-11.01
▁illustrat	-11.0111
▁equation	-11.0111
▁Persian	-11.0112
▁stake	-11.0124
▁quit	-11.0124
scape	-11.0127
▁cringe	-11.0129
▁protocol	-11.0153
▁tactics	-11.0153
▁silver	-11.0153
▁struck	-11.0153
▁valley	-11.0153
▁fusion	-11.0153
▁trash	-11.0153
▁dialog	-11.0153
▁motor	-11.0154
▁singer	-11.0159
▁healing	-11.0178
▁bias	-11.0195
▁atmospheric	-11.0195
▁Southeast	-11.0199
▁DNA	-11.02
▁1986	-11.0202
▁export	-11.021
▁factions	-11.0211
izz	-11.0217
▁advancing	-11.0237
▁educate	-11.0237
▁headquarters	-11.0237
▁obligation	-11.0237
▁grateful	-11.0237
▁adequate	-11.028
▁empathize	-11.028
▁enigmatic	-11.028
▁occurrence	-11.028
▁admire	-11.028
▁Oscar	-11.028
▁Arthur	-11.0281
▁Chief	-11.0282
▁click	-11.0283
▁standardized	-11.0287
▁Master	-11.0303
▁scientist	-11.0311
▁progression	-11.0321
▁passes	-11.0321
▁bottom	-11.0323
▁compatibility	-11.0323
▁juvenile	-11.0323
▁overreacted	-11.0323
▁tranquil	-11.0323
▁antagonist	-11.0323
▁funeral	-11.0323
▁minimal	-11.0323
▁Model	-11.0324
▁sugar	-11.0325
▁Roger	-11.0328
▁Opera	-11.0345
▁trap	-11.0355
▁coffee	-11.0365
▁counsel	-11.0365
▁Family	-11.0366
▁column	-11.0366
▁duties	-11.0366
▁confident	-11.0366
▁naval	-11.037
executed	-11.0373
▁slip	-11.0379
▁linear	-11.038
▁rob	-11.0383
72	-11.0393
▁artifacts	-11.0409
▁currency	-11.0409
▁Cruise	-11.0409
▁emperor	-11.0409
▁punch	-11.0409
▁Women	-11.0409
▁zero	-11.0409
▁truck	-11.0409
▁gross	-11.0409
▁mainstream	-11.0411
organ	-11.0415
▁colonies	-11.0416
▁possesses	-11.0421
▁Naturally	-11.0423
▁Peninsula	-11.0452
▁Portuguese	-11.0452
▁abstract	-11.0452
▁commerce	-11.0452
▁strategy	-11.0452
▁surrounded	-11.0452
▁unconventional	-11.0452
▁Queensland	-11.0452
▁patron	-11.0453
▁pretend	-11.0454
▁suspenseful	-11.0462
bound	-11.0474
esteem	-11.0495
▁Eventually	-11.0495
▁absorb	-11.0495
▁marginalized	-11.0495
▁pronunciation	-11.0495
▁hesitant	-11.0495
▁dominance	-11.0495
▁tragic	-11.0495
▁prayer	-11.0495
▁blur	-11.0496
▁amateur	-11.0496
▁counterpart	-11.0496
▁speculat	-11.0497
▁Play	-11.0509
evolutionary	-11.0509
▁advancement	-11.0523
▁Conference	-11.0539
▁Swedish	-11.0539
▁cuisine	-11.0539
▁Albania	-11.0541
iev	-11.0541
▁Open	-11.0548
▁1945	-11.0552
needed	-11.0556
▁Napoleon	-11.0583
▁theoretical	-11.0583
▁companion	-11.0583
▁Internet	-11.0583
▁driver	-11.059
including	-11.0592
▁rose	-11.0594
▁urge	-11.0603
▁Organization	-11.0627
▁enthusiasm	-11.0627
▁grammatical	-11.0627
▁maximum	-11.0627
▁residential	-11.0627
▁1971	-11.0627
▁register	-11.0627
▁isolated	-11.0627
▁Work	-11.0629
▁championship	-11.063
▁earn	-11.0631
▁illness	-11.0632
▁heroes	-11.0637
▁Wild	-11.064
burn	-11.0654
▁handling	-11.0661
▁Christopher	-11.0671
▁availability	-11.0671
▁magnetic	-11.0671
▁sophisticated	-11.0671
▁suicide	-11.0671
▁genius	-11.0671
pumping	-11.0671
▁artery	-11.0672
▁Indiana	-11.0675
▁Common	-11.0677
▁Dun	-11.0682
▁OK	-11.0704
duced	-11.0706
Ja	-11.0714
what	-11.0714
▁instruction	-11.0716
▁melodies	-11.0716
▁assigned	-11.0716
spiring	-11.0717
▁Historically	-11.0718
▁Robin	-11.0721
▁Duke	-11.0723
▁migration	-11.0725
▁faithful	-11.0735
400	-11.074
▁Building	-11.076
▁Nonetheless	-11.076
▁eccentric	-11.076
▁Bruce	-11.076
▁constitute	-11.0762
empt	-11.0763
▁1979	-11.0767
▁voters	-11.0768
▁Para	-11.0778
▁Bern	-11.0778
▁Fox	-11.0778
fueled	-11.0779
▁consume	-11.0787
▁lame	-11.0791
▁mini	-11.0794
▁edit	-11.08
lecommunications	-11.0805
▁Muhammad	-11.0805
▁achieving	-11.0805
▁predicament	-11.0805
▁haunting	-11.0805
▁unusual	-11.0805
▁Wilson	-11.0805
▁freak	-11.0805
▁pissed	-11.0805
▁accidentally	-11.0809
▁taught	-11.081
▁1969	-11.0813
▁anywhere	-11.0815
▁membership	-11.0816
▁Howard	-11.0832
▁uphold	-11.0833
▁Band	-11.0841
▁Festival	-11.085
▁Security	-11.085
▁algorithm	-11.085
▁throne	-11.085
▁empty	-11.085
▁esteemed	-11.0851
▁apology	-11.0851
▁1985	-11.0859
▁wound	-11.086
ograph	-11.0861
fight	-11.0863
81	-11.0878
▁citizen	-11.0878
▁lean	-11.0883
▁Library	-11.0895
▁Special	-11.0895
▁energetic	-11.0895
▁fertile	-11.0895
▁tiresome	-11.0895
▁versatile	-11.0895
misunderstanding	-11.0895
▁prince	-11.0895
earl	-11.0896
▁chores	-11.0896
▁accessibility	-11.0897
▁Lang	-11.0898
▁somewhere	-11.0911
▁Meanwhile	-11.0941
▁Ukrainian	-11.0941
▁extension	-11.0941
▁necessarily	-11.0941
▁imperial	-11.0941
▁parliament	-11.0944
▁nationalist	-11.0952
largest	-11.0953
front	-11.0957
▁Steven	-11.096
▁entrepreneur	-11.0984
▁approximant	-11.0987
▁merchant	-11.0987
▁unparalleled	-11.0987
▁manifest	-11.0987
▁flood	-11.0987
▁harmony	-11.0987
▁injury	-11.0987
▁conquer	-11.0987
▁scenery	-11.099
▁Notably	-11.0993
▁followers	-11.1009
▁Area	-11.1018
▁commit	-11.1025
▁conquest	-11.1032
▁immigrant	-11.1032
▁membrane	-11.1032
▁populous	-11.1032
▁unsatisfied	-11.1032
▁fasci	-11.1033
▁hiding	-11.1033
▁continuing	-11.1033
▁aviation	-11.1034
▁Poland	-11.1052
▁settle	-11.1058
▁brushes	-11.1059
▁Apart	-11.1061
▁airflow	-11.1078
▁hobbies	-11.1078
▁radiation	-11.1078
▁Speak	-11.1079
▁aggressive	-11.1079
▁Back	-11.1079
▁1947	-11.1086
giving	-11.1093
estimated	-11.1096
▁Johnson	-11.1104
▁Bull	-11.1113
ancing	-11.1125
▁collapse	-11.1125
▁dinosaur	-11.1125
▁embodies	-11.1125
▁spectrum	-11.1125
▁forefront	-11.1125
▁Plus	-11.1126
▁curious	-11.1128
▁Polish	-11.1129
▁1981	-11.1131
▁dense	-11.1134
distance	-11.1139
▁Marx	-11.1143
▁till	-11.1146
▁guid	-11.1153
▁audit	-11.1168
▁Yesterday	-11.1171
▁circuit	-11.1171
▁evaluate	-11.1171
▁plosive	-11.1171
▁phrase	-11.1171
▁backstory	-11.1171
▁amenities	-11.1172
▁Ohio	-11.1173
▁clue	-11.1176
▁1973	-11.1177
▁footage	-11.1177
▁teenage	-11.119
▁coexist	-11.1191
▁wrap	-11.1196
fri	-11.1203
▁Turkish	-11.1218
▁doctrine	-11.1218
▁nervous	-11.1218
▁reproductive	-11.1218
▁scratch	-11.1218
▁captain	-11.1218
▁Gulf	-11.1218
▁enemy	-11.1218
▁scheme	-11.1218
economic	-11.1233
▁Bavaria	-11.1265
▁therapist	-11.1266
game	-11.1271
▁salt	-11.1271
▁snow	-11.1273
▁1963	-11.1273
▁organize	-11.128
ALL	-11.1281
▁altogether	-11.1312
▁revitaliz	-11.1312
▁disgust	-11.1312
▁nomination	-11.1312
▁exceed	-11.1313
▁paved	-11.1313
▁Development	-11.1314
▁Morgan	-11.1318
▁starring	-11.1319
▁invade	-11.1342
serving	-11.1355
▁Professor	-11.136
▁sluggish	-11.136
▁craving	-11.136
▁Prize	-11.1362
▁poetry	-11.1365
national	-11.1368
▁effectiveness	-11.1371
▁Board	-11.1373
▁modulat	-11.1376
▁deny	-11.1389
▁construct	-11.139
▁enthrall	-11.1407
▁reassure	-11.1407
▁refuge	-11.1407
▁creator	-11.1407
▁hydro	-11.1409
▁precede	-11.1414
▁singing	-11.1419
RT	-11.1421
▁semina	-11.143
UT	-11.1436
▁slight	-11.1439
▁achievement	-11.1447
▁Ministry	-11.1455
▁calendar	-11.1455
▁survey	-11.1455
▁warrior	-11.1455
▁rescue	-11.1456
▁Norway	-11.1457
▁Berber	-11.1459
▁operate	-11.146
▁healthier	-11.1465
▁toilet	-11.147
box	-11.1475
▁measur	-11.1502
▁Apparently	-11.1503
▁Mexican	-11.1503
▁manipulate	-11.1503
▁Support	-11.1503
▁giant	-11.1504
▁palace	-11.1505
▁Moore	-11.1509
▁flying	-11.1509
▁Syrian	-11.1509
▁Ferr	-11.1516
heim	-11.1531
▁Universal	-11.1551
▁cohesion	-11.1551
▁babysit	-11.1553
▁glad	-11.1554
▁1972	-11.1558
73	-11.1583
▁Tak	-11.1587
▁Wrestling	-11.16
▁bacteria	-11.16
▁wheel	-11.16
▁proposal	-11.16
▁interior	-11.16
▁advent	-11.16
▁crude	-11.16
▁velar	-11.1601
▁robot	-11.1604
▁punishment	-11.1605
▁priority	-11.1611
▁geographic	-11.1615
▁Lock	-11.164
▁mitigat	-11.1649
▁Watch	-11.1649
▁spring	-11.1649
▁geometric	-11.1649
enowned	-11.165
▁Justice	-11.1651
▁assistant	-11.1657
▁nowhere	-11.1658
▁Way	-11.1672
▁ample	-11.1677
▁Bachelor	-11.1698
▁deliberate	-11.1698
▁departure	-11.1698
▁prehistoric	-11.1698
▁Temple	-11.1698
▁false	-11.1698
▁isolation	-11.1699
▁signature	-11.17
▁roof	-11.1702
▁1976	-11.1707
▁pirate	-11.1712
▁deposit	-11.1724
▁harmonious	-11.1747
▁Stephen	-11.1747
▁jeopardiz	-11.1747
▁receptor	-11.1747
▁vocabulary	-11.1747
▁Character	-11.1747
▁Sweden	-11.1747
▁smell	-11.1747
▁Local	-11.1747
▁Athens	-11.1747
▁neck	-11.1748
▁feedback	-11.1749
▁crash	-11.1751
▁Superman	-11.1753
▁Norman	-11.1755
motion	-11.1759
▁bow	-11.1761
▁arrive	-11.1761
5,000	-11.1786
▁minimize	-11.1789
▁expedition	-11.1796
▁craftsmanship	-11.1796
▁navigating	-11.1796
▁referendum	-11.1796
▁Federation	-11.1797
▁cruel	-11.1797
▁Centre	-11.1797
▁Blue	-11.1797
▁elite	-11.1797
▁symboliz	-11.1799
▁remove	-11.1813
▁comprises	-11.1818
▁programme	-11.1819
▁plotline	-11.1823
▁Corp	-11.1841
▁influencing	-11.1846
▁kilometres	-11.1846
▁nucleus	-11.1846
▁redemption	-11.1846
▁unravel	-11.1846
▁devoted	-11.1846
▁bravery	-11.1846
▁Mission	-11.1846
▁Marvel	-11.1846
▁Jews	-11.1847
▁reply	-11.1847
▁petty	-11.1852
▁Guard	-11.1854
▁flora	-11.1855
▁cake	-11.1866
▁Off	-11.187
▁tube	-11.1895
▁acknowledging	-11.1896
▁bizarre	-11.1896
▁statistical	-11.1896
▁unrealistic	-11.1896
▁Friday	-11.1896
▁assassin	-11.1896
▁Major	-11.1896
▁scope	-11.1896
▁Navy	-11.1896
▁History	-11.1896
▁hypo	-11.1896
▁noteworthy	-11.1897
▁accomplishments	-11.1897
▁Upper	-11.1899
▁Potter	-11.1901
▁pathway	-11.1902
▁1974	-11.1903
▁duty	-11.1911
▁sentiment	-11.1923
▁choreography	-11.1946
▁literacy	-11.1946
▁semester	-11.1946
▁Russell	-11.1946
▁devoid	-11.1947
▁uniform	-11.1947
▁liquid	-11.1947
–20	-11.1947
▁gaming	-11.1947
▁transaction	-11.1948
▁negotiations	-11.1948
▁dilut	-11.1949
▁rising	-11.1951
▁uninspiring	-11.196
▁prepare	-11.1962
▁Steve	-11.1982
▁Dick	-11.1992
▁architect	-11.1995
▁Afghanistan	-11.1997
▁Community	-11.1997
▁Taiwan	-11.1997
▁tropical	-11.1997
▁prolonged	-11.1997
▁beaches	-11.1997
▁1946	-11.2005
▁BBC	-11.2006
scribed	-11.2011
present	-11.2012
▁grandma	-11.2012
▁Sydney	-11.2048
▁replied	-11.2048
▁volunteer	-11.2048
▁folklore	-11.2048
▁smoke	-11.2048
▁transferred	-11.205
▁drum	-11.2052
▁Lower	-11.2052
tomic	-11.2055
▁Media	-11.2056
▁Young	-11.2058
▁delete	-11.2063
▁Tony	-11.2066
▁Saturday	-11.2099
▁acquisition	-11.2099
▁Member	-11.2099
▁ideology	-11.2099
▁threatened	-11.2099
▁molecules	-11.21
▁relation	-11.2103
▁Maha	-11.2107
▁1948	-11.211
83	-11.2141
▁criteria	-11.215
▁recurring	-11.215
▁veteran	-11.215
▁Rugby	-11.215
▁oneself	-11.215
▁reliability	-11.215
▁flashy	-11.215
▁sensation	-11.215
▁afterwards	-11.2152
▁Given	-11.2153
▁Renaissance	-11.2202
▁chaotic	-11.2202
▁concentration	-11.2202
▁possibilities	-11.2202
▁cricket	-11.2202
▁joking	-11.2202
▁Greg	-11.2203
▁disagree	-11.2243
unda	-11.2248
▁categories	-11.2253
▁controversy	-11.2253
▁manifold	-11.2253
▁Military	-11.2253
▁Bridge	-11.2254
▁concentrate	-11.2254
▁Again	-11.2254
▁Everything	-11.2254
▁guidelines	-11.2254
▁Jacob	-11.2254
▁trapped	-11.2255
▁collaborative	-11.2256
▁Karl	-11.2258
▁patch	-11.2258
▁intentionally	-11.2259
▁biology	-11.2261
▁Camp	-11.2262
▁1958	-11.2263
▁lift	-11.2263
▁recruit	-11.2306
▁telephone	-11.2306
▁margin	-11.2306
▁restoration	-11.2306
terdisciplinary	-11.2309
▁Space	-11.2309
▁constructive	-11.231
▁Castle	-11.2315
▁Things	-11.2327
craft	-11.2332
▁Show	-11.2332
▁negotiat	-11.2356
▁Dynasty	-11.2358
▁Jersey	-11.2358
▁permission	-11.2358
▁tremendous	-11.2358
▁mirror	-11.2358
▁colour	-11.2358
slav	-11.237
▁motivation	-11.2372
sympathetic	-11.241
▁Communist	-11.241
▁Madrid	-11.241
▁advertising	-11.241
▁celebrating	-11.241
▁grandmother	-11.241
▁intricacies	-11.241
▁uneasy	-11.241
▁Foreign	-11.2411
▁Movement	-11.2411
▁publisher	-11.2411
▁dancing	-11.2413
▁Monday	-11.2415
▁Eric	-11.2417
▁harmless	-11.2418
▁1968	-11.242
▁assessment	-11.2424
▁corn	-11.2438
▁analog	-11.244
▁scholar	-11.2452
▁declar	-11.2463
▁Mount	-11.2463
▁sample	-11.2463
▁Nigeria	-11.2464
▁Plain	-11.2464
▁Eddie	-11.2465
▁moviegoer	-11.2465
▁spy	-11.2466
▁sovereignty	-11.2466
▁dependent	-11.2471
▁investors	-11.2471
▁golden	-11.2475
▁systematic	-11.2476
knit	-11.2501
▁Imperial	-11.2517
▁adversity	-11.2517
▁horizon	-11.2517
▁spectacular	-11.2517
▁grammar	-11.2517
solving	-11.2517
▁burst	-11.2517
▁fungi	-11.2524
from	-11.2529
aunt	-11.2533
▁Cast	-11.2569
▁practitioner	-11.257
▁Hungary	-11.257
▁sacred	-11.257
▁worries	-11.257
▁flesh	-11.257
▁preferred	-11.2573
▁denote	-11.2584
▁antics	-11.2592
prehensi	-11.2619
communica	-11.2623
▁Azerbaijan	-11.2624
▁oxygen	-11.2624
▁presidency	-11.2624
▁terrain	-11.2624
▁facial	-11.2624
▁variant	-11.2624
▁leverag	-11.2625
▁Crown	-11.2626
▁organizing	-11.2626
▁interface	-11.2626
▁artwork	-11.2632
▁Trust	-11.2636
1%	-11.2645
▁eventual	-11.2657
▁Democrat	-11.2671
▁Affairs	-11.2678
▁activism	-11.2678
▁astronomer	-11.2678
▁tumultuous	-11.2678
▁devotion	-11.2678
▁Channel	-11.2678
▁revenge	-11.2678
▁Machine	-11.2678
▁enroll	-11.2681
▁uncertainty	-11.2682
▁Danish	-11.2683
▁pitch	-11.2692
▁interrupt	-11.2732
▁remorse	-11.2732
▁Critics	-11.2732
▁Originally	-11.2734
▁Short	-11.2734
▁tiny	-11.2734
▁forgot	-11.2739
▁ascend	-11.274
▁1978	-11.2741
▁sq	-11.276
▁disappoint	-11.276
▁Traditional	-11.2787
▁coordination	-11.2787
▁structural	-11.2787
▁whimsical	-11.2787
▁gravity	-11.2787
▁forgotten	-11.2788
▁restrictions	-11.2789
▁Stock	-11.2795
800	-11.2805
▁bold	-11.2815
▁Nick	-11.2819
▁Godzilla	-11.2842
▁Shakespeare	-11.2842
▁identification	-11.2842
▁nickname	-11.2842
▁simplistic	-11.2842
▁twenty	-11.2842
▁silence	-11.2842
▁retreat	-11.2842
▁thread	-11.2842
▁complications	-11.2843
▁Command	-11.2843
worm	-11.2844
▁1949	-11.285
▁1977	-11.2851
▁ensu	-11.2864
▁pound	-11.2872
▁evok	-11.2886
▁judicial	-11.2897
▁straightforward	-11.2897
▁boost	-11.2898
▁breed	-11.2899
▁milk	-11.2901
▁unfortunate	-11.2926
▁whil	-11.2932
▁sovereign	-11.295
▁admiration	-11.2953
▁analyzing	-11.2953
▁determining	-11.2953
▁hockey	-11.2953
▁manipulation	-11.2953
▁mediocre	-11.2953
▁rebellion	-11.2953
▁synonymous	-11.2953
▁jewel	-11.2953
▁terminal	-11.2953
▁cease	-11.2954
▁varies	-11.296
▁undergone	-11.2961
▁centralized	-11.2967
establish	-11.2986
nspired	-11.2988
group	-11.2991
▁resolv	-11.3006
suit	-11.3008
▁Carolina	-11.3008
▁Commonwealth	-11.3008
▁Olympic	-11.3008
▁flexibility	-11.3008
▁sufficient	-11.3008
▁Certain	-11.3008
▁suspend	-11.3008
▁credibility	-11.3009
▁variable	-11.3009
▁Anglo	-11.3009
▁pleasant	-11.3009
▁inhabit	-11.3011
▁inventor	-11.3015
▁algebraic	-11.3065
▁anticipation	-11.3065
▁catalyst	-11.3065
▁inclusivity	-11.3065
▁denomination	-11.3065
▁Philip	-11.3065
▁idiot	-11.3065
▁hiking	-11.3065
▁serene	-11.3065
▁genus	-11.3065
▁geological	-11.3065
▁Wayne	-11.307
▁grasp	-11.3076
▁Beau	-11.3098
▁approved	-11.3121
▁disinterested	-11.3121
▁psychology	-11.3121
▁Communication	-11.3121
▁alleviate	-11.3121
▁compliment	-11.3121
▁demographic	-11.3121
▁coalition	-11.3121
▁asleep	-11.3122
▁euro	-11.3122
▁advocacy	-11.3178
▁bachelor	-11.3178
▁philanthropi	-11.3178
▁unbiased	-11.3178
▁zombie	-11.3178
▁monotonous	-11.3178
▁illegal	-11.3178
▁Network	-11.3178
▁Czech	-11.3178
▁panel	-11.3178
▁optimiz	-11.3178
▁torture	-11.3179
▁invention	-11.3179
▁regulatory	-11.318
▁Place	-11.3181
▁conviction	-11.3185
▁harmful	-11.3185
▁polar	-11.3186
▁panic	-11.32
▁communist	-11.3235
▁identities	-11.3235
▁laundry	-11.3235
▁multitude	-11.3235
▁coincide	-11.3235
▁stomach	-11.3235
▁modification	-11.3235
▁retail	-11.3235
▁saint	-11.3236
▁underwater	-11.3243
▁institute	-11.3258
600	-11.328
▁migrat	-11.3283
SPOILER	-11.3293
▁EDIT	-11.3293
▁convenience	-11.3293
▁facility	-11.3293
▁Convention	-11.3293
▁Taylor	-11.3293
▁homage	-11.3293
▁personnel	-11.3293
▁residence	-11.3298
▁accountability	-11.3302
▁punish	-11.3345
Philadelphia	-11.335
▁Efforts	-11.335
▁Would	-11.335
▁constituent	-11.335
▁persecution	-11.335
▁stakeholders	-11.335
▁supplies	-11.335
▁temporarily	-11.335
▁unpredictable	-11.335
▁violation	-11.335
▁drew	-11.3351
▁serial	-11.3351
▁instability	-11.3351
▁annular	-11.3351
▁gentle	-11.3351
▁hydrogen	-11.3352
▁woke	-11.3352
▁extinct	-11.3352
▁trademark	-11.3355
▁advise	-11.3356
▁Those	-11.3357
▁ignit	-11.3369
▁originat	-11.3373
▁fame	-11.3378
▁helm	-11.3385
[	-11.3388
mouth	-11.3388
publish	-11.3407
▁Michigan	-11.3409
▁Winchester	-11.3409
▁compatible	-11.3409
▁disbelief	-11.3409
▁ingredient	-11.3409
▁insensitive	-11.3409
▁patience	-11.3409
▁steady	-11.3409
▁conversion	-11.3409
Prussia	-11.3409
Shrek	-11.3412
▁arose	-11.3413
▁Everyone	-11.3414
▁package	-11.3415
▁mask	-11.3415
▁bullet	-11.3416
▁discoveries	-11.3417
existent	-11.3464
▁choosing	-11.3467
▁exacerbat	-11.3467
▁innocence	-11.3467
▁neighbour	-11.3467
▁relevance	-11.3467
▁unremarkable	-11.3467
▁abusive	-11.3467
▁prank	-11.3467
▁mechanical	-11.3467
▁Ryan	-11.3467
▁vector	-11.3468
▁contend	-11.3469
▁surgery	-11.3471
▁Brother	-11.3471
▁Medal	-11.3471
▁buff	-11.3485
▁fiber	-11.3502
▁terrorist	-11.3519
▁enforce	-11.3522
▁Secret	-11.3523
▁Authority	-11.3526
▁Rothschild	-11.3526
▁multifaceted	-11.3526
▁surpass	-11.3526
▁drift	-11.3526
▁climb	-11.3526
▁tolerance	-11.3526
▁initiative	-11.3526
▁chord	-11.3527
▁Doctor	-11.3534
9%	-11.3579
▁Douglas	-11.3585
▁Facebook	-11.3585
▁Frederick	-11.3585
▁blockbuster	-11.3585
▁entrance	-11.3585
▁majestic	-11.3585
▁manufacturer	-11.3585
▁secular	-11.3585
▁spiral	-11.3585
▁invitation	-11.3585
▁organisation	-11.3585
▁Patrick	-11.3585
▁Cooper	-11.3585
▁patent	-11.3585
▁activat	-11.3589
▁100%	-11.3591
▁1961	-11.3593
junct	-11.3615
piece	-11.3625
▁Technology	-11.3645
▁anniversary	-11.3645
▁surviving	-11.3645
▁Various	-11.3645
▁stadium	-11.3645
▁minimum	-11.3645
▁Heritage	-11.3645
▁advisor	-11.3645
▁assault	-11.3645
▁dragging	-11.3645
father	-11.3691
▁Angel	-11.3703
▁Language	-11.3704
▁clothing	-11.3704
▁drastic	-11.3704
▁retirement	-11.3704
▁swift	-11.3704
▁condemn	-11.3704
▁Capital	-11.3704
▁palatal	-11.3704
▁Business	-11.3705
▁Third	-11.3705
▁competing	-11.3705
▁Background	-11.3705
▁grandfather	-11.3705
▁Kelly	-11.3707
▁import	-11.3709
▁ethno	-11.3723
▁neo	-11.3763
▁Microsoft	-11.3765
▁breakthrough	-11.3765
▁comprehend	-11.3765
▁reluctant	-11.3765
▁Therefore	-11.3765
▁scenic	-11.3765
▁beneath	-11.3765
▁dozen	-11.3765
▁freshwater	-11.3766
▁connectivity	-11.3767
▁compassionate	-11.377
▁profession	-11.378
▁capitalize	-11.3812
▁Singapore	-11.3825
▁administer	-11.3825
▁heartstrings	-11.3825
▁urgency	-11.3825
▁ignoring	-11.3825
▁emission	-11.3825
▁rifle	-11.3825
▁Light	-11.3825
▁Okay	-11.3825
▁varied	-11.3825
▁decay	-11.3826
▁productivity	-11.3826
▁sink	-11.3827
▁Sadly	-11.3827
▁infant	-11.383
–18	-11.3833
▁crack	-11.3835
culture	-11.3872
▁surge	-11.3883
▁Kurdish	-11.3886
▁melodrama	-11.3886
▁tragedy	-11.3886
▁titular	-11.3886
▁Front	-11.3887
▁continual	-11.389
▁moderate	-11.3901
▁Grant	-11.3902
What	-11.3931
▁cheat	-11.3941
semblance	-11.3948
▁Entertainment	-11.3948
▁Stewart	-11.3948
▁assumption	-11.3948
▁gateway	-11.3948
▁spouse	-11.3948
▁Friend	-11.3948
▁Return	-11.3948
▁cloud	-11.3948
▁damaging	-11.3948
▁agenda	-11.3948
▁Michel	-11.3949
▁Police	-11.395
▁groundwork	-11.3953
▁coastline	-11.3963
girlfriend	-11.3992
claim	-11.3993
▁Television	-11.4009
▁adorned	-11.4009
▁espionage	-11.4009
▁Instagram	-11.4009
▁Lawrence	-11.4009
▁analytic	-11.4009
▁overthinking	-11.4009
▁Besides	-11.401
▁Charlie	-11.4011
▁attain	-11.4011
pronounced	-11.4015
member	-11.4047
▁Engineering	-11.4071
▁Spielberg	-11.4071
▁Visitors	-11.4071
▁concrete	-11.4071
▁exquisite	-11.4071
▁inferior	-11.4071
▁varieties	-11.4071
▁Statistic	-11.4071
▁policymakers	-11.4071
▁woven	-11.4071
▁Carrey	-11.4072
2,000	-11.4097
depend	-11.4107
▁Connecticut	-11.4134
▁Phonetic	-11.4134
▁critique	-11.4134
▁disengaged	-11.4134
▁educator	-11.4134
▁sensitivity	-11.4134
▁motivate	-11.4134
▁exotic	-11.4134
▁computing	-11.4134
▁Glen	-11.4135
▁cried	-11.4136
▁elsewhere	-11.4136
▁mineral	-11.4138
gressive	-11.4195
▁Picture	-11.4197
▁ceremonies	-11.4197
▁futuristic	-11.4197
▁pandemic	-11.4197
▁telegraph	-11.4197
▁prospect	-11.4197
▁labial	-11.4197
▁Bishop	-11.4197
▁bottle	-11.4197
▁messaging	-11.4197
▁merger	-11.4197
▁buried	-11.4197
▁comedies	-11.4198
▁derivative	-11.4199
???	-11.42
▁consistency	-11.4201
▁Danny	-11.4203
plication	-11.4214
European	-11.4245
▁academia	-11.426
▁grandparents	-11.426
▁libraries	-11.426
▁outrageous	-11.426
▁pollution	-11.426
▁puzzle	-11.426
▁1962	-11.426
▁rugged	-11.426
▁lonely	-11.426
▁overseas	-11.426
▁shelter	-11.4261
▁grip	-11.4261
▁priorities	-11.4265
▁costume	-11.429
changing	-11.4309
▁Municipal	-11.4324
▁maneuver	-11.4324
▁albeit	-11.4324
▁nurse	-11.4324
▁Holmes	-11.4324
▁acres	-11.4325
▁ugly	-11.4326
4%	-11.4345
Title	-11.4354
deemed	-11.4387
3%	-11.4388
▁Studio	-11.4388
▁provincial	-11.4388
▁Record	-11.4388
▁generating	-11.4388
▁fascination	-11.4388
▁adjacen	-11.4388
▁Finland	-11.4388
▁avenue	-11.4388
▁descent	-11.439
▁editorial	-11.4392
▁transmitted	-11.4393
▁associate	-11.4417
8%	-11.4423
▁astronomy	-11.4452
▁uplifting	-11.4452
▁Project	-11.4452
▁Gordon	-11.4452
▁retired	-11.4452
▁preparing	-11.4453
▁ancestor	-11.4453
▁Allied	-11.4454
▁Clark	-11.4454
Saxon	-11.4455
▁vague	-11.4455
▁Wolf	-11.4456
▁escalate	-11.4482
etween	-11.4515
▁assembly	-11.4517
▁insecurity	-11.4517
▁reconstruct	-11.4517
▁Bureau	-11.4517
▁NFL	-11.4517
▁Toronto	-11.4517
▁Origin	-11.4581
▁Manchester	-11.4583
▁behaviour	-11.4583
▁introspection	-11.4583
▁Kennedy	-11.4583
▁exemplifie	-11.4583
▁workshops	-11.4583
▁Consider	-11.4583
▁weaving	-11.4584
source	-11.4629
▁Archbishop	-11.4649
▁charitable	-11.4649
▁mundane	-11.4649
▁recycled	-11.4649
▁transparent	-11.4649
▁victories	-11.4649
▁nobility	-11.4649
▁diameter	-11.4649
▁likable	-11.4649
▁Political	-11.4649
▁brown	-11.4649
▁assuming	-11.4649
▁carrier	-11.4649
▁Locat	-11.4663
▁Alphabet	-11.4715
▁Rhodesia	-11.4715
▁Territory	-11.4715
▁stimulating	-11.4715
▁striving	-11.4715
▁yield	-11.4715
▁Alfred	-11.4715
▁accompany	-11.4715
▁breast	-11.4715
▁plastic	-11.4715
▁Dublin	-11.4715
▁blew	-11.4715
▁insisting	-11.4716
▁southwest	-11.4753
▁enchant	-11.477
▁contemplating	-11.4781
▁diplomacy	-11.4781
▁humble	-11.4781
▁fauna	-11.4781
▁tribute	-11.4781
▁remake	-11.4782
▁commenc	-11.4782
▁swing	-11.4782
▁naming	-11.4783
▁northeast	-11.4784
▁Singh	-11.4789
▁Lithuania	-11.4814
lived	-11.4838
▁Hebrew	-11.4849
▁arranged	-11.4849
▁fossil	-11.4849
▁inherited	-11.4849
▁prohibit	-11.4849
▁Slavic	-11.4849
▁ambiance	-11.4849
▁Watson	-11.4849
▁inaugura	-11.4849
▁denied	-11.4849
▁prize	-11.4861
▁navigation	-11.4916
▁Constantine	-11.4916
▁Studies	-11.4916
▁believing	-11.4916
▁hybrid	-11.4916
▁twelve	-11.4916
▁yellow	-11.4916
▁depressed	-11.4916
▁rendering	-11.4917
▁drove	-11.4917
▁ultra	-11.4917
▁Scholars	-11.4918
▁hollow	-11.4937
▁dissemination	-11.4984
▁illustrious	-11.4984
▁wrestler	-11.4984
▁absent	-11.4984
▁virus	-11.4985
rried	-11.5002
▁linguist	-11.5019
▁adore	-11.5033
budget	-11.5043
▁Benedict	-11.5053
▁Environment	-11.5053
▁Jurassic	-11.5053
▁consecutive	-11.5053
▁pharaoh	-11.5053
▁cluster	-11.5053
▁ideological	-11.5053
▁mysteries	-11.5053
▁alleged	-11.5053
▁Hanks	-11.5054
▁unrest	-11.5057
▁awake	-11.5065
▁interconnected	-11.5076
threatening	-11.5078
think	-11.512
▁Belgium	-11.5122
▁climactic	-11.5122
▁mortgage	-11.5122
▁reproduction	-11.5122
▁synthesis	-11.5122
▁Stanley	-11.5122
▁continuity	-11.5122
▁injuries	-11.5122
▁chuckle	-11.5122
▁Premier	-11.5122
▁flair	-11.5122
▁burial	-11.5122
▁operator	-11.5122
▁suppose	-11.5155
keeping	-11.5182
studded	-11.5191
▁Caucasus	-11.5191
▁Columbus	-11.5191
▁Tennessee	-11.5191
▁affricate	-11.5191
▁enlighten	-11.5191
▁inheritance	-11.5191
▁maximiz	-11.5191
▁mobility	-11.5191
▁nurture	-11.5191
▁prosperous	-11.5191
▁satisfaction	-11.5191
▁decoration	-11.5191
▁lyrics	-11.5191
▁Field	-11.5191
▁offended	-11.5191
▁alternate	-11.5191
▁racist	-11.5191
▁diesel	-11.5192
▁Nicol	-11.5197
▁collaborat	-11.5226
specific	-11.5252
▁Cultural	-11.5261
▁equitable	-11.5261
▁grappling	-11.5261
▁recipient	-11.5261
▁scattered	-11.5261
▁turbulent	-11.5261
▁Marshall	-11.5261
▁injustice	-11.5261
▁Chamber	-11.5261
▁Hudson	-11.5261
▁filter	-11.5261
▁thousand	-11.5331
▁Cambodia	-11.5331
▁approval	-11.5331
▁believability	-11.5331
▁biblical	-11.5331
▁manipulative	-11.5331
▁prejudice	-11.5331
▁sensory	-11.5331
▁trajectory	-11.5331
conceived	-11.5331
▁balancing	-11.5331
▁yeah	-11.5331
▁whatsoever	-11.5331
▁Gothic	-11.5331
▁stale	-11.5334
etched	-11.5335
▁northwest	-11.5344
▁Constantinople	-11.5402
▁liberties	-11.5402
▁motorcycle	-11.5402
▁renewed	-11.5402
▁stimulate	-11.5402
▁Stadium	-11.5402
▁buddy	-11.5402
▁hailed	-11.5403
▁Needles	-11.5406
▁announce	-11.5438
▁circulation	-11.5474
▁cognitive	-11.5474
▁commute	-11.5474
▁compromising	-11.5474
▁guitar	-11.5474
▁shattered	-11.5474
▁suspicious	-11.5474
▁sympathy	-11.5474
▁clergy	-11.5474
▁balloon	-11.5474
Universit	-11.5474
▁Miami	-11.5474
▁eerie	-11.5474
▁Until	-11.5474
▁Guinea	-11.5474
▁gradual	-11.5519
Aryan	-11.5538
filled	-11.554
▁Mumbai	-11.5546
▁molecular	-11.5546
▁pristine	-11.5546
▁quirky	-11.5546
▁unintentionally	-11.5546
vertebrate	-11.5546
▁VFL	-11.5546
▁continuation	-11.5546
▁dirty	-11.5546
▁mixture	-11.5546
▁initiating	-11.5546
▁replica	-11.5555
▁instant	-11.5593
▁UNESCO	-11.5618
▁disparities	-11.5618
▁sponsor	-11.5618
▁graduation	-11.5618
▁removal	-11.5618
▁Construct	-11.5618
▁essay	-11.5618
▁pillar	-11.5618
▁naked	-11.5619
▁niche	-11.5619
▁Point	-11.5625
movie	-11.5686
▁Anthony	-11.5691
▁Examples	-11.5691
▁Massachusetts	-11.5691
▁YOU	-11.5691
▁inadequate	-11.5691
▁unfamiliar	-11.5691
▁visibly	-11.5691
▁plural	-11.5691
▁Girl	-11.5691
▁allocation	-11.5691
▁blade	-11.5691
▁breach	-11.5699
continental	-11.5714
▁Nichols	-11.5765
▁LGBT	-11.5765
▁Matrix	-11.5765
▁Yugoslavia	-11.5765
▁astonishing	-11.5765
▁cartridge	-11.5765
▁legitimate	-11.5765
▁unresolved	-11.5765
▁Testament	-11.5765
▁Together	-11.5765
▁revival	-11.5765
▁mythical	-11.5766
▁Boston	-11.5766
digit	-11.5815
▁Harvard	-11.5839
▁Matthew	-11.5839
▁communal	-11.5839
▁curriculum	-11.5839
▁diagnosis	-11.5839
▁gratuitous	-11.5839
▁inconsistency	-11.5839
▁quirks	-11.5839
▁unhappy	-11.5839
▁lunar	-11.5839
▁Census	-11.5839
▁Malaysia	-11.5839
▁weaknesses	-11.5839
▁modified	-11.5839
▁queen	-11.584
▁raid	-11.584
▁repris	-11.5841
▁anthropo	-11.5867
length	-11.591
▁Argentina	-11.5913
▁Plunket	-11.5913
▁Saskatchewan	-11.5913
▁accommodation	-11.5913
▁economies	-11.5913
▁elegant	-11.5913
▁expansive	-11.5913
▁graduating	-11.5913
▁perseverance	-11.5913
▁reconciliation	-11.5913
▁simplicity	-11.5913
▁voyage	-11.5913
▁Cricket	-11.5913
▁Wisconsin	-11.5913
▁Fellow	-11.5913
▁menacing	-11.5913
▁dental	-11.5914
final	-11.5916
▁Cree	-11.5919
current	-11.5985
▁Champion	-11.5987
▁ceremonial	-11.5989
▁reconsider	-11.5989
▁Pixar	-11.5989
▁ideologies	-11.5989
▁WWE	-11.5989
▁consciousness	-11.5989
▁Cameron	-11.5989
▁Senator	-11.5989
▁harness	-11.5989
▁Next	-11.5989
▁Bryan	-11.5991
reaching	-11.6043
▁Executive	-11.6064
▁constraints	-11.6064
▁statistics	-11.6064
▁supreme	-11.6064
▁syndrome	-11.6064
▁unhealthy	-11.6064
▁swear	-11.6064
▁Bloom	-11.6064
▁statue	-11.6064
▁newcomers	-11.6064
▁northeastern	-11.6064
▁harbor	-11.6064
▁censor	-11.6064
▁eternal	-11.6064
▁goddess	-11.6064
▁Clement	-11.6065
▁invalid	-11.6065
depth	-11.6139
▁Honestly	-11.6141
▁Okinawa	-11.6141
▁ancestral	-11.6141
▁physician	-11.6141
▁remarkably	-11.6141
▁surreal	-11.6141
▁communicating	-11.6141
▁custody	-11.6141
▁eldest	-11.6141
▁jungle	-11.6141
▁cosmic	-11.6141
▁Agency	-11.6141
▁Swiss	-11.6141
▁afternoon	-11.6141
▁fraud	-11.6141
▁abortion	-11.6141
▁Julian	-11.6142
family	-11.6216
▁Edinburgh	-11.6218
▁NCAA	-11.6218
▁archipelago	-11.6218
▁beneficial	-11.6218
▁electrifying	-11.6218
▁jarring	-11.6218
▁populated	-11.6218
▁provoke	-11.6218
▁assimilat	-11.6218
▁honour	-11.6218
▁catalog	-11.6218
▁hamper	-11.6218
▁grid	-11.6219
generation	-11.6294
▁Administration	-11.6295
▁Brisbane	-11.6295
▁evaluation	-11.6295
▁furniture	-11.6295
▁immigration	-11.6295
▁leisure	-11.6295
▁portfolio	-11.6295
▁requiring	-11.6295
▁slept	-11.6295
▁massacre	-11.6295
▁sediment	-11.6295
octane	-11.6295
▁Hitler	-11.6295
▁shark	-11.6295
▁strand	-11.6295
▁gear	-11.6297
▁Range	-11.6348
▁pronoun	-11.6366
government	-11.6373
▁Cardinal	-11.6373
▁calculate	-11.6373
▁escapade	-11.6373
▁levity	-11.6373
▁timber	-11.6373
▁Weapon	-11.6373
▁accord	-11.6374
South	-11.6374
▁differentiate	-11.6381
insert	-11.6386
▁execut	-11.6387
thora	-11.6397
▁corrupt	-11.6445
▁Digital	-11.6452
▁Journal	-11.6452
▁dazzling	-11.6452
▁diamond	-11.6452
▁southeastern	-11.6452
▁pepper	-11.6452
▁Celtic	-11.6452
▁behalf	-11.6452
▁firearm	-11.6452
▁Colombia	-11.6452
▁crystal	-11.6452
▁vegan	-11.6453
school	-11.6453
▁fortune	-11.6453
▁Broadway	-11.6531
▁Enlightenment	-11.6531
▁astronomical	-11.6531
▁surname	-11.6531
▁Quebec	-11.6531
▁accelerat	-11.6531
▁Belarus	-11.6531
▁Vienna	-11.6531
▁trivial	-11.6531
▁UTC	-11.6531
▁Jerry	-11.6531
▁satisfy	-11.6533
▁overlap	-11.6556
Elect	-11.6563
authorized	-11.6609
▁Belfast	-11.6611
▁Mesopotamia	-11.6611
▁dynasties	-11.6611
▁peculiar	-11.6611
▁uninteresting	-11.6611
▁virtue	-11.6611
▁nudity	-11.6611
▁Arnold	-11.6611
▁amplify	-11.6611
▁gently	-11.6612
▁nasty	-11.6612
written	-11.6613
▁integrate	-11.6656
▁Natural	-11.6665
▁Alabama	-11.6692
▁Bangladesh	-11.6692
▁IMDb	-11.6692
▁Morocco	-11.6692
▁bridesmaid	-11.6692
▁commemorat	-11.6692
▁contributor	-11.6692
▁underutilized	-11.6692
▁unsettling	-11.6692
▁smoking	-11.6692
▁Samuel	-11.6692
▁Craig	-11.6692
▁cavity	-11.6692
▁monetar	-11.6692
▁rotation	-11.6692
annibal	-11.6694
umerous	-11.6694
▁Assyrian	-11.6773
▁Portugal	-11.6773
▁escalating	-11.6773
▁tailored	-11.6773
▁Private	-11.6773
▁obscure	-11.6773
▁temporal	-11.6773
▁Hindi	-11.6773
political	-11.6776
preserved	-11.6818
▁Creat	-11.6844
blown	-11.6852
▁COVID	-11.6855
▁Hitchcock	-11.6855
▁Independence	-11.6855
▁adventurous	-11.6855
▁bicycle	-11.6855
▁congress	-11.6855
▁crossroads	-11.6855
▁eligible	-11.6855
▁manufactured	-11.6855
▁steadfast	-11.6855
▁ungrateful	-11.6855
▁vegetation	-11.6855
▁voltage	-11.6855
▁erosion	-11.6855
▁Labour	-11.6855
▁Vermont	-11.6855
▁replac	-11.693
▁Lloyd	-11.6938
▁antiquity	-11.6938
▁endangered	-11.6938
▁flexible	-11.6938
▁humour	-11.6938
▁magnitude	-11.6938
▁respiratory	-11.6938
▁Independent	-11.6938
▁Judaism	-11.6938
▁hazard	-11.6938
▁wilderness	-11.6938
▁caliph	-11.6938
▁enclos	-11.6938
▁qualify	-11.6938
▁imposing	-11.6938
▁Donald	-11.6938
▁annex	-11.6939
▁Strong	-11.6939
▁limb	-11.6972
▁Scientific	-11.7021
▁encapsulat	-11.7021
▁extravagant	-11.7021
▁reassurance	-11.7021
▁unnatural	-11.7021
▁Leonard	-11.7021
▁relocate	-11.7021
▁bolster	-11.7021
▁ecology	-11.7021
▁Wonder	-11.7021
▁cardinal	-11.7021
▁Election	-11.7022
▁Sorry	-11.7022
▁resume	-11.7029
UPDATE	-11.7105
▁Mandarin	-11.7105
▁oppressive	-11.7105
▁propaganda	-11.7105
▁tomorrow	-11.7105
▁grief	-11.7105
▁pocket	-11.7105
▁preparation	-11.7105
▁sociology	-11.7105
▁singular	-11.7105
▁diverge	-11.7106
consuming	-11.7125
▁Pennsylvania	-11.719
▁ambassador	-11.719
▁electromagnetic	-11.719
▁engrossing	-11.719
▁enterprise	-11.719
▁imbalance	-11.719
▁occupy	-11.719
▁reservoir	-11.719
▁supplement	-11.719
▁unprecedented	-11.719
▁Electric	-11.719
▁blatant	-11.719
▁Urdu	-11.719
▁martyr	-11.719
▁Living	-11.7191
opera	-11.7194
choreographed	-11.7196
▁Benjamin	-11.7275
▁Exchange	-11.7275
▁Jerusalem	-11.7275
▁Kurdistan	-11.7275
▁Moscow	-11.7275
▁academy	-11.7275
▁frankly	-11.7275
▁mediocrity	-11.7275
▁obsession	-11.7275
▁suspicion	-11.7275
▁unfulfilled	-11.7275
▁unsatisfying	-11.7275
▁Bhutan	-11.7275
▁federation	-11.7275
▁Article	-11.7276
▁turbine	-11.7276
▁geopolitical	-11.7276
▁digesti	-11.7276
▁Abdul	-11.7276
proclaimed	-11.7277
John	-11.7283
▁minimiz	-11.7289
▁Ferdinand	-11.7362
▁Gibson	-11.7362
▁Impossible	-11.7362
▁Method	-11.7362
▁anticipating	-11.7362
▁economist	-11.7362
▁recapture	-11.7362
▁subsidiary	-11.7362
▁swimming	-11.7362
▁theologian	-11.7362
▁bureau	-11.7362
▁Hoffman	-11.7362
▁consulting	-11.7362
▁underscore	-11.7362
plagued	-11.7362
▁screw	-11.7362
▁glory	-11.7362
▁closing	-11.7362
▁Woman	-11.7362
▁pulse	-11.7362
▁steep	-11.7362
▁Lynn	-11.7363
▁comedian	-11.7363
▁Algeria	-11.7363
▁Basketball	-11.7449
▁Ethiopia	-11.7449
▁destructive	-11.7449
▁lesbian	-11.7449
▁obsessed	-11.7449
▁unwilling	-11.7449
▁polish	-11.7449
▁geography	-11.7449
▁aquatic	-11.7449
▁mystical	-11.7449
faith	-11.7458
▁Lamb	-11.7523
continu	-11.7531
▁Yoruba	-11.7536
▁psyche	-11.7536
▁Financial	-11.7536
▁Global	-11.7536
▁consensus	-11.7536
▁inequalities	-11.7536
▁qualification	-11.7536
▁resilient	-11.7536
▁therapeutic	-11.7536
▁unsuccessful	-11.7536
▁paranoid	-11.7536
▁slasher	-11.7536
▁erotic	-11.7536
▁enacted	-11.7536
▁wreck	-11.7537
▁excess	-11.7621
▁automotive	-11.7625
▁enormous	-11.7625
▁hierarchical	-11.7625
▁introspective	-11.7625
▁luxury	-11.7625
▁militia	-11.7625
▁oppression	-11.7625
▁splendor	-11.7625
▁steadily	-11.7625
▁stylish	-11.7625
▁severity	-11.7625
▁Houston	-11.7625
▁precious	-11.7625
▁revive	-11.7625
▁flame	-11.7626
▁prophet	-11.7627
efficient	-11.7635
Hawk	-11.7662
▁Arizona	-11.7714
▁Protocol	-11.7714
▁engrossed	-11.7714
▁metaphor	-11.7714
▁scrutiny	-11.7714
▁Orleans	-11.7714
▁junior	-11.7714
▁equity	-11.7714
▁Orlando	-11.7714
▁Reserve	-11.7714
▁Turkic	-11.7714
▁Deputy	-11.7714
▁sketch	-11.7714
▁theatrical	-11.7714
▁concise	-11.7714
▁hardware	-11.7714
▁alumni	-11.7714
▁skate	-11.7717
▁Broadcasting	-11.7804
▁Jennifer	-11.7804
▁Manitoba	-11.7804
▁Obviously	-11.7804
▁Regardless	-11.7804
▁automatically	-11.7804
▁decorative	-11.7804
▁embedded	-11.7804
▁legislature	-11.7804
▁posterior	-11.7804
▁remnants	-11.7804
▁Hispanic	-11.7804
▁compliance	-11.7804
▁probability	-11.7804
▁upbringing	-11.7804
▁rendition	-11.7804
▁snail	-11.7804
▁feminist	-11.7804
▁Rhine	-11.7804
▁anarchist	-11.7804
biotic	-11.7808
After	-11.7816
▁thorough	-11.7868
▁Theodore	-11.7895
▁Chronicle	-11.7895
▁Kansas	-11.7895
▁Metropolitan	-11.7895
▁WIBTA	-11.7895
▁pyramid	-11.7895
▁substrate	-11.7895
▁Population	-11.7895
▁peninsula	-11.7895
▁revisit	-11.7895
▁entries	-11.7895
▁terrific	-11.7987
vascular	-11.7987
▁Sanskrit	-11.7987
▁bladder	-11.7987
▁adamant	-11.7987
▁recreate	-11.7987
▁floating	-11.7987
▁generous	-11.7987
▁summit	-11.7987
▁Rupert	-11.7987
egrettably	-11.8035
Georg	-11.8045
volcanic	-11.8079
▁affiliation	-11.8079
▁circular	-11.8079
▁decisive	-11.8079
▁hygiene	-11.8079
▁irregular	-11.8079
▁mischievous	-11.8079
▁opposing	-11.8079
▁sympathize	-11.8079
▁transcription	-11.8079
▁treacherous	-11.8079
▁degradation	-11.8079
▁hobby	-11.8079
▁siege	-11.8079
▁delegate	-11.8079
▁Gandhi	-11.808
▁Summer	-11.808
▁RAF	-11.808
▁nightmare	-11.808
▁instinct	-11.808
language	-11.8094
especially	-11.8094
▁consequence	-11.8099
▁demise	-11.8157
▁Dominican	-11.8173
▁Dracula	-11.8173
▁Falkland	-11.8173
▁Hospital	-11.8173
▁Mauritius	-11.8173
▁Norwegian	-11.8173
▁apologizing	-11.8173
▁conspiracy	-11.8173
▁fragile	-11.8173
▁genocide	-11.8173
▁reconcile	-11.8173
▁Emirate	-11.8173
▁Energy	-11.8173
▁alternating	-11.8173
▁immature	-11.8173
▁senator	-11.8173
▁barrel	-11.8173
▁eleven	-11.8173
▁Silver	-11.8173
▁Anderson	-11.8173
▁Industrial	-11.8245
▁Armenia	-11.8251
▁Frankenstein	-11.8267
▁Avenue	-11.8267
▁Mississippi	-11.8267
▁NATO	-11.8267
▁categorize	-11.8267
▁groceries	-11.8267
▁ingenuity	-11.8267
▁integrating	-11.8267
▁memorial	-11.8267
▁unimpressive	-11.8267
▁holistic	-11.8267
▁parody	-11.8267
▁Continu	-11.8267
▁welcoming	-11.8267
modern	-11.8284
nfluence	-11.8358
▁Develop	-11.8359
▁advertise	-11.8362
▁calculation	-11.8362
▁chocolate	-11.8362
▁chromosome	-11.8362
▁earthquake	-11.8362
▁galleries	-11.8362
▁Abraham	-11.8362
▁Defense	-11.8362
▁displacement	-11.8362
▁fortunate	-11.8362
▁optimal	-11.8363
▁identical	-11.8363
▁recipe	-11.8363
▁Information	-11.8363
▁Future	-11.8363
▁straw	-11.8363
▁Larry	-11.8363
▁orientation	-11.8363
inducing	-11.8363
General	-11.838
▁abnormal	-11.8459
▁describing	-11.8459
▁happily	-11.8459
▁gorgeous	-11.8459
▁stereotypical	-11.8459
▁Stanford	-11.8459
▁impairment	-11.8459
▁feudal	-11.8459
▁sidekick	-11.8459
▁Kerala	-11.8459
▁devolve	-11.8459
▁genome	-11.8459
▁gloss	-11.8459
▁distort	-11.846
cyclic	-11.8483
▁endeavor	-11.8493
▁Antarctic	-11.8556
▁Buddha	-11.8556
▁Jessica	-11.8556
▁Kashmir	-11.8556
▁Survey	-11.8556
▁contradict	-11.8556
▁garbage	-11.8556
“	-13.3205
