{
  "version": "1.0",
  "truncation": null,
  "padding": null,
  "added_tokens": [
    {
      "id": 0,
      "content": "[UNK]",
      "single_word": false,
      "lstrip": false,
      "rstrip": false,
      "normalized": false,
      "special": true
    },
    {
      "id": 1,
      "content": "[CLS]",
      "single_word": false,
      "lstrip": false,
      "rstrip": false,
      "normalized": false,
      "special": true
    },
    {
      "id": 2,
      "content": "[SEP]",
      "single_word": false,
      "lstrip": false,
      "rstrip": false,
      "normalized": false,
      "special": true
    },
    {
      "id": 3,
      "content": "[PAD]",
      "single_word": false,
      "lstrip": false,
      "rstrip": false,
      "normalized": false,
      "special": true
    },
    {
      "id": 4,
      "content": "[MASK]",
      "single_word": false,
      "lstrip": false,
      "rstrip": false,
      "normalized": false,
      "special": true
    }
  ],
  "normalizer": null,
  "pre_tokenizer": {
    "type": "Whitespace"
  },
  "post_processor": null,
  "decoder": null,
  "model": {
    "type": "BPE",
    "dropout": null,
    "unk_token": "[UNK]",
    "continuing_subword_prefix": null,
    "end_of_word_suffix": null,
    "fuse_unk": false,
    "byte_fallback": false,
    "ignore_merges": false,
    "vocab": {
      "[UNK]": 0,
      "[CLS]": 1,
      "[SEP]": 2,
      "[PAD]": 3,
      "[MASK]": 4,
      "!": 5,
      "\"": 6,
      "#": 7,
      "$": 8,
      "%": 9,
      "&": 10,
      "'": 11,
      "(": 12,
      ")": 13,
      "*": 14,
      "+": 15,
      ",": 16,
      "-": 17,
      ".": 18,
      "/": 19,
      "0": 20,
      "1": 21,
      "2": 22,
      "3": 23,
      "4": 24,
      "5": 25,
      "6": 26,
      "7": 27,
      "8": 28,
      "9": 29,
      ":": 30,
      ";": 31,
      "<": 32,
      "=": 33,
      ">": 34,
      "?": 35,
      "@": 36,
      "A": 37,
      "B": 38,
      "C": 39,
      "D": 40,
      "E": 41,
      "F": 42,
      "G": 43,
      "H": 44,
      "I": 45,
      "J": 46,
      "K": 47,
      "L": 48,
      "M": 49,
      "N": 50,
      "O": 51,
      "P": 52,
      "Q": 53,
      "R": 54,
      "S": 55,
      "T": 56,
      "U": 57,
      "V": 58,
      "W": 59,
      "X": 60,
      "Y": 61,
      "Z": 62,
      "[": 63,
      "\\": 64,
      "]": 65,
      "^": 66,
      "_": 67,
      "`": 68,
      "a": 69,
      "b": 70,
      "c": 71,
      "d": 72,
      "e": 73,
      "f": 74,
      "g": 75,
      "h": 76,
      "i": 77,
      "j": 78,
      "k": 79,
      "l": 80,
      "m": 81,
      "n": 82,
      "o": 83,
      "p": 84,
      "q": 85,
      "r": 86,
      "s": 87,
      "t": 88,
      "u": 89,
      "v": 90,
      "w": 91,
      "x": 92,
      "y": 93,
      "z": 94,
      "{": 95,
      "|": 96,
      "}": 97,
      "~": 98,
      "": 99,
      "": 100,
      "": 101,
      "": 102,
      "": 103,
      "": 104,
      "": 105,
      "¡": 106,
      "¢": 107,
      "£": 108,
      "¦": 109,
      "§": 110,
      "ª": 111,
      "«": 112,
      "¬": 113,
      "­": 114,
      "®": 115,
      "¯": 116,
      "°": 117,
      "±": 118,
      "²": 119,
      "³": 120,
      "´": 121,
      "µ": 122,
      "·": 123,
      "¹": 124,
      "º": 125,
      "»": 126,
      "½": 127,
      "¾": 128,
      "Á": 129,
      "Â": 130,
      "Ä": 131,
      "Å": 132,
      "Æ": 133,
      "Ç": 134,
      "È": 135,
      "É": 136,
      "Ê": 137,
      "Ì": 138,
      "Í": 139,
      "Î": 140,
      "Ñ": 141,
      "Ò": 142,
      "Ó": 143,
      "Ô": 144,
      "Ö": 145,
      "×": 146,
      "Ø": 147,
      "Ù": 148,
      "Ú": 149,
      "Ü": 150,
      "Þ": 151,
      "ß": 152,
      "à": 153,
      "á": 154,
      "â": 155,
      "ã": 156,
      "ä": 157,
      "å": 158,
      "æ": 159,
      "ç": 160,
      "è": 161,
      "é": 162,
      "ê": 163,
      "ë": 164,
      "ì": 165,
      "í": 166,
      "î": 167,
      "ï": 168,
      "ð": 169,
      "ñ": 170,
      "ò": 171,
      "ó": 172,
      "ô": 173,
      "õ": 174,
      "ö": 175,
      "÷": 176,
      "ø": 177,
      "ù": 178,
      "ú": 179,
      "û": 180,
      "ü": 181,
      "ý": 182,
      "þ": 183,
      "Ā": 184,
      "ā": 185,
      "ă": 186,
      "ą": 187,
      "ć": 188,
      "Ċ": 189,
      "Č": 190,
      "č": 191,
      "ď": 192,
      "Đ": 193,
      "đ": 194,
      "ē": 195,
      "ė": 196,
      "ę": 197,
      "ě": 198,
      "Ĝ": 199,
      "ĝ": 200,
      "ğ": 201,
      "Ġ": 202,
      "ġ": 203,
      "Ħ": 204,
      "ħ": 205,
      "ĩ": 206,
      "Ī": 207,
      "ī": 208,
      "ĭ": 209,
      "į": 210,
      "İ": 211,
      "ı": 212,
      "Ľ": 213,
      "ľ": 214,
      "Ł": 215,
      "ł": 216,
      "ń": 217,
      "ň": 218,
      "ŋ": 219,
      "Ō": 220,
      "ō": 221,
      "ŏ": 222,
      "ő": 223,
      "Œ": 224,
      "œ": 225,
      "Ř": 226,
      "ř": 227,
      "Ś": 228,
      "ś": 229,
      "ŝ": 230,
      "Ş": 231,
      "ş": 232,
      "Š": 233,
      "š": 234,
      "Ť": 235,
      "ť": 236,
      "ũ": 237,
      "ū": 238,
      "ŭ": 239,
      "ů": 240,
      "ų": 241,
      "ź": 242,
      "ż": 243,
      "Ž": 244,
      "ž": 245,
      "ƀ": 246,
      "Ɔ": 247,
      "Ɛ": 248,
      "ƒ": 249,
      "ƙ": 250,
      "ƛ": 251,
      "ơ": 252,
      "ƥ": 253,
      "ư": 254,
      "ǀ": 255,
      "ǁ": 256,
      "ǂ": 257,
      "ǃ": 258,
      "ǎ": 259,
      "ǐ": 260,
      "ǒ": 261,
      "ǔ": 262,
      "ǝ": 263,
      "ǧ": 264,
      "ǫ": 265,
      "ǰ": 266,
      "ǵ": 267,
      "ǿ": 268,
      "ȇ": 269,
      "Ș": 270,
      "ș": 271,
      "Ț": 272,
      "ț": 273,
      "ȝ": 274,
      "ȫ": 275,
      "ȳ": 276,
      "ȴ": 277,
      "ȵ": 278,
      "Ɂ": 279,
      "ɐ": 280,
      "ɑ": 281,
      "ɒ": 282,
      "ɓ": 283,
      "ɔ": 284,
      "ɕ": 285,
      "ɖ": 286,
      "ɘ": 287,
      "ə": 288,
      "ɛ": 289,
      "ɜ": 290,
      "ɟ": 291,
      "ɠ": 292,
      "ɡ": 293,
      "ɢ": 294,
      "ɣ": 295,
      "ɤ": 296,
      "ɥ": 297,
      "ɦ": 298,
      "ɨ": 299,
      "ɪ": 300,
      "ɫ": 301,
      "ɬ": 302,
      "ɭ": 303,
      "ɮ": 304,
      "ɯ": 305,
      "ɰ": 306,
      "ɱ": 307,
      "ɲ": 308,
      "ɳ": 309,
      "ɴ": 310,
      "ɵ": 311,
      "ɶ": 312,
      "ɸ": 313,
      "ɹ": 314,
      "ɺ": 315,
      "ɻ": 316,
      "ɽ": 317,
      "ɾ": 318,
      "ʀ": 319,
      "ʁ": 320,
      "ʂ": 321,
      "ʃ": 322,
      "ʄ": 323,
      "ʈ": 324,
      "ʊ": 325,
      "ʋ": 326,
      "ʌ": 327,
      "ʍ": 328,
      "ʎ": 329,
      "ʏ": 330,
      "ʐ": 331,
      "ʑ": 332,
      "ʒ": 333,
      "ʔ": 334,
      "ʕ": 335,
      "ʘ": 336,
      "ʙ": 337,
      "ʝ": 338,
      "ʟ": 339,
      "ʡ": 340,
      "ʢ": 341,
      "ʰ": 342,
      "ʲ": 343,
      "ʷ": 344,
      "ʻ": 345,
      "ʼ": 346,
      "ʽ": 347,
      "ʾ": 348,
      "ʿ": 349,
      "ˁ": 350,
      "ˈ": 351,
      "ˌ": 352,
      "ː": 353,
      "ˑ": 354,
      "˔": 355,
      "˕": 356,
      "˖": 357,
      "˗": 358,
      "˙": 359,
      "ˠ": 360,
      "ˡ": 361,
      "ˤ": 362,
      "˥": 363,
      "˦": 364,
      "˧": 365,
      "˨": 366,
      "˩": 367,
      "˭": 368,
      "˹": 369,
      "˺": 370,
      "̀": 371,
      "́": 372,
      "̂": 373,
      "̃": 374,
      "̄": 375,
      "̆": 376,
      "̈": 377,
      "̊": 378,
      "̌": 379,
      "̍": 380,
      "̑": 381,
      "̓": 382,
      "̚": 383,
      "̜": 384,
      "̝": 385,
      "̞": 386,
      "̟": 387,
      "̠": 388,
      "̣": 389,
      "̤": 390,
      "̥": 391,
      "̨": 392,
      "̩": 393,
      "̪": 394,
      "̫": 395,
      "̯": 396,
      "̰": 397,
      "̺": 398,
      "̻": 399,
      "͆": 400,
      "͇": 401,
      "͈": 402,
      "͍": 403,
      "͑": 404,
      "͗": 405,
      "͘": 406,
      "͜": 407,
      "͡": 408,
      "΄": 409,
      "Έ": 410,
      "ΐ": 411,
      "Α": 412,
      "Β": 413,
      "Δ": 414,
      "Ε": 415,
      "Θ": 416,
      "Κ": 417,
      "Λ": 418,
      "Μ": 419,
      "Ν": 420,
      "Π": 421,
      "Ρ": 422,
      "Σ": 423,
      "Υ": 424,
      "Φ": 425,
      "Χ": 426,
      "Ω": 427,
      "ά": 428,
      "έ": 429,
      "ή": 430,
      "ί": 431,
      "α": 432,
      "β": 433,
      "γ": 434,
      "δ": 435,
      "ε": 436,
      "ζ": 437,
      "η": 438,
      "θ": 439,
      "ι": 440,
      "κ": 441,
      "λ": 442,
      "μ": 443,
      "ν": 444,
      "ξ": 445,
      "ο": 446,
      "π": 447,
      "ρ": 448,
      "ς": 449,
      "σ": 450,
      "τ": 451,
      "υ": 452,
      "φ": 453,
      "χ": 454,
      "ψ": 455,
      "ω": 456,
      "ό": 457,
      "ύ": 458,
      "ώ": 459,
      "ϕ": 460,
      "ϣ": 461,
      "Ϩ": 462,
      "ϩ": 463,
      "ϭ": 464,
      "Ё": 465,
      "Є": 466,
      "Ј": 467,
      "А": 468,
      "Б": 469,
      "В": 470,
      "Г": 471,
      "Д": 472,
      "Е": 473,
      "З": 474,
      "И": 475,
      "Й": 476,
      "К": 477,
      "Л": 478,
      "М": 479,
      "Н": 480,
      "О": 481,
      "П": 482,
      "Р": 483,
      "С": 484,
      "Т": 485,
      "У": 486,
      "Ф": 487,
      "Х": 488,
      "Ц": 489,
      "Ч": 490,
      "Ш": 491,
      "Щ": 492,
      "Ъ": 493,
      "Э": 494,
      "Ю": 495,
      "Я": 496,
      "а": 497,
      "б": 498,
      "в": 499,
      "г": 500,
      "д": 501,
      "е": 502,
      "ж": 503,
      "з": 504,
      "и": 505,
      "й": 506,
      "к": 507,
      "л": 508,
      "м": 509,
      "н": 510,
      "о": 511,
      "п": 512,
      "р": 513,
      "с": 514,
      "т": 515,
      "у": 516,
      "ф": 517,
      "х": 518,
      "ц": 519,
      "ч": 520,
      "ш": 521,
      "щ": 522,
      "ъ": 523,
      "ы": 524,
      "ь": 525,
      "э": 526,
      "ю": 527,
      "я": 528,
      "ё": 529,
      "і": 530,
      "ї": 531,
      "ћ": 532,
      "ѣ": 533,
      "ѧ": 534,
      "Ѩ": 535,
      "ѵ": 536,
      "ҙ": 537,
      "қ": 538,
      "ң": 539,
      "Ҫ": 540,
      "ү": 541,
      "Ӏ": 542,
      "Ӂ": 543,
      "ӂ": 544,
      "ӏ": 545,
      "Ӑ": 546,
      "ӑ": 547,
      "Ӗ": 548,
      "ә": 549,
      "ө": 550,
      "Ӳ": 551,
      "Ա": 552,
      "Բ": 553,
      "Ե": 554,
      "Թ": 555,
      "Ծ": 556,
      "Կ": 557,
      "Հ": 558,
      "Մ": 559,
      "Պ": 560,
      "Ս": 561,
      "Տ": 562,
      "ա": 563,
      "բ": 564,
      "գ": 565,
      "դ": 566,
      "ե": 567,
      "զ": 568,
      "թ": 569,
      "ի": 570,
      "լ": 571,
      "ծ": 572,
      "կ": 573,
      "հ": 574,
      "ղ": 575,
      "ճ": 576,
      "մ": 577,
      "յ": 578,
      "ն": 579,
      "շ": 580,
      "ո": 581,
      "պ": 582,
      "ռ": 583,
      "ս": 584,
      "վ": 585,
      "տ": 586,
      "ր": 587,
      "ց": 588,
      "ւ": 589,
      "ք": 590,
      "և": 591,
      "ְ": 592,
      "ֲ": 593,
      "ִ": 594,
      "ֵ": 595,
      "ֶ": 596,
      "ַ": 597,
      "ָ": 598,
      "ֹ": 599,
      "ּ": 600,
      "ׁ": 601,
      "ׂ": 602,
      "א": 603,
      "ב": 604,
      "ג": 605,
      "ד": 606,
      "ה": 607,
      "ו": 608,
      "ז": 609,
      "ח": 610,
      "ט": 611,
      "י": 612,
      "כ": 613,
      "ל": 614,
      "ם": 615,
      "מ": 616,
      "ן": 617,
      "נ": 618,
      "ס": 619,
      "ע": 620,
      "פ": 621,
      "צ": 622,
      "ק": 623,
      "ר": 624,
      "ש": 625,
      "ת": 626,
      "װ": 627,
      "،": 628,
      "ء": 629,
      "آ": 630,
      "أ": 631,
      "ؤ": 632,
      "إ": 633,
      "ئ": 634,
      "ا": 635,
      "ب": 636,
      "ة": 637,
      "ت": 638,
      "ث": 639,
      "ج": 640,
      "ح": 641,
      "خ": 642,
      "د": 643,
      "ذ": 644,
      "ر": 645,
      "ز": 646,
      "س": 647,
      "ش": 648,
      "ص": 649,
      "ض": 650,
      "ط": 651,
      "ظ": 652,
      "ع": 653,
      "غ": 654,
      "ف": 655,
      "ق": 656,
      "ك": 657,
      "ل": 658,
      "م": 659,
      "ن": 660,
      "ه": 661,
      "و": 662,
      "ي": 663,
      "َ": 664,
      "ُ": 665,
      "ِ": 666,
      "ّ": 667,
      "ْ": 668,
      "ٰ": 669,
      "ٱ": 670,
      "پ": 671,
      "چ": 672,
      "ڑ": 673,
      "ک": 674,
      "گ": 675,
      "ھ": 676,
      "ہ": 677,
      "ی": 678,
      "ے": 679,
      "ܐ": 680,
      "ܕ": 681,
      "ܘ": 682,
      "ܚ": 683,
      "ܛ": 684,
      "ܝ": 685,
      "ܠ": 686,
      "ܡ": 687,
      "ܢ": 688,
      "ܣ": 689,
      "ܥ": 690,
      "ܦ": 691,
      "ܩ": 692,
      "ܪ": 693,
      "ܫ": 694,
      "ܬ": 695,
      "ހ": 696,
      "ނ": 697,
      "ރ": 698,
      "ބ": 699,
      "ޅ": 700,
      "ކ": 701,
      "އ": 702,
      "ވ": 703,
      "ދ": 704,
      "ތ": 705,
      "ަ": 706,
      "ި": 707,
      "ު": 708,
      "ެ": 709,
      "ޮ": 710,
      "ं": 711,
      "अ": 712,
      "ऋ": 713,
      "क": 714,
      "घ": 715,
      "च": 716,
      "ज": 717,
      "ञ": 718,
      "ड": 719,
      "ण": 720,
      "त": 721,
      "द": 722,
      "न": 723,
      "ब": 724,
      "भ": 725,
      "म": 726,
      "य": 727,
      "र": 728,
      "ल": 729,
      "व": 730,
      "श": 731,
      "स": 732,
      "ह": 733,
      "ा": 734,
      "ि": 735,
      "ी": 736,
      "ु": 737,
      "ू": 738,
      "े": 739,
      "ो": 740,
      "्": 741,
      "ই": 742,
      "খ": 743,
      "ড": 744,
      "দ": 745,
      "ন": 746,
      "প": 747,
      "ব": 748,
      "ভ": 749,
      "ম": 750,
      "য": 751,
      "র": 752,
      "ল": 753,
      "শ": 754,
      "ষ": 755,
      "স": 756,
      "হ": 757,
      "়": 758,
      "া": 759,
      "ু": 760,
      "ে": 761,
      "ৈ": 762,
      "্": 763,
      "ਦ": 764,
      "ਭ": 765,
      "ਲ": 766,
      "ਹ": 767,
      "ਾ": 768,
      "ੀ": 769,
      "ੱ": 770,
      "ଦ": 771,
      "ବ": 772,
      "ର": 773,
      "ହ": 774,
      "ା": 775,
      "ି": 776,
      "இ": 777,
      "க": 778,
      "ங": 779,
      "ச": 780,
      "த": 781,
      "ந": 782,
      "ன": 783,
      "ப": 784,
      "ம": 785,
      "ய": 786,
      "ர": 787,
      "ல": 788,
      "ள": 789,
      "ழ": 790,
      "வ": 791,
      "ா": 792,
      "ி": 793,
      "ெ": 794,
      "ை": 795,
      "்": 796,
      "ക": 797,
      "ന": 798,
      "പ": 799,
      "മ": 800,
      "ല": 801,
      "വ": 802,
      "സ": 803,
      "ാ": 804,
      "ീ": 805,
      "ൊ": 806,
      "്": 807,
      "ൻ": 808,
      "ർ": 809,
      "ก": 810,
      "ง": 811,
      "จ": 812,
      "ณ": 813,
      "ต": 814,
      "ถ": 815,
      "ท": 816,
      "น": 817,
      "ป": 818,
      "ม": 819,
      "ย": 820,
      "ร": 821,
      "ส": 822,
      "ห": 823,
      "อ": 824,
      "ะ": 825,
      "ั": 826,
      "า": 827,
      "ี": 828,
      "เ": 829,
      "ไ": 830,
      "๋": 831,
      "་": 832,
      "ཀ": 833,
      "ག": 834,
      "ང": 835,
      "ཏ": 836,
      "ད": 837,
      "ན": 838,
      "པ": 839,
      "བ": 840,
      "མ": 841,
      "འ": 842,
      "ར": 843,
      "ལ": 844,
      "ཤ": 845,
      "ས": 846,
      "ི": 847,
      "ུ": 848,
      "ོ": 849,
      "ྒ": 850,
      "ྣ": 851,
      "ྦ": 852,
      "ྱ": 853,
      "ྲ": 854,
      "ླ": 855,
      "ྷ": 856,
      "က": 857,
      "ခ": 858,
      "င": 859,
      "စ": 860,
      "ဇ": 861,
      "ည": 862,
      "ဋ": 863,
      "ဌ": 864,
      "တ": 865,
      "န": 866,
      "ပ": 867,
      "ဗ": 868,
      "မ": 869,
      "ယ": 870,
      "ရ": 871,
      "လ": 872,
      "ဟ": 873,
      "အ": 874,
      "ါ": 875,
      "ာ": 876,
      "ိ": 877,
      "ီ": 878,
      "ု": 879,
      "ေ": 880,
      "ဲ": 881,
      "ံ": 882,
      "့": 883,
      "း": 884,
      "္": 885,
      "်": 886,
      "ျ": 887,
      "ြ": 888,
      "ွ": 889,
      "ှ": 890,
      "ა": 891,
      "ბ": 892,
      "გ": 893,
      "დ": 894,
      "ე": 895,
      "ვ": 896,
      "თ": 897,
      "ი": 898,
      "კ": 899,
      "ლ": 900,
      "მ": 901,
      "ნ": 902,
      "ო": 903,
      "რ": 904,
      "ს": 905,
      "ტ": 906,
      "უ": 907,
      "ყ": 908,
      "ც": 909,
      "ხ": 910,
      "ር": 911,
      "ት": 912,
      "ኛ": 913,
      "ግ": 914,
      "Ꮎ": 915,
      "Ꮪ": 916,
      "Ꮯ": 917,
      "ᐋ": 918,
      "ᐏ": 919,
      "ᐑ": 920,
      "ᐢ": 921,
      "ᐱ": 922,
      "ᒋ": 923,
      "ᒧ": 924,
      "ᒪ": 925,
      "ᓂ": 926,
      "ᕽ": 927,
      "ᚼ": 928,
      "ᛒ": 929,
      "ក": 930,
      "ខ": 931,
      "ឃ": 932,
      "ង": 933,
      "ឆ": 934,
      "ជ": 935,
      "ញ": 936,
      "ដ": 937,
      "ឋ": 938,
      "ឌ": 939,
      "ណ": 940,
      "ត": 941,
      "ធ": 942,
      "ន": 943,
      "ប": 944,
      "ភ": 945,
      "ម": 946,
      "រ": 947,
      "ល": 948,
      "វ": 949,
      "ស": 950,
      "ា": 951,
      "ិ": 952,
      "ី": 953,
      "ុ": 954,
      "ូ": 955,
      "េ": 956,
      "ែ": 957,
      "ំ": 958,
      "់": 959,
      "្": 960,
      "ᠠ": 961,
      "ᠮ": 962,
      "ᠰ": 963,
      "ᠶ": 964,
      "ᡠ": 965,
      "ᡤ": 966,
      "ᡳ": 967,
      "ᥐ": 968,
      "ᥒ": 969,
      "ᥛ": 970,
      "ᥩ": 971,
      "ᥫ": 972,
      "ᥰ": 973,
      "ᱚ": 974,
      "ᱞ": 975,
      "ᱠ": 976,
      "ᱤ": 977,
      "ᱪ": 978,
      "ᴈ": 979,
      "ᴫ": 980,
      "ᵖ": 981,
      "ᵝ": 982,
      "ᵢ": 983,
      "ḇ": 984,
      "Ḍ": 985,
      "ḍ": 986,
      "ḏ": 987,
      "ḕ": 988,
      "ḗ": 989,
      "Ḥ": 990,
      "ḥ": 991,
      "Ḫ": 992,
      "ḫ": 993,
      "ḱ": 994,
      "ḵ": 995,
      "ḷ": 996,
      "ḻ": 997,
      "ṃ": 998,
      "ṅ": 999,
      "ṇ": 1000,
      "ṉ": 1001,
      "Ṛ": 1002,
      "ṛ": 1003,
      "Ṣ": 1004,
      "ṣ": 1005,
      "Ṭ": 1006,
      "ṭ": 1007,
      "ṯ": 1008,
      "ṳ": 1009,
      "ṵ": 1010,
      "Ẓ": 1011,
      "ẓ": 1012,
      "ạ": 1013,
      "ả": 1014,
      "Ấ": 1015,
      "ấ": 1016,
      "ầ": 1017,
      "ậ": 1018,
      "ắ": 1019,
      "ằ": 1020,
      "ặ": 1021,
      "ẹ": 1022,
      "ẻ": 1023,
      "ế": 1024,
      "ề": 1025,
      "ể": 1026,
      "ễ": 1027,
      "ệ": 1028,
      "ị": 1029,
      "Ọ": 1030,
      "ọ": 1031,
      "ố": 1032,
      "ồ": 1033,
      "ổ": 1034,
      "ỗ": 1035,
      "ộ": 1036,
      "ớ": 1037,
      "ờ": 1038,
      "ở": 1039,
      "ợ": 1040,
      "ụ": 1041,
      "ứ": 1042,
      "ừ": 1043,
      "ử": 1044,
      "ự": 1045,
      "ỳ": 1046,
      "ỵ": 1047,
      "ỷ": 1048,
      "ỹ": 1049,
      "ἀ": 1050,
      "ἄ": 1051,
      "ἅ": 1052,
      "ἆ": 1053,
      "Ἀ": 1054,
      "Ἄ": 1055,
      "ἐ": 1056,
      "ἑ": 1057,
      "ἔ": 1058,
      "ἕ": 1059,
      "Ἑ": 1060,
      "ἡ": 1061,
      "ἰ": 1062,
      "ἱ": 1063,
      "ἶ": 1064,
      "Ἰ": 1065,
      "Ἱ": 1066,
      "ὁ": 1067,
      "ὄ": 1068,
      "ὅ": 1069,
      "ὐ": 1070,
      "ὑ": 1071,
      "ὕ": 1072,
      "ὖ": 1073,
      "ὡ": 1074,
      "ὦ": 1075,
      "Ὧ": 1076,
      "ὰ": 1077,
      "ὴ": 1078,
      "ὶ": 1079,
      "ὸ": 1080,
      "ᾰ": 1081,
      "ᾱ": 1082,
      "ᾶ": 1083,
      "ῆ": 1084,
      "ῐ": 1085,
      "ῑ": 1086,
      "ῖ": 1087,
      "ῡ": 1088,
      "ῥ": 1089,
      "ῦ": 1090,
      "Ῥ": 1091,
      "ῶ": 1092,
      "ῷ": 1093,
      "​": 1094,
      "‌": 1095,
      "‍": 1096,
      "‎": 1097,
      "‐": 1098,
      "‑": 1099,
      "‒": 1100,
      "–": 1101,
      "—": 1102,
      "‘": 1103,
      "’": 1104,
      "“": 1105,
      "”": 1106,
      "„": 1107,
      "‟": 1108,
      "†": 1109,
      "‡": 1110,
      "•": 1111,
      "…": 1112,
      "‰": 1113,
      "′": 1114,
      "″": 1115,
      "‼": 1116,
      "⁄": 1117,
      "⁊": 1118,
      "⁠": 1119,
      "⁺": 1120,
      "⁻": 1121,
      "ⁿ": 1122,
      "₁": 1123,
      "₂": 1124,
      "₃": 1125,
      "ₖ": 1126,
      "ₙ": 1127,
      "₨": 1128,
      "€": 1129,
      "₱": 1130,
      "₴": 1131,
      "₹": 1132,
      "ℓ": 1133,
      "№": 1134,
      "ℝ": 1135,
      "™": 1136,
      "ℤ": 1137,
      "℧": 1138,
      "ℵ": 1139,
      "⅓": 1140,
      "⅔": 1141,
      "⅕": 1142,
      "←": 1143,
      "→": 1144,
      "↔": 1145,
      "↦": 1146,
      "⇌": 1147,
      "⇒": 1148,
      "∈": 1149,
      "−": 1150,
      "∘": 1151,
      "√": 1152,
      "∞": 1153,
      "∧": 1154,
      "∨": 1155,
      "∫": 1156,
      "≈": 1157,
      "≠": 1158,
      "≡": 1159,
      "≤": 1160,
      "≥": 1161,
      "⊆": 1162,
      "⋅": 1163,
      "■": 1164,
      "◌": 1165,
      "●": 1166,
      "◡": 1167,
      "★": 1168,
      "☆": 1169,
      "☹": 1170,
      "♀": 1171,
      "♂": 1172,
      "♋": 1173,
      "♥": 1174,
      "♭": 1175,
      "♮": 1176,
      "♯": 1177,
      "⛩": 1178,
      "✌": 1179,
      "✨": 1180,
      "❄": 1181,
      "❤": 1182,
      "⟨": 1183,
      "⟩": 1184,
      "⟶": 1185,
      "⠀": 1186,
      "⠁": 1187,
      "⠋": 1188,
      "⠐": 1189,
      "⠒": 1190,
      "⠘": 1191,
      "⠙": 1192,
      "⠜": 1193,
      "⠠": 1194,
      "⠡": 1195,
      "⠣": 1196,
      "⠨": 1197,
      "⠪": 1198,
      "⠰": 1199,
      "⠲": 1200,
      "⠼": 1201,
      "⠿": 1202,
      "⦵": 1203,
      "⭐": 1204,
      "ⰰ": 1205,
      "ⰳ": 1206,
      "ⰾ": 1207,
      "ⱁ": 1208,
      "ⱏ": 1209,
      "Ɐ": 1210,
      "ⱱ": 1211,
      "ⱴ": 1212,
      "ⱺ": 1213,
      "ⲁ": 1214,
      "ⲃ": 1215,
      "ⲉ": 1216,
      "ⲏ": 1217,
      "ⲑ": 1218,
      "ⲓ": 1219,
      "ⲕ": 1220,
      "ⲗ": 1221,
      "ⲙ": 1222,
      "ⲟ": 1223,
      "ⲡ": 1224,
      "ⲣ": 1225,
      "ⲥ": 1226,
      "ⲧ": 1227,
      "ⲩ": 1228,
      "ⴰ": 1229,
      "ⴳ": 1230,
      "ⴷ": 1231,
      "ⵉ": 1232,
      "ⵍ": 1233,
      "ⵎ": 1234,
      "ⵏ": 1235,
      "ⵓ": 1236,
      "ⵖ": 1237,
      "ⵙ": 1238,
      "ⵜ": 1239,
      "ⵝ": 1240,
      "ⵡ": 1241,
      "ⵣ": 1242,
      "「": 1243,
      "」": 1244,
      "あ": 1245,
      "い": 1246,
      "お": 1247,
      "か": 1248,
      "げ": 1249,
      "し": 1250,
      "じ": 1251,
      "た": 1252,
      "ち": 1253,
      "っ": 1254,
      "つ": 1255,
      "と": 1256,
      "な": 1257,
      "の": 1258,
      "ふ": 1259,
      "ん": 1260,
      "ア": 1261,
      "ィ": 1262,
      "イ": 1263,
      "オ": 1264,
      "ガ": 1265,
      "キ": 1266,
      "ク": 1267,
      "グ": 1268,
      "ゴ": 1269,
      "サ": 1270,
      "ザ": 1271,
      "シ": 1272,
      "ジ": 1273,
      "ス": 1274,
      "ズ": 1275,
      "セ": 1276,
      "ゼ": 1277,
      "タ": 1278,
      "ッ": 1279,
      "ツ": 1280,
      "テ": 1281,
      "ト": 1282,
      "ド": 1283,
      "ニ": 1284,
      "バ": 1285,
      "ヒ": 1286,
      "ブ": 1287,
      "プ": 1288,
      "ベ": 1289,
      "ポ": 1290,
      "メ": 1291,
      "ュ": 1292,
      "ユ": 1293,
      "ョ": 1294,
      "ラ": 1295,
      "リ": 1296,
      "ル": 1297,
      "レ": 1298,
      "ロ": 1299,
      "ン": 1300,
      "ヴ": 1301,
      "・": 1302,
      "ー": 1303,
      "ㄆ": 1304,
      "ㄇ": 1305,
      "ㄊ": 1306,
      "ㄋ": 1307,
      "ㄝ": 1308,
      "ㄨ": 1309,
      "ㄲ": 1310,
      "ㄹ": 1311,
      "ㅂ": 1312,
      "ㅇ": 1313,
      "ㅓ": 1314,
      "ㅜ": 1315,
      "ㆿ": 1316,
      "一": 1317,
      "丁": 1318,
      "三": 1319,
      "上": 1320,
      "下": 1321,
      "世": 1322,
      "东": 1323,
      "中": 1324,
      "丹": 1325,
      "主": 1326,
      "之": 1327,
      "乐": 1328,
      "九": 1329,
      "乡": 1330,
      "二": 1331,
      "于": 1332,
      "云": 1333,
      "五": 1334,
      "京": 1335,
      "亭": 1336,
      "人": 1337,
      "介": 1338,
      "仔": 1339,
      "他": 1340,
      "仗": 1341,
      "仙": 1342,
      "代": 1343,
      "令": 1344,
      "份": 1345,
      "会": 1346,
      "伝": 1347,
      "传": 1348,
      "佛": 1349,
      "信": 1350,
      "個": 1351,
      "傳": 1352,
      "僑": 1353,
      "僧": 1354,
      "儒": 1355,
      "儿": 1356,
      "元": 1357,
      "兆": 1358,
      "光": 1359,
      "克": 1360,
      "內": 1361,
      "八": 1362,
      "公": 1363,
      "关": 1364,
      "兵": 1365,
      "内": 1366,
      "军": 1367,
      "农": 1368,
      "冰": 1369,
      "出": 1370,
      "刀": 1371,
      "刊": 1372,
      "劉": 1373,
      "力": 1374,
      "勐": 1375,
      "化": 1376,
      "北": 1377,
      "区": 1378,
      "医": 1379,
      "十": 1380,
      "南": 1381,
      "原": 1382,
      "又": 1383,
      "口": 1384,
      "史": 1385,
      "号": 1386,
      "司": 1387,
      "合": 1388,
      "君": 1389,
      "呂": 1390,
      "员": 1391,
      "周": 1392,
      "品": 1393,
      "唐": 1394,
      "嘉": 1395,
      "噶": 1396,
      "噺": 1397,
      "四": 1398,
      "园": 1399,
      "国": 1400,
      "國": 1401,
      "團": 1402,
      "地": 1403,
      "场": 1404,
      "城": 1405,
      "堂": 1406,
      "報": 1407,
      "大": 1408,
      "天": 1409,
      "太": 1410,
      "头": 1411,
      "奇": 1412,
      "契": 1413,
      "女": 1414,
      "妈": 1415,
      "妙": 1416,
      "媒": 1417,
      "子": 1418,
      "字": 1419,
      "孝": 1420,
      "孟": 1421,
      "学": 1422,
      "孩": 1423,
      "學": 1424,
      "安": 1425,
      "宋": 1426,
      "官": 1427,
      "定": 1428,
      "客": 1429,
      "宣": 1430,
      "宮": 1431,
      "家": 1432,
      "富": 1433,
      "實": 1434,
      "寧": 1435,
      "寺": 1436,
      "將": 1437,
      "尉": 1438,
      "小": 1439,
      "少": 1440,
      "尚": 1441,
      "就": 1442,
      "局": 1443,
      "居": 1444,
      "屋": 1445,
      "屯": 1446,
      "山": 1447,
      "岩": 1448,
      "岬": 1449,
      "嶺": 1450,
      "州": 1451,
      "工": 1452,
      "左": 1453,
      "巴": 1454,
      "布": 1455,
      "帛": 1456,
      "帝": 1457,
      "師": 1458,
      "平": 1459,
      "年": 1460,
      "广": 1461,
      "府": 1462,
      "度": 1463,
      "座": 1464,
      "庶": 1465,
      "康": 1466,
      "廣": 1467,
      "廷": 1468,
      "強": 1469,
      "影": 1470,
      "役": 1471,
      "徑": 1472,
      "德": 1473,
      "徽": 1474,
      "忍": 1475,
      "志": 1476,
      "急": 1477,
      "性": 1478,
      "怪": 1479,
      "悅": 1480,
      "情": 1481,
      "愚": 1482,
      "愛": 1483,
      "憺": 1484,
      "戊": 1485,
      "成": 1486,
      "战": 1487,
      "戲": 1488,
      "戴": 1489,
      "扇": 1490,
      "手": 1491,
      "扎": 1492,
      "拉": 1493,
      "拭": 1494,
      "拱": 1495,
      "拳": 1496,
      "拼": 1497,
      "插": 1498,
      "擔": 1499,
      "支": 1500,
      "敎": 1501,
      "教": 1502,
      "文": 1503,
      "新": 1504,
      "施": 1505,
      "族": 1506,
      "日": 1507,
      "时": 1508,
      "昇": 1509,
      "昌": 1510,
      "明": 1511,
      "映": 1512,
      "春": 1513,
      "昭": 1514,
      "昶": 1515,
      "時": 1516,
      "晚": 1517,
      "普": 1518,
      "曲": 1519,
      "書": 1520,
      "曼": 1521,
      "會": 1522,
      "月": 1523,
      "有": 1524,
      "朝": 1525,
      "木": 1526,
      "本": 1527,
      "村": 1528,
      "杜": 1529,
      "杨": 1530,
      "東": 1531,
      "林": 1532,
      "校": 1533,
      "梁": 1534,
      "棦": 1535,
      "橡": 1536,
      "次": 1537,
      "欽": 1538,
      "正": 1539,
      "武": 1540,
      "殷": 1541,
      "毅": 1542,
      "母": 1543,
      "氏": 1544,
      "民": 1545,
      "水": 1546,
      "永": 1547,
      "汉": 1548,
      "江": 1549,
      "沖": 1550,
      "河": 1551,
      "沼": 1552,
      "泊": 1553,
      "法": 1554,
      "波": 1555,
      "注": 1556,
      "洁": 1557,
      "洋": 1558,
      "洪": 1559,
      "活": 1560,
      "流": 1561,
      "海": 1562,
      "浸": 1563,
      "淮": 1564,
      "清": 1565,
      "港": 1566,
      "湖": 1567,
      "準": 1568,
      "滑": 1569,
      "漢": 1570,
      "漫": 1571,
      "火": 1572,
      "炳": 1573,
      "無": 1574,
      "燕": 1575,
      "爸": 1576,
      "爹": 1577,
      "片": 1578,
      "版": 1579,
      "独": 1580,
      "狼": 1581,
      "獨": 1582,
      "玄": 1583,
      "玉": 1584,
      "王": 1585,
      "玲": 1586,
      "珊": 1587,
      "環": 1588,
      "瓷": 1589,
      "生": 1590,
      "用": 1591,
      "田": 1592,
      "甲": 1593,
      "电": 1594,
      "畫": 1595,
      "白": 1596,
      "百": 1597,
      "皇": 1598,
      "目": 1599,
      "直": 1600,
      "省": 1601,
      "眾": 1602,
      "瞳": 1603,
      "研": 1604,
      "硏": 1605,
      "社": 1606,
      "祇": 1607,
      "祖": 1608,
      "祥": 1609,
      "福": 1610,
      "秀": 1611,
      "秋": 1612,
      "秦": 1613,
      "稽": 1614,
      "立": 1615,
      "竺": 1616,
      "符": 1617,
      "第": 1618,
      "等": 1619,
      "策": 1620,
      "粤": 1621,
      "粵": 1622,
      "系": 1623,
      "約": 1624,
      "紫": 1625,
      "紹": 1626,
      "網": 1627,
      "綽": 1628,
      "編": 1629,
      "縄": 1630,
      "縣": 1631,
      "縱": 1632,
      "统": 1633,
      "羅": 1634,
      "群": 1635,
      "翠": 1636,
      "翼": 1637,
      "耳": 1638,
      "联": 1639,
      "聖": 1640,
      "肚": 1641,
      "股": 1642,
      "胶": 1643,
      "脩": 1644,
      "自": 1645,
      "興": 1646,
      "舊": 1647,
      "芋": 1648,
      "芒": 1649,
      "芝": 1650,
      "芦": 1651,
      "花": 1652,
      "苑": 1653,
      "茂": 1654,
      "茵": 1655,
      "茹": 1656,
      "荆": 1657,
      "荊": 1658,
      "荣": 1659,
      "華": 1660,
      "营": 1661,
      "落": 1662,
      "董": 1663,
      "蒼": 1664,
      "蕭": 1665,
      "藝": 1666,
      "藤": 1667,
      "號": 1668,
      "虫": 1669,
      "虹": 1670,
      "螽": 1671,
      "行": 1672,
      "衛": 1673,
      "襄": 1674,
      "西": 1675,
      "覇": 1676,
      "解": 1677,
      "言": 1678,
      "話": 1679,
      "語": 1680,
      "談": 1681,
      "論": 1682,
      "譜": 1683,
      "議": 1684,
      "计": 1685,
      "话": 1686,
      "语": 1687,
      "貶": 1688,
      "資": 1689,
      "赤": 1690,
      "越": 1691,
      "趙": 1692,
      "蹟": 1693,
      "軽": 1694,
      "辰": 1695,
      "迎": 1696,
      "通": 1697,
      "連": 1698,
      "道": 1699,
      "選": 1700,
      "遼": 1701,
      "那": 1702,
      "郎": 1703,
      "郗": 1704,
      "郡": 1705,
      "部": 1706,
      "郭": 1707,
      "都": 1708,
      "鄧": 1709,
      "鄭": 1710,
      "釋": 1711,
      "里": 1712,
      "金": 1713,
      "錄": 1714,
      "鎮": 1715,
      "門": 1716,
      "間": 1717,
      "關": 1718,
      "间": 1719,
      "陈": 1720,
      "限": 1721,
      "院": 1722,
      "陣": 1723,
      "陳": 1724,
      "陵": 1725,
      "陶": 1726,
      "陷": 1727,
      "陽": 1728,
      "隊": 1729,
      "隶": 1730,
      "集": 1731,
      "雙": 1732,
      "難": 1733,
      "雪": 1734,
      "零": 1735,
      "電": 1736,
      "音": 1737,
      "頂": 1738,
      "順": 1739,
      "領": 1740,
      "頭": 1741,
      "養": 1742,
      "首": 1743,
      "馬": 1744,
      "體": 1745,
      "高": 1746,
      "魅": 1747,
      "魏": 1748,
      "鯨": 1749,
      "鱼": 1750,
      "鶴": 1751,
      "麵": 1752,
      "黃": 1753,
      "龍": 1754,
      "龙": 1755,
      "ꘓ": 1756,
      "ꘘ": 1757,
      "ꜣ": 1758,
      "ꜥ": 1759,
      "Ꜧ": 1760,
      "ꜧ": 1761,
      "ꞌ": 1762,
      "꟎": 1763,
      "꟏": 1764,
      "ꭥ": 1765,
      "ꭧ": 1766,
      "가": 1767,
      "고": 1768,
      "구": 1769,
      "국": 1770,
      "글": 1771,
      "기": 1772,
      "꿀": 1773,
      "네": 1774,
      "니": 1775,
      "돌": 1776,
      "만": 1777,
      "메": 1778,
      "무": 1779,
      "문": 1780,
      "미": 1781,
      "민": 1782,
      "바": 1783,
      "받": 1784,
      "벌": 1785,
      "복": 1786,
      "본": 1787,
      "북": 1788,
      "사": 1789,
      "산": 1790,
      "서": 1791,
      "석": 1792,
      "선": 1793,
      "션": 1794,
      "애": 1795,
      "어": 1796,
      "열": 1797,
      "영": 1798,
      "예": 1799,
      "요": 1800,
      "원": 1801,
      "웹": 1802,
      "윤": 1803,
      "음": 1804,
      "의": 1805,
      "이": 1806,
      "인": 1807,
      "자": 1808,
      "정": 1809,
      "제": 1810,
      "조": 1811,
      "체": 1812,
      "침": 1813,
      "툰": 1814,
      "하": 1815,
      "한": 1816,
      "합": 1817,
      "화": 1818,
      "회": 1819,
      "훈": 1820,
      "️": 1821,
      "﻿": 1822,
      "（": 1823,
      "）": 1824,
      "，": 1825,
      "／": 1826,
      "～": 1827,
      "￼": 1828,
      "𐅸": 1829,
      "𐞑": 1830,
      "𐡀": 1831,
      "𐡉": 1832,
      "𐡊": 1833,
      "𐡐": 1834,
      "𐭤": 1835,
      "𐭥": 1836,
      "𐭬": 1837,
      "𐭭": 1838,
      "𑚊": 1839,
      "𑚔": 1840,
      "𑚤": 1841,
      "𑚫": 1842,
      "𑚭": 1843,
      "𑚯": 1844,
      "𑠊": 1845,
      "𑠔": 1846,
      "𑠤": 1847,
      "𑠬": 1848,
      "𑠮": 1849,
      "𒀭": 1850,
      "𒃶": 1851,
      "𒅆": 1852,
      "𒅋": 1853,
      "𒉌": 1854,
      "𓂀": 1855,
      "𓅃": 1856,
      "🌮": 1857,
      "🌸": 1858,
      "🌿": 1859,
      "🍇": 1860,
      "🏻": 1861,
      "🏼": 1862,
      "🏽": 1863,
      "🏿": 1864,
      "👀": 1865,
      "👃": 1866,
      "👈": 1867,
      "👉": 1868,
      "👋": 1869,
      "👍": 1870,
      "👎": 1871,
      "👹": 1872,
      "💀": 1873,
      "💔": 1874,
      "💕": 1875,
      "💚": 1876,
      "💝": 1877,
      "💨": 1878,
      "💩": 1879,
      "💰": 1880,
      "🖤": 1881,
      "😁": 1882,
      "😂": 1883,
      "😃": 1884,
      "😄": 1885,
      "😅": 1886,
      "😉": 1887,
      "😊": 1888,
      "😐": 1889,
      "😑": 1890,
      "😔": 1891,
      "😕": 1892,
      "😘": 1893,
      "😙": 1894,
      "😞": 1895,
      "😢": 1896,
      "😩": 1897,
      "😫": 1898,
      "😭": 1899,
      "😮": 1900,
      "🙁": 1901,
      "🙂": 1902,
      "🙃": 1903,
      "🙄": 1904,
      "🙈": 1905,
      "🙏": 1906,
      "🚩": 1907,
      "🚫": 1908,
      "🤔": 1909,
      "🤣": 1910,
      "🤦": 1911,
      "🤧": 1912,
      "🤨": 1913,
      "🤮": 1914,
      "🤯": 1915,
      "🤷": 1916,
      "🥲": 1917,
      "🥴": 1918,
      "🥺": 1919,
      "🦀": 1920,
      "🧚": 1921,
      "🩷": 1922,
      "🫂": 1923,
      "🫶": 1924,
      "th": 1925,
      "in": 1926,
      "an": 1927,
      "er": 1928,
      "on": 1929,
      "the": 1930,
      "en": 1931,
      "at": 1932,
      "re": 1933,
      "ing": 1934,
      "al": 1935,
      "or": 1936,
      "and": 1937,
      "es": 1938,
      "is": 1939,
      "ed": 1940,
      "it": 1941,
      "to": 1942,
      "ar": 1943,
      "ou": 1944,
      "as": 1945,
      "of": 1946,
      "ion": 1947,
      "ic": 1948,
      "st": 1949,
      "le": 1950,
      "om": 1951,
      "he": 1952,
      "ent": 1953,
      "ly": 1954,
      "ac": 1955,
      "se": 1956,
      "ve": 1957,
      "il": 1958,
      "be": 1959,
      "for": 1960,
      "ad": 1961,
      "ch": 1962,
      "im": 1963,
      "ro": 1964,
      "ver": 1965,
      "ation": 1966,
      "ow": 1967,
      "de": 1968,
      "am": 1969,
      "un": 1970,
      "ol": 1971,
      "ter": 1972,
      "ce": 1973,
      "ur": 1974,
      "ig": 1975,
      "that": 1976,
      "wi": 1977,
      "ab": 1978,
      "tr": 1979,
      "ot": 1980,
      "wh": 1981,
      "ut": 1982,
      "con": 1983,
      "ct": 1984,
      "el": 1985,
      "ay": 1986,
      "The": 1987,
      "with": 1988,
      "ir": 1989,
      "id": 1990,
      "ul": 1991,
      "com": 1992,
      "ex": 1993,
      "ap": 1994,
      "mo": 1995,
      "su": 1996,
      "ag": 1997,
      "ther": 1998,
      "res": 1999,
      "me": 2000,
      "li": 2001,
      "sh": 2002,
      "was": 2003,
      "fr": 2004,
      "my": 2005,
      "his": 2006,
      "lo": 2007,
      "us": 2008,
      "fe": 2009,
      "pe": 2010,
      "em": 2011,
      "per": 2012,
      "ant": 2013,
      "out": 2014,
      "her": 2015,
      "ke": 2016,
      "are": 2017,
      "ne": 2018,
      "all": 2019,
      "pro": 2020,
      "di": 2021,
      "ate": 2022,
      "ld": 2023,
      "so": 2024,
      "ha": 2025,
      "ess": 2026,
      "ment": 2027,
      "ity": 2028,
      "pl": 2029,
      "end": 2030,
      "ain": 2031,
      "oun": 2032,
      "ive": 2033,
      "ci": 2034,
      "est": 2035,
      "act": 2036,
      "art": 2037,
      "vi": 2038,
      "ge": 2039,
      "ally": 2040,
      "this": 2041,
      "we": 2042,
      "gh": 2043,
      "but": 2044,
      "our": 2045,
      "one": 2046,
      "igh": 2047,
      "po": 2048,
      "ist": 2049,
      "qu": 2050,
      "ies": 2051,
      "if": 2052,
      "ers": 2053,
      "by": 2054,
      "ome": 2055,
      "have": 2056,
      "ous": 2057,
      "its": 2058,
      "ip": 2059,
      "pr": 2060,
      "wor": 2061,
      "ough": 2062,
      "from": 2063,
      "ust": 2064,
      "ts": 2065,
      "king": 2066,
      "not": 2067,
      "over": 2068,
      "man": 2069,
      "ould": 2070,
      "fil": 2071,
      "au": 2072,
      "der": 2073,
      "has": 2074,
      "ere": 2075,
      "por": 2076,
      "iv": 2077,
      "tim": 2078,
      "cl": 2079,
      "ill": 2080,
      "gr": 2081,
      "film": 2082,
      "ions": 2083,
      "ast": 2084,
      "op": 2085,
      "ma": 2086,
      "able": 2087,
      "ound": 2088,
      "od": 2089,
      "some": 2090,
      "up": 2091,
      "ack": 2092,
      "ence": 2093,
      "ated": 2094,
      "ev": 2095,
      "In": 2096,
      "te": 2097,
      "their": 2098,
      "ure": 2099,
      "ical": 2100,
      "she": 2101,
      "um": 2102,
      "ever": 2103,
      "ell": 2104,
      "now": 2105,
      "ong": 2106,
      "vie": 2107,
      "ance": 2108,
      "iz": 2109,
      "ish": 2110,
      "do": 2111,
      "pre": 2112,
      "ine": 2113,
      "str": 2114,
      "ich": 2115,
      "ces": 2116,
      "bo": 2117,
      "ard": 2118,
      "ight": 2119,
      "dis": 2120,
      "can": 2121,
      "ory": 2122,
      "19": 2123,
      "ear": 2124,
      "other": 2125,
      "rel": 2126,
      "It": 2127,
      "thing": 2128,
      "ind": 2129,
      "ult": 2130,
      "him": 2131,
      "sc": 2132,
      "about": 2133,
      "any": 2134,
      "gu": 2135,
      "age": 2136,
      "been": 2137,
      "sp": 2138,
      "go": 2139,
      "br": 2140,
      "port": 2141,
      "feel": 2142,
      "ach": 2143,
      "part": 2144,
      "char": 2145,
      "av": 2146,
      "ary": 2147,
      "ign": 2148,
      "pres": 2149,
      "int": 2150,
      "ud": 2151,
      "ship": 2152,
      "ans": 2153,
      "way": 2154,
      "ame": 2155,
      "ations": 2156,
      "more": 2157,
      "et": 2158,
      "comp": 2159,
      "like": 2160,
      "comm": 2161,
      "ial": 2162,
      "you": 2163,
      "had": 2164,
      "time": 2165,
      "iend": 2166,
      "cre": 2167,
      "also": 2168,
      "friend": 2169,
      "cr": 2170,
      "who": 2171,
      "co": 2172,
      "which": 2173,
      "ass": 2174,
      "were": 2175,
      "ile": 2176,
      "ents": 2177,
      "af": 2178,
      "ef": 2179,
      "no": 2180,
      "ating": 2181,
      "fer": 2182,
      "cent": 2183,
      "ice": 2184,
      "form": 2185,
      "ition": 2186,
      "cont": 2187,
      "ens": 2188,
      "ful": 2189,
      "ser": 2190,
      "they": 2191,
      "ep": 2192,
      "ta": 2193,
      "ore": 2194,
      "bl": 2195,
      "du": 2196,
      "ious": 2197,
      "20": 2198,
      "know": 2199,
      "thr": 2200,
      "fl": 2201,
      "acter": 2202,
      "just": 2203,
      "Th": 2204,
      "character": 2205,
      "He": 2206,
      "them": 2207,
      "ian": 2208,
      "inter": 2209,
      "This": 2210,
      "pect": 2211,
      "under": 2212,
      "cess": 2213,
      "sel": 2214,
      "ual": 2215,
      "ib": 2216,
      "aw": 2217,
      "eng": 2218,
      "movie": 2219,
      "into": 2220,
      "want": 2221,
      "ia": 2222,
      "ite": 2223,
      "own": 2224,
      "gen": 2225,
      "ction": 2226,
      "would": 2227,
      "work": 2228,
      "ph": 2229,
      "year": 2230,
      "uring": 2231,
      "ty": 2232,
      "ire": 2233,
      "bet": 2234,
      "arr": 2235,
      "son": 2236,
      "when": 2237,
      "cial": 2238,
      "bec": 2239,
      "ade": 2240,
      "oc": 2241,
      "ities": 2242,
      "stand": 2243,
      "pos": 2244,
      "peri": 2245,
      "pt": 2246,
      "vers": 2247,
      "adv": 2248,
      "ber": 2249,
      "ace": 2250,
      "ok": 2251,
      "get": 2252,
      "dr": 2253,
      "ative": 2254,
      "Ch": 2255,
      "ific": 2256,
      "og": 2257,
      "Wh": 2258,
      "ors": 2259,
      "att": 2260,
      "ily": 2261,
      "vis": 2262,
      "ates": 2263,
      "through": 2264,
      "reg": 2265,
      "des": 2266,
      "off": 2267,
      "tain": 2268,
      "An": 2269,
      "play": 2270,
      "ict": 2271,
      "relation": 2272,
      "ide": 2273,
      "fa": 2274,
      "how": 2275,
      "vid": 2276,
      "land": 2277,
      "relationship": 2278,
      "sy": 2279,
      "story": 2280,
      "most": 2281,
      "ll": 2282,
      "cap": 2283,
      "did": 2284,
      "incl": 2285,
      "self": 2286,
      "what": 2287,
      "try": 2288,
      "How": 2289,
      "day": 2290,
      "tri": 2291,
      "ark": 2292,
      "such": 2293,
      "ional": 2294,
      "don": 2295,
      "irst": 2296,
      "spe": 2297,
      "back": 2298,
      "coun": 2299,
      "ext": 2300,
      "add": 2301,
      "ten": 2302,
      "ause": 2303,
      "old": 2304,
      "ings": 2305,
      "ments": 2306,
      "ved": 2307,
      "ences": 2308,
      "though": 2309,
      "ak": 2310,
      "ater": 2311,
      "fect": 2312,
      "ced": 2313,
      "tal": 2314,
      "every": 2315,
      "ang": 2316,
      "main": 2317,
      "sa": 2318,
      "ning": 2319,
      "tw": 2320,
      "even": 2321,
      "ue": 2322,
      "ves": 2323,
      "ving": 2324,
      "Un": 2325,
      "there": 2326,
      "sign": 2327,
      "ational": 2328,
      "ween": 2329,
      "well": 2330,
      "ting": 2331,
      "hel": 2332,
      "min": 2333,
      "col": 2334,
      "fam": 2335,
      "jo": 2336,
      "mon": 2337,
      "fin": 2338,
      "ural": 2339,
      "pol": 2340,
      "between": 2341,
      "inv": 2342,
      "reat": 2343,
      "lop": 2344,
      "dif": 2345,
      "ular": 2346,
      "being": 2347,
      "see": 2348,
      "only": 2349,
      "led": 2350,
      "rit": 2351,
      "velop": 2352,
      "experi": 2353,
      "St": 2354,
      "could": 2355,
      "par": 2356,
      "ele": 2357,
      "ility": 2358,
      "used": 2359,
      "sit": 2360,
      "here": 2361,
      "imp": 2362,
      "made": 2363,
      "less": 2364,
      "var": 2365,
      "stru": 2366,
      "develop": 2367,
      "first": 2368,
      "sup": 2369,
      "new": 2370,
      "than": 2371,
      "where": 2372,
      "loc": 2373,
      "row": 2374,
      "hist": 2375,
      "view": 2376,
      "because": 2377,
      "cur": 2378,
      "cer": 2379,
      "low": 2380,
      "ick": 2381,
      "set": 2382,
      "ise": 2383,
      "cons": 2384,
      "ree": 2385,
      "olog": 2386,
      "However": 2387,
      "mer": 2388,
      "after": 2389,
      "life": 2390,
      "come": 2391,
      "As": 2392,
      "both": 2393,
      "ures": 2394,
      "),": 2395,
      "cho": 2396,
      "mom": 2397,
      "years": 2398,
      "includ": 2399,
      "ins": 2400,
      "commun": 2401,
      "med": 2402,
      "ra": 2403,
      "may": 2404,
      "uch": 2405,
      "ense": 2406,
      "ism": 2407,
      "dep": 2408,
      "while": 2409,
      "world": 2410,
      "ner": 2411,
      "these": 2412,
      "arch": 2413,
      "ath": 2414,
      "cor": 2415,
      "cas": 2416,
      "really": 2417,
      ").": 2418,
      "les": 2419,
      "ited": 2420,
      "So": 2421,
      "ress": 2422,
      "ics": 2423,
      "make": 2424,
      "very": 2425,
      "sub": 2426,
      "ese": 2427,
      "action": 2428,
      "press": 2429,
      "characters": 2430,
      "cult": 2431,
      "ted": 2432,
      "ie": 2433,
      "ately": 2434,
      "Fr": 2435,
      "person": 2436,
      "signific": 2437,
      "app": 2438,
      "fic": 2439,
      "start": 2440,
      "long": 2441,
      "uc": 2442,
      "comple": 2443,
      "ince": 2444,
      "We": 2445,
      "situ": 2446,
      "She": 2447,
      "need": 2448,
      "mis": 2449,
      "ople": 2450,
      "..": 2451,
      "fore": 2452,
      "then": 2453,
      "ss": 2454,
      "show": 2455,
      "ys": 2456,
      "family": 2457,
      "ized": 2458,
      "gg": 2459,
      "mem": 2460,
      "atch": 2461,
      "ob": 2462,
      "point": 2463,
      "emot": 2464,
      "ks": 2465,
      "understand": 2466,
      "00": 2467,
      "thin": 2468,
      "18": 2469,
      "emp": 2470,
      "prom": 2471,
      "making": 2472,
      "capt": 2473,
      "seem": 2474,
      "high": 2475,
      "ild": 2476,
      "ied": 2477,
      "say": 2478,
      "ubl": 2479,
      "tribut": 2480,
      "lish": 2481,
      "ling": 2482,
      "two": 2483,
      "help": 2484,
      "during": 2485,
      "lack": 2486,
      "je": 2487,
      "found": 2488,
      "various": 2489,
      "tern": 2490,
      "trans": 2491,
      "lit": 2492,
      "ages": 2493,
      "My": 2494,
      "people": 2495,
      "ward": 2496,
      "gan": 2497,
      "inst": 2498,
      "does": 2499,
      "will": 2500,
      "ave": 2501,
      "call": 2502,
      "care": 2503,
      "known": 2504,
      "use": 2505,
      "exp": 2506,
      "lan": 2507,
      "ually": 2508,
      "gether": 2509,
      "ked": 2510,
      "ange": 2511,
      "cept": 2512,
      "ustr": 2513,
      "bre": 2514,
      "often": 2515,
      "should": 2516,
      "real": 2517,
      "including": 2518,
      "sur": 2519,
      "ons": 2520,
      "together": 2521,
      "said": 2522,
      "dec": 2523,
      "lead": 2524,
      "fort": 2525,
      "issu": 2526,
      "che": 2527,
      "significant": 2528,
      "contin": 2529,
      "fun": 2530,
      "sol": 2531,
      "stem": 2532,
      "oup": 2533,
      "differ": 2534,
      "situation": 2535,
      "val": 2536,
      "ble": 2537,
      "sequ": 2538,
      "urther": 2539,
      "audi": 2540,
      "ident": 2541,
      "sure": 2542,
      "ho": 2543,
      "ft": 2544,
      "ort": 2545,
      "many": 2546,
      "support": 2547,
      "Ar": 2548,
      "much": 2549,
      "cle": 2550,
      "ond": 2551,
      "find": 2552,
      "ways": 2553,
      "ith": 2554,
      "didn": 2555,
      "hu": 2556,
      "each": 2557,
      "again": 2558,
      "produ": 2559,
      "ability": 2560,
      "amp": 2561,
      "scen": 2562,
      "bu": 2563,
      "tur": 2564,
      "uni": 2565,
      "ower": 2566,
      "beli": 2567,
      "augh": 2568,
      "bro": 2569,
      "role": 2570,
      "good": 2571,
      "ose": 2572,
      "leg": 2573,
      "top": 2574,
      "experience": 2575,
      "ible": 2576,
      "system": 2577,
      "line": 2578,
      "cy": 2579,
      "langu": 2580,
      "ature": 2581,
      "bas": 2582,
      "great": 2583,
      "ential": 2584,
      "ject": 2585,
      "got": 2586,
      "times": 2587,
      "forman": 2588,
      "pop": 2589,
      "soci": 2590,
      "num": 2591,
      "hand": 2592,
      "provid": 2593,
      "fel": 2594,
      "effect": 2595,
      "performan": 2596,
      "ists": 2597,
      "fo": 2598,
      "let": 2599,
      "atic": 2600,
      "partic": 2601,
      "While": 2602,
      "tell": 2603,
      "kes": 2604,
      "tle": 2605,
      "red": 2606,
      "around": 2607,
      "polit": 2608,
      "Al": 2609,
      "appro": 2610,
      "love": 2611,
      "nam": 2612,
      "irl": 2613,
      "divid": 2614,
      "conne": 2615,
      "allow": 2616,
      "tru": 2617,
      "present": 2618,
      "things": 2619,
      "left": 2620,
      "ution": 2621,
      "lect": 2622,
      "dist": 2623,
      "felt": 2624,
      "still": 2625,
      "vel": 2626,
      "contribut": 2627,
      "mark": 2628,
      "mus": 2629,
      "never": 2630,
      "als": 2631,
      "plot": 2632,
      "advice": 2633,
      "import": 2634,
      "overn": 2635,
      "told": 2636,
      "within": 2637,
      "These": 2638,
      "fi": 2639,
      "girl": 2640,
      "que": 2641,
      "leav": 2642,
      "publ": 2643,
      "fac": 2644,
      "gener": 2645,
      "ru": 2646,
      "read": 2647,
      "ices": 2648,
      "ness": 2649,
      "ights": 2650,
      "resp": 2651,
      "dire": 2652,
      "light": 2653,
      "ently": 2654,
      "cast": 2655,
      "happ": 2656,
      "without": 2657,
      "ically": 2658,
      "suc": 2659,
      "lar": 2660,
      "your": 2661,
      "development": 2662,
      "ven": 2663,
      "chool": 2664,
      "ross": 2665,
      "ablish": 2666,
      "aim": 2667,
      "ew": 2668,
      "aph": 2669,
      "orig": 2670,
      "One": 2671,
      "ters": 2672,
      "centur": 2673,
      "ollow": 2674,
      "ize": 2675,
      "feeling": 2676,
      "put": 2677,
      "alth": 2678,
      "ouse": 2679,
      "down": 2680,
      "ms": 2681,
      "ec": 2682,
      "something": 2683,
      "cond": 2684,
      "since": 2685,
      "too": 2686,
      "history": 2687,
      "power": 2688,
      "before": 2689,
      "clo": 2690,
      "ann": 2691,
      "They": 2692,
      "ital": 2693,
      "heart": 2694,
      "ives": 2695,
      "os": 2696,
      "But": 2697,
      "friends": 2698,
      "cient": 2699,
      "establish": 2700,
      "ement": 2701,
      "flu": 2702,
      "ider": 2703,
      "few": 2704,
      "expl": 2705,
      "fully": 2706,
      "different": 2707,
      "uals": 2708,
      "dom": 2709,
      "ican": 2710,
      "Ad": 2711,
      "air": 2712,
      "think": 2713,
      "Re": 2714,
      "individ": 2715,
      "recent": 2716,
      "trad": 2717,
      "national": 2718,
      "bal": 2719,
      "interest": 2720,
      "inal": 2721,
      "ying": 2722,
      "using": 2723,
      "always": 2724,
      "Amer": 2725,
      "En": 2726,
      "conom": 2727,
      "going": 2728,
      "deli": 2729,
      "graph": 2730,
      "social": 2731,
      "boy": 2732,
      "chn": 2733,
      "grow": 2734,
      "govern": 2735,
      "ars": 2736,
      "serv": 2737,
      "pot": 2738,
      "incre": 2739,
      "personal": 2740,
      "gn": 2741,
      "vide": 2742,
      "vo": 2743,
      "watch": 2744,
      "quest": 2745,
      "cultural": 2746,
      "turn": 2747,
      "ref": 2748,
      "ilar": 2749,
      "200": 2750,
      "sever": 2751,
      "take": 2752,
      "sm": 2753,
      "chall": 2754,
      "fail": 2755,
      "thought": 2756,
      "disc": 2757,
      "ds": 2758,
      "speci": 2759,
      "pass": 2760,
      "bor": 2761,
      "keep": 2762,
      "uss": 2763,
      "right": 2764,
      "unt": 2765,
      "hum": 2766,
      "human": 2767,
      "last": 2768,
      "ase": 2769,
      "home": 2770,
      "ines": 2771,
      "tic": 2772,
      "uine": 2773,
      "ention": 2774,
      "group": 2775,
      "econom": 2776,
      "continu": 2777,
      "place": 2778,
      "ale": 2779,
      "versity": 2780,
      "class": 2781,
      "organ": 2782,
      "bit": 2783,
      "cing": 2784,
      "appe": 2785,
      "mar": 2786,
      "same": 2787,
      "leaving": 2788,
      "overall": 2789,
      "won": 2790,
      "cted": 2791,
      "engag": 2792,
      "erg": 2793,
      "genuine": 2794,
      "sk": 2795,
      "follow": 2796,
      "miss": 2797,
      "ication": 2798,
      "myself": 2799,
      "fact": 2800,
      "ah": 2801,
      "uro": 2802,
      "best": 2803,
      "ank": 2804,
      "ths": 2805,
      "viewers": 2806,
      "enter": 2807,
      "success": 2808,
      "prof": 2809,
      "comed": 2810,
      "techn": 2811,
      "car": 2812,
      "For": 2813,
      "De": 2814,
      "edd": 2815,
      "consider": 2816,
      "Sh": 2817,
      "ster": 2818,
      "influ": 2819,
      "political": 2820,
      "moments": 2821,
      "expect": 2822,
      "impact": 2823,
      "war": 2824,
      "Is": 2825,
      "became": 2826,
      "early": 2827,
      "particular": 2828,
      "ister": 2829,
      "ired": 2830,
      "preci": 2831,
      "ason": 2832,
      "ively": 2833,
      "band": 2834,
      "those": 2835,
      "cour": 2836,
      "ended": 2837,
      "201": 2838,
      "depth": 2839,
      "az": 2840,
      "ilit": 2841,
      "stud": 2842,
      "offer": 2843,
      "itions": 2844,
      "spect": 2845,
      "199": 2846,
      "wide": 2847,
      "little": 2848,
      "ending": 2849,
      "lot": 2850,
      "captiv": 2851,
      "side": 2852,
      "ground": 2853,
      "pur": 2854,
      "remain": 2855,
      "aut": 2856,
      "narr": 2857,
      "tract": 2858,
      "played": 2859,
      "istic": 2860,
      "health": 2861,
      "move": 2862,
      "qual": 2863,
      "ry": 2864,
      "city": 2865,
      "throughout": 2866,
      "search": 2867,
      "school": 2868,
      "century": 2869,
      "challeng": 2870,
      "cin": 2871,
      "ety": 2872,
      "joy": 2873,
      "appreci": 2874,
      "emotional": 2875,
      "writ": 2876,
      "And": 2877,
      "His": 2878,
      "open": 2879,
      "Con": 2880,
      "started": 2881,
      "vol": 2882,
      "imm": 2883,
      "state": 2884,
      "ca": 2885,
      "sim": 2886,
      "ared": 2887,
      "oper": 2888,
      "vir": 2889,
      "poss": 2890,
      "io": 2891,
      "ney": 2892,
      "oman": 2893,
      "boyfriend": 2894,
      "humor": 2895,
      "verse": 2896,
      "ought": 2897,
      "United": 2898,
      "house": 2899,
      "Chr": 2900,
      "pite": 2901,
      "ck": 2902,
      "anim": 2903,
      "doesn": 2904,
      "del": 2905,
      "cogn": 2906,
      "respect": 2907,
      "might": 2908,
      "everyone": 2909,
      "tray": 2910,
      "spir": 2911,
      "educ": 2912,
      "Euro": 2913,
      "nor": 2914,
      "acy": 2915,
      "performances": 2916,
      "another": 2917,
      "ulation": 2918,
      "ology": 2919,
      "On": 2920,
      "ams": 2921,
      "feels": 2922,
      "several": 2923,
      "room": 2924,
      "und": 2925,
      "histor": 2926,
      "ances": 2927,
      "language": 2928,
      "hold": 2929,
      "ctor": 2930,
      "later": 2931,
      "result": 2932,
      "ash": 2933,
      "With": 2934,
      "Se": 2935,
      "complex": 2936,
      "jour": 2937,
      "wee": 2938,
      "ren": 2939,
      "Jo": 2940,
      "Nor": 2941,
      "ming": 2942,
      "invol": 2943,
      "sound": 2944,
      "ute": 2945,
      "outh": 2946,
      "la": 2947,
      "become": 2948,
      "cru": 2949,
      "further": 2950,
      "region": 2951,
      "giv": 2952,
      "name": 2953,
      "short": 2954,
      "country": 2955,
      "ably": 2956,
      "concer": 2957,
      "strugg": 2958,
      "jor": 2959,
      "ead": 2960,
      "mean": 2961,
      "Com": 2962,
      "law": 2963,
      "explo": 2964,
      "ially": 2965,
      "truly": 2966,
      "ger": 2967,
      "sequences": 2968,
      "Europe": 2969,
      "away": 2970,
      "process": 2971,
      "itionally": 2972,
      "formation": 2973,
      "comes": 2974,
      "design": 2975,
      "aspect": 2976,
      "narrative": 2977,
      "const": 2978,
      "look": 2979,
      "music": 2980,
      "strong": 2981,
      "across": 2982,
      "Add": 2983,
      "10": 2984,
      "wit": 2985,
      "izing": 2986,
      "dy": 2987,
      "ken": 2988,
      "bad": 2989,
      "New": 2990,
      "public": 2991,
      "went": 2992,
      "ants": 2993,
      "commit": 2994,
      "ization": 2995,
      "ix": 2996,
      "reen": 2997,
      "until": 2998,
      "ape": 2999,
      "head": 3000,
      "approach": 3001,
      "argu": 3002,
      "ude": 3003,
      "fiel": 3004,
      "ensive": 3005,
      "ub": 3006,
      "provide": 3007,
      "taking": 3008,
      "tra": 3009,
      "issues": 3010,
      "ased": 3011,
      "recently": 3012,
      "certain": 3013,
      "important": 3014,
      "Eng": 3015,
      "pract": 3016,
      "requ": 3017,
      "invest": 3018,
      "usband": 3019,
      "enjoy": 3020,
      "contro": 3021,
      "unique": 3022,
      "lim": 3023,
      "due": 3024,
      "ained": 3025,
      "major": 3026,
      "mind": 3027,
      "audience": 3028,
      "chang": 3029,
      "appoint": 3030,
      "sing": 3031,
      "ord": 3032,
      "husband": 3033,
      "research": 3034,
      "asked": 3035,
      "nat": 3036,
      "ament": 3037,
      "called": 3038,
      "build": 3039,
      "period": 3040,
      "init": 3041,
      "conf": 3042,
      "sense": 3043,
      "community": 3044,
      "Af": 3045,
      "level": 3046,
      "bring": 3047,
      "potential": 3048,
      "unning": 3049,
      "relig": 3050,
      "iness": 3051,
      "ived": 3052,
      "Additionally": 3053,
      "urt": 3054,
      "erous": 3055,
      "Mo": 3056,
      "wr": 3057,
      "recogn": 3058,
      "scr": 3059,
      "change": 3060,
      "rest": 3061,
      "struct": 3062,
      "cinem": 3063,
      "youn": 3064,
      "tow": 3065,
      "scenes": 3066,
      "prim": 3067,
      "ago": 3068,
      "ends": 3069,
      "mess": 3070,
      "To": 3071,
      "ior": 3072,
      "American": 3073,
      "wanted": 3074,
      "portray": 3075,
      "maintain": 3076,
      "hon": 3077,
      "having": 3078,
      "government": 3079,
      "sex": 3080,
      "II": 3081,
      "small": 3082,
      "curr": 3083,
      "individuals": 3084,
      "past": 3085,
      "original": 3086,
      "give": 3087,
      "decis": 3088,
      "Christ": 3089,
      "range": 3090,
      "bers": 3091,
      "express": 3092,
      "special": 3093,
      "better": 3094,
      "aughter": 3095,
      "ded": 3096,
      "ket": 3097,
      "ns": 3098,
      "fall": 3099,
      "By": 3100,
      "198": 3101,
      "parents": 3102,
      "hard": 3103,
      "fut": 3104,
      "Le": 3105,
      "At": 3106,
      "cit": 3107,
      "rele": 3108,
      "along": 3109,
      "stu": 3110,
      "foc": 3111,
      "pret": 3112,
      "telling": 3113,
      "ench": 3114,
      "entertain": 3115,
      "fair": 3116,
      "ograph": 3117,
      "Des": 3118,
      "When": 3119,
      "actions": 3120,
      "viron": 3121,
      "far": 3122,
      "rather": 3123,
      "mat": 3124,
      "rough": 3125,
      "impress": 3126,
      "0s": 3127,
      "issue": 3128,
      "enh": 3129,
      "net": 3130,
      "Further": 3131,
      "against": 3132,
      "anything": 3133,
      "vent": 3134,
      "ton": 3135,
      "addition": 3136,
      "rop": 3137,
      "wards": 3138,
      "effects": 3139,
      "har": 3140,
      "tric": 3141,
      "activ": 3142,
      "similar": 3143,
      "understanding": 3144,
      "crit": 3145,
      "aring": 3146,
      "ail": 3147,
      "bus": 3148,
      "tail": 3149,
      "vious": 3150,
      "There": 3151,
      "Indi": 3152,
      "ball": 3153,
      "ished": 3154,
      "ug": 3155,
      "three": 3156,
      "Furthermore": 3157,
      "deep": 3158,
      "pet": 3159,
      "posed": 3160,
      "showcas": 3161,
      "area": 3162,
      "test": 3163,
      "super": 3164,
      "partner": 3165,
      "environ": 3166,
      "industr": 3167,
      "Em": 3168,
      "ories": 3169,
      "why": 3170,
      "wife": 3171,
      "economic": 3172,
      "simp": 3173,
      "ood": 3174,
      "ane": 3175,
      "local": 3176,
      "promot": 3177,
      "rich": 3178,
      "fron": 3179,
      "series": 3180,
      "Pr": 3181,
      "attention": 3182,
      "among": 3183,
      "aster": 3184,
      "ided": 3185,
      "dern": 3186,
      "complete": 3187,
      "Or": 3188,
      "audiences": 3189,
      "...": 3190,
      "17": 3191,
      "natural": 3192,
      "Ro": 3193,
      "mental": 3194,
      "girlfriend": 3195,
      "den": 3196,
      "necess": 3197,
      "coming": 3198,
      "ids": 3199,
      "ake": 3200,
      "respons": 3201,
      "Ger": 3202,
      "months": 3203,
      "ier": 3204,
      "ficult": 3205,
      "difficult": 3206,
      "ination": 3207,
      "future": 3208,
      "numerous": 3209,
      "onic": 3210,
      "States": 3211,
      "live": 3212,
      "vision": 3213,
      "beaut": 3214,
      "IT": 3215,
      "Brit": 3216,
      "address": 3217,
      "omen": 3218,
      "sister": 3219,
      "ral": 3220,
      "big": 3221,
      "works": 3222,
      "mult": 3223,
      "evol": 3224,
      "face": 3225,
      "aking": 3226,
      "comb": 3227,
      "providing": 3228,
      "close": 3229,
      "convers": 3230,
      "feelings": 3231,
      "Wor": 3232,
      "acing": 3233,
      "eas": 3234,
      "eve": 3235,
      "mit": 3236,
      "intro": 3237,
      "seemed": 3238,
      "phys": 3239,
      "second": 3240,
      "dict": 3241,
      "portun": 3242,
      "Now": 3243,
      "ody": 3244,
      "tried": 3245,
      "came": 3246,
      "opportun": 3247,
      "\".": 3248,
      "based": 3249,
      "antly": 3250,
      "position": 3251,
      "post": 3252,
      "question": 3253,
      "marr": 3254,
      "Tr": 3255,
      "Joh": 3256,
      "round": 3257,
      "itive": 3258,
      "yond": 3259,
      "event": 3260,
      "genuinely": 3261,
      "trying": 3262,
      "landsc": 3263,
      "happen": 3264,
      "thor": 3265,
      "loy": 3266,
      "ipt": 3267,
      "ush": 3268,
      "depend": 3269,
      "Uni": 3270,
      "someone": 3271,
      "After": 3272,
      "anch": 3273,
      "From": 3274,
      "confl": 3275,
      "ica": 3276,
      "ined": 3277,
      "tradition": 3278,
      "makes": 3279,
      "Sp": 3280,
      "typ": 3281,
      "member": 3282,
      "break": 3283,
      "progr": 3284,
      "seems": 3285,
      "advance": 3286,
      "lies": 3287,
      "met": 3288,
      "diverse": 3289,
      "cover": 3290,
      "modern": 3291,
      "claim": 3292,
      "cell": 3293,
      "water": 3294,
      "bur": 3295,
      "growth": 3296,
      "quite": 3297,
      "term": 3298,
      "aced": 3299,
      "reach": 3300,
      "enced": 3301,
      "films": 3302,
      "Despite": 3303,
      "ff": 3304,
      "believe": 3305,
      "glo": 3306,
      "night": 3307,
      "cially": 3308,
      "nothing": 3309,
      "15": 3310,
      "mor": 3311,
      "Col": 3312,
      "prote": 3313,
      "gin": 3314,
      "screen": 3315,
      "ban": 3316,
      "Mar": 3317,
      "except": 3318,
      ".\"": 3319,
      "took": 3320,
      "197": 3321,
      "Through": 3322,
      "War": 3323,
      "valu": 3324,
      "ised": 3325,
      "seen": 3326,
      "acting": 3327,
      "ological": 3328,
      "oking": 3329,
      "perfect": 3330,
      "quality": 3331,
      "wonder": 3332,
      "ned": 3333,
      "thrill": 3334,
      "wrong": 3335,
      "captivating": 3336,
      "pay": 3337,
      "lessly": 3338,
      "men": 3339,
      "crucial": 3340,
      "visual": 3341,
      "ians": 3342,
      "challenges": 3343,
      "John": 3344,
      "hether": 3345,
      "represent": 3346,
      "Hey": 3347,
      "proble": 3348,
      "King": 3349,
      "consist": 3350,
      "kind": 3351,
      "deliver": 3352,
      "oney": 3353,
      "sym": 3354,
      "specific": 3355,
      "lip": 3356,
      "brother": 3357,
      "ctions": 3358,
      "era": 3359,
      "leave": 3360,
      "milit": 3361,
      "ready": 3362,
      "international": 3363,
      "book": 3364,
      "scene": 3365,
      "lay": 3366,
      "urch": 3367,
      "regard": 3368,
      "cord": 3369,
      "ilities": 3370,
      "child": 3371,
      "young": 3372,
      "atures": 3373,
      "father": 3374,
      "stunning": 3375,
      "established": 3376,
      "tries": 3377,
      "week": 3378,
      "events": 3379,
      "fig": 3380,
      "liter": 3381,
      "leading": 3382,
      "non": 3383,
      "comfort": 3384,
      "days": 3385,
      "mot": 3386,
      "tem": 3387,
      "ike": 3388,
      "No": 3389,
      "anyone": 3390,
      "popular": 3391,
      "medi": 3392,
      "ats": 3393,
      "detail": 3394,
      "mag": 3395,
      "dies": 3396,
      "stay": 3397,
      "aries": 3398,
      "itors": 3399,
      "others": 3400,
      "ient": 3401,
      "lab": 3402,
      "sty": 3403,
      "introdu": 3404,
      "disappoint": 3405,
      "refer": 3406,
      "antic": 3407,
      "job": 3408,
      "religious": 3409,
      "pat": 3410,
      "hor": 3411,
      "education": 3412,
      "manag": 3413,
      "team": 3414,
      "particularly": 3415,
      "finan": 3416,
      "everything": 3417,
      "journey": 3418,
      "ped": 3419,
      "reason": 3420,
      "key": 3421,
      "mother": 3422,
      "ency": 3423,
      "daughter": 3424,
      "wasn": 3425,
      "ina": 3426,
      "iss": 3427,
      "languages": 3428,
      "town": 3429,
      "ri": 3430,
      "comedy": 3431,
      "hurt": 3432,
      "scient": 3433,
      "16": 3434,
      "plic": 3435,
      "production": 3436,
      "timately": 3437,
      "More": 3438,
      "World": 3439,
      "lear": 3440,
      "Redd": 3441,
      "trust": 3442,
      "rece": 3443,
      "developed": 3444,
      "field": 3445,
      "ified": 3446,
      "hy": 3447,
      "ping": 3448,
      "beha": 3449,
      "ateg": 3450,
      "ple": 3451,
      "access": 3452,
      "ones": 3453,
      "ples": 3454,
      "doing": 3455,
      "saying": 3456,
      "fell": 3457,
      "sho": 3458,
      "vil": 3459,
      "colle": 3460,
      "Its": 3461,
      "historical": 3462,
      "Some": 3463,
      "ising": 3464,
      "sch": 3465,
      "usu": 3466,
      "late": 3467,
      "ata": 3468,
      "elements": 3469,
      "believ": 3470,
      "effort": 3471,
      "wa": 3472,
      "defin": 3473,
      "once": 3474,
      "perspect": 3475,
      "skill": 3476,
      "arily": 3477,
      "illi": 3478,
      "behavi": 3479,
      "sto": 3480,
      "discuss": 3481,
      "towards": 3482,
      "grad": 3483,
      "systems": 3484,
      "distin": 3485,
      "cal": 3486,
      "population": 3487,
      "aining": 3488,
      "getting": 3489,
      "profess": 3490,
      "Br": 3491,
      "decision": 3492,
      "military": 3493,
      "hour": 3494,
      "Bo": 3495,
      "stop": 3496,
      "clear": 3497,
      "count": 3498,
      "thern": 3499,
      "offic": 3500,
      "exist": 3501,
      "sat": 3502,
      "ric": 3503,
      "seeking": 3504,
      "eral": 3505,
      "196": 3506,
      "ggest": 3507,
      "craf": 3508,
      "What": 3509,
      "bi": 3510,
      "suggest": 3511,
      "ionally": 3512,
      "forms": 3513,
      "performance": 3514,
      "information": 3515,
      "University": 3516,
      "If": 3517,
      "connection": 3518,
      "sum": 3519,
      "ither": 3520,
      "step": 3521,
      "def": 3522,
      "cu": 3523,
      "advent": 3524,
      "Pro": 3525,
      "number": 3526,
      "ames": 3527,
      "storyline": 3528,
      "script": 3529,
      "remark": 3530,
      "vibr": 3531,
      "worth": 3532,
      "create": 3533,
      "ards": 3534,
      "nature": 3535,
      "30": 3536,
      "pecially": 3537,
      "ancient": 3538,
      "lin": 3539,
      "ergy": 3540,
      "impro": 3541,
      "ources": 3542,
      "especially": 3543,
      "ret": 3544,
      "company": 3545,
      "ample": 3546,
      "body": 3547,
      "nav": 3548,
      "equ": 3549,
      "bound": 3550,
      "money": 3551,
      "ird": 3552,
      "gest": 3553,
      "ledge": 3554,
      "include": 3555,
      "near": 3556,
      "next": 3557,
      "explor": 3558,
      "reli": 3559,
      "share": 3560,
      "incredi": 3561,
      "large": 3562,
      "almost": 3563,
      "commitment": 3564,
      "British": 3565,
      "began": 3566,
      "necessary": 3567,
      "enough": 3568,
      "control": 3569,
      "acc": 3570,
      "career": 3571,
      "Moreover": 3572,
      "talk": 3573,
      "vies": 3574,
      "sci": 3575,
      "Be": 3576,
      "ime": 3577,
      "Gr": 3578,
      "actors": 3579,
      "stat": 3580,
      "text": 3581,
      "inno": 3582,
      "decided": 3583,
      "importance": 3584,
      "rom": 3585,
      "alo": 3586,
      "members": 3587,
      "cut": 3588,
      "gress": 3589,
      "ITA": 3590,
      "ili": 3591,
      "offers": 3592,
      "ports": 3593,
      "creating": 3594,
      "order": 3595,
      "remains": 3596,
      "uses": 3597,
      "hab": 3598,
      "plan": 3599,
      "Austr": 3600,
      "deal": 3601,
      "ension": 3602,
      "AITA": 3603,
      "uck": 3604,
      "front": 3605,
      "appreciate": 3606,
      "given": 3607,
      "hal": 3608,
      "European": 3609,
      "gre": 3610,
      "couldn": 3611,
      "list": 3612,
      "iting": 3613,
      "ather": 3614,
      "business": 3615,
      "ingly": 3616,
      "Co": 3617,
      "talent": 3618,
      ",\"": 3619,
      "Am": 3620,
      "whole": 3621,
      "predict": 3622,
      "Pe": 3623,
      "atives": 3624,
      "ask": 3625,
      "must": 3626,
      "owned": 3627,
      "completely": 3628,
      "guy": 3629,
      "forts": 3630,
      "gl": 3631,
      "dynam": 3632,
      "beyond": 3633,
      "ured": 3634,
      "French": 3635,
      "asts": 3636,
      "pretty": 3637,
      "located": 3638,
      "Car": 3639,
      "Coun": 3640,
      "pie": 3641,
      "entire": 3642,
      "else": 3643,
      "lives": 3644,
      "energy": 3645,
      "moment": 3646,
      "attract": 3647,
      "engaging": 3648,
      "inte": 3649,
      "ama": 3650,
      "movies": 3651,
      "meaning": 3652,
      "12": 3653,
      "takes": 3654,
      "exper": 3655,
      "society": 3656,
      "\",": 3657,
      "ny": 3658,
      "tit": 3659,
      "South": 3660,
      "four": 3661,
      "common": 3662,
      "distinct": 3663,
      "promin": 3664,
      "eth": 3665,
      "saw": 3666,
      "lying": 3667,
      "ey": 3668,
      "estern": 3669,
      "agre": 3670,
      "istr": 3671,
      "excit": 3672,
      "concerns": 3673,
      "broad": 3674,
      "communication": 3675,
      "itut": 3676,
      "culture": 3677,
      "formed": 3678,
      "vibrant": 3679,
      "proper": 3680,
      "labor": 3681,
      "ibility": 3682,
      "living": 3683,
      "direct": 3684,
      "independ": 3685,
      "bly": 3686,
      "friendship": 3687,
      "North": 3688,
      "financial": 3689,
      "anal": 3690,
      "honest": 3691,
      "served": 3692,
      "exec": 3693,
      "dren": 3694,
      "ildren": 3695,
      "table": 3696,
      "ax": 3697,
      "gue": 3698,
      "quick": 3699,
      "revol": 3700,
      "iced": 3701,
      "integr": 3702,
      "mid": 3703,
      "legal": 3704,
      "Roman": 3705,
      "meet": 3706,
      "dating": 3707,
      "phone": 3708,
      "ering": 3709,
      "loved": 3710,
      "space": 3711,
      "hero": 3712,
      "lands": 3713,
      "mill": 3714,
      "gy": 3715,
      "already": 3716,
      "polic": 3717,
      "begin": 3718,
      "dem": 3719,
      "ley": 3720,
      "experiences": 3721,
      "000": 3722,
      "needs": 3723,
      "ides": 3724,
      "mal": 3725,
      "194": 3726,
      "behavior": 3727,
      "working": 3728,
      "traditional": 3729,
      "termin": 3730,
      "kids": 3731,
      "ots": 3732,
      "English": 3733,
      "simply": 3734,
      "pain": 3735,
      "ene": 3736,
      "actually": 3737,
      "selves": 3738,
      "means": 3739,
      "instead": 3740,
      "mention": 3741,
      "imag": 3742,
      "navig": 3743,
      "ultimately": 3744,
      "vari": 3745,
      "author": 3746,
      "During": 3747,
      "whether": 3748,
      "orable": 3749,
      "Her": 3750,
      "serves": 3751,
      "done": 3752,
      "rad": 3753,
      "themes": 3754,
      "aspects": 3755,
      "children": 3756,
      "bir": 3757,
      "shap": 3758,
      "21": 3759,
      "example": 3760,
      "Any": 3761,
      "ography": 3762,
      "ror": 3763,
      "195": 3764,
      "orn": 3765,
      "dev": 3766,
      "continues": 3767,
      "run": 3768,
      "possible": 3769,
      "remarkable": 3770,
      "mistry": 3771,
      "coup": 3772,
      "subst": 3773,
      "ai": 3774,
      "empt": 3775,
      "talking": 3776,
      "areas": 3777,
      "laugh": 3778,
      "plays": 3779,
      "impressive": 3780,
      "bed": 3781,
      "spirit": 3782,
      "iful": 3783,
      "draw": 3784,
      "himself": 3785,
      "insights": 3786,
      "Par": 3787,
      "women": 3788,
      "conflict": 3789,
      "spo": 3790,
      "brought": 3791,
      "25": 3792,
      "relationships": 3793,
      "Inst": 3794,
      "xim": 3795,
      "balance": 3796,
      "unch": 3797,
      "ises": 3798,
      "phil": 3799,
      "party": 3800,
      "efforts": 3801,
      "rul": 3802,
      "concept": 3803,
      "Can": 3804,
      "ains": 3805,
      "upset": 3806,
      "visually": 3807,
      "grand": 3808,
      "forced": 3809,
      "knowledge": 3810,
      "bol": 3811,
      "either": 3812,
      "iple": 3813,
      "ream": 3814,
      "true": 3815,
      "emerg": 3816,
      "Ac": 3817,
      "streng": 3818,
      "allowing": 3819,
      "--": 3820,
      "central": 3821,
      "chemistry": 3822,
      "thus": 3823,
      "expected": 3824,
      "22": 3825,
      "apart": 3826,
      "Christian": 3827,
      "dim": 3828,
      "tele": 3829,
      "comfortable": 3830,
      "sent": 3831,
      "14": 3832,
      "agon": 3833,
      "looking": 3834,
      "discover": 3835,
      "half": 3836,
      "gar": 3837,
      "emotions": 3838,
      "pacing": 3839,
      "foot": 3840,
      "activities": 3841,
      "sl": 3842,
      "Ph": 3843,
      "emphas": 3844,
      "mater": 3845,
      "ishing": 3846,
      "immers": 3847,
      "usion": 3848,
      "corpor": 3849,
      "pursu": 3850,
      "transport": 3851,
      "track": 3852,
      "sometimes": 3853,
      "countries": 3854,
      "ensuring": 3855,
      "els": 3856,
      "gets": 3857,
      "dad": 3858,
      "anced": 3859,
      "ilt": 3860,
      "icate": 3861,
      "reme": 3862,
      "National": 3863,
      "communities": 3864,
      "isn": 3865,
      "whel": 3866,
      "ades": 3867,
      "dialo": 3868,
      "herit": 3869,
      "taken": 3870,
      "forward": 3871,
      "prin": 3872,
      "services": 3873,
      "provides": 3874,
      "connect": 3875,
      "beautiful": 3876,
      "solute": 3877,
      "ler": 3878,
      "wants": 3879,
      "fails": 3880,
      "industry": 3881,
      "ource": 3882,
      "influence": 3883,
      "following": 3884,
      "inary": 3885,
      "elec": 3886,
      "engaged": 3887,
      "storytelling": 3888,
      "nal": 3889,
      "itself": 3890,
      "associ": 3891,
      "aces": 3892,
      "previous": 3893,
      "couple": 3894,
      "resh": 3895,
      "surpr": 3896,
      "dig": 3897,
      "attempt": 3898,
      "professional": 3899,
      "lines": 3900,
      "treat": 3901,
      "least": 3902,
      "Russ": 3903,
      "data": 3904,
      "wood": 3905,
      "elling": 3906,
      "prior": 3907,
      "foster": 3908,
      "serious": 3909,
      "adap": 3910,
      "kill": 3911,
      "oso": 3912,
      "absolute": 3913,
      "force": 3914,
      "full": 3915,
      "fortun": 3916,
      "edding": 3917,
      "usually": 3918,
      "pal": 3919,
      "**": 3920,
      "susp": 3921,
      "na": 3922,
      "redu": 3923,
      "Not": 3924,
      "species": 3925,
      "23": 3926,
      "mber": 3927,
      "ork": 3928,
      "nation": 3929,
      "extra": 3930,
      "sphere": 3931,
      "acking": 3932,
      "lost": 3933,
      "thod": 3934,
      "upon": 3935,
      "individual": 3936,
      "multiple": 3937,
      "idea": 3938,
      "jects": 3939,
      "mission": 3940,
      "cir": 3941,
      "accept": 3942,
      "held": 3943,
      "safe": 3944,
      "date": 3945,
      "rights": 3946,
      "atmo": 3947,
      "sem": 3948,
      "uster": 3949,
      "conversation": 3950,
      "Man": 3951,
      "Their": 3952,
      "izations": 3953,
      "physical": 3954,
      "food": 3955,
      "faced": 3956,
      "innov": 3957,
      "moved": 3958,
      "strateg": 3959,
      "material": 3960,
      "adem": 3961,
      "Afr": 3962,
      "Ge": 3963,
      "lam": 3964,
      "death": 3965,
      "dialogue": 3966,
      "yet": 3967,
      "ony": 3968,
      "emb": 3969,
      "involved": 3970,
      "civil": 3971,
      "German": 3972,
      "tour": 3973,
      "apes": 3974,
      "style": 3975,
      "batt": 3976,
      "13": 3977,
      "contributions": 3978,
      "reflect": 3979,
      "predictable": 3980,
      "Thank": 3981,
      "word": 3982,
      "Over": 3983,
      "camp": 3984,
      "woman": 3985,
      "exceptional": 3986,
      "comedic": 3987,
      "Ed": 3988,
      "game": 3989,
      "jud": 3990,
      "ancing": 3991,
      "priv": 3992,
      "continued": 3993,
      "features": 3994,
      "male": 3995,
      "lex": 3996,
      "initi": 3997,
      "uted": 3998,
      "avi": 3999,
      "continue": 4000,
      "building": 4001,
      "global": 4002,
      "drop": 4003,
      "dle": 4004,
      "highly": 4005,
      "birth": 4006,
      "hind": 4007,
      "wal": 4008,
      "ste": 4009,
      "supporting": 4010,
      "ator": 4011,
      "territ": 4012,
      "perspective": 4013,
      "occas": 4014,
      "aid": 4015,
      "preser": 4016,
      "pict": 4017,
      "affect": 4018,
      "cul": 4019,
      "oub": 4020,
      "students": 4021,
      "Po": 4022,
      "problem": 4023,
      "fight": 4024,
      "product": 4025,
      "ran": 4026,
      "memorable": 4027,
      "prominent": 4028,
      "vill": 4029,
      "terms": 4030,
      "leader": 4031,
      "compass": 4032,
      "All": 4033,
      "May": 4034,
      "separ": 4035,
      "compet": 4036,
      "context": 4037,
      "value": 4038,
      "bab": 4039,
      "portrayal": 4040,
      "vin": 4041,
      "progress": 4042,
      "ensure": 4043,
      "Austral": 4044,
      "ium": 4045,
      "iving": 4046,
      "changes": 4047,
      "plat": 4048,
      "ties": 4049,
      "adds": 4050,
      "single": 4051,
      "ung": 4052,
      "heritage": 4053,
      "First": 4054,
      "occur": 4055,
      "tre": 4056,
      "touch": 4057,
      "ague": 4058,
      "quickly": 4059,
      "iction": 4060,
      "themselves": 4061,
      "resulting": 4062,
      "landscape": 4063,
      "scientific": 4064,
      "considered": 4065,
      "happened": 4066,
      "Gree": 4067,
      "aps": 4068,
      "surround": 4069,
      "greatly": 4070,
      "giving": 4071,
      "cele": 4072,
      "background": 4073,
      "intense": 4074,
      "thrilling": 4075,
      "symbol": 4076,
      "celebr": 4077,
      "needed": 4078,
      "free": 4079,
      "academ": 4080,
      "roll": 4081,
      "pose": 4082,
      "Church": 4083,
      "ensu": 4084,
      "guid": 4085,
      "fans": 4086,
      "exh": 4087,
      "uary": 4088,
      "dest": 4089,
      "words": 4090,
      "Reddit": 4091,
      "trig": 4092,
      "descr": 4093,
      "solid": 4094,
      "ged": 4095,
      "ivity": 4096,
      "offering": 4097,
      "une": 4098,
      "employ": 4099,
      "presence": 4100,
      "states": 4101,
      "playing": 4102,
      "itect": 4103,
      "Should": 4104,
      "today": 4105,
      "resources": 4106,
      "frustr": 4107,
      "sec": 4108,
      "expand": 4109,
      "general": 4110,
      "iconic": 4111,
      "hope": 4112,
      "carr": 4113,
      "vital": 4114,
      "handle": 4115,
      "24": 4116,
      "flow": 4117,
      "particip": 4118,
      "ously": 4119,
      "tension": 4120,
      "Sc": 4121,
      "season": 4122,
      "capital": 4123,
      "environment": 4124,
      "master": 4125,
      "experienced": 4126,
      "eclip": 4127,
      "breaking": 4128,
      "boundaries": 4129,
      "ali": 4130,
      "inner": 4131,
      "effectively": 4132,
      "course": 4133,
      "adventure": 4134,
      "schol": 4135,
      "secur": 4136,
      "insp": 4137,
      "failed": 4138,
      "focus": 4139,
      "iver": 4140,
      "figure": 4141,
      "Part": 4142,
      "appeal": 4143,
      "cus": 4144,
      "fav": 4145,
      "philoso": 4146,
      "science": 4147,
      "princi": 4148,
      "breath": 4149,
      "rup": 4150,
      "pread": 4151,
      "meas": 4152,
      "renowned": 4153,
      "sets": 4154,
      "happy": 4155,
      "host": 4156,
      "sle": 4157,
      "inspir": 4158,
      "Mon": 4159,
      "determin": 4160,
      "program": 4161,
      "Ear": 4162,
      "atography": 4163,
      "constantly": 4164,
      "layer": 4165,
      "Ne": 4166,
      "behind": 4167,
      "type": 4168,
      "standing": 4169,
      "groups": 4170,
      "Another": 4171,
      "hours": 4172,
      "mocr": 4173,
      "essential": 4174,
      "charm": 4175,
      "opportunities": 4176,
      "road": 4177,
      "dam": 4178,
      "cost": 4179,
      "architect": 4180,
      "increas": 4181,
      "domin": 4182,
      "hop": 4183,
      "wedding": 4184,
      "Indian": 4185,
      "forget": 4186,
      "pri": 4187,
      "extreme": 4188,
      "IL": 4189,
      "bar": 4190,
      "ula": 4191,
      "ford": 4192,
      "hol": 4193,
      "married": 4194,
      "says": 4195,
      "beginning": 4196,
      "path": 4197,
      "icated": 4198,
      "viol": 4199,
      "appreciated": 4200,
      "iment": 4201,
      "fan": 4202,
      "opt": 4203,
      "case": 4204,
      "service": 4205,
      "ceed": 4206,
      "matter": 4207,
      "Rep": 4208,
      "kept": 4209,
      "contribute": 4210,
      "Islam": 4211,
      "ministr": 4212,
      "cording": 4213,
      "BC": 4214,
      "lasting": 4215,
      "atmosphere": 4216,
      "although": 4217,
      "former": 4218,
      "lif": 4219,
      "ieve": 4220,
      "rid": 4221,
      "edge": 4222,
      "Emp": 4223,
      "goes": 4224,
      "seam": 4225,
      "cinematography": 4226,
      "media": 4227,
      "primarily": 4228,
      "named": 4229,
      "cil": 4230,
      "turned": 4231,
      "shole": 4232,
      "intric": 4233,
      "tom": 4234,
      "ik": 4235,
      "prob": 4236,
      "That": 4237,
      "India": 4238,
      "neg": 4239,
      "193": 4240,
      "Sy": 4241,
      "Kingdom": 4242,
      "frequ": 4243,
      "flat": 4244,
      "opin": 4245,
      "practices": 4246,
      "Throughout": 4247,
      "incredibly": 4248,
      "origin": 4249,
      "ift": 4250,
      "ival": 4251,
      "Ex": 4252,
      "thinking": 4253,
      "ino": 4254,
      "appear": 4255,
      "constru": 4256,
      "guidance": 4257,
      "ris": 4258,
      "Republ": 4259,
      "director": 4260,
      "sou": 4261,
      "inc": 4262,
      "West": 4263,
      "falls": 4264,
      "excitement": 4265,
      "utes": 4266,
      "Arab": 4267,
      "ull": 4268,
      "11": 4269,
      "ery": 4270,
      "forces": 4271,
      "clim": 4272,
      "plications": 4273,
      "Cl": 4274,
      "released": 4275,
      "trave": 4276,
      "shared": 4277,
      "aged": 4278,
      "mix": 4279,
      "witness": 4280,
      "enab": 4281,
      "genre": 4282,
      "largest": 4283,
      "visuals": 4284,
      "fund": 4285,
      "current": 4286,
      "significance": 4287,
      "Me": 4288,
      "iqu": 4289,
      "ief": 4290,
      "achieve": 4291,
      "deser": 4292,
      "born": 4293,
      "sens": 4294,
      "becomes": 4295,
      "Sar": 4296,
      "DR": 4297,
      "acts": 4298,
      "filled": 4299,
      "created": 4300,
      "effic": 4301,
      "study": 4302,
      "empts": 4303,
      "Although": 4304,
      "total": 4305,
      "college": 4306,
      "preh": 4307,
      "function": 4308,
      "club": 4309,
      "watching": 4310,
      "decl": 4311,
      "navigate": 4312,
      "Empire": 4313,
      "center": 4314,
      "cop": 4315,
      "allowed": 4316,
      "ires": 4317,
      "regions": 4318,
      "asshole": 4319,
      "parts": 4320,
      "eless": 4321,
      "built": 4322,
      "iven": 4323,
      "resol": 4324,
      "poor": 4325,
      "suf": 4326,
      "prot": 4327,
      "satis": 4328,
      "luster": 4329,
      "attempts": 4330,
      "ock": 4331,
      "School": 4332,
      "structure": 4333,
      "izes": 4334,
      "engage": 4335,
      "institut": 4336,
      "provided": 4337,
      "counter": 4338,
      "onom": 4339,
      "primary": 4340,
      "baby": 4341,
      "fant": 4342,
      "oto": 4343,
      "ender": 4344,
      "Union": 4345,
      "received": 4346,
      "ben": 4347,
      "idence": 4348,
      "reson": 4349,
      "alone": 4350,
      "causing": 4351,
      "Mic": 4352,
      "serve": 4353,
      "however": 4354,
      "aren": 4355,
      "Ital": 4356,
      "Char": 4357,
      "struggles": 4358,
      "ison": 4359,
      "collabor": 4360,
      "speak": 4361,
      "notable": 4362,
      "lackluster": 4363,
      "fortunately": 4364,
      "explore": 4365,
      "eper": 4366,
      "contr": 4367,
      "centuries": 4368,
      "commend": 4369,
      "Lo": 4370,
      "method": 4371,
      "ham": 4372,
      "entially": 4373,
      "trade": 4374,
      "respond": 4375,
      "tar": 4376,
      "related": 4377,
      "minutes": 4378,
      "movement": 4379,
      "piece": 4380,
      "sust": 4381,
      "ify": 4382,
      "identity": 4383,
      "technology": 4384,
      "collect": 4385,
      "olic": 4386,
      "actor": 4387,
      "sett": 4388,
      "challenging": 4389,
      "keeps": 4390,
      "habit": 4391,
      "subject": 4392,
      "asking": 4393,
      "immedi": 4394,
      "excell": 4395,
      "written": 4396,
      "dark": 4397,
      "opportunity": 4398,
      "gained": 4399,
      "mil": 4400,
      "values": 4401,
      "phy": 4402,
      "despite": 4403,
      "writing": 4404,
      "musical": 4405,
      "ints": 4406,
      "franch": 4407,
      "sil": 4408,
      "Canad": 4409,
      "ches": 4410,
      "clever": 4411,
      "belief": 4412,
      "typically": 4413,
      "ae": 4414,
      "emotionally": 4415,
      "comment": 4416,
      "satisf": 4417,
      "blo": 4418,
      "limited": 4419,
      "compreh": 4420,
      "kers": 4421,
      "sor": 4422,
      "ining": 4423,
      "interests": 4424,
      "thusi": 4425,
      "tran": 4426,
      "bringing": 4427,
      "recognition": 4428,
      "demon": 4429,
      "adding": 4430,
      "avail": 4431,
      "deeply": 4432,
      "Ser": 4433,
      "Sun": 4434,
      "colon": 4435,
      "roles": 4436,
      "bert": 4437,
      "blend": 4438,
      "societ": 4439,
      "facilit": 4440,
      "sal": 4441,
      "enthusi": 4442,
      "administr": 4443,
      "Since": 4444,
      "mun": 4445,
      "breathtaking": 4446,
      "probably": 4447,
      "docu": 4448,
      "skills": 4449,
      "academic": 4450,
      "ges": 4451,
      "content": 4452,
      "50": 4453,
      "TV": 4454,
      "final": 4455,
      "starting": 4456,
      "uter": 4457,
      "died": 4458,
      "cret": 4459,
      "etc": 4460,
      "animation": 4461,
      "allows": 4462,
      "demand": 4463,
      "TL": 4464,
      "Pl": 4465,
      "becoming": 4466,
      "ification": 4467,
      "Dr": 4468,
      "reas": 4469,
      "programs": 4470,
      "Last": 4471,
      "itution": 4472,
      "responsible": 4473,
      "fellow": 4474,
      "push": 4475,
      "west": 4476,
      "encour": 4477,
      "deb": 4478,
      "compl": 4479,
      "lied": 4480,
      "27": 4481,
      "ators": 4482,
      "artic": 4483,
      "Go": 4484,
      "Gen": 4485,
      "lacking": 4486,
      "official": 4487,
      "franchise": 4488,
      "million": 4489,
      "You": 4490,
      "iev": 4491,
      "evolution": 4492,
      "brings": 4493,
      "atory": 4494,
      "critical": 4495,
      "ults": 4496,
      "ging": 4497,
      "generally": 4498,
      "protect": 4499,
      "26": 4500,
      "network": 4501,
      "fresh": 4502,
      "soon": 4503,
      "Ber": 4504,
      "heavi": 4505,
      "protagon": 4506,
      "fed": 4507,
      "actively": 4508,
      "maybe": 4509,
      "improve": 4510,
      "York": 4511,
      "ountain": 4512,
      "iet": 4513,
      "ses": 4514,
      "ze": 4515,
      "incorpor": 4516,
      "teach": 4517,
      "marked": 4518,
      "suspense": 4519,
      "omb": 4520,
      "month": 4521,
      "US": 4522,
      "neigh": 4523,
      "loss": 4524,
      "eventually": 4525,
      "adapt": 4526,
      "slow": 4527,
      "seeing": 4528,
      "lock": 4529,
      "cinematic": 4530,
      "psy": 4531,
      "squ": 4532,
      "entertaining": 4533,
      "!!": 4534,
      "terr": 4535,
      "connected": 4536,
      "cat": 4537,
      "cam": 4538,
      "cause": 4539,
      "entertainment": 4540,
      "dynamic": 4541,
      "Intern": 4542,
      "engine": 4543,
      "eclipse": 4544,
      "five": 4545,
      "gave": 4546,
      "Cath": 4547,
      "benef": 4548,
      "wouldn": 4549,
      "ox": 4550,
      "outside": 4551,
      "fre": 4552,
      "aper": 4553,
      "ount": 4554,
      "mas": 4555,
      "mad": 4556,
      "regarding": 4557,
      "trip": 4558,
      "Chin": 4559,
      "traditions": 4560,
      "28": 4561,
      "Fe": 4562,
      "apolog": 4563,
      "feature": 4564,
      "Mus": 4565,
      "prem": 4566,
      "location": 4567,
      "Western": 4568,
      "hang": 4569,
      "idents": 4570,
      "delivers": 4571,
      "expert": 4572,
      "stuff": 4573,
      "Med": 4574,
      "exploration": 4575,
      "Min": 4576,
      "source": 4577,
      "East": 4578,
      "vast": 4579,
      "lement": 4580,
      "abilities": 4581,
      "frame": 4582,
      "funny": 4583,
      "successfully": 4584,
      "approxim": 4585,
      "cross": 4586,
      "match": 4587,
      "wanting": 4588,
      "passion": 4589,
      "Ir": 4590,
      "sen": 4591,
      "classic": 4592,
      "England": 4593,
      "Pol": 4594,
      "Gu": 4595,
      "bond": 4596,
      "emerged": 4597,
      "resident": 4598,
      "River": 4599,
      "oid": 4600,
      "landscapes": 4601,
      "Lat": 4602,
      "message": 4603,
      "pack": 4604,
      "Act": 4605,
      "util": 4606,
      "direction": 4607,
      "encompass": 4608,
      "contem": 4609,
      "profound": 4610,
      "forgettable": 4611,
      "mes": 4612,
      "heavily": 4613,
      "embr": 4614,
      "somewhat": 4615,
      "Cent": 4616,
      "advoc": 4617,
      "voice": 4618,
      "associated": 4619,
      "Hol": 4620,
      "akes": 4621,
      "France": 4622,
      "institutions": 4623,
      "bud": 4624,
      "nu": 4625,
      "intrig": 4626,
      "ening": 4627,
      "deeper": 4628,
      "igr": 4629,
      "threat": 4630,
      "Lon": 4631,
      "iel": 4632,
      "aimed": 4633,
      "enhance": 4634,
      "shaping": 4635,
      "compelling": 4636,
      "weeks": 4637,
      "showcasing": 4638,
      "God": 4639,
      "enjoyable": 4640,
      "song": 4641,
      "uel": 4642,
      "powerful": 4643,
      "organizations": 4644,
      "Chinese": 4645,
      "soundtrack": 4646,
      "perfectly": 4647,
      "brid": 4648,
      "subsequ": 4649,
      "joint": 4650,
      "market": 4651,
      "possess": 4652,
      "struggling": 4653,
      "aur": 4654,
      "19th": 4655,
      "visitors": 4656,
      "hood": 4657,
      "onse": 4658,
      "beloved": 4659,
      "China": 4660,
      "exc": 4661,
      "capture": 4662,
      "Bar": 4663,
      "mist": 4664,
      "rule": 4665,
      "ende": 4666,
      "gradu": 4667,
      "title": 4668,
      "environmental": 4669,
      "account": 4670,
      "introduced": 4671,
      "hes": 4672,
      "exam": 4673,
      "healthy": 4674,
      "inspiring": 4675,
      "Here": 4676,
      "holds": 4677,
      "fine": 4678,
      "ellect": 4679,
      "cred": 4680,
      "attack": 4681,
      "setting": 4682,
      "beauty": 4683,
      "security": 4684,
      "London": 4685,
      "win": 4686,
      "anish": 4687,
      "electr": 4688,
      "Ju": 4689,
      "viewing": 4690,
      "lacked": 4691,
      "sac": 4692,
      "six": 4693,
      "romantic": 4694,
      "authen": 4695,
      "response": 4696,
      "hit": 4697,
      "aging": 4698,
      "fast": 4699,
      "install": 4700,
      "iques": 4701,
      "sis": 4702,
      "points": 4703,
      "longer": 4704,
      "umb": 4705,
      "believed": 4706,
      "Scot": 4707,
      "Ab": 4708,
      "station": 4709,
      "television": 4710,
      "Sch": 4711,
      "Greek": 4712,
      "dimens": 4713,
      "fostering": 4714,
      "extensive": 4715,
      "conditions": 4716,
      "sexual": 4717,
      "obvious": 4718,
      "fire": 4719,
      "authentic": 4720,
      "amaz": 4721,
      "moving": 4722,
      "dog": 4723,
      "intricate": 4724,
      "Li": 4725,
      "porary": 4726,
      "gone": 4727,
      "hom": 4728,
      "earli": 4729,
      "intellect": 4730,
      "widely": 4731,
      "version": 4732,
      "wind": 4733,
      "enn": 4734,
      "alg": 4735,
      "leaves": 4736,
      "Geor": 4737,
      "bel": 4738,
      "bother": 4739,
      "ifying": 4740,
      "nice": 4741,
      "promoting": 4742,
      "effortlessly": 4743,
      "noticed": 4744,
      "regular": 4745,
      "delivering": 4746,
      "south": 4747,
      "okes": 4748,
      "America": 4749,
      "Jan": 4750,
      "apan": 4751,
      "Instead": 4752,
      "Im": 4753,
      "island": 4754,
      "demonstr": 4755,
      "names": 4756,
      "ius": 4757,
      "diversity": 4758,
      "brilli": 4759,
      "site": 4760,
      "fields": 4761,
      "ality": 4762,
      "ships": 4763,
      "photo": 4764,
      "wer": 4765,
      "chance": 4766,
      "distribut": 4767,
      "finally": 4768,
      "State": 4769,
      "International": 4770,
      "IS": 4771,
      "shed": 4772,
      "teen": 4773,
      "mathem": 4774,
      "flaw": 4775,
      "sustain": 4776,
      "Wal": 4777,
      "disci": 4778,
      "aught": 4779,
      "Per": 4780,
      "guess": 4781,
      "useum": 4782,
      "City": 4783,
      "sed": 4784,
      "drama": 4785,
      "presents": 4786,
      "university": 4787,
      "seat": 4788,
      "Reg": 4789,
      "stories": 4790,
      "plans": 4791,
      "Japan": 4792,
      "sought": 4793,
      "rep": 4794,
      "provo": 4795,
      "active": 4796,
      "rown": 4797,
      "Even": 4798,
      "supposed": 4799,
      "Do": 4800,
      "worldwide": 4801,
      "object": 4802,
      "syn": 4803,
      "caused": 4804,
      "vot": 4805,
      "shows": 4806,
      "football": 4807,
      "stage": 4808,
      "haven": 4809,
      "iage": 4810,
      "ER": 4811,
      "ues": 4812,
      "arts": 4813,
      "20th": 4814,
      "nast": 4815,
      "sof": 4816,
      "artistic": 4817,
      "door": 4818,
      "clean": 4819,
      "turns": 4820,
      "valuable": 4821,
      "prevent": 4822,
      "includes": 4823,
      "sleep": 4824,
      "influential": 4825,
      "third": 4826,
      "Willi": 4827,
      "icts": 4828,
      "talented": 4829,
      "surrounding": 4830,
      "anger": 4831,
      "animated": 4832,
      "uncomfortable": 4833,
      "model": 4834,
      "atively": 4835,
      "pan": 4836,
      "highlight": 4837,
      "mentioned": 4838,
      "ester": 4839,
      "essence": 4840,
      "prede": 4841,
      "Tur": 4842,
      "news": 4843,
      "itch": 4844,
      "ov": 4845,
      "reland": 4846,
      "literature": 4847,
      "predecess": 4848,
      "gather": 4849,
      "itely": 4850,
      "stands": 4851,
      "Catholic": 4852,
      "growing": 4853,
      "Russian": 4854,
      "rupt": 4855,
      "da": 4856,
      "rap": 4857,
      "status": 4858,
      "ened": 4859,
      "urban": 4860,
      "aving": 4861,
      "parent": 4862,
      "Republic": 4863,
      "Ireland": 4864,
      "admit": 4865,
      "compan": 4866,
      "prefer": 4867,
      "exts": 4868,
      "James": 4869,
      "cies": 4870,
      "finish": 4871,
      "north": 4872,
      "recognized": 4873,
      "maintaining": 4874,
      "cup": 4875,
      "mut": 4876,
      "weak": 4877,
      "prop": 4878,
      "included": 4879,
      "distance": 4880,
      "legacy": 4881,
      "interesting": 4882,
      "viewer": 4883,
      "log": 4884,
      "makers": 4885,
      "eval": 4886,
      "interested": 4887,
      "extremely": 4888,
      "House": 4889,
      "Tod": 4890,
      "nic": 4891,
      "pick": 4892,
      "Mal": 4893,
      "itor": 4894,
      "currently": 4895,
      "contributing": 4896,
      "changed": 4897,
      "Dire": 4898,
      "justice": 4899,
      "lingu": 4900,
      "score": 4901,
      "significantly": 4902,
      "Su": 4903,
      "chan": 4904,
      "guys": 4905,
      "passed": 4906,
      "priorit": 4907,
      "available": 4908,
      "Alex": 4909,
      "Ho": 4910,
      "spend": 4911,
      "worked": 4912,
      "concl": 4913,
      "excess": 4914,
      "Mc": 4915,
      "stress": 4916,
      "seamlessly": 4917,
      "inspired": 4918,
      "sn": 4919,
      "constant": 4920,
      "studies": 4921,
      "spoken": 4922,
      "mass": 4923,
      "owers": 4924,
      "ump": 4925,
      "Qu": 4926,
      "astern": 4927,
      "interactions": 4928,
      "knew": 4929,
      "produced": 4930,
      "critic": 4931,
      "fold": 4932,
      "economy": 4933,
      "ky": 4934,
      "istics": 4935,
      "commonly": 4936,
      "err": 4937,
      "techniques": 4938,
      "ellig": 4939,
      "testament": 4940,
      "wel": 4941,
      "oud": 4942,
      "liament": 4943,
      "yal": 4944,
      "usive": 4945,
      "cannot": 4946,
      "enhancing": 4947,
      "fir": 4948,
      "shape": 4949,
      "intellig": 4950,
      "comprehensive": 4951,
      "protagonist": 4952,
      "Aug": 4953,
      "schools": 4954,
      "Latin": 4955,
      "dated": 4956,
      "initially": 4957,
      "exhib": 4958,
      "travel": 4959,
      "pers": 4960,
      "educational": 4961,
      "construction": 4962,
      "jokes": 4963,
      "anymore": 4964,
      "independent": 4965,
      "Has": 4966,
      "faith": 4967,
      "implement": 4968,
      "craft": 4969,
      "ana": 4970,
      "hair": 4971,
      "isms": 4972,
      "argument": 4973,
      "Egy": 4974,
      "computer": 4975,
      "crim": 4976,
      "Germany": 4977,
      "accur": 4978,
      "ordinary": 4979,
      "conversations": 4980,
      "dedication": 4981,
      "provoking": 4982,
      "smo": 4983,
      "added": 4984,
      "discipl": 4985,
      "star": 4986,
      "teams": 4987,
      "successful": 4988,
      "vince": 4989,
      "wise": 4990,
      "lege": 4991,
      "amount": 4992,
      "analys": 4993,
      "Park": 4994,
      "commer": 4995,
      "serving": 4996,
      "problems": 4997,
      "horror": 4998,
      "acqu": 4999,
      "Ste": 5000,
      "unexpected": 5001,
      "overwhel": 5002,
      "ideas": 5003,
      "digital": 5004,
      "ulous": 5005,
      "regional": 5006,
      "keeping": 5007,
      "disappointed": 5008,
      "policies": 5009,
      "favor": 5010,
      "hot": 5011,
      "condu": 5012,
      "female": 5013,
      "placed": 5014,
      "Sarah": 5015,
      "immediately": 5016,
      "kid": 5017,
      "altern": 5018,
      "ker": 5019,
      "agric": 5020,
      "lacks": 5021,
      "agricult": 5022,
      "instru": 5023,
      "confused": 5024,
      "jur": 5025,
      "absolutely": 5026,
      "doub": 5027,
      "ulations": 5028,
      "die": 5029,
      "potentially": 5030,
      "revolution": 5031,
      "Res": 5032,
      "Earth": 5033,
      "private": 5034,
      "policy": 5035,
      "cles": 5036,
      "ugh": 5037,
      "church": 5038,
      "positive": 5039,
      "fix": 5040,
      "spiritual": 5041,
      "Egypt": 5042,
      "Tom": 5043,
      "fear": 5044,
      "video": 5045,
      "Jack": 5046,
      "reput": 5047,
      "tool": 5048,
      "referred": 5049,
      "medical": 5050,
      "boasts": 5051,
      "Te": 5052,
      "relat": 5053,
      "rail": 5054,
      "purpose": 5055,
      "clich": 5056,
      "contact": 5057,
      "considering": 5058,
      "intim": 5059,
      "pictures": 5060,
      "founded": 5061,
      "battle": 5062,
      "comments": 5063,
      "leng": 5064,
      "report": 5065,
      "ays": 5066,
      "novel": 5067,
      "29": 5068,
      "catch": 5069,
      "election": 5070,
      "Phil": 5071,
      "otal": 5072,
      "rew": 5073,
      "marriage": 5074,
      "August": 5075,
      "document": 5076,
      "pir": 5077,
      "online": 5078,
      "aul": 5079,
      "black": 5080,
      "hous": 5081,
      "lately": 5082,
      "variety": 5083,
      "dedicated": 5084,
      "mocratic": 5085,
      "Don": 5086,
      "views": 5087,
      "expectations": 5088,
      "acle": 5089,
      "gain": 5090,
      "situations": 5091,
      "organization": 5092,
      "aign": 5093,
      "web": 5094,
      "elev": 5095,
      "wo": 5096,
      "Each": 5097,
      "escap": 5098,
      "avy": 5099,
      "Well": 5100,
      "voc": 5101,
      "igher": 5102,
      "stick": 5103,
      "cliché": 5104,
      "lat": 5105,
      "mach": 5106,
      "plant": 5107,
      "choice": 5108,
      "Cam": 5109,
      "astic": 5110,
      "dimensional": 5111,
      "Sam": 5112,
      "foundation": 5113,
      "Today": 5114,
      "Sovie": 5115,
      "agreed": 5116,
      "gas": 5117,
      "div": 5118,
      "Many": 5119,
      "istance": 5120,
      "rout": 5121,
      "healthcare": 5122,
      "theory": 5123,
      "ags": 5124,
      "designed": 5125,
      "solar": 5126,
      "truct": 5127,
      "followed": 5128,
      "College": 5129,
      "birthday": 5130,
      "gree": 5131,
      "published": 5132,
      "claimed": 5133,
      "udd": 5134,
      "reasons": 5135,
      "psych": 5136,
      "sole": 5137,
      "40": 5138,
      "abo": 5139,
      "structures": 5140,
      "amazing": 5141,
      "Then": 5142,
      "management": 5143,
      "distr": 5144,
      "questions": 5145,
      "Great": 5146,
      "ills": 5147,
      "thoughts": 5148,
      "turning": 5149,
      "anks": 5150,
      "remind": 5151,
      "Oc": 5152,
      "standards": 5153,
      "circ": 5154,
      "Mid": 5155,
      "manages": 5156,
      "bul": 5157,
      "haps": 5158,
      "acher": 5159,
      "unnecessary": 5160,
      "ensity": 5161,
      "famil": 5162,
      "captures": 5163,
      "easy": 5164,
      "increasingly": 5165,
      "efore": 5166,
      "characterized": 5167,
      "Africa": 5168,
      "Cor": 5169,
      "Spanish": 5170,
      "Soviet": 5171,
      "tone": 5172,
      "broke": 5173,
      "watched": 5174,
      "leadership": 5175,
      "Sep": 5176,
      "describ": 5177,
      "reputation": 5178,
      "mere": 5179,
      "Every": 5180,
      "Fo": 5181,
      "Har": 5182,
      "ands": 5183,
      "ring": 5184,
      "anx": 5185,
      "mechan": 5186,
      "stri": 5187,
      "coast": 5188,
      "messages": 5189,
      "anti": 5190,
      "larger": 5191,
      "struggle": 5192,
      "cities": 5193,
      "sad": 5194,
      "alike": 5195,
      "heard": 5196,
      "ongo": 5197,
      "ishes": 5198,
      "expressed": 5199,
      "promote": 5200,
      "planning": 5201,
      "epis": 5202,
      "Under": 5203,
      "Council": 5204,
      "independence": 5205,
      "Dis": 5206,
      "rare": 5207,
      "rain": 5208,
      "degree": 5209,
      "middle": 5210,
      "Fin": 5211,
      "isl": 5212,
      "older": 5213,
      "normal": 5214,
      "substance": 5215,
      "pattern": 5216,
      "analysis": 5217,
      "approximately": 5218,
      "awe": 5219,
      "higher": 5220,
      "herself": 5221,
      "citiz": 5222,
      "AT": 5223,
      "ager": 5224,
      "phen": 5225,
      "odes": 5226,
      "establishment": 5227,
      "innovative": 5228,
      "athe": 5229,
      "branch": 5230,
      "minor": 5231,
      "mine": 5232,
      "President": 5233,
      "km": 5234,
      "shad": 5235,
      "surface": 5236,
      "ampion": 5237,
      "release": 5238,
      "sacr": 5239,
      "myster": 5240,
      "tember": 5241,
      "fundament": 5242,
      "dates": 5243,
      "aves": 5244,
      "managed": 5245,
      "Bel": 5246,
      "factors": 5247,
      "iliar": 5248,
      "ements": 5249,
      "initiatives": 5250,
      "Val": 5251,
      "January": 5252,
      "AN": 5253,
      "contributed": 5254,
      "immense": 5255,
      "Sw": 5256,
      "rise": 5257,
      "ops": 5258,
      "neighbor": 5259,
      "existence": 5260,
      "ingu": 5261,
      "western": 5262,
      "standard": 5263,
      "argue": 5264,
      "pen": 5265,
      "acted": 5266,
      "March": 5267,
      "reaction": 5268,
      "ander": 5269,
      "familiar": 5270,
      "conflicts": 5271,
      "Apr": 5272,
      "Other": 5273,
      "cand": 5274,
      "sports": 5275,
      "lie": 5276,
      "worr": 5277,
      "ibly": 5278,
      "cember": 5279,
      "Ap": 5280,
      "torn": 5281,
      "remember": 5282,
      "influenced": 5283,
      "ners": 5284,
      "vey": 5285,
      "eyes": 5286,
      "stra": 5287,
      "types": 5288,
      "aver": 5289,
      "lor": 5290,
      "nom": 5291,
      "zer": 5292,
      "hi": 5293,
      "root": 5294,
      "acknow": 5295,
      "April": 5296,
      "strict": 5297,
      "avoid": 5298,
      "operation": 5299,
      "dinner": 5300,
      "slight": 5301,
      "explained": 5302,
      "intellectual": 5303,
      "ink": 5304,
      "residents": 5305,
      "size": 5306,
      "ases": 5307,
      "players": 5308,
      "subsequent": 5309,
      "bust": 5310,
      "consistent": 5311,
      "Lu": 5312,
      "vic": 5313,
      "December": 5314,
      "Nove": 5315,
      "County": 5316,
      "suffer": 5317,
      "mic": 5318,
      "white": 5319,
      "excl": 5320,
      "campaign": 5321,
      "aling": 5322,
      "reality": 5323,
      "delight": 5324,
      "cently": 5325,
      "dynamics": 5326,
      "wealth": 5327,
      "invested": 5328,
      "reign": 5329,
      "levels": 5330,
      "simple": 5331,
      "Party": 5332,
      "Central": 5333,
      "September": 5334,
      "mir": 5335,
      "Redditors": 5336,
      "IN": 5337,
      "communicate": 5338,
      "November": 5339,
      "bot": 5340,
      "tro": 5341,
      "exact": 5342,
      "nasty": 5343,
      "Dav": 5344,
      "project": 5345,
      "piv": 5346,
      "infr": 5347,
      "nost": 5348,
      "appropri": 5349,
      "reached": 5350,
      "principles": 5351,
      "powers": 5352,
      "secret": 5353,
      "capturing": 5354,
      "majority": 5355,
      "mur": 5356,
      "itude": 5357,
      "note": 5358,
      "elected": 5359,
      "complexity": 5360,
      "Canada": 5361,
      "core": 5362,
      "forming": 5363,
      "require": 5364,
      "100": 5365,
      "remained": 5366,
      "operations": 5367,
      "June": 5368,
      "vul": 5369,
      "stability": 5370,
      "convin": 5371,
      "enge": 5372,
      "worse": 5373,
      "authority": 5374,
      "Islamic": 5375,
      "Micha": 5376,
      "mathemat": 5377,
      "Const": 5378,
      "consequences": 5379,
      "stig": 5380,
      "training": 5381,
      "applications": 5382,
      "itable": 5383,
      "unfold": 5384,
      "exchange": 5385,
      "instance": 5386,
      "therap": 5387,
      "manner": 5388,
      "talked": 5389,
      "meant": 5390,
      "weight": 5391,
      "Just": 5392,
      "uing": 5393,
      "assu": 5394,
      "board": 5395,
      "survi": 5396,
      "follows": 5397,
      "pivotal": 5398,
      "Of": 5399,
      "nuc": 5400,
      "kets": 5401,
      "cou": 5402,
      "swe": 5403,
      "responsibility": 5404,
      "enous": 5405,
      "gry": 5406,
      "families": 5407,
      "involve": 5408,
      "radio": 5409,
      "length": 5410,
      "mel": 5411,
      "shot": 5412,
      "refers": 5413,
      "alle": 5414,
      "shadow": 5415,
      "fundamental": 5416,
      "TH": 5417,
      "ored": 5418,
      "directly": 5419,
      "underwhel": 5420,
      "asy": 5421,
      "lower": 5422,
      "exploring": 5423,
      "drive": 5424,
      "base": 5425,
      "eco": 5426,
      "ites": 5427,
      "color": 5428,
      "looks": 5429,
      "metic": 5430,
      "showcases": 5431,
      "spent": 5432,
      "desire": 5433,
      "rules": 5434,
      "eni": 5435,
      "guil": 5436,
      "truth": 5437,
      "feat": 5438,
      "evidence": 5439,
      "promise": 5440,
      "offered": 5441,
      "collection": 5442,
      "straight": 5443,
      "FL": 5444,
      "platform": 5445,
      "district": 5446,
      "spl": 5447,
      "occup": 5448,
      "finding": 5449,
      "chann": 5450,
      "enduring": 5451,
      "Mad": 5452,
      "dead": 5453,
      "unsure": 5454,
      "girls": 5455,
      "uk": 5456,
      "looked": 5457,
      "Jew": 5458,
      "dden": 5459,
      "creation": 5460,
      "casting": 5461,
      "Recently": 5462,
      "occasionally": 5463,
      "fiction": 5464,
      "stream": 5465,
      "groundbreaking": 5466,
      "secure": 5467,
      "fol": 5468,
      "likely": 5469,
      "office": 5470,
      "effective": 5471,
      "generations": 5472,
      "rent": 5473,
      "cean": 5474,
      "positions": 5475,
      "Unfortunately": 5476,
      "origins": 5477,
      "gment": 5478,
      "July": 5479,
      "Kore": 5480,
      "incredible": 5481,
      "excessive": 5482,
      "journal": 5483,
      "practice": 5484,
      "sport": 5485,
      "tired": 5486,
      "aint": 5487,
      "directed": 5488,
      "Australian": 5489,
      "scholars": 5490,
      "Black": 5491,
      "ios": 5492,
      "Mor": 5493,
      "mountain": 5494,
      "conserv": 5495,
      "warming": 5496,
      "popularity": 5497,
      "via": 5498,
      "mostly": 5499,
      "enabling": 5500,
      "motiv": 5501,
      "caught": 5502,
      "fur": 5503,
      "flo": 5504,
      "traced": 5505,
      "president": 5506,
      "Sci": 5507,
      "captivate": 5508,
      "packed": 5509,
      "hear": 5510,
      "Ben": 5511,
      "fit": 5512,
      "famous": 5513,
      "anticip": 5514,
      "blood": 5515,
      "Irish": 5516,
      "ption": 5517,
      "questioning": 5518,
      "grew": 5519,
      "enthusiasts": 5520,
      "dress": 5521,
      "investig": 5522,
      "relatable": 5523,
      "oth": 5524,
      "Air": 5525,
      "Our": 5526,
      "yp": 5527,
      "politics": 5528,
      "decisions": 5529,
      "crafted": 5530,
      "ardi": 5531,
      "Harr": 5532,
      "spread": 5533,
      "Up": 5534,
      "sudden": 5535,
      "colog": 5536,
      "involves": 5537,
      "learning": 5538,
      "aj": 5539,
      "foreign": 5540,
      "treatment": 5541,
      "190": 5542,
      "Follow": 5543,
      "changing": 5544,
      "According": 5545,
      "wall": 5546,
      "ologies": 5547,
      "Australia": 5548,
      "expanded": 5549,
      "whose": 5550,
      "missed": 5551,
      "separate": 5552,
      "guilty": 5553,
      "unk": 5554,
      "focused": 5555,
      "harm": 5556,
      "loyal": 5557,
      "univers": 5558,
      "younger": 5559,
      "executed": 5560,
      "Que": 5561,
      "Vis": 5562,
      "arm": 5563,
      "ictor": 5564,
      "processes": 5565,
      "legisl": 5566,
      "increased": 5567,
      "laws": 5568,
      "Michael": 5569,
      "Cap": 5570,
      "lection": 5571,
      "cel": 5572,
      "scale": 5573,
      "ensem": 5574,
      "contemporary": 5575,
      "superhero": 5576,
      "adop": 5577,
      "games": 5578,
      "nia": 5579,
      "anno": 5580,
      "depart": 5581,
      "extended": 5582,
      "calling": 5583,
      "plants": 5584,
      "ongoing": 5585,
      "users": 5586,
      "decades": 5587,
      "explores": 5588,
      "texts": 5589,
      "plom": 5590,
      "prestig": 5591,
      "Govern": 5592,
      "practical": 5593,
      "Pal": 5594,
      "Ter": 5595,
      "encies": 5596,
      "edom": 5597,
      "bridge": 5598,
      "desper": 5599,
      "student": 5600,
      "meaningful": 5601,
      "safety": 5602,
      "tale": 5603,
      "Also": 5604,
      "lem": 5605,
      "achiev": 5606,
      "suggestions": 5607,
      "pul": 5608,
      "sounds": 5609,
      "itation": 5610,
      "itute": 5611,
      "Sm": 5612,
      "pressure": 5613,
      "historic": 5614,
      "interpret": 5615,
      "advant": 5616,
      "technical": 5617,
      "definitely": 5618,
      "frequently": 5619,
      "committed": 5620,
      "budget": 5621,
      "above": 5622,
      "hilar": 5623,
      "pregn": 5624,
      "bodies": 5625,
      "helped": 5626,
      "tober": 5627,
      "bon": 5628,
      "fas": 5629,
      "knows": 5630,
      "supportive": 5631,
      "reser": 5632,
      "books": 5633,
      "rapid": 5634,
      "CG": 5635,
      "Sou": 5636,
      "yr": 5637,
      "astruct": 5638,
      "wides": 5639,
      "willing": 5640,
      "van": 5641,
      "reve": 5642,
      "peace": 5643,
      "guard": 5644,
      "earlier": 5645,
      "Following": 5646,
      "El": 5647,
      "Ul": 5648,
      "supp": 5649,
      "transportation": 5650,
      "perspectives": 5651,
      "African": 5652,
      "throw": 5653,
      "inder": 5654,
      "court": 5655,
      "miles": 5656,
      "tered": 5657,
      "ibilities": 5658,
      "enchant": 5659,
      "wondering": 5660,
      "analy": 5661,
      "October": 5662,
      "hur": 5663,
      "newsp": 5664,
      "heartwarming": 5665,
      "launch": 5666,
      "initial": 5667,
      "ensemble": 5668,
      "custo": 5669,
      "cise": 5670,
      "eat": 5671,
      "sort": 5672,
      "seats": 5673,
      "animals": 5674,
      "vulner": 5675,
      "Sim": 5676,
      "tedly": 5677,
      "undeni": 5678,
      "controll": 5679,
      "pleas": 5680,
      "authenticity": 5681,
      "infrastruct": 5682,
      "reet": 5683,
      "anned": 5684,
      "advancements": 5685,
      "strength": 5686,
      "immersive": 5687,
      "candid": 5688,
      "spending": 5689,
      "impression": 5690,
      "Hist": 5691,
      "gent": 5692,
      "wild": 5693,
      "vert": 5694,
      "artists": 5695,
      "temper": 5696,
      "horr": 5697,
      "cases": 5698,
      "opinion": 5699,
      "CE": 5700,
      "tax": 5701,
      "figures": 5702,
      "scholar": 5703,
      "violence": 5704,
      "gives": 5705,
      "ouble": 5706,
      "intent": 5707,
      "additional": 5708,
      "William": 5709,
      "onto": 5710,
      "award": 5711,
      "twists": 5712,
      "relev": 5713,
      "territory": 5714,
      "widespread": 5715,
      "tough": 5716,
      "box": 5717,
      "Asia": 5718,
      "portrayed": 5719,
      "strategic": 5720,
      "park": 5721,
      "belong": 5722,
      "earned": 5723,
      "expans": 5724,
      "ease": 5725,
      "mob": 5726,
      "explain": 5727,
      "witnessed": 5728,
      "cts": 5729,
      "gotten": 5730,
      "square": 5731,
      "Dan": 5732,
      "Eastern": 5733,
      "stup": 5734,
      "hosp": 5735,
      "movements": 5736,
      "31": 5737,
      "gram": 5738,
      "awk": 5739,
      "easily": 5740,
      "substant": 5741,
      "societal": 5742,
      "ron": 5743,
      "recor": 5744,
      "arian": 5745,
      "intriguing": 5746,
      "Bas": 5747,
      "Law": 5748,
      "General": 5749,
      "Paul": 5750,
      "bs": 5751,
      "realm": 5752,
      "matters": 5753,
      "Peter": 5754,
      "Mel": 5755,
      "kil": 5756,
      "Bro": 5757,
      "determination": 5758,
      "infrastructure": 5759,
      "vation": 5760,
      "parties": 5761,
      "cultures": 5762,
      "respective": 5763,
      "AD": 5764,
      "east": 5765,
      "angry": 5766,
      "otic": 5767,
      "intention": 5768,
      "execution": 5769,
      "Muslim": 5770,
      "premise": 5771,
      "lived": 5772,
      "quar": 5773,
      "189": 5774,
      "voiced": 5775,
      "disappointment": 5776,
      "distinctive": 5777,
      "EU": 5778,
      "ismatic": 5779,
      "facing": 5780,
      "hate": 5781,
      "settle": 5782,
      "competition": 5783,
      "80": 5784,
      "sw": 5785,
      "climate": 5786,
      "bour": 5787,
      "fare": 5788,
      "chore": 5789,
      "divided": 5790,
      "ride": 5791,
      "insight": 5792,
      "equip": 5793,
      "accused": 5794,
      "Hen": 5795,
      "philosophy": 5796,
      "High": 5797,
      "Mr": 5798,
      "ya": 5799,
      "sequel": 5800,
      "countless": 5801,
      "eye": 5802,
      "surprise": 5803,
      "liber": 5804,
      "honestly": 5805,
      "hoping": 5806,
      "stupid": 5807,
      "ti": 5808,
      "ulated": 5809,
      "excellent": 5810,
      "mi": 5811,
      "print": 5812,
      "intended": 5813,
      "League": 5814,
      "Beyond": 5815,
      "Hel": 5816,
      "hid": 5817,
      "choices": 5818,
      "linguistic": 5819,
      "ications": 5820,
      "minim": 5821,
      "universe": 5822,
      "topic": 5823,
      "distingu": 5824,
      "witty": 5825,
      "amed": 5826,
      "sharing": 5827,
      "feed": 5828,
      "charismatic": 5829,
      "aware": 5830,
      "appropriate": 5831,
      "beautifully": 5832,
      "Rich": 5833,
      "god": 5834,
      "See": 5835,
      "Lou": 5836,
      "fection": 5837,
      "ademy": 5838,
      "heartfelt": 5839,
      "60": 5840,
      "vary": 5841,
      "reams": 5842,
      "diplom": 5843,
      "police": 5844,
      "Northern": 5845,
      "ethnic": 5846,
      "extraordinary": 5847,
      "opinions": 5848,
      "Lake": 5849,
      "fuel": 5850,
      "ode": 5851,
      "rang": 5852,
      "gency": 5853,
      "opening": 5854,
      "romance": 5855,
      "materials": 5856,
      "jointed": 5857,
      "yle": 5858,
      "stor": 5859,
      "vering": 5860,
      "consistently": 5861,
      "achievements": 5862,
      "hilarious": 5863,
      "theless": 5864,
      "Fran": 5865,
      "Comp": 5866,
      "architectural": 5867,
      "freedom": 5868,
      "prestigious": 5869,
      "ounced": 5870,
      "goals": 5871,
      "joined": 5872,
      "village": 5873,
      "mutual": 5874,
      "dance": 5875,
      "rac": 5876,
      "worst": 5877,
      "Sea": 5878,
      "connections": 5879,
      "disjointed": 5880,
      "forest": 5881,
      "failing": 5882,
      "icip": 5883,
      "transition": 5884,
      "huge": 5885,
      "federal": 5886,
      "dro": 5887,
      "rig": 5888,
      "2000": 5889,
      "seek": 5890,
      "researchers": 5891,
      "ost": 5892,
      "citizens": 5893,
      "convol": 5894,
      "Most": 5895,
      "moral": 5896,
      "35": 5897,
      "overly": 5898,
      "running": 5899,
      "tells": 5900,
      "meeting": 5901,
      "cis": 5902,
      "religion": 5903,
      "activity": 5904,
      "commercial": 5905,
      "UN": 5906,
      "flick": 5907,
      "Ang": 5908,
      ".)": 5909,
      ".,": 5910,
      "laughter": 5911,
      "tast": 5912,
      "repe": 5913,
      "itu": 5914,
      "array": 5915,
      "Ma": 5916,
      "Spe": 5917,
      "teacher": 5918,
      "compon": 5919,
      "innovation": 5920,
      "formula": 5921,
      "drag": 5922,
      "methods": 5923,
      "clar": 5924,
      "investment": 5925,
      "worthy": 5926,
      "Whether": 5927,
      "basically": 5928,
      "industrial": 5929,
      "CD": 5930,
      "atal": 5931,
      "projects": 5932,
      "ached": 5933,
      "Star": 5934,
      "thinks": 5935,
      "effici": 5936,
      "George": 5937,
      "sustainable": 5938,
      "fish": 5939,
      "evil": 5940,
      "unders": 5941,
      "Foot": 5942,
      "ka": 5943,
      "ston": 5944,
      "sea": 5945,
      "highest": 5946,
      "III": 5947,
      "magic": 5948,
      "convoluted": 5949,
      "bell": 5950,
      "evolved": 5951,
      "details": 5952,
      "sess": 5953,
      "overre": 5954,
      "spectacle": 5955,
      "yn": 5956,
      "acity": 5957,
      "outstanding": 5958,
      "Kar": 5959,
      "attle": 5960,
      "Robert": 5961,
      "categ": 5962,
      "encounter": 5963,
      "okay": 5964,
      "incident": 5965,
      "cé": 5966,
      "heavy": 5967,
      "berg": 5968,
      "nostalg": 5969,
      "record": 5970,
      "required": 5971,
      "ensus": 5972,
      "efficient": 5973,
      "Victor": 5974,
      "accoun": 5975,
      "revolves": 5976,
      "32": 5977,
      "Sen": 5978,
      "gun": 5979,
      "places": 5980,
      "element": 5981,
      "functions": 5982,
      "nearly": 5983,
      "measure": 5984,
      "distribution": 5985,
      "thous": 5986,
      "conce": 5987,
      "filmmakers": 5988,
      "border": 5989,
      "phenomen": 5990,
      "sources": 5991,
      "vention": 5992,
      "icit": 5993,
      "ctors": 5994,
      "argued": 5995,
      "colonial": 5996,
      "select": 5997,
      "conven": 5998,
      "convent": 5999,
      "condition": 6000,
      "Italian": 6001,
      "circum": 6002,
      "diale": 6003,
      "combined": 6004,
      "wavering": 6005,
      "commendable": 6006,
      "slightly": 6007,
      "ligh": 6008,
      "return": 6009,
      "visit": 6010,
      "monarch": 6011,
      "Sha": 6012,
      "ulate": 6013,
      "electric": 6014,
      "southern": 6015,
      "utions": 6016,
      "buy": 6017,
      "numbers": 6018,
      "ashing": 6019,
      "combination": 6020,
      "Paris": 6021,
      "picture": 6022,
      "average": 6023,
      "urally": 6024,
      "confront": 6025,
      "speaking": 6026,
      "aircraft": 6027,
      "products": 6028,
      "VD": 6029,
      "ufact": 6030,
      "compared": 6031,
      "gender": 6032,
      "mate": 6033,
      "nie": 6034,
      "pieces": 6035,
      "songs": 6036,
      "installment": 6037,
      "Born": 6038,
      "properties": 6039,
      "Red": 6040,
      "challenge": 6041,
      "opened": 6042,
      "wonderful": 6043,
      "administrative": 6044,
      "ares": 6045,
      "ecolog": 6046,
      "fest": 6047,
      "pression": 6048,
      "literary": 6049,
      "anth": 6050,
      "astr": 6051,
      "Christmas": 6052,
      "composed": 6053,
      "standout": 6054,
      "portion": 6055,
      "drug": 6056,
      "expertise": 6057,
      "firm": 6058,
      "bing": 6059,
      "brush": 6060,
      "unwavering": 6061,
      "hasn": 6062,
      "Inter": 6063,
      "Christianity": 6064,
      "contrast": 6065,
      "David": 6066,
      "fian": 6067,
      "gal": 6068,
      "poly": 6069,
      "finds": 6070,
      "target": 6071,
      "beliefs": 6072,
      "Lastly": 6073,
      "unforgettable": 6074,
      "bled": 6075,
      "2020": 6076,
      "internal": 6077,
      "sequence": 6078,
      "succeed": 6079,
      "learn": 6080,
      "CGI": 6081,
      "AS": 6082,
      "ders": 6083,
      "appeared": 6084,
      "usual": 6085,
      "relatively": 6086,
      "check": 6087,
      "Bur": 6088,
      "ni": 6089,
      "orial": 6090,
      "stone": 6091,
      "whenever": 6092,
      "awkward": 6093,
      "Tim": 6094,
      "resili": 6095,
      "bra": 6096,
      "chem": 6097,
      "severe": 6098,
      "scientists": 6099,
      "appearance": 6100,
      "parently": 6101,
      "greater": 6102,
      "Hu": 6103,
      "rely": 6104,
      "transform": 6105,
      "Commun": 6106,
      "strengths": 6107,
      "strategies": 6108,
      "predecessor": 6109,
      "poses": 6110,
      "realistic": 6111,
      "engagement": 6112,
      "2011": 6113,
      "morning": 6114,
      "Russia": 6115,
      "substantial": 6116,
      "cous": 6117,
      "estic": 6118,
      "promising": 6119,
      "aes": 6120,
      "grant": 6121,
      "aims": 6122,
      "burg": 6123,
      "discovered": 6124,
      "risk": 6125,
      "resilience": 6126,
      "bill": 6127,
      "bio": 6128,
      "worry": 6129,
      "intensity": 6130,
      "cycle": 6131,
      "establishing": 6132,
      "shaped": 6133,
      "embark": 6134,
      "employed": 6135,
      "Italy": 6136,
      "ows": 6137,
      "affair": 6138,
      "cheap": 6139,
      "defined": 6140,
      "manufact": 6141,
      "spot": 6142,
      "save": 6143,
      "discussions": 6144,
      "negative": 6145,
      "onomy": 6146,
      "camera": 6147,
      "Like": 6148,
      "Mary": 6149,
      "aff": 6150,
      "reaching": 6151,
      "Middle": 6152,
      "Cr": 6153,
      "rate": 6154,
      "ativity": 6155,
      "sites": 6156,
      "apped": 6157,
      "load": 6158,
      "evident": 6159,
      "disrespect": 6160,
      "wait": 6161,
      "ctr": 6162,
      "tend": 6163,
      "illa": 6164,
      "cinema": 6165,
      "ensures": 6166,
      "bes": 6167,
      "gi": 6168,
      "income": 6169,
      "height": 6170,
      "broader": 6171,
      "imagin": 6172,
      "AL": 6173,
      "proceed": 6174,
      "speed": 6175,
      "tware": 6176,
      "exciting": 6177,
      "advanced": 6178,
      "consists": 6179,
      "confron": 6180,
      "appl": 6181,
      "weird": 6182,
      "arrang": 6183,
      "museum": 6184,
      "request": 6185,
      "2016": 6186,
      "vict": 6187,
      "units": 6188,
      "manage": 6189,
      "lic": 6190,
      "detract": 6191,
      "underlying": 6192,
      "encompasses": 6193,
      "Che": 6194,
      "Fed": 6195,
      "rock": 6196,
      "calls": 6197,
      "shown": 6198,
      "raised": 6199,
      "starts": 6200,
      "writer": 6201,
      "convincing": 6202,
      "nar": 6203,
      "tack": 6204,
      "ifts": 6205,
      "solution": 6206,
      "recommend": 6207,
      "betray": 6208,
      "utch": 6209,
      "presented": 6210,
      "undoub": 6211,
      "complexities": 6212,
      "aved": 6213,
      "doubt": 6214,
      "circumst": 6215,
      "cha": 6216,
      "bles": 6217,
      "visions": 6218,
      "undoubtedly": 6219,
      "Bu": 6220,
      "gift": 6221,
      "represents": 6222,
      "ady": 6223,
      "suggested": 6224,
      "bomb": 6225,
      "eration": 6226,
      "amb": 6227,
      "arted": 6228,
      "engineering": 6229,
      "fiancé": 6230,
      "ico": 6231,
      "stars": 6232,
      "commo": 6233,
      "agree": 6234,
      "governance": 6235,
      "lywood": 6236,
      "kingdom": 6237,
      "CO": 6238,
      "Revolution": 6239,
      "trop": 6240,
      "zz": 6241,
      "olar": 6242,
      "Moon": 6243,
      "representation": 6244,
      "indeli": 6245,
      "centers": 6246,
      "ternal": 6247,
      "Cali": 6248,
      "atr": 6249,
      "ental": 6250,
      "liked": 6251,
      "player": 6252,
      "agreement": 6253,
      "indelible": 6254,
      "hers": 6255,
      "empath": 6256,
      "shallow": 6257,
      "networks": 6258,
      "defensive": 6259,
      "Parliament": 6260,
      "fascin": 6261,
      "Mex": 6262,
      "aspir": 6263,
      "dram": 6264,
      "realized": 6265,
      "claims": 6266,
      "protection": 6267,
      "solely": 6268,
      "worried": 6269,
      "lose": 6270,
      "gradually": 6271,
      "Sal": 6272,
      "pion": 6273,
      "aters": 6274,
      "honor": 6275,
      "bank": 6276,
      "rect": 6277,
      "conson": 6278,
      "timeless": 6279,
      "grip": 6280,
      "elled": 6281,
      "apartment": 6282,
      "Califor": 6283,
      "Are": 6284,
      "cable": 6285,
      "sive": 6286,
      "brain": 6287,
      "epic": 6288,
      "Thanks": 6289,
      "property": 6290,
      "discovery": 6291,
      "lights": 6292,
      "leads": 6293,
      "Scott": 6294,
      "alternative": 6295,
      "roots": 6296,
      "architecture": 6297,
      "70": 6298,
      "iety": 6299,
      "si": 6300,
      "charming": 6301,
      "results": 6302,
      "coher": 6303,
      "limit": 6304,
      "ert": 6305,
      "extr": 6306,
      "cohes": 6307,
      "Mur": 6308,
      "San": 6309,
      "stere": 6310,
      "Frank": 6311,
      "institution": 6312,
      "Chris": 6313,
      "appointed": 6314,
      "daily": 6315,
      "California": 6316,
      "Old": 6317,
      "encing": 6318,
      "graphy": 6319,
      "entirely": 6320,
      "casual": 6321,
      "periods": 6322,
      "specifically": 6323,
      "discussing": 6324,
      "Budd": 6325,
      "appears": 6326,
      "laid": 6327,
      "seriously": 6328,
      "eager": 6329,
      "gro": 6330,
      "ara": 6331,
      "answer": 6332,
      "ference": 6333,
      "harmon": 6334,
      "originally": 6335,
      "adopted": 6336,
      "AM": 6337,
      "DVD": 6338,
      "ju": 6339,
      "ls": 6340,
      "notice": 6341,
      "bruary": 6342,
      "Bra": 6343,
      "theme": 6344,
      "represented": 6345,
      "option": 6346,
      "February": 6347,
      "kilome": 6348,
      "kick": 6349,
      "pic": 6350,
      "sun": 6351,
      "immer": 6352,
      "timing": 6353,
      "relations": 6354,
      "186": 6355,
      "described": 6356,
      "yes": 6357,
      "Americ": 6358,
      "Island": 6359,
      "steps": 6360,
      "territories": 6361,
      "coord": 6362,
      "eful": 6363,
      "soldi": 6364,
      "rushed": 6365,
      "software": 6366,
      "bish": 6367,
      "ram": 6368,
      "ald": 6369,
      "myth": 6370,
      "perhaps": 6371,
      "Academy": 6372,
      "terrible": 6373,
      "companies": 6374,
      "vac": 6375,
      "roy": 6376,
      "manip": 6377,
      "friendly": 6378,
      "regarded": 6379,
      "frustrated": 6380,
      "Ren": 6381,
      "Sup": 6382,
      "ils": 6383,
      "afford": 6384,
      "2019": 6385,
      "county": 6386,
      "putting": 6387,
      "resulted": 6388,
      "Bul": 6389,
      "ES": 6390,
      "cher": 6391,
      "faces": 6392,
      "expressing": 6393,
      "necessarily": 6394,
      "exhilar": 6395,
      "overwhelming": 6396,
      "Oh": 6397,
      "Pre": 6398,
      "shoc": 6399,
      "poorly": 6400,
      "shift": 6401,
      "generation": 6402,
      "za": 6403,
      "ique": 6404,
      "amid": 6405,
      "emotion": 6406,
      "transformation": 6407,
      "therapy": 6408,
      "circumstances": 6409,
      "supported": 6410,
      "delightful": 6411,
      "seven": 6412,
      "produce": 6413,
      "clearly": 6414,
      "devast": 6415,
      "developing": 6416,
      "reduced": 6417,
      "align": 6418,
      "consu": 6419,
      "geograph": 6420,
      "creates": 6421,
      "inside": 6422,
      "animal": 6423,
      "restling": 6424,
      "occurred": 6425,
      "Japanese": 6426,
      "gem": 6427,
      "shouldn": 6428,
      "humans": 6429,
      "expression": 6430,
      "immersing": 6431,
      "nations": 6432,
      "ero": 6433,
      "shop": 6434,
      "writers": 6435,
      "designs": 6436,
      "addressing": 6437,
      "damage": 6438,
      "Cro": 6439,
      "abs": 6440,
      "atever": 6441,
      "selfish": 6442,
      "transl": 6443,
      "Bl": 6444,
      "Day": 6445,
      "Fre": 6446,
      "gold": 6447,
      "sper": 6448,
      "ketball": 6449,
      "reasonable": 6450,
      "integral": 6451,
      "race": 6452,
      "unity": 6453,
      "waste": 6454,
      "indig": 6455,
      "differences": 6456,
      "Arch": 6457,
      "legend": 6458,
      "topics": 6459,
      "azy": 6460,
      "industries": 6461,
      "Bec": 6462,
      "Jes": 6463,
      "vice": 6464,
      "isted": 6465,
      "enses": 6466,
      "characteristics": 6467,
      "distant": 6468,
      "controvers": 6469,
      "emphasis": 6470,
      "battles": 6471,
      "Football": 6472,
      "kin": 6473,
      "capacity": 6474,
      "helps": 6475,
      "classical": 6476,
      "prioritize": 6477,
      "murder": 6478,
      "Henry": 6479,
      "BA": 6480,
      "trib": 6481,
      "tee": 6482,
      "driven": 6483,
      "locations": 6484,
      "sorry": 6485,
      "iles": 6486,
      "desired": 6487,
      "killed": 6488,
      "graduate": 6489,
      "Cour": 6490,
      "infect": 6491,
      "escal": 6492,
      "whom": 6493,
      "pra": 6494,
      "measures": 6495,
      "excited": 6496,
      "agricultural": 6497,
      "Mart": 6498,
      "bf": 6499,
      "pha": 6500,
      "division": 6501,
      "greatest": 6502,
      "Men": 6503,
      "enty": 6504,
      "overshadow": 6505,
      "certainly": 6506,
      "escape": 6507,
      "oral": 6508,
      "invited": 6509,
      "hub": 6510,
      "deserves": 6511,
      "asks": 6512,
      "uninspired": 6513,
      "captured": 6514,
      "hands": 6515,
      "societies": 6516,
      "relevant": 6517,
      "lov": 6518,
      "creative": 6519,
      "formal": 6520,
      "showcase": 6521,
      "Charles": 6522,
      "Richard": 6523,
      "Pac": 6524,
      "pun": 6525,
      "zy": 6526,
      "dete": 6527,
      "aud": 6528,
      "bling": 6529,
      "stereot": 6530,
      "45": 6531,
      "bloc": 6532,
      "istan": 6533,
      "cells": 6534,
      "obviously": 6535,
      "vow": 6536,
      "loves": 6537,
      "officially": 6538,
      "decline": 6539,
      "tery": 6540,
      "concerned": 6541,
      "acknowled": 6542,
      "Smith": 6543,
      "??": 6544,
      "Lit": 6545,
      "transfer": 6546,
      "alongside": 6547,
      "fighting": 6548,
      "intelligence": 6549,
      "iny": 6550,
      "188": 6551,
      "northern": 6552,
      "holding": 6553,
      "Royal": 6554,
      "river": 6555,
      "People": 6556,
      "resolution": 6557,
      "review": 6558,
      "perman": 6559,
      "spark": 6560,
      "covered": 6561,
      "doctor": 6562,
      "collaboration": 6563,
      "indigenous": 6564,
      "ED": 6565,
      "2010": 6566,
      "enjoyed": 6567,
      "smaller": 6568,
      "literally": 6569,
      "channel": 6570,
      "Age": 6571,
      "Ot": 6572,
      "barr": 6573,
      "sick": 6574,
      "Overall": 6575,
      "Jewish": 6576,
      "indu": 6577,
      "enchanting": 6578,
      "enjo": 6579,
      "isma": 6580,
      "dio": 6581,
      "marks": 6582,
      "personality": 6583,
      "originality": 6584,
      "losing": 6585,
      "Second": 6586,
      "arguments": 6587,
      "existing": 6588,
      "iled": 6589,
      "realize": 6590,
      "sched": 6591,
      "inde": 6592,
      "exhilarating": 6593,
      "charisma": 6594,
      "captivated": 6595,
      "involving": 6596,
      "weekend": 6597,
      "Let": 6598,
      "resource": 6599,
      "store": 6600,
      "largely": 6601,
      "aesthe": 6602,
      "33": 6603,
      "Mu": 6604,
      "wan": 6605,
      "hearted": 6606,
      "introduction": 6607,
      "framework": 6608,
      "favorite": 6609,
      "chemical": 6610,
      "spar": 6611,
      "nit": 6612,
      "tens": 6613,
      "conclusion": 6614,
      "90": 6615,
      "sides": 6616,
      "atom": 6617,
      "tot": 6618,
      "convey": 6619,
      "loving": 6620,
      "cide": 6621,
      "coach": 6622,
      "elections": 6623,
      "valid": 6624,
      "happiness": 6625,
      "showcased": 6626,
      "drawn": 6627,
      "lighthe": 6628,
      "La": 6629,
      "PA": 6630,
      "input": 6631,
      "planned": 6632,
      "hase": 6633,
      "missing": 6634,
      "2015": 6635,
      "slap": 6636,
      "benefits": 6637,
      "Port": 6638,
      "ona": 6639,
      "league": 6640,
      "feet": 6641,
      "owner": 6642,
      "dynasty": 6643,
      "Hollywood": 6644,
      "picturesque": 6645,
      "crime": 6646,
      "Associ": 6647,
      "please": 6648,
      "platforms": 6649,
      "resonate": 6650,
      "lighthearted": 6651,
      "Gold": 6652,
      "Uk": 6653,
      "bought": 6654,
      "hospital": 6655,
      "Mag": 6656,
      "ancy": 6657,
      "strain": 6658,
      "arrass": 6659,
      "spee": 6660,
      "oldest": 6661,
      "facilities": 6662,
      "accident": 6663,
      "mixed": 6664,
      "iveness": 6665,
      "split": 6666,
      "Wil": 6667,
      "paid": 6668,
      "toll": 6669,
      "ambit": 6670,
      "unit": 6671,
      "cool": 6672,
      "fulfil": 6673,
      "concern": 6674,
      "previously": 6675,
      "sensitive": 6676,
      "hun": 6677,
      "adult": 6678,
      "depict": 6679,
      "stopped": 6680,
      "ets": 6681,
      "Army": 6682,
      "cycl": 6683,
      "reading": 6684,
      "happens": 6685,
      "Mark": 6686,
      "tox": 6687,
      "ched": 6688,
      "basic": 6689,
      "Bal": 6690,
      "Cong": 6691,
      "ba": 6692,
      "andon": 6693,
      "contract": 6694,
      "actual": 6695,
      "attracting": 6696,
      "embarrass": 6697,
      "Ze": 6698,
      "mouth": 6699,
      "unfortunately": 6700,
      "helping": 6701,
      "closely": 6702,
      "devices": 6703,
      "patterns": 6704,
      "oring": 6705,
      "iday": 6706,
      "mood": 6707,
      "versat": 6708,
      "driving": 6709,
      "ogy": 6710,
      "mainly": 6711,
      "breakup": 6712,
      "symp": 6713,
      "accessible": 6714,
      "tools": 6715,
      "Bay": 6716,
      "Den": 6717,
      "cater": 6718,
      "ont": 6719,
      "heat": 6720,
      "extends": 6721,
      "leaders": 6722,
      "ission": 6723,
      "believable": 6724,
      "expansion": 6725,
      "oh": 6726,
      "pace": 6727,
      "theast": 6728,
      "whatever": 6729,
      "etic": 6730,
      "creativity": 6731,
      "Thom": 6732,
      "Histor": 6733,
      "ID": 6734,
      "Init": 6735,
      "difference": 6736,
      "readers": 6737,
      "laughs": 6738,
      "Dutch": 6739,
      "card": 6740,
      "masterpiece": 6741,
      "NA": 6742,
      "Viet": 6743,
      "andom": 6744,
      "chap": 6745,
      "ida": 6746,
      "ulously": 6747,
      "cultiv": 6748,
      "rug": 6749,
      "venue": 6750,
      "block": 6751,
      "gins": 6752,
      "pure": 6753,
      "stret": 6754,
      "iling": 6755,
      "abund": 6756,
      "pron": 6757,
      "buildings": 6758,
      "eastern": 6759,
      "endearing": 6760,
      "bare": 6761,
      "equal": 6762,
      "backdrop": 6763,
      "staying": 6764,
      "geome": 6765,
      "derived": 6766,
      "qualities": 6767,
      "inf": 6768,
      "ari": 6769,
      "Spain": 6770,
      "mesmer": 6771,
      "dream": 6772,
      "dreams": 6773,
      "isol": 6774,
      "memory": 6775,
      "2014": 6776,
      "typical": 6777,
      "fantasy": 6778,
      "satisfying": 6779,
      "exactly": 6780,
      "Hi": 6781,
      "tong": 6782,
      "exer": 6783,
      "shit": 6784,
      "umph": 6785,
      "cerem": 6786,
      "showed": 6787,
      "187": 6788,
      "18th": 6789,
      "cutting": 6790,
      "reducing": 6791,
      "newspaper": 6792,
      "bum": 6793,
      "tor": 6794,
      "reliance": 6795,
      "experiment": 6796,
      "pursuit": 6797,
      "hinder": 6798,
      "remin": 6799,
      "terror": 6800,
      "utive": 6801,
      "umes": 6802,
      "goal": 6803,
      "dry": 6804,
      "paying": 6805,
      "options": 6806,
      "pts": 6807,
      "chair": 6808,
      "compr": 6809,
      "Atl": 6810,
      "Louis": 6811,
      "train": 6812,
      "cow": 6813,
      "matic": 6814,
      "image": 6815,
      "urance": 6816,
      "code": 6817,
      "assess": 6818,
      "2022": 6819,
      "household": 6820,
      "ibe": 6821,
      "lease": 6822,
      "estim": 6823,
      "warm": 6824,
      "harsh": 6825,
      "featuring": 6826,
      "thes": 6827,
      "emer": 6828,
      "185": 6829,
      "2012": 6830,
      "equally": 6831,
      "garner": 6832,
      "Post": 6833,
      "increasing": 6834,
      "thousands": 6835,
      "dat": 6836,
      "green": 6837,
      "det": 6838,
      "AA": 6839,
      "omin": 6840,
      "province": 6841,
      "Soci": 6842,
      "destination": 6843,
      "esterday": 6844,
      "dish": 6845,
      "thriller": 6846,
      "Never": 6847,
      "mistake": 6848,
      "Mer": 6849,
      "accompl": 6850,
      "2018": 6851,
      "2021": 6852,
      "refused": 6853,
      "renal": 6854,
      "tournam": 6855,
      "teachings": 6856,
      "endeav": 6857,
      "micro": 6858,
      "Jer": 6859,
      "oke": 6860,
      "zed": 6861,
      "seas": 6862,
      "span": 6863,
      "1996": 6864,
      "drin": 6865,
      "confusing": 6866,
      "preserving": 6867,
      "determined": 6868,
      "municip": 6869,
      "Ocean": 6870,
      "uous": 6871,
      "complic": 6872,
      "prep": 6873,
      "purch": 6874,
      "renew": 6875,
      "anxiety": 6876,
      "loud": 6877,
      "mart": 6878,
      "rote": 6879,
      "uncertain": 6880,
      "goods": 6881,
      "occurs": 6882,
      "ecological": 6883,
      "ipp": 6884,
      "walk": 6885,
      "confronted": 6886,
      "native": 6887,
      "user": 6888,
      "responsibilities": 6889,
      "Nations": 6890,
      "champion": 6891,
      "ultim": 6892,
      "apologize": 6893,
      "episode": 6894,
      "advantage": 6895,
      "Ukrain": 6896,
      "actress": 6897,
      "medieval": 6898,
      "Grand": 6899,
      "Han": 6900,
      "migr": 6901,
      "according": 6902,
      "dilem": 6903,
      "administration": 6904,
      "Disney": 6905,
      "loyalty": 6906,
      "resistance": 6907,
      "triumph": 6908,
      "ables": 6909,
      "prow": 6910,
      "otherwise": 6911,
      "cry": 6912,
      "Trans": 6913,
      "imaginative": 6914,
      "cook": 6915,
      "minute": 6916,
      "gged": 6917,
      "philosoph": 6918,
      "Cup": 6919,
      "inher": 6920,
      "erie": 6921,
      "azz": 6922,
      "lake": 6923,
      "reflecting": 6924,
      "Pacific": 6925,
      "totally": 6926,
      "compe": 6927,
      "peror": 6928,
      "conflicted": 6929,
      "pursue": 6930,
      "victim": 6931,
      "nes": 6932,
      "wrote": 6933,
      "democratic": 6934,
      "compat": 6935,
      "2008": 6936,
      "explored": 6937,
      "restaur": 6938,
      "Mac": 6939,
      "arc": 6940,
      "accommo": 6941,
      "disease": 6942,
      "invas": 6943,
      "personalities": 6944,
      "2001": 6945,
      "listen": 6946,
      "islands": 6947,
      "adrenal": 6948,
      "auto": 6949,
      "showing": 6950,
      "affected": 6951,
      "Jesus": 6952,
      "Vietnam": 6953,
      "prowess": 6954,
      "Str": 6955,
      "rural": 6956,
      "semin": 6957,
      "waiting": 6958,
      "custom": 6959,
      "demonstrated": 6960,
      "Pers": 6961,
      "contains": 6962,
      "styles": 6963,
      "preservation": 6964,
      "cold": 6965,
      "bear": 6966,
      "unfair": 6967,
      "ception": 6968,
      "contributes": 6969,
      "2017": 6970,
      "possibly": 6971,
      "stereotyp": 6972,
      "returned": 6973,
      "section": 6974,
      "prison": 6975,
      "....": 6976,
      "sequently": 6977,
      "delicate": 6978,
      "magical": 6979,
      "disappointing": 6980,
      "ville": 6981,
      "dimin": 6982,
      "ST": 6983,
      "resent": 6984,
      "wear": 6985,
      "oph": 6986,
      "cooperation": 6987,
      "underdeveloped": 6988,
      "attend": 6989,
      "announced": 6990,
      "stood": 6991,
      "reliable": 6992,
      "integration": 6993,
      "crow": 6994,
      "ye": 6995,
      "inhabit": 6996,
      "overcome": 6997,
      "ounds": 6998,
      "brief": 6999,
      "2006": 7000,
      "organized": 7001,
      "screenplay": 7002,
      "flaws": 7003,
      "weap": 7004,
      "command": 7005,
      "improved": 7006,
      "excellence": 7007,
      "immerse": 7008,
      "tongue": 7009,
      "relies": 7010,
      "aled": 7011,
      "guest": 7012,
      "Though": 7013,
      "sell": 7014,
      "Why": 7015,
      "inspire": 7016,
      "Vi": 7017,
      "creatures": 7018,
      "Britain": 7019,
      "combat": 7020,
      "pati": 7021,
      "Company": 7022,
      "Jul": 7023,
      "rat": 7024,
      "lets": 7025,
      "brilliant": 7026,
      "intimate": 7027,
      "achieved": 7028,
      "39": 7029,
      "ulating": 7030,
      "objects": 7031,
      "empower": 7032,
      "2005": 7033,
      "technologies": 7034,
      "spr": 7035,
      "yan": 7036,
      "2023": 7037,
      "calm": 7038,
      "sembly": 7039,
      "conventional": 7040,
      "adrenaline": 7041,
      "Sing": 7042,
      "Washing": 7043,
      "tes": 7044,
      "tood": 7045,
      "fault": 7046,
      "sky": 7047,
      "judgment": 7048,
      "smooth": 7049,
      "cousin": 7050,
      "toxic": 7051,
      "construct": 7052,
      "backs": 7053,
      "grown": 7054,
      "nearby": 7055,
      "utilized": 7056,
      "Ultimately": 7057,
      "understood": 7058,
      "Otto": 7059,
      "slapstick": 7060,
      "constitut": 7061,
      "enhances": 7062,
      "devot": 7063,
      "Director": 7064,
      "Civ": 7065,
      "Rad": 7066,
      "apers": 7067,
      "Institute": 7068,
      "Scotland": 7069,
      "Washington": 7070,
      "\")": 7071,
      "NO": 7072,
      "quir": 7073,
      "compar": 7074,
      "posing": 7075,
      "2007": 7076,
      "ridic": 7077,
      "evalu": 7078,
      "houses": 7079,
      "Bond": 7080,
      "Battle": 7081,
      "dur": 7082,
      "informed": 7083,
      "decent": 7084,
      "aven": 7085,
      "complement": 7086,
      "privacy": 7087,
      "involvement": 7088,
      "iers": 7089,
      "specialized": 7090,
      "Ira": 7091,
      "zing": 7092,
      "council": 7093,
      "transmit": 7094,
      "attracted": 7095,
      "appealing": 7096,
      "Gl": 7097,
      "Hor": 7098,
      "attribut": 7099,
      "sector": 7100,
      "utter": 7101,
      "ups": 7102,
      "rever": 7103,
      "aming": 7104,
      "disput": 7105,
      "relent": 7106,
      "Islands": 7107,
      "receive": 7108,
      "Minister": 7109,
      "(\"": 7110,
      "aly": 7111,
      "brary": 7112,
      "knowing": 7113,
      "awful": 7114,
      "explaining": 7115,
      "oil": 7116,
      "cious": 7117,
      "orders": 7118,
      "joke": 7119,
      "pair": 7120,
      "olf": 7121,
      "consum": 7122,
      "antine": 7123,
      "diag": 7124,
      "2004": 7125,
      "Edit": 7126,
      "divor": 7127,
      "34": 7128,
      "replaced": 7129,
      "ems": 7130,
      "guide": 7131,
      "genres": 7132,
      "marine": 7133,
      "striking": 7134,
      "Hall": 7135,
      "Museum": 7136,
      "alous": 7137,
      "shock": 7138,
      "capable": 7139,
      "biggest": 7140,
      "relying": 7141,
      "brand": 7142,
      "solutions": 7143,
      "anna": 7144,
      "virt": 7145,
      "combines": 7146,
      "villain": 7147,
      "Association": 7148,
      "Iraq": 7149,
      "paper": 7150,
      "everyday": 7151,
      "closed": 7152,
      "dealing": 7153,
      "emphasizing": 7154,
      "Nat": 7155,
      "random": 7156,
      "tun": 7157,
      "chief": 7158,
      "abor": 7159,
      "promised": 7160,
      "seemingly": 7161,
      "basketball": 7162,
      "Maybe": 7163,
      "credit": 7164,
      "vocal": 7165,
      "ON": 7166,
      "istry": 7167,
      "shots": 7168,
      "crying": 7169,
      "delves": 7170,
      "accepted": 7171,
      "Because": 7172,
      "36": 7173,
      "fif": 7174,
      "zo": 7175,
      "anda": 7176,
      "external": 7177,
      "agger": 7178,
      "paralle": 7179,
      "obtain": 7180,
      "causes": 7181,
      "hydro": 7182,
      "Arabic": 7183,
      "efficiency": 7184,
      "ps": 7185,
      "san": 7186,
      "este": 7187,
      "adaptation": 7188,
      "Fast": 7189,
      "ini": 7190,
      "strike": 7191,
      "workers": 7192,
      "invent": 7193,
      "closure": 7194,
      "integrity": 7195,
      "facilitating": 7196,
      "Congress": 7197,
      "Rom": 7198,
      "Democratic": 7199,
      "dominant": 7200,
      "criticism": 7201,
      "ole": 7202,
      "icine": 7203,
      "arring": 7204,
      "sitting": 7205,
      "influences": 7206,
      "magn": 7207,
      "Au": 7208,
      "Rome": 7209,
      "obl": 7210,
      "tip": 7211,
      "iff": 7212,
      "Armen": 7213,
      "mystery": 7214,
      "Southern": 7215,
      "dramatic": 7216,
      "Iran": 7217,
      "Ru": 7218,
      "send": 7219,
      "inject": 7220,
      "letter": 7221,
      "settings": 7222,
      "nuclear": 7223,
      "comic": 7224,
      "shake": 7225,
      "spaces": 7226,
      "chosen": 7227,
      "depending": 7228,
      "childhood": 7229,
      "summ": 7230,
      "gripping": 7231,
      "Di": 7232,
      "Pen": 7233,
      "mand": 7234,
      "compromise": 7235,
      "chec": 7236,
      "passeng": 7237,
      "Du": 7238,
      "Rock": 7239,
      "pable": 7240,
      "aland": 7241,
      "adults": 7242,
      "cip": 7243,
      "Stand": 7244,
      "representing": 7245,
      "conduct": 7246,
      "bath": 7247,
      "dol": 7248,
      "inhab": 7249,
      "union": 7250,
      "organisms": 7251,
      "Syr": 7252,
      "folk": 7253,
      "conservation": 7254,
      "soldiers": 7255,
      "eating": 7256,
      "pled": 7257,
      "assist": 7258,
      "regret": 7259,
      "2013": 7260,
      "Korea": 7261,
      "Wars": 7262,
      "dull": 7263,
      "plac": 7264,
      "flour": 7265,
      "domestic": 7266,
      "purposes": 7267,
      "enjoyment": 7268,
      "Swed": 7269,
      "mesmerizing": 7270,
      "garnered": 7271,
      "sters": 7272,
      "aceful": 7273,
      "rot": 7274,
      "trial": 7275,
      "cris": 7276,
      "correct": 7277,
      "basis": 7278,
      "Both": 7279,
      "launched": 7280,
      "AR": 7281,
      "Er": 7282,
      "sight": 7283,
      "stim": 7284,
      "wider": 7285,
      "borders": 7286,
      "respected": 7287,
      "1980s": 7288,
      "Prince": 7289,
      "Society": 7290,
      "Ham": 7291,
      "Jim": 7292,
      "achel": 7293,
      "desc": 7294,
      "broken": 7295,
      "2002": 7296,
      "operates": 7297,
      "ranging": 7298,
      "Sil": 7299,
      "fishing": 7300,
      "none": 7301,
      "restrict": 7302,
      "stable": 7303,
      "perform": 7304,
      "subplot": 7305,
      "1998": 7306,
      "defense": 7307,
      "neglect": 7308,
      "speakers": 7309,
      "Science": 7310,
      "orous": 7311,
      "proposed": 7312,
      "expecting": 7313,
      "machine": 7314,
      "PS": 7315,
      "Ram": 7316,
      "Sur": 7317,
      "phe": 7318,
      "likes": 7319,
      "capabilities": 7320,
      "talents": 7321,
      "twist": 7322,
      "believes": 7323,
      "summer": 7324,
      "businesses": 7325,
      "models": 7326,
      "sacrific": 7327,
      "Angel": 7328,
      "Civil": 7329,
      "Mat": 7330,
      "gang": 7331,
      "hic": 7332,
      "stated": 7333,
      "urs": 7334,
      "pool": 7335,
      "observ": 7336,
      "Found": 7337,
      "dut": 7338,
      "zone": 7339,
      "upper": 7340,
      "Once": 7341,
      "imagination": 7342,
      "meticulously": 7343,
      "pregnant": 7344,
      "wish": 7345,
      "aft": 7346,
      "explan": 7347,
      "philosophical": 7348,
      "apparently": 7349,
      "wash": 7350,
      "scar": 7351,
      "join": 7352,
      "Stu": 7353,
      "credits": 7354,
      "Bat": 7355,
      "IV": 7356,
      "Vir": 7357,
      "Will": 7358,
      "impossible": 7359,
      "mole": 7360,
      "colors": 7361,
      "clubs": 7362,
      "afr": 7363,
      "lu": 7364,
      "frag": 7365,
      "ideal": 7366,
      "hook": 7367,
      "rounded": 7368,
      "diplomatic": 7369,
      "esteem": 7370,
      "fle": 7371,
      "ellar": 7372,
      "ashion": 7373,
      "relief": 7374,
      "intentions": 7375,
      "Court": 7376,
      "Award": 7377,
      "va": 7378,
      "inn": 7379,
      "superi": 7380,
      "2009": 7381,
      "passing": 7382,
      "celebrated": 7383,
      "soft": 7384,
      "rarely": 7385,
      "uan": 7386,
      "orient": 7387,
      "abandon": 7388,
      "earch": 7389,
      "fert": 7390,
      "teaching": 7391,
      "disciplines": 7392,
      "',": 7393,
      "ga": 7394,
      "ato": 7395,
      "auth": 7396,
      "ficial": 7397,
      "empire": 7398,
      "2003": 7399,
      "motivations": 7400,
      "pione": 7401,
      "44": 7402,
      "lers": 7403,
      "inval": 7404,
      "voic": 7405,
      "treated": 7406,
      "Initially": 7407,
      "EE": 7408,
      "palpable": 7409,
      "seamless": 7410,
      "preferences": 7411,
      "mathematics": 7412,
      "cance": 7413,
      "tact": 7414,
      "Art": 7415,
      "frustrating": 7416,
      "cli": 7417,
      "census": 7418,
      "gags": 7419,
      "jump": 7420,
      "sco": 7421,
      "sche": 7422,
      "udes": 7423,
      "arrived": 7424,
      "busy": 7425,
      "frustration": 7426,
      "supply": 7427,
      "phabet": 7428,
      "Flor": 7429,
      "hib": 7430,
      "repr": 7431,
      "remot": 7432,
      "stead": 7433,
      "conver": 7434,
      "ctic": 7435,
      "millions": 7436,
      "bothering": 7437,
      "accurate": 7438,
      "anticipated": 7439,
      "suddenly": 7440,
      "500": 7441,
      "Good": 7442,
      "gon": 7443,
      "reforms": 7444,
      "trau": 7445,
      "Before": 7446,
      "yer": 7447,
      "sey": 7448,
      "Social": 7449,
      "identify": 7450,
      "increase": 7451,
      "constructed": 7452,
      "narrow": 7453,
      "inated": 7454,
      "disconnected": 7455,
      "foremost": 7456,
      "authorities": 7457,
      "lifest": 7458,
      "copy": 7459,
      "reject": 7460,
      "humanity": 7461,
      "studied": 7462,
      "programming": 7463,
      "barely": 7464,
      "complicated": 7465,
      "Distr": 7466,
      "Hun": 7467,
      "earth": 7468,
      "centr": 7469,
      "signs": 7470,
      "boring": 7471,
      "fourth": 7472,
      "eur": 7473,
      "iation": 7474,
      "paced": 7475,
      "accol": 7476,
      "below": 7477,
      "plane": 7478,
      "igned": 7479,
      "athlet": 7480,
      "populations": 7481,
      "relied": 7482,
      "speech": 7483,
      "?\"": 7484,
      "OR": 7485,
      "dang": 7486,
      "astical": 7487,
      "indic": 7488,
      "rude": 7489,
      "civilizations": 7490,
      "carry": 7491,
      "gathering": 7492,
      "District": 7493,
      "pec": 7494,
      "compassion": 7495,
      "predecessors": 7496,
      "afraid": 7497,
      "remote": 7498,
      "Kong": 7499,
      "Sat": 7500,
      "fashion": 7501,
      "staff": 7502,
      "perial": 7503,
      "quant": 7504,
      "complements": 7505,
      "carbon": 7506,
      "professionals": 7507,
      "pushing": 7508,
      "divine": 7509,
      "Del": 7510,
      "Ke": 7511,
      "Know": 7512,
      "sin": 7513,
      "yl": 7514,
      "army": 7515,
      "beat": 7516,
      "chr": 7517,
      "embracing": 7518,
      "athetic": 7519,
      "Back": 7520,
      "eria": 7521,
      "chat": 7522,
      "boys": 7523,
      "display": 7524,
      "Asian": 7525,
      "highlights": 7526,
      "technological": 7527,
      "considerable": 7528,
      "operating": 7529,
      "roommate": 7530,
      "backgrounds": 7531,
      "Americans": 7532,
      "Set": 7533,
      "hall": 7534,
      "ola": 7535,
      "tral": 7536,
      "ante": 7537,
      "format": 7538,
      "maintained": 7539,
      "attempted": 7540,
      "apologized": 7541,
      "Government": 7542,
      "'.": 7543,
      "pon": 7544,
      "phase": 7545,
      "iding": 7546,
      "contrived": 7547,
      "agriculture": 7548,
      "underwhelmed": 7549,
      "dialects": 7550,
      "bone": 7551,
      "begins": 7552,
      "prosper": 7553,
      "Cal": 7554,
      "Div": 7555,
      "Loc": 7556,
      "UK": 7557,
      "inate": 7558,
      "proto": 7559,
      "datab": 7560,
      "Ken": 7561,
      "Pan": 7562,
      "fu": 7563,
      "tu": 7564,
      "quiet": 7565,
      "flash": 7566,
      "vessel": 7567,
      "finished": 7568,
      "rael": 7569,
      "ethical": 7570,
      "bedroom": 7571,
      "Directed": 7572,
      "ecosystems": 7573,
      "Jones": 7574,
      "Later": 7575,
      "vehic": 7576,
      "opposition": 7577,
      "pred": 7578,
      "hanging": 7579,
      "concepts": 7580,
      "38": 7581,
      "sees": 7582,
      "provin": 7583,
      "parliament": 7584,
      "choose": 7585,
      "Fore": 7586,
      "Rob": 7587,
      "TA": 7588,
      "lap": 7589,
      "dear": 7590,
      "manif": 7591,
      "ivals": 7592,
      "apping": 7593,
      "happening": 7594,
      "Kh": 7595,
      "emple": 7596,
      "mathematical": 7597,
      "survival": 7598,
      "THE": 7599,
      "Jane": 7600,
      "affecting": 7601,
      "37": 7602,
      "pil": 7603,
      "composition": 7604,
      "grav": 7605,
      "dismiss": 7606,
      "ignore": 7607,
      "classes": 7608,
      "Israel": 7609,
      "Common": 7610,
      "globe": 7611,
      "connecting": 7612,
      "impec": 7613,
      "blue": 7614,
      "developments": 7615,
      "jealous": 7616,
      "underwhelming": 7617,
      "affairs": 7618,
      "Kur": 7619,
      "wave": 7620,
      "ador": 7621,
      "shut": 7622,
      "1991": 7623,
      "1999": 7624,
      "brothers": 7625,
      "Canadian": 7626,
      "highlighting": 7627,
      "Two": 7628,
      "nurt": 7629,
      "pound": 7630,
      "metal": 7631,
      "umping": 7632,
      "distract": 7633,
      "reets": 7634,
      "evolving": 7635,
      "securities": 7636,
      "railway": 7637,
      "forests": 7638,
      "taste": 7639,
      "endeavors": 7640,
      "Please": 7641,
      "fab": 7642,
      "ician": 7643,
      "unable": 7644,
      "1970s": 7645,
      "attacks": 7646,
      "Ver": 7647,
      "asc": 7648,
      "implications": 7649,
      "defe": 7650,
      "iring": 7651,
      "comings": 7652,
      "shar": 7653,
      "artist": 7654,
      "ogle": 7655,
      "cheating": 7656,
      "refresh": 7657,
      "collective": 7658,
      "satisfied": 7659,
      "choreograph": 7660,
      "tournament": 7661,
      "Jud": 7662,
      "mates": 7663,
      "ered": 7664,
      "editing": 7665,
      "decor": 7666,
      "idi": 7667,
      "strange": 7668,
      "publishing": 7669,
      "closer": 7670,
      "delivered": 7671,
      "glimp": 7672,
      "thodox": 7673,
      "featured": 7674,
      "recorded": 7675,
      "accounts": 7676,
      "Cast": 7677,
      "Max": 7678,
      "repet": 7679,
      "proced": 7680,
      "crazy": 7681,
      "1990s": 7682,
      "shortcomings": 7683,
      "enhanced": 7684,
      "sentiment": 7685,
      "Club": 7686,
      "Turk": 7687,
      "reported": 7688,
      "overreacting": 7689,
      "application": 7690,
      "Thomas": 7691,
      "accolades": 7692,
      "Mountain": 7693,
      "aked": 7694,
      "handled": 7695,
      "superficial": 7696,
      "adventures": 7697,
      "momentum": 7698,
      "walking": 7699,
      "describe": 7700,
      "horrible": 7701,
      "hidden": 7702,
      "Mexico": 7703,
      "superior": 7704,
      "EC": 7705,
      "Fort": 7706,
      "IC": 7707,
      "Mah": 7708,
      "Publ": 7709,
      "gf": 7710,
      "hearing": 7711,
      "apt": 7712,
      "scared": 7713,
      "spher": 7714,
      "subjects": 7715,
      "graphic": 7716,
      "traction": 7717,
      "precise": 7718,
      "politan": 7719,
      "Recogn": 7720,
      "remaining": 7721,
      "undred": 7722,
      "banter": 7723,
      "choreographed": 7724,
      "editor": 7725,
      "roc": 7726,
      "housing": 7727,
      "shocked": 7728,
      "Est": 7729,
      "Have": 7730,
      "oples": 7731,
      "proved": 7732,
      "enables": 7733,
      "benefit": 7734,
      "granted": 7735,
      "amidst": 7736,
      "Eli": 7737,
      "ding": 7738,
      "wing": 7739,
      "shire": 7740,
      "awards": 7741,
      "regulations": 7742,
      "memories": 7743,
      "titles": 7744,
      "juris": 7745,
      "intimacy": 7746,
      "Hong": 7747,
      "Lord": 7748,
      "Saint": 7749,
      "sold": 7750,
      "partners": 7751,
      "coal": 7752,
      "profit": 7753,
      "males": 7754,
      "transpar": 7755,
      "matches": 7756,
      "examples": 7757,
      "Fer": 7758,
      "Wood": 7759,
      "optim": 7760,
      "Stan": 7761,
      "BCE": 7762,
      "areness": 7763,
      "awarded": 7764,
      "bourne": 7765,
      "Sir": 7766,
      "Year": 7767,
      "gard": 7768,
      "mous": 7769,
      "alli": 7770,
      "ctive": 7771,
      "irty": 7772,
      "tests": 7773,
      "secondary": 7774,
      "Holy": 7775,
      "ule": 7776,
      "decide": 7777,
      "apparent": 7778,
      "modif": 7779,
      "sover": 7780,
      "ifice": 7781,
      "reless": 7782,
      "adequ": 7783,
      "attended": 7784,
      "Emily": 7785,
      "biological": 7786,
      "Research": 7787,
      "Harry": 7788,
      "suff": 7789,
      "awareness": 7790,
      "Champion": 7791,
      "annual": 7792,
      "liners": 7793,
      "incorporated": 7794,
      "Zealand": 7795,
      "Tele": 7796,
      "negot": 7797,
      "haust": 7798,
      "internet": 7799,
      "appreciation": 7800,
      "stereotypes": 7801,
      "inhabited": 7802,
      "ado": 7803,
      "partment": 7804,
      "yourself": 7805,
      "entertained": 7806,
      "covers": 7807,
      "1960s": 7808,
      "surprised": 7809,
      "vote": 7810,
      "latter": 7811,
      "legendary": 7812,
      "Rus": 7813,
      "SIL": 7814,
      "sion": 7815,
      "alog": 7816,
      "asing": 7817,
      "maxim": 7818,
      "inclusive": 7819,
      "applied": 7820,
      "1997": 7821,
      "Life": 7822,
      "rein": 7823,
      "situated": 7824,
      "laughing": 7825,
      "reminder": 7826,
      "Je": 7827,
      "uit": 7828,
      "theater": 7829,
      "retain": 7830,
      "stun": 7831,
      "hell": 7832,
      "ulty": 7833,
      "discour": 7834,
      "patient": 7835,
      "skillfully": 7836,
      "tourism": 7837,
      "MIL": 7838,
      "Tor": 7839,
      "phon": 7840,
      "clothes": 7841,
      "requires": 7842,
      "thorough": 7843,
      "reference": 7844,
      "improving": 7845,
      "surprising": 7846,
      "ridiculous": 7847,
      "48": 7848,
      "Bre": 7849,
      "exhaust": 7850,
      "suit": 7851,
      "fric": 7852,
      "dones": 7853,
      "scenar": 7854,
      "Byz": 7855,
      "regardless": 7856,
      "sciences": 7857,
      "drawing": 7858,
      "carried": 7859,
      "expertly": 7860,
      "psychological": 7861,
      "Similar": 7862,
      "relentless": 7863,
      "Rail": 7864,
      "occurr": 7865,
      "extent": 7866,
      "airport": 7867,
      "strongly": 7868,
      "undeniably": 7869,
      "SS": 7870,
      "Tam": 7871,
      "rival": 7872,
      "hurtful": 7873,
      "Book": 7874,
      "destroy": 7875,
      "Google": 7876,
      "weren": 7877,
      "oblig": 7878,
      "Big": 7879,
      "preced": 7880,
      "completed": 7881,
      "governments": 7882,
      "studying": 7883,
      "Valley": 7884,
      "bustling": 7885,
      "component": 7886,
      "consonant": 7887,
      "Ha": 7888,
      "Van": 7889,
      "Wind": 7890,
      "ki": 7891,
      "nas": 7892,
      "peoples": 7893,
      "ateful": 7894,
      "News": 7895,
      "focusing": 7896,
      "shoot": 7897,
      "Republican": 7898,
      "itarian": 7899,
      "stuck": 7900,
      "stellar": 7901,
      "ums": 7902,
      "promotion": 7903,
      "termine": 7904,
      "employment": 7905,
      "Sto": 7906,
      "eight": 7907,
      "lav": 7908,
      "ume": 7909,
      "royal": 7910,
      "deem": 7911,
      "determine": 7912,
      "blow": 7913,
      "balanced": 7914,
      "Commit": 7915,
      "discussion": 7916,
      "clichés": 7917,
      "BS": 7918,
      "Cop": 7919,
      "Rh": 7920,
      "rhy": 7921,
      "rey": 7922,
      "street": 7923,
      "somehow": 7924,
      "realism": 7925,
      "letters": 7926,
      "physically": 7927,
      "roller": 7928,
      "fantastic": 7929,
      "overwhelmed": 7930,
      "Fi": 7931,
      "ani": 7932,
      "reactions": 7933,
      "ching": 7934,
      "illustr": 7935,
      "correspond": 7936,
      "claiming": 7937,
      "sweet": 7938,
      "annoy": 7939,
      "Bulgar": 7940,
      "Pat": 7941,
      "ji": 7942,
      "tical": 7943,
      "tapes": 7944,
      "hism": 7945,
      "signed": 7946,
      "executive": 7947,
      "vulnerability": 7948,
      "Atlantic": 7949,
      "SP": 7950,
      "Way": 7951,
      "swit": 7952,
      "edition": 7953,
      "divisions": 7954,
      "earning": 7955,
      "partial": 7956,
      "contain": 7957,
      "duc": 7958,
      "Consequently": 7959,
      "processing": 7960,
      "Greece": 7961,
      "sacrifice": 7962,
      "interpretation": 7963,
      "aunt": 7964,
      "fat": 7965,
      "fought": 7966,
      "unnecessarily": 7967,
      "idable": 7968,
      "charge": 7969,
      "minister": 7970,
      "subtle": 7971,
      "1992": 7972,
      "detailed": 7973,
      "preserve": 7974,
      "nucle": 7975,
      "Green": 7976,
      "gap": 7977,
      "sav": 7978,
      "inations": 7979,
      "beach": 7980,
      "predomin": 7981,
      "undermin": 7982,
      "thank": 7983,
      "corrupt": 7984,
      "cash": 7985,
      "downs": 7986,
      "markets": 7987,
      "write": 7988,
      "annoying": 7989,
      "rugby": 7990,
      ".”": 7991,
      "Bill": 7992,
      "Center": 7993,
      "Tar": 7994,
      "eign": 7995,
      "stum": 7996,
      "advert": 7997,
      "plenty": 7998,
      "strengthen": 7999,
      "soul": 8000,
      "criminal": 8001,
      "merely": 8002,
      "inhabitants": 8003,
      "Ottoman": 8004,
      "Cree": 8005,
      "Met": 8006,
      "whe": 8007,
      "wrestling": 8008,
      "streets": 8009,
      "blings": 8010,
      "Stone": 8011,
      "Arts": 8012,
      "coverage": 8013,
      "Georg": 8014,
      "empathy": 8015,
      "fascinating": 8016,
      "Nevertheless": 8017,
      "!\"": 8018,
      "double": 8019,
      "thesis": 8020,
      "neys": 8021,
      "compens": 8022,
      "assistance": 8023,
      "Department": 8024,
      "attractive": 8025,
      "vowel": 8026,
      "Tal": 8027,
      "luck": 8028,
      "toms": 8029,
      "acles": 8030,
      "chain": 8031,
      "rob": 8032,
      "exagger": 8033,
      "environments": 8034,
      "silly": 8035,
      "instrumental": 8036,
      "Francis": 8037,
      "summary": 8038,
      "FC": 8039,
      "formidable": 8040,
      "distur": 8041,
      "autonomy": 8042,
      "1989": 8043,
      "Lee": 8044,
      "supernatural": 8045,
      "expanding": 8046,
      "alien": 8047,
      "earliest": 8048,
      "implemented": 8049,
      "assumed": 8050,
      "desperate": 8051,
      "disrespectful": 8052,
      "Due": 8053,
      "waters": 8054,
      "loose": 8055,
      "poll": 8056,
      "struggled": 8057,
      "metro": 8058,
      "participate": 8059,
      "costumes": 8060,
      "commentary": 8061,
      "winning": 8062,
      "impeccable": 8063,
      "shell": 8064,
      "cancer": 8065,
      "flight": 8066,
      "truction": 8067,
      "generated": 8068,
      "smart": 8069,
      "immigr": 8070,
      "occasional": 8071,
      "facilitate": 8072,
      "victory": 8073,
      "kilometers": 8074,
      "suffers": 8075,
      "mod": 8076,
      "fee": 8077,
      "justified": 8078,
      "posite": 8079,
      "evolve": 8080,
      "physics": 8081,
      "agreements": 8082,
      "Visually": 8083,
      "rapidly": 8084,
      "ambitious": 8085,
      "Rele": 8086,
      "ahead": 8087,
      "equality": 8088,
      "tight": 8089,
      "eling": 8090,
      "peaceful": 8091,
      "hadn": 8092,
      "communications": 8093,
      "muscle": 8094,
      "narratives": 8095,
      "Commission": 8096,
      "crafts": 8097,
      "Class": 8098,
      "debate": 8099,
      "repetitive": 8100,
      "arms": 8101,
      "admir": 8102,
      "medicine": 8103,
      "stayed": 8104,
      "undeniable": 8105,
      "lifestyle": 8106,
      "toler": 8107,
      "affection": 8108,
      "flag": 8109,
      "twice": 8110,
      "confess": 8111,
      "financially": 8112,
      "km2": 8113,
      "Little": 8114,
      "sovereign": 8115,
      "Bet": 8116,
      "alleg": 8117,
      "ision": 8118,
      "democr": 8119,
      "destruction": 8120,
      "evening": 8121,
      "Street": 8122,
      "longing": 8123,
      "letting": 8124,
      "1993": 8125,
      "intrigue": 8126,
      "iosity": 8127,
      "floor": 8128,
      "siblings": 8129,
      "Braz": 8130,
      "sharp": 8131,
      "ita": 8132,
      "performed": 8133,
      "odd": 8134,
      "Indones": 8135,
      "White": 8136,
      "dont": 8137,
      "factor": 8138,
      "Ford": 8139,
      "focuses": 8140,
      "emerging": 8141,
      "solidified": 8142,
      "dilemma": 8143,
      "EN": 8144,
      "Off": 8145,
      "RA": 8146,
      "Rel": 8147,
      "Time": 8148,
      "pa": 8149,
      "enforce": 8150,
      "evin": 8151,
      "conscious": 8152,
      "balances": 8153,
      "prominence": 8154,
      "equipment": 8155,
      "cohesive": 8156,
      "Ill": 8157,
      "hip": 8158,
      "recre": 8159,
      "armed": 8160,
      "elim": 8161,
      "evoke": 8162,
      "chose": 8163,
      "180": 8164,
      "classified": 8165,
      "Orig": 8166,
      "transc": 8167,
      "rates": 8168,
      "aside": 8169,
      "debut": 8170,
      "perce": 8171,
      "comput": 8172,
      "elector": 8173,
      "transmission": 8174,
      "redd": 8175,
      "threats": 8176,
      "massive": 8177,
      "requirements": 8178,
      "bunch": 8179,
      "sar": 8180,
      "heated": 8181,
      "youth": 8182,
      "listed": 8183,
      "articles": 8184,
      "praise": 8185,
      "injur": 8186,
      "images": 8187,
      "anyway": 8188,
      "expensive": 8189,
      "fairly": 8190,
      "advocating": 8191,
      "Out": 8192,
      "Yes": 8193,
      "flex": 8194,
      "nine": 8195,
      "pover": 8196,
      "iang": 8197,
      "sake": 8198,
      "hearts": 8199,
      "trading": 8200,
      "statement": 8201,
      "runs": 8202,
      "grandeur": 8203,
      "dropped": 8204,
      "Egyptian": 8205,
      "Queen": 8206,
      "Committee": 8207,
      "WW": 8208,
      "glar": 8209,
      "abuse": 8210,
      "blends": 8211,
      "archae": 8212,
      "pressed": 8213,
      "1994": 8214,
      "confusion": 8215,
      "dependent": 8216,
      "Melbourne": 8217,
      "Scottish": 8218,
      "voiceless": 8219,
      "Sand": 8220,
      "ek": 8221,
      "”.": 8222,
      "resto": 8223,
      "netic": 8224,
      "clin": 8225,
      "rush": 8226,
      "Road": 8227,
      "regularly": 8228,
      "neighboring": 8229,
      "settlement": 8230,
      "tensions": 8231,
      "Released": 8232,
      "recreational": 8233,
      "Mass": 8234,
      "cant": 8235,
      "wis": 8236,
      "inconsistent": 8237,
      "ada": 8238,
      "artific": 8239,
      "grateful": 8240,
      "observed": 8241,
      "1995": 8242,
      "falling": 8243,
      "territorial": 8244,
      "inspiration": 8245,
      "voting": 8246,
      "predominantly": 8247,
      "rational": 8248,
      "entr": 8249,
      "idge": 8250,
      "agan": 8251,
      "skin": 8252,
      "candidates": 8253,
      "refreshing": 8254,
      "prev": 8255,
      "genetic": 8256,
      "tense": 8257,
      "approached": 8258,
      "Leg": 8259,
      "stock": 8260,
      "discussed": 8261,
      "hosts": 8262,
      "aspirations": 8263,
      "negoti": 8264,
      "tin": 8265,
      "album": 8266,
      "sectors": 8267,
      "decre": 8268,
      "amen": 8269,
      "agency": 8270,
      "agencies": 8271,
      "blending": 8272,
      "raise": 8273,
      "delivery": 8274,
      "Carol": 8275,
      "reduce": 8276,
      "legislation": 8277,
      "Virgin": 8278,
      "Fil": 8279,
      "dil": 8280,
      "aback": 8281,
      "multi": 8282,
      "imagine": 8283,
      "demanding": 8284,
      "temperature": 8285,
      "mobile": 8286,
      "Native": 8287,
      "Wi": 8288,
      "aqu": 8289,
      "fal": 8290,
      "alco": 8291,
      "acies": 8292,
      "plus": 8293,
      "Emma": 8294,
      "covering": 8295,
      "layers": 8296,
      "acceptance": 8297,
      "demands": 8298,
      "Wales": 8299,
      "accuracy": 8300,
      "acquired": 8301,
      "conveni": 8302,
      "bishop": 8303,
      "cowork": 8304,
      "Florida": 8305,
      "Ele": 8306,
      "ivers": 8307,
      "relax": 8308,
      "instances": 8309,
      "salv": 8310,
      "Cambridge": 8311,
      "lovable": 8312,
      "restaurant": 8313,
      "UC": 8314,
      "icial": 8315,
      "acclaim": 8316,
      "suspect": 8317,
      "crew": 8318,
      "risks": 8319,
      "objective": 8320,
      "jurisdict": 8321,
      "Educ": 8322,
      "bility": 8323,
      "esy": 8324,
      "arad": 8325,
      "clash": 8326,
      "Constitution": 8327,
      "nostalgia": 8328,
      "embarked": 8329,
      "absence": 8330,
      "crisis": 8331,
      "rhyth": 8332,
      "shines": 8333,
      "visible": 8334,
      "desperately": 8335,
      "formulaic": 8336,
      "PC": 8337,
      "WA": 8338,
      "uncle": 8339,
      "awa": 8340,
      "expenses": 8341,
      "consisting": 8342,
      "productive": 8343,
      "logical": 8344,
      "hotel": 8345,
      "Senate": 8346,
      ");": 8347,
      "hob": 8348,
      "amusing": 8349,
      "uneven": 8350,
      "discrim": 8351,
      "brut": 8352,
      "1990": 8353,
      "recognize": 8354,
      "runtime": 8355,
      "Techn": 8356,
      "adher": 8357,
      "ested": 8358,
      "displayed": 8359,
      "seeks": 8360,
      "elect": 8361,
      "operated": 8362,
      "motor": 8363,
      "articulation": 8364,
      "fing": 8365,
      "page": 8366,
      "tree": 8367,
      "tends": 8368,
      "rek": 8369,
      "amber": 8370,
      "usage": 8371,
      "curiosity": 8372,
      "gging": 8373,
      "receiving": 8374,
      "texted": 8375,
      "emphasized": 8376,
      "Finally": 8377,
      "customs": 8378,
      "repeated": 8379,
      "Establish": 8380,
      "nel": 8381,
      "tics": 8382,
      "aggress": 8383,
      "prove": 8384,
      "sop": 8385,
      "ava": 8386,
      "gene": 8387,
      "standardi": 8388,
      "consult": 8389,
      "corner": 8390,
      "personally": 8391,
      "organic": 8392,
      "towns": 8393,
      "17th": 8394,
      "Univers": 8395,
      "motion": 8396,
      "dropping": 8397,
      "celebrate": 8398,
      "brilliantly": 8399,
      "clichéd": 8400,
      "tribes": 8401,
      "Kevin": 8402,
      "zen": 8403,
      "isation": 8404,
      "forcing": 8405,
      "iments": 8406,
      "outcome": 8407,
      "uded": 8408,
      "About": 8409,
      "rooted": 8410,
      "gate": 8411,
      "selection": 8412,
      "cement": 8413,
      "concentr": 8414,
      "posit": 8415,
      "philosop": 8416,
      "contempl": 8417,
      "advocate": 8418,
      "achelor": 8419,
      "authors": 8420,
      "glaring": 8421,
      "hundred": 8422,
      "grade": 8423,
      "scream": 8424,
      "forever": 8425,
      "onders": 8426,
      "episodes": 8427,
      "branches": 8428,
      "controlled": 8429,
      "Mil": 8430,
      "Mem": 8431,
      "hr": 8432,
      "kiss": 8433,
      "ener": 8434,
      "offensive": 8435,
      "approaches": 8436,
      "costs": 8437,
      ".'": 8438,
      "Ash": 8439,
      "Blo": 8440,
      "UT": 8441,
      "gifts": 8442,
      "tum": 8443,
      "recon": 8444,
      "rebuild": 8445,
      "ading": 8446,
      "weather": 8447,
      "pride": 8448,
      "prompt": 8449,
      "norms": 8450,
      "anean": 8451,
      "reflects": 8452,
      "campus": 8453,
      "Nether": 8454,
      "universities": 8455,
      "bin": 8456,
      "stal": 8457,
      "abol": 8458,
      "outdoor": 8459,
      "ultane": 8460,
      "creep": 8461,
      "attach": 8462,
      "supports": 8463,
      "void": 8464,
      "nationally": 8465,
      "admitted": 8466,
      "intelligent": 8467,
      "strikes": 8468,
      "Batman": 8469,
      "Bank": 8470,
      "Nap": 8471,
      "Tex": 8472,
      "bid": 8473,
      "ano": 8474,
      "entered": 8475,
      "delve": 8476,
      "critics": 8477,
      "principle": 8478,
      "conducted": 8479,
      "intentionally": 8480,
      "fueled": 8481,
      "nostalgic": 8482,
      "detached": 8483,
      "artificial": 8484,
      "Ak": 8485,
      "Bob": 8486,
      "lum": 8487,
      "stations": 8488,
      "ota": 8489,
      "neu": 8490,
      "affic": 8491,
      "obst": 8492,
      "rooms": 8493,
      "Group": 8494,
      "Firstly": 8495,
      "debates": 8496,
      "controlling": 8497,
      "chaos": 8498,
      "coherent": 8499,
      "alcohol": 8500,
      "Bad": 8501,
      "Bell": 8502,
      "Situ": 8503,
      "ja": 8504,
      "icide": 8505,
      "shif": 8506,
      "proxim": 8507,
      "astro": 8508,
      "preval": 8509,
      "charged": 8510,
      "aval": 8511,
      "carto": 8512,
      "farm": 8513,
      "scription": 8514,
      "Perhaps": 8515,
      "coastal": 8516,
      "Die": 8517,
      "Was": 8518,
      "infl": 8519,
      "ulpt": 8520,
      "anta": 8521,
      "kings": 8522,
      "Health": 8523,
      "Secret": 8524,
      "ING": 8525,
      "Korean": 8526,
      "Econom": 8527,
      "Naz": 8528,
      "Pak": 8529,
      "Sky": 8530,
      "theories": 8531,
      "olit": 8532,
      "estone": 8533,
      "signals": 8534,
      "monitor": 8535,
      "carefully": 8536,
      "differently": 8537,
      "norm": 8538,
      "maintains": 8539,
      "Orthodox": 8540,
      "burden": 8541,
      "managing": 8542,
      "deserve": 8543,
      "meticulous": 8544,
      "diagno": 8545,
      "sophist": 8546,
      "):": 8547,
      "Jose": 8548,
      "ginal": 8549,
      "oo": 8550,
      "wonders": 8551,
      "erk": 8552,
      "iterr": 8553,
      "neither": 8554,
      "grab": 8555,
      "sculpt": 8556,
      "holders": 8557,
      "Coast": 8558,
      "safeguard": 8559,
      "encourages": 8560,
      "universal": 8561,
      "Netherlands": 8562,
      "Sever": 8563,
      "theore": 8564,
      "ellow": 8565,
      "interaction": 8566,
      "Unlike": 8567,
      "thanks": 8568,
      "economics": 8569,
      "eases": 8570,
      "kinda": 8571,
      "definition": 8572,
      "symbols": 8573,
      "frequent": 8574,
      "Service": 8575,
      "Hill": 8576,
      "Ob": 8577,
      "Pot": 8578,
      "esh": 8579,
      "unless": 8580,
      "trouble": 8581,
      "boast": 8582,
      "blind": 8583,
      "desires": 8584,
      "headed": 8585,
      "Serb": 8586,
      "mechanisms": 8587,
      "neighborhood": 8588,
      "campaigns": 8589,
      "candidate": 8590,
      "Similarly": 8591,
      "iterranean": 8592,
      "Mun": 8593,
      "uable": 8594,
      "outr": 8595,
      "wearing": 8596,
      "ghost": 8597,
      "price": 8598,
      "centric": 8599,
      "producing": 8600,
      "borrow": 8601,
      "glass": 8602,
      "camarad": 8603,
      "hesit": 8604,
      "sisters": 8605,
      "troops": 8606,
      "department": 8607,
      "Seeking": 8608,
      "session": 8609,
      "camaraderie": 8610,
      "Los": 8611,
      "Austria": 8612,
      "stein": 8613,
      "immediate": 8614,
      "Alexander": 8615,
      "revolutionary": 8616,
      "distinguished": 8617,
      "racial": 8618,
      "eagerly": 8619,
      "vacation": 8620,
      "overshadowed": 8621,
      "Established": 8622,
      "300": 8623,
      "65": 8624,
      "Dy": 8625,
      "Long": 8626,
      "Your": 8627,
      "warr": 8628,
      "isto": 8629,
      "diseases": 8630,
      "counters": 8631,
      "instantly": 8632,
      "identified": 8633,
      "explicit": 8634,
      "journeys": 8635,
      "studio": 8636,
      "grees": 8637,
      "Mediterranean": 8638,
      "persist": 8639,
      "suffered": 8640,
      "aesthetic": 8641,
      "explanation": 8642,
      "Far": 8643,
      "isher": 8644,
      "adjust": 8645,
      "unreasonable": 8646,
      "terior": 8647,
      "signal": 8648,
      "temporary": 8649,
      "pursued": 8650,
      "eclipses": 8651,
      "silent": 8652,
      "versatility": 8653,
      "fabric": 8654,
      "Best": 8655,
      "Lin": 8656,
      "restr": 8657,
      "therefore": 8658,
      "haz": 8659,
      "disaster": 8660,
      "caring": 8661,
      "calcul": 8662,
      "senior": 8663,
      "symptoms": 8664,
      "subplots": 8665,
      "Mike": 8666,
      "hill": 8667,
      "rd": 8668,
      "ora": 8669,
      "credi": 8670,
      "monu": 8671,
      "Assembly": 8672,
      "Albert": 8673,
      "surprises": 8674,
      "slowly": 8675,
      "colorful": 8676,
      "quarters": 8677,
      "Human": 8678,
      "Federal": 8679,
      "Recognizing": 8680,
      "Dun": 8681,
      "FA": 8682,
      "Ok": 8683,
      "egg": 8684,
      "ultural": 8685,
      "sons": 8686,
      "drunk": 8687,
      "promises": 8688,
      "cheated": 8689,
      "publication": 8690,
      "humorous": 8691,
      "killer": 8692,
      "excuse": 8693,
      "records": 8694,
      "&#": 8695,
      "AFL": 8696,
      "Did": 8697,
      "Dep": 8698,
      "hat": 8699,
      "py": 8700,
      "icious": 8701,
      "forth": 8702,
      "worship": 8703,
      "opposite": 8704,
      "Who": 8705,
      "generate": 8706,
      "castle": 8707,
      "nuanced": 8708,
      "catchy": 8709,
      "Lan": 8710,
      "trick": 8711,
      "moves": 8712,
      "nerve": 8713,
      "Organ": 8714,
      "banks": 8715,
      "defining": 8716,
      "Captain": 8717,
      "billion": 8718,
      "salvage": 8719,
      "Sub": 8720,
      "x200": 8721,
      "itime": 8722,
      "entry": 8723,
      "adium": 8724,
      "math": 8725,
      "sheer": 8726,
      "presenting": 8727,
      "confir": 8728,
      "introducing": 8729,
      "variations": 8730,
      "tapestry": 8731,
      "Situated": 8732,
      "x200B": 8733,
      "Cur": 8734,
      "Ur": 8735,
      "ees": 8736,
      "inches": 8737,
      "absor": 8738,
      "istical": 8739,
      "cock": 8740,
      "ski": 8741,
      "simpl": 8742,
      "portrays": 8743,
      "179": 8744,
      "Edward": 8745,
      "encouraging": 8746,
      "passionate": 8747,
      "Muslims": 8748,
      "Victoria": 8749,
      "shopping": 8750,
      "Dar": 8751,
      "enrich": 8752,
      "peak": 8753,
      "hai": 8754,
      "mont": 8755,
      "insula": 8756,
      "handed": 8757,
      "courage": 8758,
      "radical": 8759,
      "unfolds": 8760,
      "geographical": 8761,
      "Known": 8762,
      "Net": 8763,
      "dishes": 8764,
      "suitable": 8765,
      "continent": 8766,
      "velar": 8767,
      "marginal": 8768,
      "Force": 8769,
      "confidence": 8770,
      "officer": 8771,
      "Berlin": 8772,
      "crossed": 8773,
      "acknowledge": 8774,
      "Miss": 8775,
      "RE": 8776,
      "cers": 8777,
      "plo": 8778,
      "insecurities": 8779,
      "enable": 8780,
      "stakes": 8781,
      "chase": 8782,
      "promotes": 8783,
      "protein": 8784,
      "electrical": 8785,
      "weapons": 8786,
      "pounding": 8787,
      "Da": 8788,
      "Land": 8789,
      "Mong": 8790,
      "Ray": 8791,
      "ugg": 8792,
      "itt": 8793,
      "nephe": 8794,
      "estial": 8795,
      "guilt": 8796,
      "magaz": 8797,
      "introduces": 8798,
      "references": 8799,
      "treas": 8800,
      "settled": 8801,
      "nephew": 8802,
      "Fam": 8803,
      "Treat": 8804,
      "vive": 8805,
      "insecure": 8806,
      "ruled": 8807,
      "association": 8808,
      "components": 8809,
      "festivals": 8810,
      "spanning": 8811,
      "ued": 8812,
      "outs": 8813,
      "Indo": 8814,
      "attending": 8815,
      "classification": 8816,
      "Emperor": 8817,
      "judg": 8818,
      "Williams": 8819,
      "celestial": 8820,
      "database": 8821,
      "Cru": 8822,
      "MD": 8823,
      "Ti": 8824,
      "reform": 8825,
      "bean": 8826,
      "degrees": 8827,
      "elf": 8828,
      "resist": 8829,
      "constitu": 8830,
      "tempor": 8831,
      "celebration": 8832,
      "subsequently": 8833,
      "reporting": 8834,
      "documentary": 8835,
      "suffering": 8836,
      "stunts": 8837,
      "Lew": 8838,
      "items": 8839,
      "ipts": 8840,
      "grap": 8841,
      "bored": 8842,
      "insurance": 8843,
      "muscles": 8844,
      "1987": 8845,
      "coupled": 8846,
      "walls": 8847,
      "monarchy": 8848,
      "Mi": 8849,
      "rating": 8850,
      "thal": 8851,
      "aria": 8852,
      "amm": 8853,
      "ulf": 8854,
      "mann": 8855,
      "disrupt": 8856,
      "aiming": 8857,
      "volume": 8858,
      "Pope": 8859,
      "suffic": 8860,
      "astronom": 8861,
      "invaluable": 8862,
      "exaggerated": 8863,
      "None": 8864,
      "gs": 8865,
      "yesterday": 8866,
      "moon": 8867,
      "sus": 8868,
      "inding": 8869,
      "cooking": 8870,
      "sured": 8871,
      "lips": 8872,
      "tourists": 8873,
      "hopes": 8874,
      "firmly": 8875,
      "constitutional": 8876,
      "75": 8877,
      "Amy": 8878,
      "Broad": 8879,
      "sand": 8880,
      "rem": 8881,
      "stages": 8882,
      "coaster": 8883,
      "spoke": 8884,
      "journalism": 8885,
      "vulnerable": 8886,
      "manufacturing": 8887,
      "controversial": 8888,
      "estimated": 8889,
      "fricative": 8890,
      "Cas": 8891,
      "Town": 8892,
      "pup": 8893,
      "sla": 8894,
      "urg": 8895,
      "aine": 8896,
      "grass": 8897,
      "lots": 8898,
      "immune": 8899,
      "competitive": 8900,
      "documents": 8901,
      "AH": 8902,
      "icing": 8903,
      "mode": 8904,
      "ourselves": 8905,
      "oding": 8906,
      "viewed": 8907,
      "Protest": 8908,
      "resolved": 8909,
      "route": 8910,
      "tropes": 8911,
      "Croat": 8912,
      "martial": 8913,
      "encounters": 8914,
      "lym": 8915,
      "resor": 8916,
      "technique": 8917,
      "stronger": 8918,
      "occupied": 8919,
      "gonna": 8920,
      "glimpse": 8921,
      "Bi": 8922,
      "Beng": 8923,
      "Bang": 8924,
      "Cy": 8925,
      "Lib": 8926,
      "RO": 8927,
      "Tit": 8928,
      "inappropriate": 8929,
      "theastern": 8930,
      "eds": 8931,
      "entity": 8932,
      "ote": 8933,
      "irt": 8934,
      "agues": 8935,
      "perpet": 8936,
      "dia": 8937,
      "ishment": 8938,
      "inclusion": 8939,
      "emplo": 8940,
      "transformed": 8941,
      "arguing": 8942,
      "tricts": 8943,
      "device": 8944,
      "adapted": 8945,
      "embraced": 8946,
      "anxious": 8947,
      "Airport": 8948,
      "selected": 8949,
      "geometry": 8950,
      "rejected": 8951,
      "Texas": 8952,
      "41": 8953,
      "ME": 8954,
      "inge": 8955,
      "haun": 8956,
      "notion": 8957,
      "ordered": 8958,
      "preventing": 8959,
      "Brazil": 8960,
      "SI": 8961,
      "Sri": 8962,
      "fights": 8963,
      "pu": 8964,
      "tel": 8965,
      "reviews": 8966,
      "possibility": 8967,
      "16th": 8968,
      "equival": 8969,
      "wooden": 8970,
      "occasions": 8971,
      "rolling": 8972,
      "cleverly": 8973,
      "welfare": 8974,
      "dangerous": 8975,
      "wisdom": 8976,
      "Yet": 8977,
      "nd": 8978,
      "nights": 8979,
      "ocean": 8980,
      "intr": 8981,
      "wasted": 8982,
      "ifies": 8983,
      "porters": 8984,
      "centre": 8985,
      "pressing": 8986,
      "skilled": 8987,
      "suggests": 8988,
      "define": 8989,
      "texting": 8990,
      "planet": 8991,
      "debt": 8992,
      "guessing": 8993,
      "anthrop": 8994,
      "Brown": 8995,
      "Vol": 8996,
      "rend": 8997,
      "inating": 8998,
      "revel": 8999,
      "distress": 9000,
      "maritime": 9001,
      "1980": 9002,
      "Order": 9003,
      "responses": 9004,
      "medium": 9005,
      "violent": 9006,
      "sleeping": 9007,
      "instruments": 9008,
      "cision": 9009,
      "fuc": 9010,
      "iate": 9011,
      "removed": 9012,
      "entrepr": 9013,
      "unknown": 9014,
      "posure": 9015,
      "arrival": 9016,
      "anny": 9017,
      "Develop": 9018,
      "broadcasting": 9019,
      "frequency": 9020,
      "responded": 9021,
      "revolutionized": 9022,
      "Jackson": 9023,
      "mysterious": 9024,
      "Daniel": 9025,
      "utterly": 9026,
      "placement": 9027,
      "nasal": 9028,
      "entreprene": 9029,
      "Haw": 9030,
      "dumb": 9031,
      "uters": 9032,
      "ache": 9033,
      "illing": 9034,
      "concerning": 9035,
      "schedul": 9036,
      "Gor": 9037,
      "Tai": 9038,
      "hier": 9039,
      "mild": 9040,
      "tasks": 9041,
      "zh": 9042,
      "ena": 9043,
      "asm": 9044,
      "elabor": 9045,
      "lik": 9046,
      "pray": 9047,
      "leges": 9048,
      "reflection": 9049,
      "caric": 9050,
      "principal": 9051,
      "fixed": 9052,
      "legislative": 9053,
      "arcs": 9054,
      "IP": 9055,
      "Jord": 9056,
      "lunch": 9057,
      "saving": 9058,
      "vamp": 9059,
      "wart": 9060,
      "attered": 9061,
      "alive": 9062,
      "oration": 9063,
      "lover": 9064,
      "districts": 9065,
      "Throw": 9066,
      "medio": 9067,
      "fiance": 9068,
      "respectively": 9069,
      "naturally": 9070,
      "corporate": 9071,
      "centered": 9072,
      "equipped": 9073,
      "Nig": 9074,
      "bacter": 9075,
      "greg": 9076,
      "arrest": 9077,
      "adoption": 9078,
      "traffic": 9079,
      "agent": 9080,
      "shr": 9081,
      "prepar": 9082,
      "legit": 9083,
      "trigger": 9084,
      "habitats": 9085,
      "encourage": 9086,
      "discipline": 9087,
      "wildlife": 9088,
      "scholarly": 9089,
      "phenomenon": 9090,
      "Dam": 9091,
      "Rather": 9092,
      "til": 9093,
      "uct": 9094,
      "thrive": 9095,
      "monster": 9096,
      "prime": 9097,
      "Prof": 9098,
      "professor": 9099,
      "satell": 9100,
      "boundary": 9101,
      "fantastical": 9102,
      "implementation": 9103,
      "Upon": 9104,
      "betrayed": 9105,
      "Supreme": 9106,
      "ceremon": 9107,
      "Division": 9108,
      "fict": 9109,
      "gaining": 9110,
      "itty": 9111,
      "olo": 9112,
      "essentially": 9113,
      "proud": 9114,
      "notably": 9115,
      "thriving": 9116,
      "extens": 9117,
      "captivates": 9118,
      "paint": 9119,
      "walked": 9120,
      "steam": 9121,
      "descript": 9122,
      "patients": 9123,
      "duration": 9124,
      "democracy": 9125,
      "DP": 9126,
      "Spr": 9127,
      "kitch": 9128,
      "lush": 9129,
      "pull": 9130,
      "thur": 9131,
      "ads": 9132,
      "aded": 9133,
      "weigh": 9134,
      "characteristic": 9135,
      "yearning": 9136,
      "Ann": 9137,
      "audio": 9138,
      "ails": 9139,
      "defend": 9140,
      "privi": 9141,
      "holiday": 9142,
      "Golden": 9143,
      "chapter": 9144,
      "Bol": 9145,
      "Four": 9146,
      "Hard": 9147,
      "Hindu": 9148,
      "acclaimed": 9149,
      "veget": 9150,
      "beth": 9151,
      "meal": 9152,
      "weaves": 9153,
      "affil": 9154,
      "experiencing": 9155,
      "factory": 9156,
      "simultane": 9157,
      "consistency": 9158,
      "1950s": 9159,
      "participation": 9160,
      "sustainability": 9161,
      "Region": 9162,
      "annoyed": 9163,
      "Def": 9164,
      "Raj": 9165,
      "entities": 9166,
      "otes": 9167,
      "governor": 9168,
      "crush": 9169,
      "designated": 9170,
      "Whenever": 9171,
      "brilliance": 9172,
      "Super": 9173,
      "limitations": 9174,
      "Martin": 9175,
      "invasion": 9176,
      "Armenian": 9177,
      "Byzantine": 9178,
      "MS": 9179,
      "bills": 9180,
      "fers": 9181,
      "jaw": 9182,
      "uv": 9183,
      "thrown": 9184,
      "alphabet": 9185,
      "shares": 9186,
      "outcomes": 9187,
      "arry": 9188,
      "fier": 9189,
      "faculty": 9190,
      "traits": 9191,
      "manager": 9192,
      "issance": 9193,
      "Feeling": 9194,
      "Hello": 9195,
      "Lewis": 9196,
      "Jordan": 9197,
      "42": 9198,
      "bird": 9199,
      "pel": 9200,
      "ala": 9201,
      "icking": 9202,
      "icians": 9203,
      "depression": 9204,
      "absur": 9205,
      "tril": 9206,
      "shall": 9207,
      "shine": 9208,
      "dissemin": 9209,
      "struck": 9210,
      "portraying": 9211,
      "1984": 9212,
      "178": 9213,
      "learned": 9214,
      "Carib": 9215,
      "Corpor": 9216,
      "ultimate": 9217,
      "Tamil": 9218,
      "Athen": 9219,
      "NC": 9220,
      "Yu": 9221,
      "yelling": 9222,
      "velo": 9223,
      "plate": 9224,
      "flav": 9225,
      "specif": 9226,
      "declared": 9227,
      "juven": 9228,
      "renewable": 9229,
      "Eliza": 9230,
      "AC": 9231,
      "Lis": 9232,
      "Vo": 9233,
      "bally": 9234,
      "ury": 9235,
      "limits": 9236,
      "1982": 9237,
      "bigger": 9238,
      "link": 9239,
      "Anyway": 9240,
      "attempting": 9241,
      "funding": 9242,
      "resolve": 9243,
      "Sunday": 9244,
      "bathroom": 9245,
      "electoral": 9246,
      "enzy": 9247,
      "attraction": 9248,
      "intertw": 9249,
      "ruin": 9250,
      "burst": 9251,
      "jobs": 9252,
      "properly": 9253,
      "touching": 9254,
      "functional": 9255,
      "bonds": 9256,
      "flawlessly": 9257,
      "pregnancy": 9258,
      "Bus": 9259,
      "Ly": 9260,
      "Night": 9261,
      "precision": 9262,
      "boss": 9263,
      "ockey": 9264,
      "invite": 9265,
      "lighting": 9266,
      "airs": 9267,
      "Enter": 9268,
      "continuous": 9269,
      "Dead": 9270,
      "breaks": 9271,
      "ield": 9272,
      "doubts": 9273,
      "enjoys": 9274,
      "prepared": 9275,
      "thoroughly": 9276,
      "absurd": 9277,
      "Lith": 9278,
      "Ox": 9279,
      "UP": 9280,
      "Where": 9281,
      "dys": 9282,
      "meets": 9283,
      "getic": 9284,
      "curren": 9285,
      "emergence": 9286,
      "electronic": 9287,
      "dollar": 9288,
      "Lank": 9289,
      "SH": 9290,
      "Swit": 9291,
      "kno": 9292,
      "odies": 9293,
      "waves": 9294,
      "resem": 9295,
      "toward": 9296,
      "omer": 9297,
      "unci": 9298,
      "poign": 9299,
      "teeth": 9300,
      "discomfort": 9301,
      "raising": 9302,
      "Province": 9303,
      "System": 9304,
      "climax": 9305,
      "incorporating": 9306,
      "cleaning": 9307,
      "latest": 9308,
      "divorce": 9309,
      "Angeles": 9310,
      "Education": 9311,
      "1st": 9312,
      "Bor": 9313,
      "Os": 9314,
      "ee": 9315,
      "fusion": 9316,
      "alve": 9317,
      "una": 9318,
      "olid": 9319,
      "soil": 9320,
      "grat": 9321,
      "missions": 9322,
      "recognizing": 9323,
      "expressions": 9324,
      "rivers": 9325,
      "photos": 9326,
      "Ukraine": 9327,
      "Several": 9328,
      "Maur": 9329,
      "Plan": 9330,
      "Ther": 9331,
      "len": 9332,
      "onet": 9333,
      "blame": 9334,
      "Anna": 9335,
      "openly": 9336,
      "lateral": 9337,
      "heads": 9338,
      "1975": 9339,
      "accus": 9340,
      "killing": 9341,
      "semi": 9342,
      "exhibit": 9343,
      "Philipp": 9344,
      "mechanism": 9345,
      "conservative": 9346,
      "magnific": 9347,
      "Pakistan": 9348,
      "Crit": 9349,
      "Gal": 9350,
      "Hy": 9351,
      "ao": 9352,
      "entit": 9353,
      "Ind": 9354,
      "strained": 9355,
      "cope": 9356,
      "Three": 9357,
      "merch": 9358,
      "turmo": 9359,
      "Columb": 9360,
      "****": 9361,
      "category": 9362,
      "indeed": 9363,
      "drinking": 9364,
      "adequate": 9365,
      "discourse": 9366,
      "49": 9367,
      "Hon": 9368,
      "onia": 9369,
      "metric": 9370,
      "vivid": 9371,
      "relative": 9372,
      "ultan": 9373,
      "aka": 9374,
      "newly": 9375,
      "insist": 9376,
      "Music": 9377,
      "clarity": 9378,
      "enjoying": 9379,
      "consumption": 9380,
      "chronic": 9381,
      "Ef": 9382,
      "Lately": 9383,
      "Mom": 9384,
      "OK": 9385,
      "Ven": 9386,
      "crop": 9387,
      "talks": 9388,
      "membr": 9389,
      "Arthur": 9390,
      "Spider": 9391,
      "integrated": 9392,
      "carrying": 9393,
      "website": 9394,
      "convenient": 9395,
      "defeated": 9396,
      "corruption": 9397,
      "Dou": 9398,
      "Sud": 9399,
      "inform": 9400,
      "unconvincing": 9401,
      "eted": 9402,
      "Story": 9403,
      "continuously": 9404,
      "Without": 9405,
      "1983": 9406,
      "pursuing": 9407,
      "revealed": 9408,
      "encountered": 9409,
      "fierce": 9410,
      "turmoil": 9411,
      "Rog": 9412,
      "itic": 9413,
      "secut": 9414,
      "attached": 9415,
      "finance": 9416,
      "renamed": 9417,
      "impressed": 9418,
      "Prime": 9419,
      "welcome": 9420,
      "Sciences": 9421,
      "Governor": 9422,
      "infectious": 9423,
      "legitim": 9424,
      "46": 9425,
      "winter": 9426,
      "usions": 9427,
      "1988": 9428,
      "furious": 9429,
      "drugs": 9430,
      "emergency": 9431,
      "poverty": 9432,
      "Virginia": 9433,
      "kitchen": 9434,
      "Der": 9435,
      "kar": 9436,
      "illy": 9437,
      "conve": 9438,
      "ulatory": 9439,
      "shor": 9440,
      "percent": 9441,
      "contexts": 9442,
      "landmarks": 9443,
      "olds": 9444,
      "puts": 9445,
      "passes": 9446,
      "lawyer": 9447,
      "Afgh": 9448,
      "pushed": 9449,
      "Radio": 9450,
      "Camp": 9451,
      "Water": 9452,
      "density": 9453,
      "till": 9454,
      "exposure": 9455,
      "drink": 9456,
      "ifications": 9457,
      "mond": 9458,
      "monot": 9459,
      "friendships": 9460,
      "civilization": 9461,
      "phenomena": 9462,
      "fifth": 9463,
      "Bru": 9464,
      "MP": 9465,
      "fate": 9466,
      "vest": 9467,
      "robust": 9468,
      "confer": 9469,
      "shifts": 9470,
      "disheart": 9471,
      "logic": 9472,
      "transformative": 9473,
      "Eth": 9474,
      "Sad": 9475,
      "pit": 9476,
      "oul": 9477,
      "1920": 9478,
      "phal": 9479,
      "Which": 9480,
      "tenure": 9481,
      "issued": 9482,
      "musicians": 9483,
      "sympath": 9484,
      "encouraged": 9485,
      "premier": 9486,
      "mistakes": 9487,
      "picked": 9488,
      "minority": 9489,
      "Queens": 9490,
      "throwing": 9491,
      "nurturing": 9492,
      "55": 9493,
      "Ice": 9494,
      "Jake": 9495,
      "dess": 9496,
      "gay": 9497,
      "gall": 9498,
      "lad": 9499,
      "shel": 9500,
      "awn": 9501,
      "extend": 9502,
      "cords": 9503,
      "flowers": 9504,
      "masterfully": 9505,
      "roads": 9506,
      "Turkey": 9507,
      "arrangement": 9508,
      "prevalent": 9509,
      "Cons": 9510,
      "lady": 9511,
      "ware": 9512,
      "edia": 9513,
      "autom": 9514,
      "Ancient": 9515,
      "tenance": 9516,
      "lessons": 9517,
      "linear": 9518,
      "refusing": 9519,
      "passport": 9520,
      "warfare": 9521,
      "Christians": 9522,
      "innocent": 9523,
      "inosa": 9524,
      "routes": 9525,
      "municipality": 9526,
      "Switzer": 9527,
      "47": 9528,
      "uts": 9529,
      "diet": 9530,
      "divers": 9531,
      "plain": 9532,
      "notch": 9533,
      "Joe": 9534,
      "fortunate": 9535,
      "obstacles": 9536,
      "Caribbean": 9537,
      "Switzerland": 9538,
      "Ali": 9539,
      "SO": 9540,
      "Such": 9541,
      "aus": 9542,
      "alter": 9543,
      "chron": 9544,
      "manship": 9545,
      "bright": 9546,
      "locals": 9547,
      "favour": 9548,
      "channels": 9549,
      "escalated": 9550,
      "Creek": 9551,
      "Ages": 9552,
      "Gar": 9553,
      "Jef": 9554,
      "cence": 9555,
      "lore": 9556,
      "internationally": 9557,
      "rituals": 9558,
      "suggesting": 9559,
      "originated": 9560,
      "reminding": 9561,
      "consumer": 9562,
      "accommodate": 9563,
      "rollercoaster": 9564,
      "Along": 9565,
      "mature": 9566,
      "ugu": 9567,
      "stake": 9568,
      "acon": 9569,
      "elicit": 9570,
      "shops": 9571,
      "artif": 9572,
      "ureau": 9573,
      "commended": 9574,
      "decides": 9575,
      "cheesy": 9576,
      "Adam": 9577,
      "surroundings": 9578,
      "devastating": 9579,
      "schedule": 9580,
      "Joseph": 9581,
      "Protestant": 9582,
      "Corporation": 9583,
      "Afghan": 9584,
      "Sum": 9585,
      "mend": 9586,
      "mum": 9587,
      "ims": 9588,
      "opposed": 9589,
      "phr": 9590,
      "tedious": 9591,
      "introspect": 9592,
      "nony": 9593,
      "declined": 9594,
      "habitat": 9595,
      "Championship": 9596,
      "Cer": 9597,
      "LA": 9598,
      "reports": 9599,
      "ura": 9600,
      "neuro": 9601,
      "underwent": 9602,
      "insisted": 9603,
      "broadcas": 9604,
      "culmin": 9605,
      "rolled": 9606,
      "carries": 9607,
      "ecosystem": 9608,
      "mountains": 9609,
      "customers": 9610,
      "Windows": 9611,
      "Tibet": 9612,
      "hierarch": 9613,
      "Throwaway": 9614,
      "Dark": 9615,
      "inity": 9616,
      "icy": 9617,
      "oles": 9618,
      "meters": 9619,
      "shame": 9620,
      "Indig": 9621,
      "shower": 9622,
      "politician": 9623,
      "Andrew": 9624,
      "respectful": 9625,
      "1986": 9626,
      "progressive": 9627,
      "priest": 9628,
      "mathematic": 9629,
      "ownership": 9630,
      "attributed": 9631,
      "Jean": 9632,
      "Jr": 9633,
      "Ku": 9634,
      "Kel": 9635,
      "Mill": 9636,
      "Milit": 9637,
      "Rug": 9638,
      "aer": 9639,
      "figh": 9640,
      "iest": 9641,
      "nick": 9642,
      "lyn": 9643,
      "irrit": 9644,
      "exposed": 9645,
      "agram": 9646,
      "indicate": 9647,
      "ette": 9648,
      "fake": 9649,
      "akh": 9650,
      "Stat": 9651,
      "historically": 9652,
      "rupted": 9653,
      "exclusive": 9654,
      "fulfill": 9655,
      "prosperity": 9656,
      "proximity": 9657,
      "elaborate": 9658,
      "Argent": 9659,
      "1979": 9660,
      "hypo": 9661,
      "linked": 9662,
      "imagery": 9663,
      "centralized": 9664,
      "resonance": 9665,
      "dragged": 9666,
      "fulfilling": 9667,
      "provinces": 9668,
      "perpetu": 9669,
      "Games": 9670,
      "Sab": 9671,
      "cab": 9672,
      "pin": 9673,
[...]
