{
  "version": "1.0",
  "truncation": null,
  "padding": null,
  "added_tokens": [
    {
      "id": 0,
      "content": "[UNK]",
      "single_word": false,
      "lstrip": false,
      "rstrip": false,
      "normalized": false,
      "special": true
    },
    {
      "id": 1,
      "content": "[PAD]",
      "single_word": false,
      "lstrip": false,
      "rstrip": false,
      "normalized": false,
      "special": true
    },
    {
      "id": 2,
      "content": "[CLS]",
      "single_word": false,
      "lstrip": false,
      "rstrip": false,
      "normalized": false,
      "special": true
    },
    {
      "id": 3,
      "content": "[SEP]",
      "single_word": false,
      "lstrip": false,
      "rstrip": false,
      "normalized": false,
      "special": true
    },
    {
      "id": 4,
      "content": "[MASK]",
      "single_word": false,
      "lstrip": false,
      "rstrip": false,
      "normalized": false,
      "special": true
    }
  ],
  "normalizer": null,
  "pre_tokenizer": {
    "type": "Whitespace"
  },
  "post_processor": null,
  "decoder": null,
  "model": {
    "type": "WordPiece",
    "unk_token": "[UNK]",
    "continuing_subword_prefix": "##",
    "max_input_chars_per_word": 100,
    "vocab": {
      "[UNK]": 0,
      "[PAD]": 1,
      "[CLS]": 2,
      "[SEP]": 3,
      "[MASK]": 4,
      "!": 5,
      "\"": 6,
      "#": 7,
      "$": 8,
      "%": 9,
      "&": 10,
      "'": 11,
      "(": 12,
      ")": 13,
      "*": 14,
      "+": 15,
      ",": 16,
      "-": 17,
      ".": 18,
      "/": 19,
      "0": 20,
      "1": 21,
      "2": 22,
      "3": 23,
      "4": 24,
      "5": 25,
      "6": 26,
      "7": 27,
      "8": 28,
      "9": 29,
      ":": 30,
      ";": 31,
      "<": 32,
      "=": 33,
      ">": 34,
      "?": 35,
      "@": 36,
      "A": 37,
      "B": 38,
      "C": 39,
      "D": 40,
      "E": 41,
      "F": 42,
      "G": 43,
      "H": 44,
      "I": 45,
      "J": 46,
      "K": 47,
      "L": 48,
      "M": 49,
      "N": 50,
      "O": 51,
      "P": 52,
      "Q": 53,
      "R": 54,
      "S": 55,
      "T": 56,
      "U": 57,
      "V": 58,
      "W": 59,
      "X": 60,
      "Y": 61,
      "Z": 62,
      "[": 63,
      "\\": 64,
      "]": 65,
      "^": 66,
      "_": 67,
      "`": 68,
      "a": 69,
      "b": 70,
      "c": 71,
      "d": 72,
      "e": 73,
      "f": 74,
      "g": 75,
      "h": 76,
      "i": 77,
      "j": 78,
      "k": 79,
      "l": 80,
      "m": 81,
      "n": 82,
      "o": 83,
      "p": 84,
      "q": 85,
      "r": 86,
      "s": 87,
      "t": 88,
      "u": 89,
      "v": 90,
      "w": 91,
      "x": 92,
      "y": 93,
      "z": 94,
      "{": 95,
      "|": 96,
      "}": 97,
      "~": 98,
      "": 99,
      "": 100,
      "": 101,
      "": 102,
      "": 103,
      "": 104,
      "": 105,
      "¡": 106,
      "¢": 107,
      "£": 108,
      "¦": 109,
      "§": 110,
      "ª": 111,
      "«": 112,
      "¬": 113,
      "­": 114,
      "®": 115,
      "¯": 116,
      "°": 117,
      "±": 118,
      "²": 119,
      "³": 120,
      "´": 121,
      "µ": 122,
      "·": 123,
      "¹": 124,
      "º": 125,
      "»": 126,
      "½": 127,
      "¾": 128,
      "Á": 129,
      "Â": 130,
      "Ä": 131,
      "Å": 132,
      "Æ": 133,
      "Ç": 134,
      "È": 135,
      "É": 136,
      "Ê": 137,
      "Ì": 138,
      "Í": 139,
      "Î": 140,
      "Ñ": 141,
      "Ò": 142,
      "Ó": 143,
      "Ô": 144,
      "Ö": 145,
      "×": 146,
      "Ø": 147,
      "Ù": 148,
      "Ú": 149,
      "Ü": 150,
      "Þ": 151,
      "ß": 152,
      "à": 153,
      "á": 154,
      "â": 155,
      "ã": 156,
      "ä": 157,
      "å": 158,
      "æ": 159,
      "ç": 160,
      "è": 161,
      "é": 162,
      "ê": 163,
      "ë": 164,
      "ì": 165,
      "í": 166,
      "î": 167,
      "ï": 168,
      "ð": 169,
      "ñ": 170,
      "ò": 171,
      "ó": 172,
      "ô": 173,
      "õ": 174,
      "ö": 175,
      "÷": 176,
      "ø": 177,
      "ù": 178,
      "ú": 179,
      "û": 180,
      "ü": 181,
      "ý": 182,
      "þ": 183,
      "Ā": 184,
      "ā": 185,
      "ă": 186,
      "ą": 187,
      "ć": 188,
      "Ċ": 189,
      "Č": 190,
      "č": 191,
      "ď": 192,
      "Đ": 193,
      "đ": 194,
      "ē": 195,
      "ė": 196,
      "ę": 197,
      "ě": 198,
      "Ĝ": 199,
      "ĝ": 200,
      "ğ": 201,
      "Ġ": 202,
      "ġ": 203,
      "Ħ": 204,
      "ħ": 205,
      "ĩ": 206,
      "Ī": 207,
      "ī": 208,
      "ĭ": 209,
      "į": 210,
      "İ": 211,
      "ı": 212,
      "Ľ": 213,
      "ľ": 214,
      "Ł": 215,
      "ł": 216,
      "ń": 217,
      "ň": 218,
      "ŋ": 219,
      "Ō": 220,
      "ō": 221,
      "ŏ": 222,
      "ő": 223,
      "Œ": 224,
      "œ": 225,
      "Ř": 226,
      "ř": 227,
      "Ś": 228,
      "ś": 229,
      "ŝ": 230,
      "Ş": 231,
      "ş": 232,
      "Š": 233,
      "š": 234,
      "Ť": 235,
      "ť": 236,
      "ũ": 237,
      "ū": 238,
      "ŭ": 239,
      "ů": 240,
      "ų": 241,
      "ź": 242,
      "ż": 243,
      "Ž": 244,
      "ž": 245,
      "ƀ": 246,
      "Ɔ": 247,
      "Ɛ": 248,
      "ƒ": 249,
      "ƙ": 250,
      "ƛ": 251,
      "ơ": 252,
      "ƥ": 253,
      "ư": 254,
      "ǀ": 255,
      "ǁ": 256,
      "ǂ": 257,
      "ǃ": 258,
      "ǎ": 259,
      "ǐ": 260,
      "ǒ": 261,
      "ǔ": 262,
      "ǝ": 263,
      "ǧ": 264,
      "ǫ": 265,
      "ǰ": 266,
      "ǵ": 267,
      "ǿ": 268,
      "ȇ": 269,
      "Ș": 270,
      "ș": 271,
      "Ț": 272,
      "ț": 273,
      "ȝ": 274,
      "ȫ": 275,
      "ȳ": 276,
      "ȴ": 277,
      "ȵ": 278,
      "Ɂ": 279,
      "ɐ": 280,
      "ɑ": 281,
      "ɒ": 282,
      "ɓ": 283,
      "ɔ": 284,
      "ɕ": 285,
      "ɖ": 286,
      "ɘ": 287,
      "ə": 288,
      "ɛ": 289,
      "ɜ": 290,
      "ɟ": 291,
      "ɠ": 292,
      "ɡ": 293,
      "ɢ": 294,
      "ɣ": 295,
      "ɤ": 296,
      "ɥ": 297,
      "ɦ": 298,
      "ɨ": 299,
      "ɪ": 300,
      "ɫ": 301,
      "ɬ": 302,
      "ɭ": 303,
      "ɮ": 304,
      "ɯ": 305,
      "ɰ": 306,
      "ɱ": 307,
      "ɲ": 308,
      "ɳ": 309,
      "ɴ": 310,
      "ɵ": 311,
      "ɶ": 312,
      "ɸ": 313,
      "ɹ": 314,
      "ɺ": 315,
      "ɻ": 316,
      "ɽ": 317,
      "ɾ": 318,
      "ʀ": 319,
      "ʁ": 320,
      "ʂ": 321,
      "ʃ": 322,
      "ʄ": 323,
      "ʈ": 324,
      "ʊ": 325,
      "ʋ": 326,
      "ʌ": 327,
      "ʍ": 328,
      "ʎ": 329,
      "ʏ": 330,
      "ʐ": 331,
      "ʑ": 332,
      "ʒ": 333,
      "ʔ": 334,
      "ʕ": 335,
      "ʘ": 336,
      "ʙ": 337,
      "ʝ": 338,
      "ʟ": 339,
      "ʡ": 340,
      "ʢ": 341,
      "ʰ": 342,
      "ʲ": 343,
      "ʷ": 344,
      "ʻ": 345,
      "ʼ": 346,
      "ʽ": 347,
      "ʾ": 348,
      "ʿ": 349,
      "ˁ": 350,
      "ˈ": 351,
      "ˌ": 352,
      "ː": 353,
      "ˑ": 354,
      "˔": 355,
      "˕": 356,
      "˖": 357,
      "˗": 358,
      "˙": 359,
      "ˠ": 360,
      "ˡ": 361,
      "ˤ": 362,
      "˥": 363,
      "˦": 364,
      "˧": 365,
      "˨": 366,
      "˩": 367,
      "˭": 368,
      "˹": 369,
      "˺": 370,
      "̀": 371,
      "́": 372,
      "̂": 373,
      "̃": 374,
      "̄": 375,
      "̆": 376,
      "̈": 377,
      "̊": 378,
      "̌": 379,
      "̍": 380,
      "̑": 381,
      "̓": 382,
      "̚": 383,
      "̜": 384,
      "̝": 385,
      "̞": 386,
      "̟": 387,
      "̠": 388,
      "̣": 389,
      "̤": 390,
      "̥": 391,
      "̨": 392,
      "̩": 393,
      "̪": 394,
      "̫": 395,
      "̯": 396,
      "̰": 397,
      "̺": 398,
      "̻": 399,
      "͆": 400,
      "͇": 401,
      "͈": 402,
      "͍": 403,
      "͑": 404,
      "͗": 405,
      "͘": 406,
      "͜": 407,
      "͡": 408,
      "΄": 409,
      "Έ": 410,
      "ΐ": 411,
      "Α": 412,
      "Β": 413,
      "Δ": 414,
      "Ε": 415,
      "Θ": 416,
      "Κ": 417,
      "Λ": 418,
      "Μ": 419,
      "Ν": 420,
      "Π": 421,
      "Ρ": 422,
      "Σ": 423,
      "Υ": 424,
      "Φ": 425,
      "Χ": 426,
      "Ω": 427,
      "ά": 428,
      "έ": 429,
      "ή": 430,
      "ί": 431,
      "α": 432,
      "β": 433,
      "γ": 434,
      "δ": 435,
      "ε": 436,
      "ζ": 437,
      "η": 438,
      "θ": 439,
      "ι": 440,
      "κ": 441,
      "λ": 442,
      "μ": 443,
      "ν": 444,
      "ξ": 445,
      "ο": 446,
      "π": 447,
      "ρ": 448,
      "ς": 449,
      "σ": 450,
      "τ": 451,
      "υ": 452,
      "φ": 453,
      "χ": 454,
      "ψ": 455,
      "ω": 456,
      "ό": 457,
      "ύ": 458,
      "ώ": 459,
      "ϕ": 460,
      "ϣ": 461,
      "Ϩ": 462,
      "ϩ": 463,
      "ϭ": 464,
      "Ё": 465,
      "Є": 466,
      "Ј": 467,
      "А": 468,
      "Б": 469,
      "В": 470,
      "Г": 471,
      "Д": 472,
      "Е": 473,
      "З": 474,
      "И": 475,
      "Й": 476,
      "К": 477,
      "Л": 478,
      "М": 479,
      "Н": 480,
      "О": 481,
      "П": 482,
      "Р": 483,
      "С": 484,
      "Т": 485,
      "У": 486,
      "Ф": 487,
      "Х": 488,
      "Ц": 489,
      "Ч": 490,
      "Ш": 491,
      "Щ": 492,
      "Ъ": 493,
      "Э": 494,
      "Ю": 495,
      "Я": 496,
      "а": 497,
      "б": 498,
      "в": 499,
      "г": 500,
      "д": 501,
      "е": 502,
      "ж": 503,
      "з": 504,
      "и": 505,
      "й": 506,
      "к": 507,
      "л": 508,
      "м": 509,
      "н": 510,
      "о": 511,
      "п": 512,
      "р": 513,
      "с": 514,
      "т": 515,
      "у": 516,
      "ф": 517,
      "х": 518,
      "ц": 519,
      "ч": 520,
      "ш": 521,
      "щ": 522,
      "ъ": 523,
      "ы": 524,
      "ь": 525,
      "э": 526,
      "ю": 527,
      "я": 528,
      "ё": 529,
      "і": 530,
      "ї": 531,
      "ћ": 532,
      "ѣ": 533,
      "ѧ": 534,
      "Ѩ": 535,
      "ѵ": 536,
      "ҙ": 537,
      "қ": 538,
      "ң": 539,
      "Ҫ": 540,
      "ү": 541,
      "Ӏ": 542,
      "Ӂ": 543,
      "ӂ": 544,
      "ӏ": 545,
      "Ӑ": 546,
      "ӑ": 547,
      "Ӗ": 548,
      "ә": 549,
      "ө": 550,
      "Ӳ": 551,
      "Ա": 552,
      "Բ": 553,
      "Ե": 554,
      "Թ": 555,
      "Ծ": 556,
      "Կ": 557,
      "Հ": 558,
      "Մ": 559,
      "Պ": 560,
      "Ս": 561,
      "Տ": 562,
      "ա": 563,
      "բ": 564,
      "գ": 565,
      "դ": 566,
      "ե": 567,
      "զ": 568,
      "թ": 569,
      "ի": 570,
      "լ": 571,
      "ծ": 572,
      "կ": 573,
      "հ": 574,
      "ղ": 575,
      "ճ": 576,
      "մ": 577,
      "յ": 578,
      "ն": 579,
      "շ": 580,
      "ո": 581,
      "պ": 582,
      "ռ": 583,
      "ս": 584,
      "վ": 585,
      "տ": 586,
      "ր": 587,
      "ց": 588,
      "ւ": 589,
      "ք": 590,
      "և": 591,
      "ְ": 592,
      "ֲ": 593,
      "ִ": 594,
      "ֵ": 595,
      "ֶ": 596,
      "ַ": 597,
      "ָ": 598,
      "ֹ": 599,
      "ּ": 600,
      "ׁ": 601,
      "ׂ": 602,
      "א": 603,
      "ב": 604,
      "ג": 605,
      "ד": 606,
      "ה": 607,
      "ו": 608,
      "ז": 609,
      "ח": 610,
      "ט": 611,
      "י": 612,
      "כ": 613,
      "ל": 614,
      "ם": 615,
      "מ": 616,
      "ן": 617,
      "נ": 618,
      "ס": 619,
      "ע": 620,
      "פ": 621,
      "צ": 622,
      "ק": 623,
      "ר": 624,
      "ש": 625,
      "ת": 626,
      "װ": 627,
      "،": 628,
      "ء": 629,
      "آ": 630,
      "أ": 631,
      "ؤ": 632,
      "إ": 633,
      "ئ": 634,
      "ا": 635,
      "ب": 636,
      "ة": 637,
      "ت": 638,
      "ث": 639,
      "ج": 640,
      "ح": 641,
      "خ": 642,
      "د": 643,
      "ذ": 644,
      "ر": 645,
      "ز": 646,
      "س": 647,
      "ش": 648,
      "ص": 649,
      "ض": 650,
      "ط": 651,
      "ظ": 652,
      "ع": 653,
      "غ": 654,
      "ف": 655,
      "ق": 656,
      "ك": 657,
      "ل": 658,
      "م": 659,
      "ن": 660,
      "ه": 661,
      "و": 662,
      "ي": 663,
      "َ": 664,
      "ُ": 665,
      "ِ": 666,
      "ّ": 667,
      "ْ": 668,
      "ٰ": 669,
      "ٱ": 670,
      "پ": 671,
      "چ": 672,
      "ڑ": 673,
      "ک": 674,
      "گ": 675,
      "ھ": 676,
      "ہ": 677,
      "ی": 678,
      "ے": 679,
      "ܐ": 680,
      "ܕ": 681,
      "ܘ": 682,
      "ܚ": 683,
      "ܛ": 684,
      "ܝ": 685,
      "ܠ": 686,
      "ܡ": 687,
      "ܢ": 688,
      "ܣ": 689,
      "ܥ": 690,
      "ܦ": 691,
      "ܩ": 692,
      "ܪ": 693,
      "ܫ": 694,
      "ܬ": 695,
      "ހ": 696,
      "ނ": 697,
      "ރ": 698,
      "ބ": 699,
      "ޅ": 700,
      "ކ": 701,
      "އ": 702,
      "ވ": 703,
      "ދ": 704,
      "ތ": 705,
      "ަ": 706,
      "ި": 707,
      "ު": 708,
      "ެ": 709,
      "ޮ": 710,
      "ं": 711,
      "अ": 712,
      "ऋ": 713,
      "क": 714,
      "घ": 715,
      "च": 716,
      "ज": 717,
      "ञ": 718,
      "ड": 719,
      "ण": 720,
      "त": 721,
      "द": 722,
      "न": 723,
      "ब": 724,
      "भ": 725,
      "म": 726,
      "य": 727,
      "र": 728,
      "ल": 729,
      "व": 730,
      "श": 731,
      "स": 732,
      "ह": 733,
      "ा": 734,
      "ि": 735,
      "ी": 736,
      "ु": 737,
      "ू": 738,
      "े": 739,
      "ो": 740,
      "्": 741,
      "ই": 742,
      "খ": 743,
      "ড": 744,
      "দ": 745,
      "ন": 746,
      "প": 747,
      "ব": 748,
      "ভ": 749,
      "ম": 750,
      "য": 751,
      "র": 752,
      "ল": 753,
      "শ": 754,
      "ষ": 755,
      "স": 756,
      "হ": 757,
      "়": 758,
      "া": 759,
      "ু": 760,
      "ে": 761,
      "ৈ": 762,
      "্": 763,
      "ਦ": 764,
      "ਭ": 765,
      "ਲ": 766,
      "ਹ": 767,
      "ਾ": 768,
      "ੀ": 769,
      "ੱ": 770,
      "ଦ": 771,
      "ବ": 772,
      "ର": 773,
      "ହ": 774,
      "ା": 775,
      "ି": 776,
      "இ": 777,
      "க": 778,
      "ங": 779,
      "ச": 780,
      "த": 781,
      "ந": 782,
      "ன": 783,
      "ப": 784,
      "ம": 785,
      "ய": 786,
      "ர": 787,
      "ல": 788,
      "ள": 789,
      "ழ": 790,
      "வ": 791,
      "ா": 792,
      "ி": 793,
      "ெ": 794,
      "ை": 795,
      "்": 796,
      "ക": 797,
      "ന": 798,
      "പ": 799,
      "മ": 800,
      "ല": 801,
      "വ": 802,
      "സ": 803,
      "ാ": 804,
      "ീ": 805,
      "ൊ": 806,
      "്": 807,
      "ൻ": 808,
      "ർ": 809,
      "ก": 810,
      "ง": 811,
      "จ": 812,
      "ณ": 813,
      "ต": 814,
      "ถ": 815,
      "ท": 816,
      "น": 817,
      "ป": 818,
      "ม": 819,
      "ย": 820,
      "ร": 821,
      "ส": 822,
      "ห": 823,
      "อ": 824,
      "ะ": 825,
      "ั": 826,
      "า": 827,
      "ี": 828,
      "เ": 829,
      "ไ": 830,
      "๋": 831,
      "་": 832,
      "ཀ": 833,
      "ག": 834,
      "ང": 835,
      "ཏ": 836,
      "ད": 837,
      "ན": 838,
      "པ": 839,
      "བ": 840,
      "མ": 841,
      "འ": 842,
      "ར": 843,
      "ལ": 844,
      "ཤ": 845,
      "ས": 846,
      "ི": 847,
      "ུ": 848,
      "ོ": 849,
      "ྒ": 850,
      "ྣ": 851,
      "ྦ": 852,
      "ྱ": 853,
      "ྲ": 854,
      "ླ": 855,
      "ྷ": 856,
      "က": 857,
      "ခ": 858,
      "င": 859,
      "စ": 860,
      "ဇ": 861,
      "ည": 862,
      "ဋ": 863,
      "ဌ": 864,
      "တ": 865,
      "န": 866,
      "ပ": 867,
      "ဗ": 868,
      "မ": 869,
      "ယ": 870,
      "ရ": 871,
      "လ": 872,
      "ဟ": 873,
      "အ": 874,
      "ါ": 875,
      "ာ": 876,
      "ိ": 877,
      "ီ": 878,
      "ု": 879,
      "ေ": 880,
      "ဲ": 881,
      "ံ": 882,
      "့": 883,
      "း": 884,
      "္": 885,
      "်": 886,
      "ျ": 887,
      "ြ": 888,
      "ွ": 889,
      "ှ": 890,
      "ა": 891,
      "ბ": 892,
      "გ": 893,
      "დ": 894,
      "ე": 895,
      "ვ": 896,
      "თ": 897,
      "ი": 898,
      "კ": 899,
      "ლ": 900,
      "მ": 901,
      "ნ": 902,
      "ო": 903,
      "რ": 904,
      "ს": 905,
      "ტ": 906,
      "უ": 907,
      "ყ": 908,
      "ც": 909,
      "ხ": 910,
      "ር": 911,
      "ት": 912,
      "ኛ": 913,
      "ግ": 914,
      "Ꮎ": 915,
      "Ꮪ": 916,
      "Ꮯ": 917,
      "ᐋ": 918,
      "ᐏ": 919,
      "ᐑ": 920,
      "ᐢ": 921,
      "ᐱ": 922,
      "ᒋ": 923,
      "ᒧ": 924,
      "ᒪ": 925,
      "ᓂ": 926,
      "ᕽ": 927,
      "ᚼ": 928,
      "ᛒ": 929,
      "ក": 930,
      "ខ": 931,
      "ឃ": 932,
      "ង": 933,
      "ឆ": 934,
      "ជ": 935,
      "ញ": 936,
      "ដ": 937,
      "ឋ": 938,
      "ឌ": 939,
      "ណ": 940,
      "ត": 941,
      "ធ": 942,
      "ន": 943,
      "ប": 944,
      "ភ": 945,
      "ម": 946,
      "រ": 947,
      "ល": 948,
      "វ": 949,
      "ស": 950,
      "ា": 951,
      "ិ": 952,
      "ី": 953,
      "ុ": 954,
      "ូ": 955,
      "េ": 956,
      "ែ": 957,
      "ំ": 958,
      "់": 959,
      "្": 960,
      "ᠠ": 961,
      "ᠮ": 962,
      "ᠰ": 963,
      "ᠶ": 964,
      "ᡠ": 965,
      "ᡤ": 966,
      "ᡳ": 967,
      "ᥐ": 968,
      "ᥒ": 969,
      "ᥛ": 970,
      "ᥩ": 971,
      "ᥫ": 972,
      "ᥰ": 973,
      "ᱚ": 974,
      "ᱞ": 975,
      "ᱠ": 976,
      "ᱤ": 977,
      "ᱪ": 978,
      "ᴈ": 979,
      "ᴫ": 980,
      "ᵖ": 981,
      "ᵝ": 982,
      "ᵢ": 983,
      "ḇ": 984,
      "Ḍ": 985,
      "ḍ": 986,
      "ḏ": 987,
      "ḕ": 988,
      "ḗ": 989,
      "Ḥ": 990,
      "ḥ": 991,
      "Ḫ": 992,
      "ḫ": 993,
      "ḱ": 994,
      "ḵ": 995,
      "ḷ": 996,
      "ḻ": 997,
      "ṃ": 998,
      "ṅ": 999,
      "ṇ": 1000,
      "ṉ": 1001,
      "Ṛ": 1002,
      "ṛ": 1003,
      "Ṣ": 1004,
      "ṣ": 1005,
      "Ṭ": 1006,
      "ṭ": 1007,
      "ṯ": 1008,
      "ṳ": 1009,
      "ṵ": 1010,
      "Ẓ": 1011,
      "ẓ": 1012,
      "ạ": 1013,
      "ả": 1014,
      "Ấ": 1015,
      "ấ": 1016,
      "ầ": 1017,
      "ậ": 1018,
      "ắ": 1019,
      "ằ": 1020,
      "ặ": 1021,
      "ẹ": 1022,
      "ẻ": 1023,
      "ế": 1024,
      "ề": 1025,
      "ể": 1026,
      "ễ": 1027,
      "ệ": 1028,
      "ị": 1029,
      "Ọ": 1030,
      "ọ": 1031,
      "ố": 1032,
      "ồ": 1033,
      "ổ": 1034,
      "ỗ": 1035,
      "ộ": 1036,
      "ớ": 1037,
      "ờ": 1038,
      "ở": 1039,
      "ợ": 1040,
      "ụ": 1041,
      "ứ": 1042,
      "ừ": 1043,
      "ử": 1044,
      "ự": 1045,
      "ỳ": 1046,
      "ỵ": 1047,
      "ỷ": 1048,
      "ỹ": 1049,
      "ἀ": 1050,
      "ἄ": 1051,
      "ἅ": 1052,
      "ἆ": 1053,
      "Ἀ": 1054,
      "Ἄ": 1055,
      "ἐ": 1056,
      "ἑ": 1057,
      "ἔ": 1058,
      "ἕ": 1059,
      "Ἑ": 1060,
      "ἡ": 1061,
      "ἰ": 1062,
      "ἱ": 1063,
      "ἶ": 1064,
      "Ἰ": 1065,
      "Ἱ": 1066,
      "ὁ": 1067,
      "ὄ": 1068,
      "ὅ": 1069,
      "ὐ": 1070,
      "ὑ": 1071,
      "ὕ": 1072,
      "ὖ": 1073,
      "ὡ": 1074,
      "ὦ": 1075,
      "Ὧ": 1076,
      "ὰ": 1077,
      "ὴ": 1078,
      "ὶ": 1079,
      "ὸ": 1080,
      "ᾰ": 1081,
      "ᾱ": 1082,
      "ᾶ": 1083,
      "ῆ": 1084,
      "ῐ": 1085,
      "ῑ": 1086,
      "ῖ": 1087,
      "ῡ": 1088,
      "ῥ": 1089,
      "ῦ": 1090,
      "Ῥ": 1091,
      "ῶ": 1092,
      "ῷ": 1093,
      "​": 1094,
      "‌": 1095,
      "‍": 1096,
      "‎": 1097,
      "‐": 1098,
      "‑": 1099,
      "‒": 1100,
      "–": 1101,
      "—": 1102,
      "‘": 1103,
      "’": 1104,
      "“": 1105,
      "”": 1106,
      "„": 1107,
      "‟": 1108,
      "†": 1109,
      "‡": 1110,
      "•": 1111,
      "…": 1112,
      "‰": 1113,
      "′": 1114,
      "″": 1115,
      "‼": 1116,
      "⁄": 1117,
      "⁊": 1118,
      "⁠": 1119,
      "⁺": 1120,
      "⁻": 1121,
      "ⁿ": 1122,
      "₁": 1123,
      "₂": 1124,
      "₃": 1125,
      "ₖ": 1126,
      "ₙ": 1127,
      "₨": 1128,
      "€": 1129,
      "₱": 1130,
      "₴": 1131,
      "₹": 1132,
      "ℓ": 1133,
      "№": 1134,
      "ℝ": 1135,
      "™": 1136,
      "ℤ": 1137,
      "℧": 1138,
      "ℵ": 1139,
      "⅓": 1140,
      "⅔": 1141,
      "⅕": 1142,
      "←": 1143,
      "→": 1144,
      "↔": 1145,
      "↦": 1146,
      "⇌": 1147,
      "⇒": 1148,
      "∈": 1149,
      "−": 1150,
      "∘": 1151,
      "√": 1152,
      "∞": 1153,
      "∧": 1154,
      "∨": 1155,
      "∫": 1156,
      "≈": 1157,
      "≠": 1158,
      "≡": 1159,
      "≤": 1160,
      "≥": 1161,
      "⊆": 1162,
      "⋅": 1163,
      "■": 1164,
      "◌": 1165,
      "●": 1166,
      "◡": 1167,
      "★": 1168,
      "☆": 1169,
      "☹": 1170,
      "♀": 1171,
      "♂": 1172,
      "♋": 1173,
      "♥": 1174,
      "♭": 1175,
      "♮": 1176,
      "♯": 1177,
      "⛩": 1178,
      "✌": 1179,
      "✨": 1180,
      "❄": 1181,
      "❤": 1182,
      "⟨": 1183,
      "⟩": 1184,
      "⟶": 1185,
      "⠀": 1186,
      "⠁": 1187,
      "⠋": 1188,
      "⠐": 1189,
      "⠒": 1190,
      "⠘": 1191,
      "⠙": 1192,
      "⠜": 1193,
      "⠠": 1194,
      "⠡": 1195,
      "⠣": 1196,
      "⠨": 1197,
      "⠪": 1198,
      "⠰": 1199,
      "⠲": 1200,
      "⠼": 1201,
      "⠿": 1202,
      "⦵": 1203,
      "⭐": 1204,
      "ⰰ": 1205,
      "ⰳ": 1206,
      "ⰾ": 1207,
      "ⱁ": 1208,
      "ⱏ": 1209,
      "Ɐ": 1210,
      "ⱱ": 1211,
      "ⱴ": 1212,
      "ⱺ": 1213,
      "ⲁ": 1214,
      "ⲃ": 1215,
      "ⲉ": 1216,
      "ⲏ": 1217,
      "ⲑ": 1218,
      "ⲓ": 1219,
      "ⲕ": 1220,
      "ⲗ": 1221,
      "ⲙ": 1222,
      "ⲟ": 1223,
      "ⲡ": 1224,
      "ⲣ": 1225,
      "ⲥ": 1226,
      "ⲧ": 1227,
      "ⲩ": 1228,
      "ⴰ": 1229,
      "ⴳ": 1230,
      "ⴷ": 1231,
      "ⵉ": 1232,
      "ⵍ": 1233,
      "ⵎ": 1234,
      "ⵏ": 1235,
      "ⵓ": 1236,
      "ⵖ": 1237,
      "ⵙ": 1238,
      "ⵜ": 1239,
      "ⵝ": 1240,
      "ⵡ": 1241,
      "ⵣ": 1242,
      "「": 1243,
      "」": 1244,
      "あ": 1245,
      "い": 1246,
      "お": 1247,
      "か": 1248,
      "げ": 1249,
      "し": 1250,
      "じ": 1251,
      "た": 1252,
      "ち": 1253,
      "っ": 1254,
      "つ": 1255,
      "と": 1256,
      "な": 1257,
      "の": 1258,
      "ふ": 1259,
      "ん": 1260,
      "ア": 1261,
      "ィ": 1262,
      "イ": 1263,
      "オ": 1264,
      "ガ": 1265,
      "キ": 1266,
      "ク": 1267,
      "グ": 1268,
      "ゴ": 1269,
      "サ": 1270,
      "ザ": 1271,
      "シ": 1272,
      "ジ": 1273,
      "ス": 1274,
      "ズ": 1275,
      "セ": 1276,
      "ゼ": 1277,
      "タ": 1278,
      "ッ": 1279,
      "ツ": 1280,
      "テ": 1281,
      "ト": 1282,
      "ド": 1283,
      "ニ": 1284,
      "バ": 1285,
      "ヒ": 1286,
      "ブ": 1287,
      "プ": 1288,
      "ベ": 1289,
      "ポ": 1290,
      "メ": 1291,
      "ュ": 1292,
      "ユ": 1293,
      "ョ": 1294,
      "ラ": 1295,
      "リ": 1296,
      "ル": 1297,
      "レ": 1298,
      "ロ": 1299,
      "ン": 1300,
      "ヴ": 1301,
      "・": 1302,
      "ー": 1303,
      "ㄆ": 1304,
      "ㄇ": 1305,
      "ㄊ": 1306,
      "ㄋ": 1307,
      "ㄝ": 1308,
      "ㄨ": 1309,
      "ㄲ": 1310,
      "ㄹ": 1311,
      "ㅂ": 1312,
      "ㅇ": 1313,
      "ㅓ": 1314,
      "ㅜ": 1315,
      "ㆿ": 1316,
      "一": 1317,
      "丁": 1318,
      "三": 1319,
      "上": 1320,
      "下": 1321,
      "世": 1322,
      "东": 1323,
      "中": 1324,
      "丹": 1325,
      "主": 1326,
      "之": 1327,
      "乐": 1328,
      "九": 1329,
      "乡": 1330,
      "二": 1331,
      "于": 1332,
      "云": 1333,
      "五": 1334,
      "京": 1335,
      "亭": 1336,
      "人": 1337,
      "介": 1338,
      "仔": 1339,
      "他": 1340,
      "仗": 1341,
      "仙": 1342,
      "代": 1343,
      "令": 1344,
      "份": 1345,
      "会": 1346,
      "伝": 1347,
      "传": 1348,
      "佛": 1349,
      "信": 1350,
      "個": 1351,
      "傳": 1352,
      "僑": 1353,
      "僧": 1354,
      "儒": 1355,
      "儿": 1356,
      "元": 1357,
      "兆": 1358,
      "光": 1359,
      "克": 1360,
      "內": 1361,
      "八": 1362,
      "公": 1363,
      "关": 1364,
      "兵": 1365,
      "内": 1366,
      "军": 1367,
      "农": 1368,
      "冰": 1369,
      "出": 1370,
      "刀": 1371,
      "刊": 1372,
      "劉": 1373,
      "力": 1374,
      "勐": 1375,
      "化": 1376,
      "北": 1377,
      "区": 1378,
      "医": 1379,
      "十": 1380,
      "南": 1381,
      "原": 1382,
      "又": 1383,
      "口": 1384,
      "史": 1385,
      "号": 1386,
      "司": 1387,
      "合": 1388,
      "君": 1389,
      "呂": 1390,
      "员": 1391,
      "周": 1392,
      "品": 1393,
      "唐": 1394,
      "嘉": 1395,
      "噶": 1396,
      "噺": 1397,
      "四": 1398,
      "园": 1399,
      "国": 1400,
      "國": 1401,
      "團": 1402,
      "地": 1403,
      "场": 1404,
      "城": 1405,
      "堂": 1406,
      "報": 1407,
      "大": 1408,
      "天": 1409,
      "太": 1410,
      "头": 1411,
      "奇": 1412,
      "契": 1413,
      "女": 1414,
      "妈": 1415,
      "妙": 1416,
      "媒": 1417,
      "子": 1418,
      "字": 1419,
      "孝": 1420,
      "孟": 1421,
      "学": 1422,
      "孩": 1423,
      "學": 1424,
      "安": 1425,
      "宋": 1426,
      "官": 1427,
      "定": 1428,
      "客": 1429,
      "宣": 1430,
      "宮": 1431,
      "家": 1432,
      "富": 1433,
      "實": 1434,
      "寧": 1435,
      "寺": 1436,
      "將": 1437,
      "尉": 1438,
      "小": 1439,
      "少": 1440,
      "尚": 1441,
      "就": 1442,
      "局": 1443,
      "居": 1444,
      "屋": 1445,
      "屯": 1446,
      "山": 1447,
      "岩": 1448,
      "岬": 1449,
      "嶺": 1450,
      "州": 1451,
      "工": 1452,
      "左": 1453,
      "巴": 1454,
      "布": 1455,
      "帛": 1456,
      "帝": 1457,
      "師": 1458,
      "平": 1459,
      "年": 1460,
      "广": 1461,
      "府": 1462,
      "度": 1463,
      "座": 1464,
      "庶": 1465,
      "康": 1466,
      "廣": 1467,
      "廷": 1468,
      "強": 1469,
      "影": 1470,
      "役": 1471,
      "徑": 1472,
      "德": 1473,
      "徽": 1474,
      "忍": 1475,
      "志": 1476,
      "急": 1477,
      "性": 1478,
      "怪": 1479,
      "悅": 1480,
      "情": 1481,
      "愚": 1482,
      "愛": 1483,
      "憺": 1484,
      "戊": 1485,
      "成": 1486,
      "战": 1487,
      "戲": 1488,
      "戴": 1489,
      "扇": 1490,
      "手": 1491,
      "扎": 1492,
      "拉": 1493,
      "拭": 1494,
      "拱": 1495,
      "拳": 1496,
      "拼": 1497,
      "插": 1498,
      "擔": 1499,
      "支": 1500,
      "敎": 1501,
      "教": 1502,
      "文": 1503,
      "新": 1504,
      "施": 1505,
      "族": 1506,
      "日": 1507,
      "时": 1508,
      "昇": 1509,
      "昌": 1510,
      "明": 1511,
      "映": 1512,
      "春": 1513,
      "昭": 1514,
      "昶": 1515,
      "時": 1516,
      "晚": 1517,
      "普": 1518,
      "曲": 1519,
      "書": 1520,
      "曼": 1521,
      "會": 1522,
      "月": 1523,
      "有": 1524,
      "朝": 1525,
      "木": 1526,
      "本": 1527,
      "村": 1528,
      "杜": 1529,
      "杨": 1530,
      "東": 1531,
      "林": 1532,
      "校": 1533,
      "梁": 1534,
      "棦": 1535,
      "橡": 1536,
      "次": 1537,
      "欽": 1538,
      "正": 1539,
      "武": 1540,
      "殷": 1541,
      "毅": 1542,
      "母": 1543,
      "氏": 1544,
      "民": 1545,
      "水": 1546,
      "永": 1547,
      "汉": 1548,
      "江": 1549,
      "沖": 1550,
      "河": 1551,
      "沼": 1552,
      "泊": 1553,
      "法": 1554,
      "波": 1555,
      "注": 1556,
      "洁": 1557,
      "洋": 1558,
      "洪": 1559,
      "活": 1560,
      "流": 1561,
      "海": 1562,
      "浸": 1563,
      "淮": 1564,
      "清": 1565,
      "港": 1566,
      "湖": 1567,
      "準": 1568,
      "滑": 1569,
      "漢": 1570,
      "漫": 1571,
      "火": 1572,
      "炳": 1573,
      "無": 1574,
      "燕": 1575,
      "爸": 1576,
      "爹": 1577,
      "片": 1578,
      "版": 1579,
      "独": 1580,
      "狼": 1581,
      "獨": 1582,
      "玄": 1583,
      "玉": 1584,
      "王": 1585,
      "玲": 1586,
      "珊": 1587,
      "環": 1588,
      "瓷": 1589,
      "生": 1590,
      "用": 1591,
      "田": 1592,
      "甲": 1593,
      "电": 1594,
      "畫": 1595,
      "白": 1596,
      "百": 1597,
      "皇": 1598,
      "目": 1599,
      "直": 1600,
      "省": 1601,
      "眾": 1602,
      "瞳": 1603,
      "研": 1604,
      "硏": 1605,
      "社": 1606,
      "祇": 1607,
      "祖": 1608,
      "祥": 1609,
      "福": 1610,
      "秀": 1611,
      "秋": 1612,
      "秦": 1613,
      "稽": 1614,
      "立": 1615,
      "竺": 1616,
      "符": 1617,
      "第": 1618,
      "等": 1619,
      "策": 1620,
      "粤": 1621,
      "粵": 1622,
      "系": 1623,
      "約": 1624,
      "紫": 1625,
      "紹": 1626,
      "網": 1627,
      "綽": 1628,
      "編": 1629,
      "縄": 1630,
      "縣": 1631,
      "縱": 1632,
      "统": 1633,
      "羅": 1634,
      "群": 1635,
      "翠": 1636,
      "翼": 1637,
      "耳": 1638,
      "联": 1639,
      "聖": 1640,
      "肚": 1641,
      "股": 1642,
      "胶": 1643,
      "脩": 1644,
      "自": 1645,
      "興": 1646,
      "舊": 1647,
      "芋": 1648,
      "芒": 1649,
      "芝": 1650,
      "芦": 1651,
      "花": 1652,
      "苑": 1653,
      "茂": 1654,
      "茵": 1655,
      "茹": 1656,
      "荆": 1657,
      "荊": 1658,
      "荣": 1659,
      "華": 1660,
      "营": 1661,
      "落": 1662,
      "董": 1663,
      "蒼": 1664,
      "蕭": 1665,
      "藝": 1666,
      "藤": 1667,
      "號": 1668,
      "虫": 1669,
      "虹": 1670,
      "螽": 1671,
      "行": 1672,
      "衛": 1673,
      "襄": 1674,
      "西": 1675,
      "覇": 1676,
      "解": 1677,
      "言": 1678,
      "話": 1679,
      "語": 1680,
      "談": 1681,
      "論": 1682,
      "譜": 1683,
      "議": 1684,
      "计": 1685,
      "话": 1686,
      "语": 1687,
      "貶": 1688,
      "資": 1689,
      "赤": 1690,
      "越": 1691,
      "趙": 1692,
      "蹟": 1693,
      "軽": 1694,
      "辰": 1695,
      "迎": 1696,
      "通": 1697,
      "連": 1698,
      "道": 1699,
      "選": 1700,
      "遼": 1701,
      "那": 1702,
      "郎": 1703,
      "郗": 1704,
      "郡": 1705,
      "部": 1706,
      "郭": 1707,
      "都": 1708,
      "鄧": 1709,
      "鄭": 1710,
      "釋": 1711,
      "里": 1712,
      "金": 1713,
      "錄": 1714,
      "鎮": 1715,
      "門": 1716,
      "間": 1717,
      "關": 1718,
      "间": 1719,
      "陈": 1720,
      "限": 1721,
      "院": 1722,
      "陣": 1723,
      "陳": 1724,
      "陵": 1725,
      "陶": 1726,
      "陷": 1727,
      "陽": 1728,
      "隊": 1729,
      "隶": 1730,
      "集": 1731,
      "雙": 1732,
      "難": 1733,
      "雪": 1734,
      "零": 1735,
      "電": 1736,
      "音": 1737,
      "頂": 1738,
      "順": 1739,
      "領": 1740,
      "頭": 1741,
      "養": 1742,
      "首": 1743,
      "馬": 1744,
      "體": 1745,
      "高": 1746,
      "魅": 1747,
      "魏": 1748,
      "鯨": 1749,
      "鱼": 1750,
      "鶴": 1751,
      "麵": 1752,
      "黃": 1753,
      "龍": 1754,
      "龙": 1755,
      "ꘓ": 1756,
      "ꘘ": 1757,
      "ꜣ": 1758,
      "ꜥ": 1759,
      "Ꜧ": 1760,
      "ꜧ": 1761,
      "ꞌ": 1762,
      "꟎": 1763,
      "꟏": 1764,
      "ꭥ": 1765,
      "ꭧ": 1766,
      "가": 1767,
      "고": 1768,
      "구": 1769,
      "국": 1770,
      "글": 1771,
      "기": 1772,
      "꿀": 1773,
      "네": 1774,
      "니": 1775,
      "돌": 1776,
      "만": 1777,
      "메": 1778,
      "무": 1779,
      "문": 1780,
      "미": 1781,
      "민": 1782,
      "바": 1783,
      "받": 1784,
      "벌": 1785,
      "복": 1786,
      "본": 1787,
      "북": 1788,
      "사": 1789,
      "산": 1790,
      "서": 1791,
      "석": 1792,
      "선": 1793,
      "션": 1794,
      "애": 1795,
      "어": 1796,
      "열": 1797,
      "영": 1798,
      "예": 1799,
      "요": 1800,
      "원": 1801,
      "웹": 1802,
      "윤": 1803,
      "음": 1804,
      "의": 1805,
      "이": 1806,
      "인": 1807,
      "자": 1808,
      "정": 1809,
      "제": 1810,
      "조": 1811,
      "체": 1812,
      "침": 1813,
      "툰": 1814,
      "하": 1815,
      "한": 1816,
      "합": 1817,
      "화": 1818,
      "회": 1819,
      "훈": 1820,
      "️": 1821,
      "﻿": 1822,
      "（": 1823,
      "）": 1824,
      "，": 1825,
      "／": 1826,
      "～": 1827,
      "￼": 1828,
      "𐅸": 1829,
      "𐞑": 1830,
      "𐡀": 1831,
      "𐡉": 1832,
      "𐡊": 1833,
      "𐡐": 1834,
      "𐭤": 1835,
      "𐭥": 1836,
      "𐭬": 1837,
      "𐭭": 1838,
      "𑚊": 1839,
      "𑚔": 1840,
      "𑚤": 1841,
      "𑚫": 1842,
      "𑚭": 1843,
      "𑚯": 1844,
      "𑠊": 1845,
      "𑠔": 1846,
      "𑠤": 1847,
      "𑠬": 1848,
      "𑠮": 1849,
      "𒀭": 1850,
      "𒃶": 1851,
      "𒅆": 1852,
      "𒅋": 1853,
      "𒉌": 1854,
      "𓂀": 1855,
      "𓅃": 1856,
      "🌮": 1857,
      "🌸": 1858,
      "🌿": 1859,
      "🍇": 1860,
      "🏻": 1861,
      "🏼": 1862,
      "🏽": 1863,
      "🏿": 1864,
      "👀": 1865,
      "👃": 1866,
      "👈": 1867,
      "👉": 1868,
      "👋": 1869,
      "👍": 1870,
      "👎": 1871,
      "👹": 1872,
      "💀": 1873,
      "💔": 1874,
      "💕": 1875,
      "💚": 1876,
      "💝": 1877,
      "💨": 1878,
      "💩": 1879,
      "💰": 1880,
      "🖤": 1881,
      "😁": 1882,
      "😂": 1883,
      "😃": 1884,
      "😄": 1885,
      "😅": 1886,
      "😉": 1887,
      "😊": 1888,
      "😐": 1889,
      "😑": 1890,
      "😔": 1891,
      "😕": 1892,
      "😘": 1893,
      "😙": 1894,
      "😞": 1895,
      "😢": 1896,
      "😩": 1897,
      "😫": 1898,
      "😭": 1899,
      "😮": 1900,
      "🙁": 1901,
      "🙂": 1902,
      "🙃": 1903,
      "🙄": 1904,
      "🙈": 1905,
      "🙏": 1906,
      "🚩": 1907,
      "🚫": 1908,
      "🤔": 1909,
      "🤣": 1910,
      "🤦": 1911,
      "🤧": 1912,
      "🤨": 1913,
      "🤮": 1914,
      "🤯": 1915,
      "🤷": 1916,
      "🥲": 1917,
      "🥴": 1918,
      "🥺": 1919,
      "🦀": 1920,
      "🧚": 1921,
      "🩷": 1922,
      "🫂": 1923,
      "🫶": 1924,
      "##h": 1925,
      "##i": 1926,
      "##t": 1927,
      "##y": 1928,
      "##l": 1929,
      "##e": 1930,
      "##r": 1931,
      "##c": 1932,
      "##s": 1933,
      "##o": 1934,
      "##x": 1935,
      "##a": 1936,
      "##n": 1937,
      "##d": 1938,
      "##g": 1939,
      "##b": 1940,
      "##p": 1941,
      "##v": 1942,
      "##U": 1943,
      "##F": 1944,
      "##C": 1945,
      "##V": 1946,
      "##u": 1947,
      "##q": 1948,
      "##m": 1949,
      "##k": 1950,
      "##ý": 1951,
      "##f": 1952,
      "##j": 1953,
      "##I": 1954,
      "##O": 1955,
      "##z": 1956,
      "##S": 1957,
      "##?": 1958,
      "##)": 1959,
      "##.": 1960,
      "##\"": 1961,
      "##w": 1962,
      "##8": 1963,
      "##9": 1964,
      "##5": 1965,
      "##é": 1966,
      "##6": 1967,
      "##υ": 1968,
      "##ζ": 1969,
      "##ά": 1970,
      "##ν": 1971,
      "##τ": 1972,
      "##ι": 1973,
      "##ο": 1974,
      "##ς": 1975,
      "##T": 1976,
      "##*": 1977,
      "##,": 1978,
      "##E": 1979,
      "##ř": 1980,
      "##í": 1981,
      "##7": 1982,
      "##B": 1983,
      "##R": 1984,
      "##H": 1985,
      "##1": 1986,
      "##3": 1987,
      "##4": 1988,
      "##ú": 1989,
      "##P": 1990,
      "##N": 1991,
      "##L": 1992,
      "##A": 1993,
      "##G": 1994,
      "##ã": 1995,
      "##2": 1996,
      "##…": 1997,
      "##0": 1998,
      "##γ": 1999,
      "##κ": 2000,
      "##ρ": 2001,
      "##η": 2002,
      "##σ": 2003,
      "##μ": 2004,
      "##ό": 2005,
      "##W": 2006,
      "##D": 2007,
      "##Y": 2008,
      "##ñ": 2009,
      "##á": 2010,
      "##š": 2011,
      "##ü": 2012,
      "##л": 2013,
      "##а": 2014,
      "##д": 2015,
      "##е": 2016,
      "##н": 2017,
      "##Q": 2018,
      "##!": 2019,
      "##M": 2020,
      "##/": 2021,
      "##X": 2022,
      "##ổ": 2023,
      "##è": 2024,
      "##タ": 2025,
      "##ー": 2026,
      "##ポ": 2027,
      "##キ": 2028,
      "##ン": 2029,
      "##グ": 2030,
      "##ツ": 2031,
      "##ア": 2032,
      "##ズ": 2033,
      "##ł": 2034,
      "##ə": 2035,
      "##:": 2036,
      "##ā": 2037,
      "##K": 2038,
      "##ل": 2039,
      "##ن": 2040,
      "##ُ": 2041,
      "##و": 2042,
      "##ب": 2043,
      "##َ": 2044,
      "##ة": 2045,
      "##˨": 2046,
      "##+": 2047,
      "##ö": 2048,
      "##ă": 2049,
      "##י": 2050,
      "##ר": 2051,
      "##ז": 2052,
      "##_": 2053,
      "##ä": 2054,
      "##č": 2055,
      "##ق": 2056,
      "##ا": 2057,
      "##ع": 2058,
      "##د": 2059,
      "##ó": 2060,
      "##ū": 2061,
      "##à": 2062,
      "##海": 2063,
      "##約": 2064,
      "##ī": 2065,
      "##ḱ": 2066,
      "##ō": 2067,
      "##Š": 2068,
      "##ǝ": 2069,
      "##ē": 2070,
      "##ӏ": 2071,
      "##у": 2072,
      "##ц": 2073,
      "##э": 2074,
      "##ˈ": 2075,
      "##ệ": 2076,
      "##ỹ": 2077,
      "##î": 2078,
      "##⠨": 2079,
      "##ì": 2080,
      "##ë": 2081,
      "##ه": 2082,
      "##س": 2083,
      "##ô": 2084,
      "##ž": 2085,
      "##ų": 2086,
      "##α": 2087,
      "##π": 2088,
      "##г": 2089,
      "##о": 2090,
      "##ֶ": 2091,
      "##ּ": 2092,
      "##ן": 2093,
      "##ı": 2094,
      "##œ": 2095,
      "##語": 2096,
      "##家": 2097,
      "##(": 2098,
      "##J": 2099,
      "##😭": 2100,
      "##ụ": 2101,
      "##陵": 2102,
      "##縣": 2103,
      "##ê": 2104,
      "##∫": 2105,
      "##⟩": 2106,
      "##̠": 2107,
      "##̊": 2108,
      "##ʲ": 2109,
      "##": 2110,
      "##ʰ": 2111,
      "##ğ": 2112,
      "##м": 2113,
      "##и": 2114,
      "##👎": 2115,
      "##θ": 2116,
      "##%": 2117,
      "##ɾ": 2118,
      "##ɛ": 2119,
      "##̀": 2120,
      "##—": 2121,
      "##-": 2122,
      "##⭐": 2123,
      "##λ": 2124,
      "##β": 2125,
      "##ί": 2126,
      "##å": 2127,
      "##в": 2128,
      "##ş": 2129,
      "##ǧ": 2130,
      "##Z": 2131,
      "##ṭ": 2132,
      "##議": 2133,
      "##ъ": 2134,
      "##р": 2135,
      "##я": 2136,
      "##”": 2137,
      "##ï": 2138,
      "##ś": 2139,
      "##ʼ": 2140,
      "##ĝ": 2141,
      "##ύ": 2142,
      "##χ": 2143,
      "##'": 2144,
      "##ʁ": 2145,
      "##ɑ": 2146,
      "##̃": 2147,
      "##ː": 2148,
      "##ῦ": 2149,
      "##ა": 2150,
      "##მ": 2151,
      "##ხ": 2152,
      "##რ": 2153,
      "##ე": 2154,
      "##თ": 2155,
      "###": 2156,
      "##ص": 2157,
      "##ْ": 2158,
      "##ح": 2159,
      "##ω": 2160,
      "##ɣ": 2161,
      "##ˠ": 2162,
      "##̪": 2163,
      "##õ": 2164,
      "##й": 2165,
      "##к": 2166,
      "##ấ": 2167,
      "##]": 2168,
      "##з": 2169,
      "##ư": 2170,
      "##ɔ": 2171,
      "##ε": 2172,
      "##ʒ": 2173,
      "##ِ": 2174,
      "##ي": 2175,
      "##ث": 2176,
      "##ß": 2177,
      "##>": 2178,
      "##ր": 2179,
      "##և": 2180,
      "##մ": 2181,
      "##տ": 2182,
      "##յ": 2183,
      "##ա": 2184,
      "##ն": 2185,
      "##έ": 2186,
      "##ή": 2187,
      "##$": 2188,
      "##É": 2189,
      "##~": 2190,
      "##ٱ": 2191,
      "##ّ": 2192,
      "##ć": 2193,
      "##घ": 2194,
      "##े": 2195,
      "##ल": 2196,
      "##ी": 2197,
      "##â": 2198,
      "##}": 2199,
      "##ỳ": 2200,
      "##م": 2201,
      "##;": 2202,
      "##̩": 2203,
      "##п": 2204,
      "##с": 2205,
      "##ð": 2206,
      "##ⲥ": 2207,
      "##ⲁ": 2208,
      "##ⲙ": 2209,
      "##ⲏ": 2210,
      "##ⲣ": 2211,
      "##ɨ": 2212,
      "##ʔ": 2213,
      "##ر": 2214,
      "##’": 2215,
      "##语": 2216,
      "##ἰ": 2217,
      "##ʊ": 2218,
      "##話": 2219,
      "##ò": 2220,
      "##ئ": 2221,
      "##ˡ": 2222,
      "##ŋ": 2223,
      "##ø": 2224,
      "##ⵡ": 2225,
      "##ⵉ": 2226,
      "##ⵍ": 2227,
      "##ⵓ": 2228,
      "##ⵝ": 2229,
      "##[": 2230,
      "##ç": 2231,
      "##̟": 2232,
      "##座": 2233,
      "##儒": 2234,
      "##耳": 2235,
      "##目": 2236,
      "##資": 2237,
      "##平": 2238,
      "##ְ": 2239,
      "##ׁ": 2240,
      "##פ": 2241,
      "##ֵ": 2242,
      "##ל": 2243,
      "##ַ": 2244,
      "##ת": 2245,
      "##ё": 2246,
      "##́": 2247,
      "##ܐ": 2248,
      "##ܚ": 2249,
      "##ܘ": 2250,
      "##ܢ": 2251,
      "##̈": 2252,
      "##ܬ": 2253,
      "##ừ": 2254,
      "##û": 2255,
      "##ꜣ": 2256,
      "##ħ": 2257,
      "##ʃ": 2258,
      "##選": 2259,
      "##т": 2260,
      "##ṣ": 2261,
      "##書": 2262,
      "##城": 2263,
      "##拭": 2264,
      "##迎": 2265,
      "##祥": 2266,
      "##͡": 2267,
      "##ṇ": 2268,
      "##˩": 2269,
      "##洁": 2270,
      "##ʷ": 2271,
      "##̨": 2272,
      "##ܪ": 2273,
      "##ܝ": 2274,
      "##ǒ": 2275,
      "##ف": 2276,
      "##ы": 2277,
      "##민": 2278,
      "##정": 2279,
      "##음": 2280,
      "##ₙ": 2281,
      "##芒": 2282,
      "##ț": 2283,
      "##二": 2284,
      "##次": 2285,
      "##战": 2286,
      "##役": 2287,
      "##ọ": 2288,
      "##ơ": 2289,
      "##ز": 2290,
      "##ד": 2291,
      "##ק": 2292,
      "##ľ": 2293,
      "##ь": 2294,
      "##ŏ": 2295,
      "##ằ": 2296,
      "##ে": 2297,
      "##ন": 2298,
      "##字": 2299,
      "##ὖ": 2300,
      "##³": 2301,
      "##ṯ": 2302,
      "##ả": 2303,
      "##ت": 2304,
      "##ာ": 2305,
      "##ရ": 2306,
      "##ီ": 2307,
      "##ɘ": 2308,
      "##ʻ": 2309,
      "##ی": 2310,
      "##\\": 2311,
      "##ର": 2312,
      "##ା": 2313,
      "##★": 2314,
      "##̞": 2315,
      "##流": 2316,
      "##行": 2317,
      "##音": 2318,
      "##乐": 2319,
      "##̆": 2320,
      "##{": 2321,
      "##ṳ": 2322,
      "##ė": 2323,
      "##ו": 2324,
      "##ֹ": 2325,
      "##ִ": 2326,
      "##ב": 2327,
      "##ָ": 2328,
      "##א": 2329,
      "##į": 2330,
      "##ʎ": 2331,
      "##°": 2332,
      "##信": 2333,
      "##中": 2334,
      "##郎": 2335,
      "##將": 2336,
      "##ש": 2337,
      "##ע": 2338,
      "##😂": 2339,
      "##Æ": 2340,
      "##ط": 2341,
      "##‘": 2342,
      "##ိ": 2343,
      "##ု": 2344,
      "##င": 2345,
      "##်": 2346,
      "##း": 2347,
      "##ပ": 2348,
      "##ွ": 2349,
      "##န": 2350,
      "##‰": 2351,
      "##​": 2352,
      "##خ": 2353,
      "##͜": 2354,
      "##φ": 2355,
      "##ù": 2356,
      "##💀": 2357,
      "##ж": 2358,
      "##ܩ": 2359,
      "##ូ": 2360,
      "##ម": 2361,
      "##ិ": 2362,
      "##ě": 2363,
      "##ṅ": 2364,
      "##<": 2365,
      "##ո": 2366,
      "##վ": 2367,
      "##𑠬": 2368,
      "##𑠊": 2369,
      "##𑠤": 2370,
      "##𑠮": 2371,
      "##ὰ": 2372,
      "##道": 2373,
      "##ہ": 2374,
      "##肚": 2375,
      "##̯": 2376,
      "##ạ": 2377,
      "##ḗ": 2378,
      "##太": 2379,
      "##祖": 2380,
      "##實": 2381,
      "##錄": 2382,
      "##ặ": 2383,
      "##ց": 2384,
      "##ѣ": 2385,
      "##ҙ": 2386,
      "##ώ": 2387,
      "##ɬ": 2388,
      "##¹": 2389,
      "##ㅜ": 2390,
      "##ㄹ": 2391,
      "##ㅂ": 2392,
      "##ㅓ": 2393,
      "##=": 2394,
      "##ض": 2395,
      "##‌": 2396,
      "##大": 2397,
      "##仙": 2398,
      "##天": 2399,
      "##主": 2400,
      "##教": 2401,
      "##小": 2402,
      "##學": 2403,
      "##ʕ": 2404,
      "##Ī": 2405,
      "##گ": 2406,
      "##ź": 2407,
      "##🤣": 2408,
      "##拉": 2409,
      "##地": 2410,
      "##区": 2411,
      "##立": 2412,
      "##北": 2413,
      "##京": 2414,
      "##🏼": 2415,
      "##と": 2416,
      "##し": 2417,
      "##噺": 2418,
      "##ɪ": 2419,
      "##ɴ": 2420,
      "##儿": 2421,
      "##他": 2422,
      "##妈": 2423,
      "##ờ": 2424,
      "##б": 2425,
      "##ч": 2426,
      "##ю": 2427,
      "##δ": 2428,
      "##滑": 2429,
      "##稽": 2430,
      "##系": 2431,
      "##ြ": 2432,
      "##့": 2433,
      "##リ": 2434,
      "##ニ": 2435,
      "##テ": 2436,
      "##ィ": 2437,
      "##セ": 2438,
      "##ブ": 2439,
      "##დ": 2440,
      "##ო": 2441,
      "##გ": 2442,
      "##ვ": 2443,
      "##ტ": 2444,
      "##უ": 2445,
      "##ნ": 2446,
      "##ბ": 2447,
      "##ი": 2448,
      "##ỵ": 2449,
      "##ề": 2450,
      "##乡": 2451,
      "##🏽": 2452,
      "##أ": 2453,
      "##غ": 2454,
      "##ǔ": 2455,
      "##氏": 2456,
      "##春": 2457,
      "##秋": 2458,
      "##ʾ": 2459,
      "##ா": 2460,
      "##ன": 2461,
      "##்": 2462,
      "##ʿ": 2463,
      "##ę": 2464,
      "##ń": 2465,
      "##͍": 2466,
      "##×": 2467,
      "##ុ": 2468,
      "##ំ": 2469,
      "##،": 2470,
      "##–": 2471,
      "##ὸ": 2472,
      "##͘": 2473,
      "##內": 2474,
      "##十": 2475,
      "##八": 2476,
      "##省": 2477,
      "##传": 2478,
      "##媒": 2479,
      "##介": 2480,
      "##і": 2481,
      "##ᒪ": 2482,
      "##ᒋ": 2483,
      "##ᐑ": 2484,
      "##ᐢ": 2485,
      "##ᐱ": 2486,
      "##ᒧ": 2487,
      "##ᐏ": 2488,
      "##ᓂ": 2489,
      "##ᕽ": 2490,
      "##ش": 2491,
      "##ᵝ": 2492,
      "##ɕ": 2493,
      "##ʋ": 2494,
      "##ѧ": 2495,
      "##ẓ": 2496,
      "##陣": 2497,
      "##都": 2498,
      "##尉": 2499,
      "##인": 2500,
      "##돌": 2501,
      "##ẹ": 2502,
      "##ồ": 2503,
      "##手": 2504,
      "##ガ": 2505,
      "##ル": 2506,
      "##&": 2507,
      "##գ": 2508,
      "##ի": 2509,
      "##ս": 2510,
      "##`": 2511,
      "##æ": 2512,
      "##寧": 2513,
      "##漢": 2514,
      "##˧": 2515,
      "##ị": 2516,
      "##͈": 2517,
      "##𒅋": 2518,
      "##𒃶": 2519,
      "##𒉌": 2520,
      "##ה": 2521,
      "##ယ": 2522,
      "##ਹ": 2523,
      "##ੀ": 2524,
      "##宮": 2525,
      "##生": 2526,
      "##佛": 2527,
      "##̺": 2528,
      "##ầ": 2529,
      "##½": 2530,
      "##ễ": 2531,
      "##覇": 2532,
      "##ộ": 2533,
      "##đ": 2534,
      "##❤": 2535,
      "##ₖ": 2536,
      "##̓": 2537,
      "##̣": 2538,
      "##化": 2539,
      "##寺": 2540,
      "##ह": 2541,
      "##ा": 2542,
      "##द": 2543,
      "##व": 2544,
      "##ŭ": 2545,
      "##ṃ": 2546,
      "##̻": 2547,
      "##@": 2548,
      "##|": 2549,
      "##ி": 2550,
      "##ள": 2551,
      "##𐡉": 2552,
      "##𐡐": 2553,
      "##𐡀": 2554,
      "##ު": 2555,
      "##ވ": 2556,
      "##ަ": 2557,
      "##ދ": 2558,
      "##އ": 2559,
      "##ތ": 2560,
      "##ޮ": 2561,
      "##ޅ": 2562,
      "##興": 2563,
      "##鎮": 2564,
      "##ể": 2565,
      "##电": 2566,
      "##影": 2567,
      "##局": 2568,
      "##ɡ": 2569,
      "##̝": 2570,
      "##ő": 2571,
      "##ȝ": 2572,
      "##ⲟ": 2573,
      "##ⲩ": 2574,
      "##ⲗ": 2575,
      "##ǐ": 2576,
      "##⁠": 2577,
      "##ⰾ": 2578,
      "##ⰰ": 2579,
      "##ⰳ": 2580,
      "##ⱁ": 2581,
      "##ⱏ": 2582,
      "##⦵": 2583,
      "##ི": 2584,
      "##ན": 2585,
      "##子": 2586,
      "##荣": 2587,
      "##田": 2588,
      "##本": 2589,
      "##論": 2590,
      "##침": 2591,
      "##ك": 2592,
      "##ť": 2593,
      "##月": 2594,
      "##擔": 2595,
      "##仔": 2596,
      "##麵": 2597,
      "##¦": 2598,
      "##ɐ": 2599,
      "##ח": 2600,
      "##מ": 2601,
      "##ט": 2602,
      "##श": 2603,
      "##्": 2604,
      "##म": 2605,
      "##न": 2606,
      "##ྱ": 2607,
      "##ང": 2608,
      "##ḏ": 2609,
      "##云": 2610,
      "##ḥ": 2611,
      "##வ": 2612,
      "##כ": 2613,
      "##五": 2614,
      "##屯": 2615,
      "##ʂ": 2616,
      "##ʌ": 2617,
      "##ї": 2618,
      "##ւ": 2619,
      "##բ": 2620,
      "##̥": 2621,
      "##僑": 2622,
      "##晚": 2623,
      "##報": 2624,
      "##្": 2625,
      "##រ": 2626,
      "##ក": 2627,
      "##🏿": 2628,
      "##ɠ": 2629,
      "##²": 2630,
      "##ⲧ": 2631,
      "##ϭ": 2632,
      "##ⲓ": 2633,
      "##ک": 2634,
      "##丁": 2635,
      "##鱼": 2636,
      "##丹": 2637,
      "##ެ": 2638,
      "##ކ": 2639,
      "##ނ": 2640,
      "##ބ": 2641,
      "##ރ": 2642,
      "##ި": 2643,
      "##ɜ": 2644,
      "##ླ": 2645,
      "##ʑ": 2646,
      "##ở": 2647,
      "##ம": 2648,
      "##ழ": 2649,
      "##ர": 2650,
      "##ち": 2651,
      "##ὐ": 2652,
      "##ỗ": 2653,
      "##ɫ": 2654,
      "##ɯ": 2655,
      "##ξ": 2656,
      "##羅": 2657,
      "##^": 2658,
      "##х": 2659,
      "##ᡳ": 2660,
      "##ᠶ": 2661,
      "##ᠠ": 2662,
      "##ᠮ": 2663,
      "##ᡠ": 2664,
      "##ᠰ": 2665,
      "##£": 2666,
      "##體": 2667,
      "##ར": 2668,
      "##ྒ": 2669,
      "##ུ": 2670,
      "##ད": 2671,
      "##ˤ": 2672,
      "##ⁿ": 2673,
      "##談": 2674,
      "##ས": 2675,
      "##ྣ": 2676,
      "##ג": 2677,
      "##ș": 2678,
      "##ء": 2679,
      "##兵": 2680,
      "##ɲ": 2681,
      "##ʐ": 2682,
      "##史": 2683,
      "##话": 2684,
      "##̂": 2685,
      "##ゼ": 2686,
      "##ク": 2687,
      "##ロ": 2688,
      "##བ": 2689,
      "##ྲ": 2690,
      "##ག": 2691,
      "##¬": 2692,
      "##い": 2693,
      "##瞳": 2694,
      "##の": 2695,
      "##少": 2696,
      "##女": 2697,
      "##畫": 2698,
      "##武": 2699,
      "##ǫ": 2700,
      "##ῷ": 2701,
      "##ᾰ": 2702,
      "##ὶ": 2703,
      "##ヴ": 2704,
      "##忍": 2705,
      "##伝": 2706,
      "##қ": 2707,
      "##ံ": 2708,
      "##တ": 2709,
      "##ေ": 2710,
      "##ခ": 2711,
      "##ျ": 2712,
      "##ῶ": 2713,
      "##注": 2714,
      "##符": 2715,
      "##号": 2716,
      "##Ꮪ": 2717,
      "##Ꮯ": 2718,
      "##ш": 2719,
      "##日": 2720,
      "##̰": 2721,
      "##ĭ": 2722,
      "##ṉ": 2723,
      "##里": 2724,
      "##越": 2725,
      "##傳": 2726,
      "##벌": 2727,
      "##ج": 2728,
      "##†": 2729,
      "##⠲": 2730,
      "##仗": 2731,
      "##ƥ": 2732,
      "##ׂ": 2733,
      "##ậ": 2734,
      "##կ": 2735,
      "##ե": 2736,
      "##ղ": 2737,
      "##會": 2738,
      "##虹": 2739,
      "##ứ": 2740,
      "##−": 2741,
      "##ⴳ": 2742,
      "##ⴷ": 2743,
      "##ⴰ": 2744,
      "##ⵏ": 2745,
      "##ᾱ": 2746,
      "##ΐ": 2747,
      "##꟎": 2748,
      "##ٰ": 2749,
      "##❄": 2750,
      "##ဟ": 2751,
      "##ɒ": 2752,
      "##ɟ": 2753,
      "##ḍ": 2754,
      "##자": 2755,
      "##어": 2756,
      "##🏻": 2757,
      "##龍": 2758,
      "##族": 2759,
      "##က": 2760,
      "##ラ": 2761,
      "##“": 2762,
      "##⛩": 2763,
      "##ġ": 2764,
      "##ห": 2765,
      "##า": 2766,
      "##อ": 2767,
      "##ณ": 2768,
      "##จ": 2769,
      "##ั": 2770,
      "##ก": 2771,
      "##ร": 2772,
      "##ไ": 2773,
      "##ท": 2774,
      "##ย": 2775,
      "##ʝ": 2776,
      "##⁊": 2777,
      "##ῑ": 2778,
      "##ῐ": 2779,
      "##ھ": 2780,
      "##ے": 2781,
      "##Ľ": 2782,
      "##ự": 2783,
      "##か": 2784,
      "##な": 2785,
      "##ῆ": 2786,
      "##∞": 2787,
      "##": 2788,
      "##๋": 2789,
      "##ง": 2790,
      "##孝": 2791,
      "##綽": 2792,
      "##文": 2793,
      "##ؤ": 2794,
      "##順": 2795,
      "##王": 2796,
      "##ĩ": 2797,
      "##⠁": 2798,
      "##⠀": 2799,
      "##⠣": 2800,
      "##⠼": 2801,
      "##⠙": 2802,
      "##⠋": 2803,
      "##⠜": 2804,
      "##ⲕ": 2805,
      "##ϩ": 2806,
      "##ⵎ": 2807,
      "##ⵣ": 2808,
      "##ⵖ": 2809,
      "##ⵜ": 2810,
      "##Σ": 2811,
      "##Υ": 2812,
      "##İ": 2813,
      "##˦": 2814,
      "##法": 2815,
      "##ည": 2816,
      "##र": 2817,
      "##ẻ": 2818,
      "##號": 2819,
      "##昭": 2820,
      "##ହ": 2821,
      "##ି": 2822,
      "##ф": 2823,
      "##ლ": 2824,
      "##脩": 2825,
      "##龙": 2826,
      "##ါ": 2827,
      "##လ": 2828,
      "##廣": 2829,
      "##ǎ": 2830,
      "##翠": 2831,
      "##苑": 2832,
      "##ą": 2833,
      "##±": 2834,
      "##ะ": 2835,
      "##ế": 2836,
      "##國": 2837,
      "##志": 2838,
      "##त": 2839,
      "##🚩": 2840,
      "##ż": 2841,
      "##学": 2842,
      "##校": 2843,
      "##ꜥ": 2844,
      "##藝": 2845,
      "##נ": 2846,
      "##ם": 2847,
      "##一": 2848,
      "##宣": 2849,
      "##部": 2850,
      "##ှ": 2851,
      "##⟨": 2852,
      "##ɻ": 2853,
      "##ɭ": 2854,
      "##Ā": 2855,
      "##ဲ": 2856,
      "##ड": 2857,
      "##秀": 2858,
      "##会": 2859,
      "##ɰ": 2860,
      "##ḵ": 2861,
      "##ḇ": 2862,
      "##🥺": 2863,
      "##ḕ": 2864,
      "##ྷ": 2865,
      "##ོ": 2866,
      "##چ": 2867,
      "##ů": 2868,
      "##ῖ": 2869,
      "##В": 2870,
      "##′": 2871,
      "##ˌ": 2872,
      "##雪": 2873,
      "##原": 2874,
      "##ʙ": 2875,
      "##≈": 2876,
      "##→": 2877,
      "##直": 2878,
      "##隶": 2879,
      "##州": 2880,
      "##ố": 2881,
      "##화": 2882,
      "##영": 2883,
      "##ि": 2884,
      "##क": 2885,
      "##ք": 2886,
      "##հ": 2887,
      "##Ó": 2888,
      "##ᥩ": 2889,
      "##ᥒ": 2890,
      "##ᥰ": 2891,
      "##Ú": 2892,
      "##ド": 2893,
      "##ㄊ": 2894,
      "##Ĝ": 2895,
      "##魅": 2896,
      "##網": 2897,
      "##щ": 2898,
      "##😅": 2899,
      "##メ": 2900,
      "##ذ": 2901,
      "##医": 2902,
      "##院": 2903,
      "##ȳ": 2904,
      "##ḫ": 2905,
      "##ジ": 2906,
      "##年": 2907,
      "##零": 2908,
      "##個": 2909,
      "##§": 2910,
      "##̑": 2911,
      "##ử": 2912,
      "##狼": 2913,
      "##荆": 2914,
      "##イ": 2915,
      "##木": 2916,
      "##͇": 2917,
      "##ắ": 2918,
      "##通": 2919,
      "##예": 2920,
      "##ɖ": 2921,
      "##南": 2922,
      "##ᱞ": 2923,
      "##ㄇ": 2924,
      "##ȇ": 2925,
      "##刊": 2926,
      "##有": 2927,
      "##限": 2928,
      "##公": 2929,
      "##司": 2930,
      "##မ": 2931,
      "##္": 2932,
      "##ဗ": 2933,
      "##ဇ": 2934,
      "##ဋ": 2935,
      "##ဌ": 2936,
      "##之": 2937,
      "##又": 2938,
      "##玄": 2939,
      "##ཀ": 2940,
      "##འ": 2941,
      "##妙": 2942,
      "##門": 2943,
      "##ू": 2944,
      "##明": 2945,
      "##郡": 2946,
      "##ܕ": 2947,
      "##ግ": 2948,
      "##ር": 2949,
      "##ኛ": 2950,
      "##ܣ": 2951,
      "##Ç": 2952,
      "##母": 2953,
      "##克": 2954,
      "##噶": 2955,
      "##珊": 2956,
      "##դ": 2957,
      "##ợ": 2958,
      "##Φ": 2959,
      "##ὴ": 2960,
      "##朝": 2961,
      "##華": 2962,
      "##電": 2963,
      "##股": 2964,
      "##份": 2965,
      "##ெ": 2966,
      "##ப": 2967,
      "##ய": 2968,
      "##ᾶ": 2969,
      "##ッ": 2970,
      "##サ": 2971,
      "##關": 2972,
      "##鶴": 2973,
      "##縄": 2974,
      "##ἶ": 2975,
      "##ব": 2976,
      "##র": 2977,
      "##্": 2978,
      "##ষ": 2979,
      "##统": 2980,
      "##计": 2981,
      "##ই": 2982,
      "##庶": 2983,
      "##𑚭": 2984,
      "##𑚊": 2985,
      "##𑚤": 2986,
      "##𑚯": 2987,
      "##ல": 2988,
      "##ங": 2989,
      "##க": 2990,
      "##ை": 2991,
      "##͑": 2992,
      "##た": 2993,
      "##雙": 2994,
      "##譜": 2995,
      "##ŝ": 2996,
      "##̜": 2997,
      "##堂": 2998,
      "##ƀ": 2999,
      "##շ": 3000,
      "##ܡ": 3001,
      "##♭": 3002,
      "##ᥫ": 3003,
      "##✌": 3004,
      "##ћ": 3005,
      "##þ": 3006,
      "##あ": 3007,
      "##間": 3008,
      "##ˁ": 3009,
      "##🤔": 3010,
      "##კ": 3011,
      "##ს": 3012,
      "##ヒ": 3013,
      "##ň": 3014,
      "##회": 3015,
      "##복": 3016,
      "##무": 3017,
      "##요": 3018,
      "##원": 3019,
      "##兆": 3020,
      "##¯": 3021,
      "##新": 3022,
      "##世": 3023,
      "##ʽ": 3024,
      "##炳": 3025,
      "##強": 3026,
      "##ʏ": 3027,
      "##情": 3028,
      "##ḻ": 3029,
      "##ḷ": 3030,
      "##ṛ": 3031,
      "##េ": 3032,
      "##ត": 3033,
      "##群": 3034,
      "##辰": 3035,
      "##문": 3036,
      "##ⵙ": 3037,
      "##꟏": 3038,
      "##ี": 3039,
      "##น": 3040,
      "##波": 3041,
      "##人": 3042,
      "##ớ": 3043,
      "##ც": 3044,
      "##ծ": 3045,
      "##ռ": 3046,
      "##憺": 3047,
      "##𑚫": 3048,
      "##东": 3049,
      "##Ü": 3050,
      "##ڑ": 3051,
      "##ֲ": 3052,
      "##ർ": 3053,
      "##പ": 3054,
      "##്": 3055,
      "##ക": 3056,
      "##ാ": 3057,
      "##വ": 3058,
      "##": 3059,
      "##ә": 3060,
      "##𐭤": 3061,
      "##𐭥": 3062,
      "##𐭬": 3063,
      "##𐭭": 3064,
      "##€": 3065,
      "##ถ": 3066,
      "##ป": 3067,
      "##ต": 3068,
      "##ม": 3069,
      "##̄": 3070,
      "##活": 3071,
      "##ু": 3072,
      "##ভ": 3073,
      "##シ": 3074,
      "##ョ": 3075,
      "##紹": 3076,
      "##ỷ": 3077,
      "##芝": 3078,
      "##ु": 3079,
      "##स": 3080,
      "##自": 3081,
      "##园": 3082,
      "##ੱ": 3083,
      "##ਲ": 3084,
      "##ਾ": 3085,
      "##祇": 3086,
      "##̚": 3087,
      "##ា": 3088,
      "##ជ": 3089,
      "##ធ": 3090,
      "##ន": 3091,
      "##ី": 3092,
      "##ճ": 3093,
      "##ɥ": 3094,
      "##ប": 3095,
      "##ឆ": 3096,
      "##ង": 3097,
      "##ដ": 3098,
      "##ឋ": 3099,
      "##ភ": 3100,
      "##ល": 3101,
      "##ो": 3102,
      "##ㄋ": 3103,
      "##ˑ": 3104,
      "##芋": 3105,
      "##頭": 3106,
      "##լ": 3107,
      "##🤦": 3108,
      "##貶": 3109,
      "##ལ": 3110,
      "##º": 3111,
      "##燕": 3112,
      "##玲": 3113,
      "##ῡ": 3114,
      "##ৈ": 3115,
      "##শ": 3116,
      "##া": 3117,
      "##খ": 3118,
      "##头": 3119,
      "##村": 3120,
      "##げ": 3121,
      "##亭": 3122,
      "##策": 3123,
      "##集": 3124,
      "##團": 3125,
      "##嶺": 3126,
      "##湖": 3127,
      "##ũ": 3128,
      "##체": 3129,
      "##😄": 3130,
      "##់": 3131,
      "##պ": 3132,
      "##թ": 3133,
      "##解": 3134,
      "##ǰ": 3135,
      "##口": 3136,
      "##君": 3137,
      "##毅": 3138,
      "##德": 3139,
      "##性": 3140,
      "##̍": 3141,
      "##·": 3142,
      "##য": 3143,
      "##়": 3144,
      "##ল": 3145,
      "##ṵ": 3146,
      "##미": 3147,
      "##제": 3148,
      "##네": 3149,
      "##바": 3150,
      "##기": 3151,
      "##본": 3152,
      "##합": 3153,
      "##의": 3154,
      "##서": 3155,
      "##ᱤ": 3156,
      "##ᱠ": 3157,
      "##‍": 3158,
      "##難": 3159,
      "##曼": 3160,
      "##片": 3161,
      "##͆": 3162,
      "##ǀ": 3163,
      "##つ": 3164,
      "##品": 3165,
      "##頂": 3166,
      "##戴": 3167,
      "##ྦ": 3168,
      "##府": 3169,
      "##🙏": 3170,
      "##内": 3171,
      "##»": 3172,
      "##П": 3173,
      "##С": 3174,
      "##ড": 3175,
      "##正": 3176,
      "##ュ": 3177,
      "##高": 3178,
      "##等": 3179,
      "##定": 3180,
      "##遼": 3181,
      "##金": 3182,
      "##元": 3183,
      "##三": 3184,
      "##荊": 3185,
      "##東": 3186,
      "##ܛ": 3187,
      "##帝": 3188,
      "##भ": 3189,
      "##⁺": 3190,
      "##ᵢ": 3191,
      "##編": 3192,
      "##皇": 3193,
      "##曲": 3194,
      "##အ": 3195,
      "##စ": 3196,
      "##急": 3197,
      "##হ": 3198,
      "##徽": 3199,
      "##ℓ": 3200,
      "##ⲑ": 3201,
      "##ӑ": 3202,
      "##虫": 3203,
      "##산": 3204,
      "##ɓ": 3205,
      "##니": 3206,
      "##메": 3207,
      "##이": 3208,
      "##션": 3209,
      "##衛": 3210,
      "##紫": 3211,
      "##آ": 3212,
      "##ꞌ": 3213,
      "##環": 3214,
      "##花": 3215,
      "##馬": 3216,
      "##💚": 3217,
      "##じ": 3218,
      "##山": 3219,
      "##😐": 3220,
      "##ظ": 3221,
      "##ज": 3222,
      "##ञ": 3223,
      "##툰": 3224,
      "##国": 3225,
      "##ण": 3226,
      "##ㄨ": 3227,
      "##ं": 3228,
      "##̤": 3229,
      "##昌": 3230,
      "##戲": 3231,
      "##Č": 3232,
      "##营": 3233,
      "##橡": 3234,
      "##胶": 3235,
      "##农": 3236,
      "##场": 3237,
      "##代": 3238,
      "##出": 3239,
      "##版": 3240,
      "##社": 3241,
      "##‑": 3242,
      "##ܫ": 3243,
      "##施": 3244,
      "##令": 3245,
      "##光": 3246,
      "##映": 3247,
      "##福": 3248,
      "##Ť": 3249,
      "##석": 3250,
      "##열": 3251,
      "##拱": 3252,
      "##ញ": 3253,
      "##ស": 3254,
      "##ែ": 3255,
      "##វ": 3256,
      "##師": 3257,
      "##선": 3258,
      "##글": 3259,
      "##员": 3260,
      "##っ": 3261,
      "##̌": 3262,
      "##У": 3263,
      "##О": 3264,
      "##ɤ": 3265,
      "##إ": 3266,
      "##÷": 3267,
      "##ἱ": 3268,
      "##✨": 3269,
      "##江": 3270,
      "##縱": 3271,
      "##隊": 3272,
      "##港": 3273,
      "##九": 3274,
      "##獨": 3275,
      "##ȫ": 3276,
      "##국": 3277,
      "##合": 3278,
      "##ㄆ": 3279,
      "##ম": 3280,
      "##時": 3281,
      "##居": 3282,
      "##奇": 3283,
      "##蹟": 3284,
      "##首": 3285,
      "##領": 3286,
      "##«": 3287,
      "##ീ": 3288,
      "##ല": 3289,
      "##ൊ": 3290,
      "##ന": 3291,
      "##മ": 3292,
      "##ൻ": 3293,
      "##联": 3294,
      "##军": 3295,
      "##趙": 3296,
      "##用": 3297,
      "##言": 3298,
      "##ណ": 3299,
      "##ឌ": 3300,
      "##徑": 3301,
      "##←": 3302,
      "##پ": 3303,
      "##͗": 3304,
      "##☆": 3305,
      "##时": 3306,
      "##间": 3307,
      "##玉": 3308,
      "##昶": 3309,
      "##he": 3310,
      "##in": 3311,
      "##er": 3312,
      "the": 3313,
      "##nd": 3314,
      "##on": 3315,
      "##at": 3316,
      "##es": 3317,
      "##ing": 3318,
      "##en": 3319,
      "##or": 3320,
      "##ed": 3321,
      "##al": 3322,
      "and": 3323,
      "##it": 3324,
      "##ar": 3325,
      "##an": 3326,
      "of": 3327,
      "to": 3328,
      "##is": 3329,
      "in": 3330,
      "##ou": 3331,
      "##ion": 3332,
      "##ic": 3333,
      "##el": 3334,
      "##om": 3335,
      "##as": 3336,
      "##re": 3337,
      "th": 3338,
      "##ent": 3339,
      "##il": 3340,
      "##ct": 3341,
      "##le": 3342,
      "##ly": 3343,
      "##st": 3344,
      "##ur": 3345,
      "##ot": 3346,
      "be": 3347,
      "##ve": 3348,
      "##ut": 3349,
      "##ow": 3350,
      "##ation": 3351,
      "##ce": 3352,
      "re": 3353,
      "for": 3354,
      "it": 3355,
      "##ver": 3356,
      "is": 3357,
      "##et": 3358,
      "##ol": 3359,
      "st": 3360,
      "##id": 3361,
      "##im": 3362,
      "The": 3363,
      "##ad": 3364,
      "that": 3365,
      "##ig": 3366,
      "##ith": 3367,
      "on": 3368,
      "as": 3369,
      "##ch": 3370,
      "##ir": 3371,
      "pr": 3372,
      "##am": 3373,
      "##ay": 3374,
      "with": 3375,
      "##se": 3376,
      "##ul": 3377,
      "an": 3378,
      "con": 3379,
      "##ers": 3380,
      "##her": 3381,
      "##ess": 3382,
      "was": 3383,
      "##ri": 3384,
      "##ter": 3385,
      "ex": 3386,
      "al": 3387,
      "wh": 3388,
      "com": 3389,
      "my": 3390,
      "##ac": 3391,
      "me": 3392,
      "##ist": 3393,
      "##ab": 3394,
      "##op": 3395,
      "##ld": 3396,
      "##th": 3397,
      "ha": 3398,
      "##ant": 3399,
      "##ag": 3400,
      "he": 3401,
      "de": 3402,
      "##ment": 3403,
      "##if": 3404,
      "##us": 3405,
      "or": 3406,
      "##ity": 3407,
      "se": 3408,
      "##ain": 3409,
      "##ak": 3410,
      "##est": 3411,
      "##iv": 3412,
      "su": 3413,
      "##od": 3414,
      "##pe": 3415,
      "##and": 3416,
      "ch": 3417,
      "##ies": 3418,
      "##ov": 3419,
      "##ally": 3420,
      "##ate": 3421,
      "en": 3422,
      "##ort": 3423,
      "##ive": 3424,
      "this": 3425,
      "##ie": 3426,
      "##oc": 3427,
      "her": 3428,
      "fr": 3429,
      "##pp": 3430,
      "##ht": 3431,
      "##act": 3432,
      "##art": 3433,
      "##os": 3434,
      "at": 3435,
      "##un": 3436,
      "##em": 3437,
      "tr": 3438,
      "have": 3439,
      "##out": 3440,
      "sh": 3441,
      "by": 3442,
      "##ap": 3443,
      "his": 3444,
      "##ous": 3445,
      "##ore": 3446,
      "##ust": 3447,
      "are": 3448,
      "##ip": 3449,
      "##ome": 3450,
      "not": 3451,
      "##um": 3452,
      "le": 3453,
      "but": 3454,
      "##oug": 3455,
      "##ial": 3456,
      "from": 3457,
      "##ill": 3458,
      "un": 3459,
      "ad": 3460,
      "##ud": 3461,
      "ab": 3462,
      "##ould": 3463,
      "ne": 3464,
      "##all": 3465,
      "fe": 3466,
      "##ast": 3467,
      "##og": 3468,
      "its": 3469,
      "##ell": 3470,
      "##ations": 3471,
      "fil": 3472,
      "##ely": 3473,
      "##ect": 3474,
      "pl": 3475,
      "##ight": 3476,
      "int": 3477,
      "##end": 3478,
      "##ions": 3479,
      "film": 3480,
      "we": 3481,
      "wor": 3482,
      "##ound": 3483,
      "##ack": 3484,
      "##mp": 3485,
      "has": 3486,
      "##ure": 3487,
      "##ated": 3488,
      "##ence": 3489,
      "exp": 3490,
      "##ther": 3491,
      "##ance": 3492,
      "you": 3493,
      "##able": 3494,
      "their": 3495,
      "##ical": 3496,
      "she": 3497,
      "##qu": 3498,
      "##iz": 3499,
      "rel": 3500,
      "##ke": 3501,
      "Th": 3502,
      "res": 3503,
      "ar": 3504,
      "##ard": 3505,
      "##ong": 3506,
      "##ost": 3507,
      "whe": 3508,
      "##ich": 3509,
      "It": 3510,
      "##ough": 3511,
      "comp": 3512,
      "cont": 3513,
      "##av": 3514,
      "##ang": 3515,
      "##ces": 3516,
      "go": 3517,
      "##ory": 3518,
      "##ult": 3519,
      "can": 3520,
      "tim": 3521,
      "##pt": 3522,
      "In": 3523,
      "##ff": 3524,
      "act": 3525,
      "all": 3526,
      "19": 3527,
      "##one": 3528,
      "him": 3529,
      "about": 3530,
      "sc": 3531,
      "li": 3532,
      "up": 3533,
      "been": 3534,
      "##cc": 3535,
      "##ans": 3536,
      "##ere": 3537,
      "some": 3538,
      "dis": 3539,
      "out": 3540,
      "##ine": 3541,
      "do": 3542,
      "feel": 3543,
      "##age": 3544,
      "inc": 3545,
      "##our": 3546,
      "over": 3547,
      "##ear": 3548,
      "gr": 3549,
      "char": 3550,
      "##ue": 3551,
      "##nder": 3552,
      "ev": 3553,
      "##ious": 3554,
      "##ary": 3555,
      "##so": 3556,
      "mov": 3557,
      "##au": 3558,
      "bec": 3559,
      "##ib": 3560,
      "##hip": 3561,
      "##ual": 3562,
      "##ign": 3563,
      "##ame": 3564,
      "part": 3565,
      "imp": 3566,
      "##riend": 3567,
      "also": 3568,
      "##ind": 3569,
      "##ish": 3570,
      "had": 3571,
      "mak": 3572,
      "who": 3573,
      "br": 3574,
      "which": 3575,
      "##now": 3576,
      "##ok": 3577,
      "were": 3578,
      "##ru": 3579,
      "##ile": 3580,
      "cl": 3581,
      "comm": 3582,
      "##orm": 3583,
      "so": 3584,
      "us": 3585,
      "like": 3586,
      "##ating": 3587,
      "any": 3588,
      "##oun": 3589,
      "##ition": 3590,
      "one": 3591,
      "time": 3592,
      "per": 3593,
      "other": 3594,
      "##ings": 3595,
      "##ents": 3596,
      "##ice": 3597,
      "##ia": 3598,
      "##ry": 3599,
      "they": 3600,
      "##ian": 3601,
      "ag": 3602,
      "##oy": 3603,
      "##ide": 3604,
      "thr": 3605,
      "##ep": 3606,
      "know": 3607,
      "##ach": 3608,
      "##fer": 3609,
      "##ob": 3610,
      "##pect": 3611,
      "##ress": 3612,
      "charact": 3613,
      "He": 3614,
      "our": 3615,
      "This": 3616,
      "just": 3617,
      "##ass": 3618,
      "sp": 3619,
      "under": 3620,
      "##ra": 3621,
      "##iver": 3622,
      "them": 3623,
      "##ens": 3624,
      "movie": 3625,
      "more": 3626,
      "##ific": 3627,
      "##reat": 3628,
      "##ne": 3629,
      "into": 3630,
      "want": 3631,
      "20": 3632,
      "##ire": 3633,
      "inter": 3634,
      "would": 3635,
      "##ond": 3636,
      "##form": 3637,
      "man": 3638,
      "##ge": 3639,
      "##vel": 3640,
      "##uring": 3641,
      "year": 3642,
      "##ict": 3643,
      "bet": 3644,
      "##ily": 3645,
      "##ite": 3646,
      "##are": 3647,
      "##mb": 3648,
      "app": 3649,
      "##ace": 3650,
      "rec": 3651,
      "##ays": 3652,
      "ser": 3653,
      "##ities": 3654,
      "##ark": 3655,
      "if": 3656,
      "ever": 3657,
      "##ful": 3658,
      "##ove": 3659,
      "ind": 3660,
      "te": 3661,
      "when": 3662,
      "##uc": 3663,
      "##hed": 3664,
      "##ors": 3665,
      "Ch": 3666,
      "##ount": 3667,
      "adv": 3668,
      "work": 3669,
      "##we": 3670,
      "##ade": 3671,
      "gen": 3672,
      "##rit": 3673,
      "relations": 3674,
      "spe": 3675,
      "##elf": 3676,
      "through": 3677,
      "##ub": 3678,
      "##ience": 3679,
      "am": 3680,
      "prov": 3681,
      "##int": 3682,
      "##ail": 3683,
      "St": 3684,
      "pre": 3685,
      "##ates": 3686,
      "##ife": 3687,
      "att": 3688,
      "relationship": 3689,
      "did": 3690,
      "##ments": 3691,
      "incl": 3692,
      "##ional": 3693,
      "story": 3694,
      "off": 3695,
      "##ever": 3696,
      "exper": 3697,
      "How": 3698,
      "##fter": 3699,
      "reg": 3700,
      "##other": 3701,
      "how": 3702,
      "##oss": 3703,
      "##ose": 3704,
      "friend": 3705,
      "##irst": 3706,
      "##ative": 3707,
      "such": 3708,
      "eff": 3709,
      "##tain": 3710,
      "ve": 3711,
      "##oth": 3712,
      "##king": 3713,
      "##ause": 3714,
      "##les": 3715,
      "##ences": 3716,
      "sa": 3717,
      "get": 3718,
      "##oll": 3719,
      "ro": 3720,
      "##ro": 3721,
      "includ": 3722,
      "des": 3723,
      "every": 3724,
      "##rib": 3725,
      "##ning": 3726,
      "##mer": 3727,
      "qu": 3728,
      "cons": 3729,
      "there": 3730,
      "add": 3731,
      "pers": 3732,
      "##olog": 3733,
      "cap": 3734,
      "what": 3735,
      "##lect": 3736,
      "##ational": 3737,
      "sign": 3738,
      "##ci": 3739,
      "##get": 3740,
      "##ft": 3741,
      "##ween": 3742,
      "acc": 3743,
      "##hing": 3744,
      "##ural": 3745,
      "tak": 3746,
      "back": 3747,
      "##lic": 3748,
      "between": 3749,
      "##per": 3750,
      "##ater": 3751,
      "##own": 3752,
      "##ord": 3753,
      "dec": 3754,
      "##ular": 3755,
      "inv": 3756,
      "##velop": 3757,
      "##wn": 3758,
      "being": 3759,
      "fam": 3760,
      "rem": 3761,
      "##ook": 3762,
      "##oint": 3763,
      "even": 3764,
      "Wh": 3765,
      "##pport": 3766,
      "pe": 3767,
      "##itt": 3768,
      "could": 3769,
      "well": 3770,
      "##ility": 3771,
      "##ures": 3772,
      "##ism": 3773,
      "##ild": 3774,
      "##erm": 3775,
      "see": 3776,
      "end": 3777,
      "Un": 3778,
      "##ree": 3779,
      "first": 3780,
      "don": 3781,
      "##ently": 3782,
      "##ten": 3783,
      "dif": 3784,
      "made": 3785,
      "tw": 3786,
      "str": 3787,
      "##iew": 3788,
      "var": 3789,
      "##igh": 3790,
      "cent": 3791,
      "ac": 3792,
      "because": 3793,
      "##ks": 3794,
      "sy": 3795,
      "As": 3796,
      "hel": 3797,
      "##ought": 3798,
      "vis": 3799,
      "most": 3800,
      "develop": 3801,
      "##ise": 3802,
      "##ery": 3803,
      "##ons": 3804,
      "sit": 3805,
      "ph": 3806,
      "than": 3807,
      "only": 3808,
      "However": 3809,
      "both": 3810,
      "hum": 3811,
      "after": 3812,
      "years": 3813,
      "mom": 3814,
      "play": 3815,
      "##old": 3816,
      "fl": 3817,
      "##omet": 3818,
      "rep": 3819,
      "##ually": 3820,
      "##cial": 3821,
      "where": 3822,
      "soc": 3823,
      "may": 3824,
      "im": 3825,
      "gu": 3826,
      "pol": 3827,
      "hist": 3828,
      "co": 3829,
      "these": 3830,
      "##stand": 3831,
      "commun": 3832,
      "##ood": 3833,
      "really": 3834,
      "new": 3835,
      "##ited": 3836,
      "##uch": 3837,
      "bel": 3838,
      "##ick": 3839,
      "world": 3840,
      "life": 3841,
      "An": 3842,
      "##con": 3843,
      "),": 3844,
      "em": 3845,
      "sub": 3846,
      "tal": 3847,
      "while": 3848,
      "##ved": 3849,
      "##ics": 3850,
      "Fr": 3851,
      "##ting": 3852,
      "make": 3853,
      "##aw": 3854,
      "characters": 3855,
      "##eng": 3856,
      "##ues": 3857,
      "##ately": 3858,
      "no": 3859,
      "start": 3860,
      "She": 3861,
      "Al": 3862,
      "##ense": 3863,
      "##ction": 3864,
      "cult": 3865,
      "trans": 3866,
      "##ward": 3867,
      "##ized": 3868,
      "signific": 3869,
      "dist": 3870,
      "expl": 3871,
      "##ec": 3872,
      "comple": 3873,
      "inst": 3874,
      "situ": 3875,
      "We": 3876,
      "##ves": 3877,
      "ins": 3878,
      "need": 3879,
      "##fl": 3880,
      "##ople": 3881,
      ").": 3882,
      "##ber": 3883,
      "character": 3884,
      "##hen": 3885,
      "pres": 3886,
      "##ince": 3887,
      "##ase": 3888,
      "person": 3889,
      "##iet": 3890,
      "del": 3891,
      "show": 3892,
      "ap": 3893,
      "##ced": 3894,
      "view": 3895,
      "ext": 3896,
      "family": 3897,
      "##less": 3898,
      "##ving": 3899,
      "##cept": 3900,
      "now": 3901,
      "lack": 3902,
      "ke": 3903,
      "##ather": 3904,
      "emot": 3905,
      "##res": 3906,
      "##gg": 3907,
      "form": 3908,
      "set": 3909,
      "##tern": 3910,
      "seem": 3911,
      "##ner": 3912,
      "ass": 3913,
      "##arr": 3914,
      "##iss": 3915,
      "help": 3916,
      "##ange": 3917,
      "##ribut": 3918,
      "##ogr": 3919,
      "understand": 3920,
      "##xt": 3921,
      "capt": 3922,
      "during": 3923,
      "##ivers": 3924,
      "two": 3925,
      "making": 3926,
      "##ower": 3927,
      "found": 3928,
      "##oup": 3929,
      "eng": 3930,
      "various": 3931,
      "My": 3932,
      "##ied": 3933,
      "##ances": 3934,
      "people": 3935,
      "loc": 3936,
      "##ric": 3937,
      "ear": 3938,
      "fin": 3939,
      "##ath": 3940,
      "##land": 3941,
      "cr": 3942,
      "dep": 3943,
      "does": 3944,
      "pro": 3945,
      "##gan": 3946,
      "perform": 3947,
      "mon": 3948,
      "count": 3949,
      "thin": 3950,
      "way": 3951,
      "##ked": 3952,
      "##friend": 3953,
      "will": 3954,
      "##ys": 3955,
      "somet": 3956,
      "cre": 3957,
      "long": 3958,
      "should": 3959,
      "often": 3960,
      "art": 3961,
      "including": 3962,
      "##led": 3963,
      "support": 3964,
      "said": 3965,
      "id": 3966,
      "call": 3967,
      "##ern": 3968,
      "col": 3969,
      "##amp": 3970,
      "main": 3971,
      "##ng": 3972,
      "friends": 3973,
      "##hes": 3974,
      "known": 3975,
      "own": 3976,
      "##ty": 3977,
      "aud": 3978,
      "high": 3979,
      "very": 3980,
      "es": 3981,
      "significant": 3982,
      "##ives": 3983,
      "##ible": 3984,
      "toget": 3985,
      "together": 3986,
      "great": 3987,
      "prom": 3988,
      "lead": 3989,
      "sim": 3990,
      "ed": 3991,
      "sur": 3992,
      "##urther": 3993,
      "situation": 3994,
      "##ased": 3995,
      "18": 3996,
      "##ential": 3997,
      "So": 3998,
      "##ages": 3999,
      "##over": 4000,
      "contin": 4001,
      "differ": 4002,
      "##self": 4003,
      "##aug": 4004,
      "disc": 4005,
      "iss": 4006,
      "much": 4007,
      "exc": 4008,
      "find": 4009,
      "real": 4010,
      "##stem": 4011,
      "didn": 4012,
      "##olut": 4013,
      "again": 4014,
      "scen": 4015,
      "##ention": 4016,
      "##ject": 4017,
      "##angu": 4018,
      "##ope": 4019,
      "stru": 4020,
      "good": 4021,
      "##owing": 4022,
      "##abl": 4023,
      "det": 4024,
      "each": 4025,
      "experience": 4026,
      "##ying": 4027,
      "##ool": 4028,
      "role": 4029,
      "est": 4030,
      "##ivid": 4031,
      "##elt": 4032,
      "##urn": 4033,
      "langu": 4034,
      "##ines": 4035,
      "Ar": 4036,
      "##als": 4037,
      "##ars": 4038,
      "##ists": 4039,
      "then": 4040,
      "##fore": 4041,
      "bl": 4042,
      "belie": 4043,
      "provid": 4044,
      "action": 4045,
      "effect": 4046,
      "pop": 4047,
      "che": 4048,
      "##odu": 4049,
      "##ew": 4050,
      "##atic": 4051,
      "partic": 4052,
      "##nect": 4053,
      "##00": 4054,
      "While": 4055,
      "##irl": 4056,
      "##red": 4057,
      "stud": 4058,
      "say": 4059,
      "##atch": 4060,
      "around": 4061,
      "num": 4062,
      "par": 4063,
      "dr": 4064,
      "care": 4065,
      "hand": 4066,
      "tri": 4067,
      "##air": 4068,
      "sec": 4069,
      "##gr": 4070,
      "left": 4071,
      "right": 4072,
      "##ished": 4073,
      "ob": 4074,
      "things": 4075,
      "##way": 4076,
      "polit": 4077,
      "##thing": 4078,
      "##ave": 4079,
      "contribut": 4080,
      "still": 4081,
      "##ven": 4082,
      "mus": 4083,
      "never": 4084,
      "many": 4085,
      "##igin": 4086,
      "emp": 4087,
      "sch": 4088,
      "op": 4089,
      "love": 4090,
      "##ublic": 4091,
      "used": 4092,
      "import": 4093,
      "met": 4094,
      "##ices": 4095,
      "within": 4096,
      "system": 4097,
      "told": 4098,
      "These": 4099,
      "##ands": 4100,
      "leav": 4101,
      "girl": 4102,
      "##ways": 4103,
      "##iqu": 4104,
      "##ively": 4105,
      "##ior": 4106,
      "##ature": 4107,
      "thought": 4108,
      "const": 4109,
      "advice": 4110,
      "without": 4111,
      "conc": 4112,
      "##ider": 4113,
      "your": 4114,
      "bu": 4115,
      "development": 4116,
      "##ically": 4117,
      "got": 4118,
      "##pl": 4119,
      "gener": 4120,
      "One": 4121,
      "centur": 4122,
      "def": 4123,
      "##ling": 4124,
      "dire": 4125,
      "##dd": 4126,
      "##elling": 4127,
      "feeling": 4128,
      "##ness": 4129,
      "##alth": 4130,
      "Sh": 4131,
      "##ouse": 4132,
      "##ize": 4133,
      "happ": 4134,
      "201": 4135,
      "##iences": 4136,
      "something": 4137,
      "sm": 4138,
      "plot": 4139,
      "since": 4140,
      "before": 4141,
      "history": 4142,
      "They": 4143,
      "origin": 4144,
      "##ital": 4145,
      "fac": 4146,
      "##ral": 4147,
      "##ision": 4148,
      "car": 4149,
      "But": 4150,
      "ref": 4151,
      "val": 4152,
      "##enc": 4153,
      "felt": 4154,
      "day": 4155,
      "##uss": 4156,
      "power": 4157,
      "establ": 4158,
      "few": 4159,
      "gover": 4160,
      "resp": 4161,
      "##uals": 4162,
      "##its": 4163,
      "look": 4164,
      "too": 4165,
      "##vers": 4166,
      "mod": 4167,
      "point": 4168,
      "##aph": 4169,
      "##ont": 4170,
      "individ": 4171,
      "leg": 4172,
      "imm": 4173,
      "connect": 4174,
      "different": 4175,
      "think": 4176,
      "##any": 4177,
      "boy": 4178,
      "always": 4179,
      "fun": 4180,
      "Amer": 4181,
      "##conom": 4182,
      "##ev": 4183,
      "Americ": 4184,
      "##chn": 4185,
      "##orn": 4186,
      "heart": 4187,
      "med": 4188,
      "social": 4189,
      "trad": 4190,
      "##ah": 4191,
      "aut": 4192,
      "govern": 4193,
      "use": 4194,
      "##til": 4195,
      "##ract": 4196,
      "##iel": 4197,
      "##app": 4198,
      "##aj": 4199,
      "conf": 4200,
      "gl": 4201,
      "going": 4202,
      "let": 4203,
      "##ilar": 4204,
      "spec": 4205,
      "Ind": 4206,
      "##ts": 4207,
      "cultural": 4208,
      "personal": 4209,
      "##line": 4210,
      "cle": 4211,
      "fail": 4212,
      "infl": 4213,
      "chall": 4214,
      "pot": 4215,
      "down": 4216,
      "##reak": 4217,
      "##ient": 4218,
      "prot": 4219,
      "appro": 4220,
      "here": 4221,
      "##edd": 4222,
      "take": 4223,
      "##ock": 4224,
      "last": 4225,
      "##ray": 4226,
      "##ittle": 4227,
      "sever": 4228,
      "min": 4229,
      "##ains": 4230,
      "##ank": 4231,
      "##omm": 4232,
      "interest": 4233,
      "sl": 4234,
      "keep": 4235,
      "narr": 4236,
      "cast": 4237,
      "##augh": 4238,
      "##ug": 4239,
      "##ccess": 4240,
      "same": 4241,
      "lar": 4242,
      "elect": 4243,
      "home": 4244,
      "leaving": 4245,
      "overall": 4246,
      "best": 4247,
      "##ork": 4248,
      "##up": 4249,
      "econom": 4250,
      "genu": 4251,
      "pass": 4252,
      "class": 4253,
      "Is": 4254,
      "occ": 4255,
      "##istic": 4256,
      "group": 4257,
      "myself": 4258,
      "mark": 4259,
      "foll": 4260,
      "##ake": 4261,
      "##uly": 4262,
      "##iving": 4263,
      "200": 4264,
      "mar": 4265,
      "##iversity": 4266,
      "depth": 4267,
      "##itions": 4268,
      "produ": 4269,
      "##used": 4270,
      "result": 4271,
      "##arm": 4272,
      "viewers": 4273,
      "##ology": 4274,
      "term": 4275,
      "influ": 4276,
      "port": 4277,
      "impact": 4278,
      "political": 4279,
      "##anc": 4280,
      "moments": 4281,
      "became": 4282,
      "ele": 4283,
      "techn": 4284,
      "comed": 4285,
      "##ister": 4286,
      "particular": 4287,
      "prop": 4288,
      "success": 4289,
      "early": 4290,
      "##ason": 4291,
      "##att": 4292,
      "prof": 4293,
      "state": 4294,
      "those": 4295,
      "old": 4296,
      "##..": 4297,
      "ens": 4298,
      "cur": 4299,
      "stand": 4300,
      "##az": 4301,
      "wr": 4302,
      "##ained": 4303,
      "sequ": 4304,
      "ful": 4305,
      "##ilit": 4306,
      "offer": 4307,
      "proc": 4308,
      "##oman": 4309,
      "appe": 4310,
      "effort": 4311,
      "times": 4312,
      "ent": 4313,
      "place": 4314,
      "199": 4315,
      "captiv": 4316,
      "##li": 4317,
      "consider": 4318,
      "##more": 4319,
      "pur": 4320,
      "beh": 4321,
      "And": 4322,
      "direct": 4323,
      "child": 4324,
      "little": 4325,
      "##ired": 4326,
      "##ted": 4327,
      "deep": 4328,
      "##yn": 4329,
      "##fort": 4330,
      "##pr": 4331,
      "##ined": 4332,
      "organ": 4333,
      "ty": 4334,
      "memb": 4335,
      "throughout": 4336,
      "Pr": 4337,
      "##reci": 4338,
      "intr": 4339,
      "century": 4340,
      "month": 4341,
      "challeng": 4342,
      "##ross": 4343,
      "##ique": 4344,
      "sk": 4345,
      "##ead": 4346,
      "emotional": 4347,
      "prob": 4348,
      "##ield": 4349,
      "school": 4350,
      "##ams": 4351,
      "city": 4352,
      "##ale": 4353,
      "His": 4354,
      "##read": 4355,
      "##joy": 4356,
      "##ann": 4357,
      "##ins": 4358,
      "##und": 4359,
      "appreci": 4360,
      "boyfriend": 4361,
      "##ination": 4362,
      "health": 4363,
      "With": 4364,
      "human": 4365,
      "started": 4366,
      "##fic": 4367,
      "##itut": 4368,
      "enjoy": 4369,
      "##ney": 4370,
      "move": 4371,
      "enter": 4372,
      "##iety": 4373,
      "Eur": 4374,
      "##ogn": 4375,
      "humor": 4376,
      "##ape": 4377,
      "United": 4378,
      "For": 4379,
      "intern": 4380,
      "##gy": 4381,
      "##pite": 4382,
      "##ared": 4383,
      "open": 4384,
      "Chr": 4385,
      "doesn": 4386,
      "##ament": 4387,
      "dem": 4388,
      "enc": 4389,
      "everyone": 4390,
      "##ights": 4391,
      "quest": 4392,
      "##day": 4393,
      "##acy": 4394,
      "performances": 4395,
      "aff": 4396,
      "##ix": 4397,
      "##ulation": 4398,
      "##oh": 4399,
      "another": 4400,
      "might": 4401,
      "educ": 4402,
      "feels": 4403,
      "##iod": 4404,
      "sol": 4405,
      "##ograph": 4406,
      "several": 4407,
      "##io": 4408,
      "writ": 4409,
      "pred": 4410,
      "On": 4411,
      "anim": 4412,
      "language": 4413,
      "##pend": 4414,
      "short": 4415,
      "##outh": 4416,
      "come": 4417,
      "complex": 4418,
      "played": 4419,
      "fact": 4420,
      "sound": 4421,
      "##ret": 4422,
      "later": 4423,
      "cer": 4424,
      "##aged": 4425,
      "invol": 4426,
      "##ability": 4427,
      "##por": 4428,
      "##orth": 4429,
      "##ows": 4430,
      "##ially": 4431,
      "rev": 4432,
      "contr": 4433,
      "become": 4434,
      "##tim": 4435,
      "further": 4436,
      "jour": 4437,
      "ide": 4438,
      "lot": 4439,
      "public": 4440,
      "country": 4441,
      "##ably": 4442,
      "##ering": 4443,
      "region": 4444,
      "wee": 4445,
      "strugg": 4446,
      "watch": 4447,
      "##izing": 4448,
      "##fect": 4449,
      "##aut": 4450,
      "##ization": 4451,
      "##ph": 4452,
      "##port": 4453,
      "##man": 4454,
      "##osed": 4455,
      "truly": 4456,
      "Europe": 4457,
      "house": 4458,
      "maj": 4459,
      "##itionally": 4460,
      "strong": 4461,
      "At": 4462,
      "histor": 4463,
      "Add": 4464,
      "aspect": 4465,
      "process": 4466,
      "narrative": 4467,
      "across": 4468,
      "music": 4469,
      "design": 4470,
      "##tic": 4471,
      "prev": 4472,
      "New": 4473,
      "Se": 4474,
      "##inc": 4475,
      "mean": 4476,
      "##band": 4477,
      "until": 4478,
      "bit": 4479,
      "##ued": 4480,
      "arg": 4481,
      "##ants": 4482,
      "el": 4483,
      "##iverse": 4484,
      "##empt": 4485,
      "bad": 4486,
      "##ident": 4487,
      "provide": 4488,
      "##els": 4489,
      "##oot": 4490,
      "##inem": 4491,
      "Christ": 4492,
      "Eng": 4493,
      "recently": 4494,
      "##ames": 4495,
      "##olution": 4496,
      "##aging": 4497,
      "##urt": 4498,
      "##reen": 4499,
      "##br": 4500,
      "##wards": 4501,
      "law": 4502,
      "ter": 4503,
      "pos": 4504,
      "pract": 4505,
      "poss": 4506,
      "turn": 4507,
      "major": 4508,
      "hus": 4509,
      "##ication": 4510,
      "audience": 4511,
      "##erous": 4512,
      "important": 4513,
      "resear": 4514,
      "period": 4515,
      "name": 4516,
      "explor": 4517,
      "expect": 4518,
      "##iness": 4519,
      "unique": 4520,
      "due": 4521,
      "invest": 4522,
      "level": 4523,
      "##ries": 4524,
      "super": 4525,
      "sense": 4526,
      "community": 4527,
      "issues": 4528,
      "##te": 4529,
      "potential": 4530,
      "##unning": 4531,
      "emb": 4532,
      "husband": 4533,
      "init": 4534,
      "Additionally": 4535,
      "top": 4536,
      "called": 4537,
      "serv": 4538,
      "##omp": 4539,
      "##ological": 4540,
      "cinem": 4541,
      "relig": 4542,
      "mat": 4543,
      "##0s": 4544,
      "red": 4545,
      "young": 4546,
      "recogn": 4547,
      "bo": 4548,
      "##fully": 4549,
      "scenes": 4550,
      "##der": 4551,
      "hard": 4552,
      "##ency": 4553,
      "mess": 4554,
      "American": 4555,
      "respect": 4556,
      "asked": 4557,
      "past": 4558,
      "prim": 4559,
      "##ole": 4560,
      "maintain": 4561,
      "grow": 4562,
      "went": 4563,
      "small": 4564,
      "bring": 4565,
      "individuals": 4566,
      "government": 4567,
      "##rop": 4568,
      "##oduc": 4569,
      "##erv": 4570,
      "away": 4571,
      "having": 4572,
      "There": 4573,
      "env": 4574,
      "better": 4575,
      "special": 4576,
      "##aughter": 4577,
      "##par": 4578,
      "##ived": 4579,
      "10": 4580,
      "express": 4581,
      "wanted": 4582,
      "read": 4583,
      "By": 4584,
      "198": 4585,
      "fut": 4586,
      "sex": 4587,
      "along": 4588,
      "##eg": 4589,
      "hon": 4590,
      "##here": 4591,
      "##ron": 4592,
      "entertain": 4593,
      "##iron": 4594,
      "...": 4595,
      "Mar": 4596,
      "##iter": 4597,
      "po": 4598,
      "ec": 4599,
      "rather": 4600,
      "Des": 4601,
      "##using": 4602,
      "##ert": 4603,
      "repres": 4604,
      "inform": 4605,
      "put": 4606,
      "##ane": 4607,
      "##ash": 4608,
      "Further": 4609,
      "against": 4610,
      "break": 4611,
      "anything": 4612,
      "oper": 4613,
      "##ript": 4614,
      "##atural": 4615,
      "cond": 4616,
      "##asing": 4617,
      "addition": 4618,
      "##hel": 4619,
      "adm": 4620,
      "concern": 4621,
      "effects": 4622,
      "attempt": 4623,
      "range": 4624,
      "Con": 4625,
      "similar": 4626,
      "##ene": 4627,
      "Sp": 4628,
      "##lem": 4629,
      "##oad": 4630,
      "De": 4631,
      "ca": 4632,
      "equ": 4633,
      "lands": 4634,
      "though": 4635,
      "original": 4636,
      "foc": 4637,
      "three": 4638,
      "crit": 4639,
      "Furthermore": 4640,
      "##ged": 4641,
      "give": 4642,
      "parents": 4643,
      "present": 4644,
      "showc": 4645,
      "rest": 4646,
      "area": 4647,
      "understanding": 4648,
      "##ories": 4649,
      "##ases": 4650,
      "girlfriend": 4651,
      "##cess": 4652,
      "##aster": 4653,
      "promot": 4654,
      "environ": 4655,
      "##ured": 4656,
      "enh": 4657,
      "Thr": 4658,
      "indust": 4659,
      "##ids": 4660,
      "activ": 4661,
      "##oved": 4662,
      "why": 4663,
      "##ier": 4664,
      "mult": 4665,
      "field": 4666,
      "local": 4667,
      "cru": 4668,
      "portray": 4669,
      "cor": 4670,
      "common": 4671,
      "certain": 4672,
      "issue": 4673,
      "Or": 4674,
      "attention": 4675,
      "impress": 4676,
      "among": 4677,
      "chang": 4678,
      "##ided": 4679,
      "audiences": 4680,
      "wife": 4681,
      "series": 4682,
      "word": 4683,
      "##ex": 4684,
      "##ax": 4685,
      "##owed": 4686,
      "simp": 4687,
      "deliver": 4688,
      "##ficult": 4689,
      "##rem": 4690,
      "difficult": 4691,
      "cour": 4692,
      "months": 4693,
      "future": 4694,
      "numerous": 4695,
      "Brit": 4696,
      "States": 4697,
      "bus": 4698,
      "economic": 4699,
      "beaut": 4700,
      "self": 4701,
      "wo": 4702,
      "##ried": 4703,
      "ess": 4704,
      "war": 4705,
      "address": 4706,
      "build": 4707,
      "ret": 4708,
      "When": 4709,
      "##acing": 4710,
      "##ised": 4711,
      "approach": 4712,
      "##ats": 4713,
      "qual": 4714,
      "##aim": 4715,
      "convers": 4716,
      "##iven": 4717,
      "providing": 4718,
      "##ger": 4719,
      "fall": 4720,
      "feelings": 4721,
      "##gin": 4722,
      "##osp": 4723,
      "post": 4724,
      "comb": 4725,
      "respons": 4726,
      "sequences": 4727,
      "sister": 4728,
      "tell": 4729,
      "##omen": 4730,
      "ability": 4731,
      "##though": 4732,
      "seemed": 4733,
      "abs": 4734,
      "##pportun": 4735,
      "Br": 4736,
      "second": 4737,
      "##ified": 4738,
      "Now": 4739,
      "##cially": 4740,
      "##iting": 4741,
      "##ets": 4742,
      "opportun": 4743,
      "##inely": 4744,
      "tried": 4745,
      "##be": 4746,
      "based": 4747,
      "came": 4748,
      "##itive": 4749,
      "##antly": 4750,
      "Joh": 4751,
      "##ltim": 4752,
      "confl": 4753,
      "##yond": 4754,
      "genuinely": 4755,
      "trying": 4756,
      "##ren": 4757,
      "landsc": 4758,
      "phys": 4759,
      "happen": 4760,
      "question": 4761,
      "ident": 4762,
      "##aring": 4763,
      "head": 4764,
      "someone": 4765,
      "After": 4766,
      "##cient": 4767,
      "From": 4768,
      "To": 4769,
      "##raft": 4770,
      "dyn": 4771,
      "##ody": 4772,
      "event": 4773,
      "##ians": 4774,
      "Sc": 4775,
      "conflict": 4776,
      "tradition": 4777,
      "miss": 4778,
      "##ides": 4779,
      "##aining": 4780,
      "seems": 4781,
      "advance": 4782,
      "##aced": 4783,
      "progr": 4784,
      "makes": 4785,
      "diverse": 4786,
      "mem": 4787,
      "big": 4788,
      "bal": 4789,
      "##oub": 4790,
      "dial": 4791,
      "quite": 4792,
      "av": 4793,
      "War": 4794,
      "light": 4795,
      "##enced": 4796,
      "unc": 4797,
      "films": 4798,
      "Despite": 4799,
      "growth": 4800,
      "Germ": 4801,
      "believe": 4802,
      "incre": 4803,
      "modern": 4804,
      "nothing": 4805,
      "##aking": 4806,
      "disapp": 4807,
      "##work": 4808,
      "\".": 4809,
      "air": 4810,
      "ago": 4811,
      "##lish": 4812,
      "##eddit": 4813,
      "perfect": 4814,
      "except": 4815,
      "environment": 4816,
      ".\"": 4817,
      "##ibr": 4818,
      "curr": 4819,
      "197": 4820,
      "17": 4821,
      "thing": 4822,
      "typ": 4823,
      "Through": 4824,
      "Wor": 4825,
      "vo": 4826,
      "research": 4827,
      "wonder": 4828,
      "##imes": 4829,
      "##illing": 4830,
      "requ": 4831,
      "##lessly": 4832,
      "##ird": 4833,
      "wrong": 4834,
      "John": 4835,
      "##sequ": 4836,
      "captivating": 4837,
      "aim": 4838,
      "becom": 4839,
      "crucial": 4840,
      "feat": 4841,
      "Am": 4842,
      "challenges": 4843,
      "Hey": 4844,
      "specific": 4845,
      "##ele": 4846,
      "visual": 4847,
      "King": 4848,
      "partner": 4849,
      "problem": 4850,
      "aw": 4851,
      "ren": 4852,
      "##oney": 4853,
      "dev": 4854,
      "took": 4855,
      "##TA": 4856,
      "##ming": 4857,
      "leave": 4858,
      "disappoint": 4859,
      "pat": 4860,
      "##ills": 4861,
      "##ilitary": 4862,
      "struct": 4863,
      "international": 4864,
      "Le": 4865,
      "##oph": 4866,
      "led": 4867,
      "##dom": 4868,
      "##ball": 4869,
      "text": 4870,
      "stunning": 4871,
      "brother": 4872,
      "##ll": 4873,
      "##illed": 4874,
      "creat": 4875,
      "events": 4876,
      "represent": 4877,
      "established": 4878,
      "scene": 4879,
      "##idd": 4880,
      "week": 4881,
      "son": 4882,
      "##aries": 4883,
      "anyone": 4884,
      "Tr": 4885,
      "fig": 4886,
      "##ench": 4887,
      "detail": 4888,
      "liter": 4889,
      "hold": 4890,
      "seen": 4891,
      "popular": 4892,
      "mind": 4893,
      "screen": 4894,
      "##ilities": 4895,
      "job": 4896,
      "live": 4897,
      "others": 4898,
      "establish": 4899,
      "lim": 4900,
      "##most": 4901,
      "##ensive": 4902,
      "refer": 4903,
      "natural": 4904,
      "supp": 4905,
      "chem": 4906,
      "particularly": 4907,
      "education": 4908,
      "commit": 4909,
      "Be": 4910,
      "dri": 4911,
      "everything": 4912,
      "journey": 4913,
      "##oke": 4914,
      "##abor": 4915,
      "unf": 4916,
      "##ography": 4917,
      "religious": 4918,
      "Ir": 4919,
      "##ended": 4920,
      "rele": 4921,
      "scient": 4922,
      "##eral": 4923,
      "wasn": 4924,
      "languages": 4925,
      "sty": 4926,
      "leading": 4927,
      "coup": 4928,
      "behav": 4929,
      "impr": 4930,
      "team": 4931,
      "national": 4932,
      "##set": 4933,
      "##ising": 4934,
      "comedy": 4935,
      "hurt": 4936,
      "far": 4937,
      "rece": 4938,
      "finan": 4939,
      "pret": 4940,
      "##ina": 4941,
      "More": 4942,
      "World": 4943,
      "##use": 4944,
      "bas": 4945,
      "##ltimately": 4946,
      "AI": 4947,
      "kind": 4948,
      "##ental": 4949,
      "saying": 4950,
      "##inct": 4951,
      "##oci": 4952,
      "conv": 4953,
      "Its": 4954,
      "test": 4955,
      "Reddit": 4956,
      "night": 4957,
      "##ata": 4958,
      "##ime": 4959,
      "historical": 4960,
      "Col": 4961,
      "##adem": 4962,
      "elements": 4963,
      "sure": 4964,
      "access": 4965,
      "##ton": 4966,
      "ble": 4967,
      "rich": 4968,
      "##arily": 4969,
      "doing": 4970,
      "Sch": 4971,
      "fell": 4972,
      "fre": 4973,
      "perspect": 4974,
      "inde": 4975,
      "##pir": 4976,
      "##istry": 4977,
      "trust": 4978,
      "town": 4979,
      "days": 4980,
      "##ched": 4981,
      "discuss": 4982,
      "once": 4983,
      "towards": 4984,
      "arch": 4985,
      "emer": 4986,
      "ann": 4987,
      "change": 4988,
      "##omin": 4989,
      "##pecially": 4990,
      "If": 4991,
      "inn": 4992,
      "##hern": 4993,
      "line": 4994,
      "##chie": 4995,
      "members": 4996,
      "military": 4997,
      "decision": 4998,
      "daughter": 4999,
      "##ionally": 5000,
      "population": 5001,
      "sing": 5002,
      "hour": 5003,
      "stop": 5004,
      "ener": 5005,
      "Aust": 5006,
      "attract": 5007,
      "seeking": 5008,
      "##ength": 5009,
      "15": 5010,
      "examp": 5011,
      "profess": 5012,
      "mag": 5013,
      "##ggest": 5014,
      "196": 5015,
      "cho": 5016,
      "suggest": 5017,
      "What": 5018,
      "less": 5019,
      "ll": 5020,
      "stay": 5021,
      "University": 5022,
      "performance": 5023,
      "production": 5024,
      "##ither": 5025,
      "close": 5026,
      "getting": 5027,
      "pay": 5028,
      "father": 5029,
      "##lege": 5030,
      "glob": 5031,
      "##ai": 5032,
      "##illi": 5033,
      "auth": 5034,
      "offic": 5035,
      "spir": 5036,
      "##ots": 5037,
      "book": 5038,
      "storyline": 5039,
      "202": 5040,
      "vibr": 5041,
      "##amed": 5042,
      "II": 5043,
      "##asts": 5044,
      "information": 5045,
      "near": 5046,
      "clear": 5047,
      "complet": 5048,
      "ancient": 5049,
      "##side": 5050,
      "##ources": 5051,
      "especially": 5052,
      "nature": 5053,
      "connection": 5054,
      "##ledge": 5055,
      "number": 5056,
      "regard": 5057,
      "##urch": 5058,
      "money": 5059,
      "advent": 5060,
      "concept": 5061,
      "incred": 5062,
      "include": 5063,
      "Cl": 5064,
      "##ument": 5065,
      "next": 5066,
      "nav": 5067,
      "##ibility": 5068,
      "share": 5069,
      "##ruct": 5070,
      "eas": 5071,
      "taking": 5072,
      "almost": 5073,
      "commitment": 5074,
      "British": 5075,
      "##amic": 5076,
      "non": 5077,
      "began": 5078,
      "##ibly": 5079,
      "##cessary": 5080,
      "control": 5081,
      "create": 5082,
      "career": 5083,
      "##ateg": 5084,
      "Moreover": 5085,
      "##anch": 5086,
      "##uck": 5087,
      "water": 5088,
      "##oduced": 5089,
      "talk": 5090,
      "mother": 5091,
      "late": 5092,
      "##iously": 5093,
      "enough": 5094,
      "land": 5095,
      "importance": 5096,
      "Gr": 5097,
      "Ph": 5098,
      "ground": 5099,
      "decided": 5100,
      "works": 5101,
      "##loy": 5102,
      "##sel": 5103,
      "##yc": 5104,
      "##umb": 5105,
      "age": 5106,
      "offers": 5107,
      "inf": 5108,
      "##ecut": 5109,
      "hor": 5110,
      "##iple": 5111,
      "remains": 5112,
      "ru": 5113,
      "plan": 5114,
      "AITA": 5115,
      "stri": 5116,
      "achie": 5117,
      "net": 5118,
      "##atives": 5119,
      "appreciate": 5120,
      "room": 5121,
      "European": 5122,
      "lay": 5123,
      "couldn": 5124,
      "16": 5125,
      "sus": 5126,
      "##ivil": 5127,
      "business": 5128,
      "whole": 5129,
      "remark": 5130,
      "moment": 5131,
      "distinct": 5132,
      "talent": 5133,
      "##rict": 5134,
      "must": 5135,
      "##ude": 5136,
      "actors": 5137,
      ",\"": 5138,
      "ep": 5139,
      "##ext": 5140,
      "bound": 5141,
      "##ered": 5142,
      "completely": 5143,
      "beyond": 5144,
      "company": 5145,
      "ded": 5146,
      "##ike": 5147,
      "reason": 5148,
      "blend": 5149,
      "French": 5150,
      "exist": 5151,
      "pretty": 5152,
      "protect": 5153,
      "wit": 5154,
      "collect": 5155,
      "deal": 5156,
      "energy": 5157,
      "else": 5158,
      "guy": 5159,
      "standard": 5160,
      "##egr": 5161,
      "##ones": 5162,
      "##ension": 5163,
      "movies": 5164,
      "##ama": 5165,
      "society": 5166,
      "##ining": 5167,
      "transport": 5168,
      "creating": 5169,
      "##by": 5170,
      "promin": 5171,
      "four": 5172,
      "Some": 5173,
      "##ium": 5174,
      "Comm": 5175,
      "takes": 5176,
      "##ony": 5177,
      "##arch": 5178,
      "##estern": 5179,
      "##ground": 5180,
      "##med": 5181,
      "quality": 5182,
      "acting": 5183,
      "meaning": 5184,
      "concerns": 5185,
      "compet": 5186,
      "Af": 5187,
      "engaging": 5188,
      "engage": 5189,
      "consist": 5190,
      "vibrant": 5191,
      "broad": 5192,
      "subst": 5193,
      "South": 5194,
      "living": 5195,
      "independ": 5196,
      "North": 5197,
      "friendship": 5198,
      "financial": 5199,
      "honest": 5200,
      "institut": 5201,
      "##hem": 5202,
      "dialog": 5203,
      "culture": 5204,
      "execut": 5205,
      "try": 5206,
      "Bl": 5207,
      "lives": 5208,
      "\",": 5209,
      "Pl": 5210,
      "div": 5211,
      "##ready": 5212,
      "##ili": 5213,
      "quick": 5214,
      "meet": 5215,
      "mor": 5216,
      "##ush": 5217,
      "script": 5218,
      "##gest": 5219,
      "already": 5220,
      "polic": 5221,
      "begin": 5222,
      "cut": 5223,
      "##alf": 5224,
      "heav": 5225,
      "##iced": 5226,
      "experiences": 5227,
      "Russ": 5228,
      "##gn": 5229,
      "needs": 5230,
      "##apt": 5231,
      "wide": 5232,
      "behavior": 5233,
      "Roman": 5234,
      "194": 5235,
      "fully": 5236,
      "Ed": 5237,
      "traditional": 5238,
      "English": 5239,
      "simply": 5240,
      "actually": 5241,
      "given": 5242,
      "##irc": 5243,
      "exh": 5244,
      "occur": 5245,
      "reflect": 5246,
      "means": 5247,
      "und": 5248,
      "##ades": 5249,
      "instead": 5250,
      "##ises": 5251,
      "communication": 5252,
      "##aces": 5253,
      "affect": 5254,
      "##ror": 5255,
      "##ma": 5256,
      "saw": 5257,
      "list": 5258,
      "ultimately": 5259,
      "##rew": 5260,
      "kids": 5261,
      "Car": 5262,
      "During": 5263,
      "##orable": 5264,
      "whether": 5265,
      "##has": 5266,
      "comes": 5267,
      "navig": 5268,
      "author": 5269,
      "themes": 5270,
      "mot": 5271,
      "integr": 5272,
      "aspects": 5273,
      "##eless": 5274,
      "systems": 5275,
      "shap": 5276,
      "example": 5277,
      "195": 5278,
      "Any": 5279,
      "rom": 5280,
      "space": 5281,
      "Can": 5282,
      "continues": 5283,
      "vers": 5284,
      "serves": 5285,
      "fost": 5286,
      "located": 5287,
      "##selves": 5288,
      "##iful": 5289,
      "developed": 5290,
      "talking": 5291,
      "Inst": 5292,
      "##aly": 5293,
      "areas": 5294,
      "Rep": 5295,
      "##ote": 5296,
      "##ck": 5297,
      "##ration": 5298,
      "mill": 5299,
      "ge": 5300,
      "mention": 5301,
      "##ny": 5302,
      "##ember": 5303,
      "spend": 5304,
      "predict": 5305,
      "spirit": 5306,
      "himself": 5307,
      "insights": 5308,
      "##ocr": 5309,
      "##ster": 5310,
      "fair": 5311,
      "side": 5312,
      "women": 5313,
      "brought": 5314,
      "tot": 5315,
      "##ership": 5316,
      "interact": 5317,
      "children": 5318,
      "relationships": 5319,
      "context": 5320,
      "dating": 5321,
      "done": 5322,
      "efforts": 5323,
      "##ung": 5324,
      "pain": 5325,
      "priv": 5326,
      "party": 5327,
      "focus": 5328,
      "##ilt": 5329,
      "upset": 5330,
      "visually": 5331,
      "claim": 5332,
      "knowledge": 5333,
      "Par": 5334,
      "rul": 5335,
      "##ctor": 5336,
      "All": 5337,
      "##iction": 5338,
      "breat": 5339,
      "##ingu": 5340,
      "chemistry": 5341,
      "##ached": 5342,
      "using": 5343,
      "legal": 5344,
      "Christian": 5345,
      "##fortable": 5346,
      "dim": 5347,
      "lear": 5348,
      "order": 5349,
      "12": 5350,
      "true": 5351,
      "apart": 5352,
      "neg": 5353,
      "emotions": 5354,
      "pacing": 5355,
      "purs": 5356,
      "sett": 5357,
      "activities": 5358,
      "##uing": 5359,
      "##go": 5360,
      "mater": 5361,
      "la": 5362,
      "##usion": 5363,
      "##anced": 5364,
      "allowing": 5365,
      "step": 5366,
      "countries": 5367,
      "sometimes": 5368,
      "##irth": 5369,
      "coll": 5370,
      "ensuring": 5371,
      "tel": 5372,
      "won": 5373,
      "##oon": 5374,
      "##ley": 5375,
      "##raw": 5376,
      "determ": 5377,
      "##son": 5378,
      "experi": 5379,
      "##oles": 5380,
      "impressive": 5381,
      "storyt": 5382,
      "face": 5383,
      "##aps": 5384,
      "Emp": 5385,
      "phil": 5386,
      "minut": 5387,
      "##inary": 5388,
      "either": 5389,
      "foot": 5390,
      "immers": 5391,
      "National": 5392,
      "visit": 5393,
      "communities": 5394,
      "Her": 5395,
      "Re": 5396,
      "##itage": 5397,
      "##whel": 5398,
      "account": 5399,
      "provides": 5400,
      "services": 5401,
      "##ream": 5402,
      "beautiful": 5403,
      "balance": 5404,
      "run": 5405,
      "emphas": 5406,
      "wants": 5407,
      "news": 5408,
      "isn": 5409,
      "fails": 5410,
      "##ource": 5411,
      "influence": 5412,
      "industry": 5413,
      "discover": 5414,
      "##play": 5415,
      "looking": 5416,
      "grand": 5417,
      "dest": 5418,
      "##owned": 5419,
      "##ull": 5420,
      "following": 5421,
      "storytelling": 5422,
      "itself": 5423,
      "##ik": 5424,
      "sat": 5425,
      "associ": 5426,
      "couple": 5427,
      "guid": 5428,
      "absolut": 5429,
      "tit": 5430,
      "##agon": 5431,
      "ur": 5432,
      "remarkable": 5433,
      "tem": 5434,
      "000": 5435,
      "treat": 5436,
      "genuine": 5437,
      "##ancing": 5438,
      "data": 5439,
      "prior": 5440,
      "forced": 5441,
      "fund": 5442,
      "least": 5443,
      "surpr": 5444,
      "##tr": 5445,
      "##mber": 5446,
      "clos": 5447,
      "transform": 5448,
      "##sy": 5449,
      "full": 5450,
      "professional": 5451,
      "rad": 5452,
      "##lip": 5453,
      "pub": 5454,
      "extra": 5455,
      "atm": 5456,
      "lost": 5457,
      "central": 5458,
      "##light": 5459,
      "individual": 5460,
      "##jects": 5461,
      "multiple": 5462,
      "##izations": 5463,
      "##itted": 5464,
      "##ift": 5465,
      "react": 5466,
      "##oyal": 5467,
      "dad": 5468,
      "##lex": 5469,
      "##lands": 5470,
      "##ott": 5471,
      "saf": 5472,
      "conversation": 5473,
      "Their": 5474,
      "worth": 5475,
      "food": 5476,
      "##round": 5477,
      "uns": 5478,
      "desc": 5479,
      "cover": 5480,
      "working": 5481,
      "innov": 5482,
      "upon": 5483,
      "atmosp": 5484,
      "Over": 5485,
      "##esh": 5486,
      "usually": 5487,
      "material": 5488,
      "tre": 5489,
      "half": 5490,
      "employ": 5491,
      "##oring": 5492,
      "##olic": 5493,
      "taken": 5494,
      "rights": 5495,
      "##ging": 5496,
      "physical": 5497,
      "idea": 5498,
      "dialogue": 5499,
      "death": 5500,
      "##hod": 5501,
      "##uff": 5502,
      "accept": 5503,
      "academ": 5504,
      "yet": 5505,
      "##lement": 5506,
      "##icate": 5507,
      "##antic": 5508,
      "civil": 5509,
      "##ogress": 5510,
      "Ad": 5511,
      "species": 5512,
      "##ality": 5513,
      "##uster": 5514,
      "##inist": 5515,
      "extrem": 5516,
      "contributions": 5517,
      "plays": 5518,
      "circ": 5519,
      "sw": 5520,
      "Thank": 5521,
      "large": 5522,
      "ant": 5523,
      "##ival": 5524,
      "involved": 5525,
      "Afric": 5526,
      "30": 5527,
      "icon": 5528,
      "faced": 5529,
      "exceptional": 5530,
      "position": 5531,
      "fight": 5532,
      "comedic": 5533,
      "Man": 5534,
      "era": 5535,
      "camp": 5536,
      "features": 5537,
      "batt": 5538,
      "ra": 5539,
      "Ge": 5540,
      "##isc": 5541,
      "##iol": 5542,
      "obs": 5543,
      "stat": 5544,
      "style": 5545,
      "##orts": 5546,
      "served": 5547,
      "initi": 5548,
      "global": 5549,
      "continue": 5550,
      "imag": 5551,
      "highly": 5552,
      "held": 5553,
      "supporting": 5554,
      "territ": 5555,
      "pict": 5556,
      "perspective": 5557,
      "occas": 5558,
      "suff": 5559,
      "##enn": 5560,
      "##ches": 5561,
      "##str": 5562,
      "students": 5563,
      "ey": 5564,
      "lov": 5565,
      "grad": 5566,
      "symb": 5567,
      "hy": 5568,
      "prominent": 5569,
      "terms": 5570,
      "##ivity": 5571,
      "sent": 5572,
      "portrayal": 5573,
      "German": 5574,
      "birth": 5575,
      "##omb": 5576,
      "deb": 5577,
      "progress": 5578,
      "continued": 5579,
      "May": 5580,
      "##ump": 5581,
      "Austral": 5582,
      "opp": 5583,
      "actions": 5584,
      "forward": 5585,
      "##elebr": 5586,
      "single": 5587,
      "princ": 5588,
      "heritage": 5589,
      "adds": 5590,
      "First": 5591,
      "memorable": 5592,
      "value": 5593,
      "quickly": 5594,
      "member": 5595,
      "##amm": 5596,
      "##oid": 5597,
      "themselves": 5598,
      "resulting": 5599,
      "landscape": 5600,
      "key": 5601,
      "eth": 5602,
      "happened": 5603,
      "Gree": 5604,
      "reach": 5605,
      "greatly": 5606,
      "surround": 5607,
      "scientific": 5608,
      "woman": 5609,
      "considered": 5610,
      "11": 5611,
      "##icul": 5612,
      "thrilling": 5613,
      "background": 5614,
      "Rec": 5615,
      "celebr": 5616,
      "vill": 5617,
      "able": 5618,
      "193": 5619,
      "##ored": 5620,
      "##ipl": 5621,
      "et": 5622,
      "comput": 5623,
      "opt": 5624,
      "needed": 5625,
      "##rupt": 5626,
      "engaged": 5627,
      "##wh": 5628,
      "fa": 5629,
      "##ges": 5630,
      "##ban": 5631,
      "##ague": 5632,
      "##une": 5633,
      "##iece": 5634,
      "##inal": 5635,
      "solid": 5636,
      "game": 5637,
      "offering": 5638,
      "susp": 5639,
      "##edding": 5640,
      "body": 5641,
      "fans": 5642,
      "presence": 5643,
      "##hers": 5644,
      "recent": 5645,
      "separ": 5646,
      "##ording": 5647,
      "##ator": 5648,
      "frust": 5649,
      "##itect": 5650,
      "Should": 5651,
      "today": 5652,
      "relat": 5653,
      "##ruction": 5654,
      "bar": 5655,
      "resources": 5656,
      "hig": 5657,
      "##ode": 5658,
      "intense": 5659,
      "iconic": 5660,
      "particip": 5661,
      "##owers": 5662,
      "general": 5663,
      "gets": 5664,
      "##ront": 5665,
      "##orpor": 5666,
      "states": 5667,
      "##iddle": 5668,
      "##hens": 5669,
      "esc": 5670,
      "handle": 5671,
      "hope": 5672,
      "##ission": 5673,
      "eclip": 5674,
      "##ee": 5675,
      "##oking": 5676,
      "plat": 5677,
      "boundaries": 5678,
      "capital": 5679,
      "##ify": 5680,
      "effectively": 5681,
      "bi": 5682,
      "Not": 5683,
      "adventure": 5684,
      "Ab": 5685,
      "schol": 5686,
      "Part": 5687,
      "sle": 5688,
      "failed": 5689,
      "men": 5690,
      "tension": 5691,
      "##ounc": 5692,
      "craft": 5693,
      "charm": 5694,
      "philos": 5695,
      "##ae": 5696,
      "##uth": 5697,
      "##oken": 5698,
      "predictable": 5699,
      "season": 5700,
      "figure": 5701,
      "##com": 5702,
      "renowned": 5703,
      "manage": 5704,
      "14": 5705,
      "mer": 5706,
      "experienced": 5707,
      "##xim": 5708,
      "cost": 5709,
      "##atography": 5710,
      "constantly": 5711,
      "Ear": 5712,
      "Church": 5713,
      "product": 5714,
      "entire": 5715,
      "behind": 5716,
      "bab": 5717,
      "Another": 5718,
      "Cent": 5719,
      "opportunities": 5720,
      "##avel": 5721,
      "##fortun": 5722,
      "hours": 5723,
      "##ously": 5724,
      "Isl": 5725,
      "25": 5726,
      "architect": 5727,
      "science": 5728,
      "jud": 5729,
      "Indian": 5730,
      "wedding": 5731,
      "##ler": 5732,
      "ensure": 5733,
      "meas": 5734,
      "hop": 5735,
      "##uct": 5736,
      "strateg": 5737,
      "appeal": 5738,
      "expand": 5739,
      "says": 5740,
      "beginning": 5741,
      "cal": 5742,
      "fav": 5743,
      "enth": 5744,
      "##urity": 5745,
      "evol": 5746,
      "##ceed": 5747,
      "matter": 5748,
      "master": 5749,
      "##semb": 5750,
      "contribute": 5751,
      "##hole": 5752,
      "atmosphere": 5753,
      "although": 5754,
      "##hold": 5755,
      "sens": 5756,
      "##edi": 5757,
      "fem": 5758,
      "##ula": 5759,
      "words": 5760,
      "course": 5761,
      "seam": 5762,
      "cinematography": 5763,
      "viol": 5764,
      "##imate": 5765,
      "flat": 5766,
      "##etic": 5767,
      "primarily": 5768,
      "##my": 5769,
      "ste": 5770,
      "That": 5771,
      "essential": 5772,
      "13": 5773,
      "##ipp": 5774,
      "##isf": 5775,
      "building": 5776,
      "##ires": 5777,
      "dig": 5778,
      "lasting": 5779,
      "intric": 5780,
      "media": 5781,
      "purp": 5782,
      "service": 5783,
      "norm": 5784,
      "India": 5785,
      "excite": 5786,
      "tur": 5787,
      "##opp": 5788,
      "resid": 5789,
      "Kingdom": 5790,
      "symbol": 5791,
      "groups": 5792,
      "Throughout": 5793,
      "incredibly": 5794,
      "practices": 5795,
      "ple": 5796,
      "##aur": 5797,
      "appreciated": 5798,
      "##amb": 5799,
      "press": 5800,
      "lies": 5801,
      "Intern": 5802,
      "low": 5803,
      "guidance": 5804,
      "West": 5805,
      "##ishing": 5806,
      "married": 5807,
      "Republic": 5808,
      "##anks": 5809,
      "giving": 5810,
      "moved": 5811,
      "wal": 5812,
      "Arab": 5813,
      "opin": 5814,
      "excitement": 5815,
      "doub": 5816,
      "ended": 5817,
      "director": 5818,
      "##lications": 5819,
      "increasing": 5820,
      "released": 5821,
      "##eration": 5822,
      "##ese": 5823,
      "type": 5824,
      "shared": 5825,
      "##udd": 5826,
      "frequ": 5827,
      "##ounter": 5828,
      "##ned": 5829,
      "witness": 5830,
      "case": 5831,
      "##urd": 5832,
      "##ends": 5833,
      "largest": 5834,
      "##ison": 5835,
      "##akers": 5836,
      "visuals": 5837,
      "##asc": 5838,
      "proper": 5839,
      "##ink": 5840,
      "##eter": 5841,
      "achieve": 5842,
      "significance": 5843,
      "becomes": 5844,
      "Although": 5845,
      "study": 5846,
      "##ief": 5847,
      "possible": 5848,
      "##IL": 5849,
      "college": 5850,
      "cell": 5851,
      "happy": 5852,
      "Empire": 5853,
      "##erve": 5854,
      "poor": 5855,
      "##uable": 5856,
      "genre": 5857,
      "navigate": 5858,
      "##ox": 5859,
      "wat": 5860,
      "free": 5861,
      "telling": 5862,
      "ask": 5863,
      "record": 5864,
      "di": 5865,
      "jo": 5866,
      "named": 5867,
      "asshole": 5868,
      "##sh": 5869,
      "##usi": 5870,
      "##akes": 5871,
      "phone": 5872,
      "created": 5873,
      "bene": 5874,
      "##reed": 5875,
      "attempts": 5876,
      "strength": 5877,
      "##izes": 5878,
      "provided": 5879,
      "##ouncil": 5880,
      "primary": 5881,
      "Me": 5882,
      "nation": 5883,
      "##isions": 5884,
      "##apes": 5885,
      "goes": 5886,
      "inspir": 5887,
      "watching": 5888,
      "changes": 5889,
      "##yr": 5890,
      "Union": 5891,
      "received": 5892,
      "forces": 5893,
      "School": 5894,
      "harm": 5895,
      "vital": 5896,
      "##luster": 5897,
      "allowed": 5898,
      "ang": 5899,
      "reson": 5900,
      "causing": 5901,
      "falls": 5902,
      "regions": 5903,
      "##ification": 5904,
      "##abit": 5905,
      "however": 5906,
      "structure": 5907,
      "Sar": 5908,
      "##oms": 5909,
      "effic": 5910,
      "struggles": 5911,
      "club": 5912,
      "current": 5913,
      "wa": 5914,
      "collabor": 5915,
      "host": 5916,
      "platform": 5917,
      "notable": 5918,
      "lackluster": 5919,
      "layer": 5920,
      "mis": 5921,
      "former": 5922,
      "##ops": 5923,
      "pack": 5924,
      "explore": 5925,
      "##aught": 5926,
      "centuries": 5927,
      "##urg": 5928,
      "Char": 5929,
      "##aff": 5930,
      "kept": 5931,
      "method": 5932,
      "##eland": 5933,
      "program": 5934,
      "##entially": 5935,
      "##very": 5936,
      "sum": 5937,
      "Sy": 5938,
      "##fortunately": 5939,
      "trade": 5940,
      "return": 5941,
      "doc": 5942,
      "movement": 5943,
      "laugh": 5944,
      "##wor": 5945,
      "identity": 5946,
      "minutes": 5947,
      "spect": 5948,
      "front": 5949,
      "challenging": 5950,
      "Gu": 5951,
      "technology": 5952,
      "subject": 5953,
      "necessary": 5954,
      "edge": 5955,
      "immedi": 5956,
      "##iles": 5957,
      "playing": 5958,
      "appear": 5959,
      "opportunity": 5960,
      "dark": 5961,
      "##atory": 5962,
      "keeps": 5963,
      "despite": 5964,
      "##for": 5965,
      "built": 5966,
      "gained": 5967,
      "musical": 5968,
      "wid": 5969,
      "Canad": 5970,
      "##ointed": 5971,
      "emotionally": 5972,
      "clever": 5973,
      "market": 5974,
      "comment": 5975,
      "sust": 5976,
      "excell": 5977,
      "typically": 5978,
      "Rob": 5979,
      "asking": 5980,
      "cred": 5981,
      "dam": 5982,
      "remind": 5983,
      "describ": 5984,
      "coming": 5985,
      "franch": 5986,
      "interests": 5987,
      "Ex": 5988,
      "administ": 5989,
      "lik": 5990,
      "##evision": 5991,
      "unne": 5992,
      "recognition": 5993,
      "cat": 5994,
      "##lying": 5995,
      "##ius": 5996,
      "values": 5997,
      "deeply": 5998,
      "--": 5999,
      "##not": 6000,
      "roles": 6001,
      "##ales": 6002,
      "societ": 6003,
      "facilit": 6004,
      "##erb": 6005,
      "Cr": 6006,
      "limited": 6007,
      "Since": 6008,
      "##htaking": 6009,
      "##ervation": 6010,
      "skills": 6011,
      "probably": 6012,
      "breathtaking": 6013,
      "written": 6014,
      "academic": 6015,
      "##acks": 6016,
      "thinking": 6017,
      "fant": 6018,
      "##icated": 6019,
      "enthusi": 6020,
      "writing": 6021,
      "##idence": 6022,
      "##idge": 6023,
      "animation": 6024,
      "etc": 6025,
      "apolog": 6026,
      "Sw": 6027,
      "##na": 6028,
      "final": 6029,
      "alone": 6030,
      "deg": 6031,
      "adapt": 6032,
      "starting": 6033,
      "becoming": 6034,
      "192": 6035,
      "previous": 6036,
      "sil": 6037,
      "##ighb": 6038,
      "Har": 6039,
      "programs": 6040,
      "Last": 6041,
      "##val": 6042,
      "##ests": 6043,
      "adding": 6044,
      "compr": 6045,
      "encour": 6046,
      "mix": 6047,
      "##put": 6048,
      "##orthern": 6049,
      "squ": 6050,
      "compre": 6051,
      "avail": 6052,
      "actor": 6053,
      "charism": 6054,
      "lacking": 6055,
      "##pected": 6056,
      "franchise": 6057,
      "adop": 6058,
      "total": 6059,
      "million": 6060,
      "brings": 6061,
      "You": 6062,
      "En": 6063,
      "##unch": 6064,
      "##ef": 6065,
      "##osing": 6066,
      "generally": 6067,
      "Sec": 6068,
      "fan": 6069,
      "No": 6070,
      "cust": 6071,
      "protagon": 6072,
      "exch": 6073,
      "repl": 6074,
      "##ening": 6075,
      "maybe": 6076,
      "improve": 6077,
      "defin": 6078,
      "##know": 6079,
      "21": 6080,
      "suspense": 6081,
      "win": 6082,
      "##okes": 6083,
      "network": 6084,
      "fresh": 6085,
      "neighb": 6086,
      "eventually": 6087,
      "Bar": 6088,
      "##elect": 6089,
      "allows": 6090,
      "cinematic": 6091,
      "entertaining": 6092,
      "critical": 6093,
      "parts": 6094,
      "bed": 6095,
      "actively": 6096,
      "amb": 6097,
      "entertainment": 6098,
      "eclipse": 6099,
      "Gen": 6100,
      "Su": 6101,
      "cause": 6102,
      "##sec": 6103,
      "related": 6104,
      "five": 6105,
      "colon": 6106,
      "marked": 6107,
      "Cath": 6108,
      "##uses": 6109,
      "engine": 6110,
      "official": 6111,
      "Fe": 6112,
      "##atin": 6113,
      "##que": 6114,
      "wouldn": 6115,
      "outside": 6116,
      "sets": 6117,
      "##table": 6118,
      "filled": 6119,
      "##osition": 6120,
      "traditions": 6121,
      "princip": 6122,
      "draw": 6123,
      "touch": 6124,
      "prem": 6125,
      "pal": 6126,
      "philosoph": 6127,
      "Western": 6128,
      "##uel": 6129,
      "expert": 6130,
      "delivers": 6131,
      "exploration": 6132,
      "##ened": 6133,
      "191": 6134,
      "24": 6135,
      "East": 6136,
      "dynamic": 6137,
      "##track": 6138,
      "loss": 6139,
      "vast": 6140,
      "##wide": 6141,
      "vide": 6142,
      "##face": 6143,
      "approxim": 6144,
      "demon": 6145,
      "TL": 6146,
      "path": 6147,
      "##asons": 6148,
      "##ompass": 6149,
      "gave": 6150,
      "travel": 6151,
      "content": 6152,
      "wanting": 6153,
      "confront": 6154,
      "England": 6155,
      "serve": 6156,
      "bond": 6157,
      "##iable": 6158,
      "anal": 6159,
      "date": 6160,
      "source": 6161,
      "landscapes": 6162,
      "Act": 6163,
      "River": 6164,
      "born": 6165,
      "passion": 6166,
      "classic": 6167,
      "message": 6168,
      "bringing": 6169,
      "der": 6170,
      "soon": 6171,
      "Em": 6172,
      "##inese": 6173,
      "contem": 6174,
      "profound": 6175,
      "encompass": 6176,
      "stuff": 6177,
      "serious": 6178,
      "##gettable": 6179,
      "emerged": 6180,
      "##what": 6181,
      "Min": 6182,
      "cross": 6183,
      "responsible": 6184,
      "heavily": 6185,
      "##iance": 6186,
      "##pired": 6187,
      "##uit": 6188,
      "somewhat": 6189,
      "##let": 6190,
      "hero": 6191,
      "advoc": 6192,
      "voice": 6193,
      "force": 6194,
      "inh": 6195,
      "associated": 6196,
      "##vent": 6197,
      "##ager": 6198,
      "France": 6199,
      "fellow": 6200,
      "institutions": 6201,
      "Co": 6202,
      "Pres": 6203,
      "deeper": 6204,
      "compelling": 6205,
      "intrig": 6206,
      "threat": 6207,
      "God": 6208,
      "enhance": 6209,
      "shaping": 6210,
      "Pe": 6211,
      "successfully": 6212,
      "weeks": 6213,
      "showcasing": 6214,
      "Chinese": 6215,
      "powerful": 6216,
      "enjoyable": 6217,
      "vol": 6218,
      "direction": 6219,
      "aimed": 6220,
      "organizations": 6221,
      "##aper": 6222,
      "subsequ": 6223,
      "forms": 6224,
      "perfectly": 6225,
      "song": 6226,
      "sn": 6227,
      "sleep": 6228,
      "Mus": 6229,
      "##ators": 6230,
      "trip": 6231,
      "struggling": 6232,
      "York": 6233,
      "##onse": 6234,
      "cam": 6235,
      "visitors": 6236,
      "China": 6237,
      "beloved": 6238,
      "possess": 6239,
      "ign": 6240,
      "##eign": 6241,
      "19th": 6242,
      "##ingly": 6243,
      "##unt": 6244,
      "baby": 6245,
      "Ne": 6246,
      "##sych": 6247,
      "frame": 6248,
      "##ze": 6249,
      "environmental": 6250,
      "##break": 6251,
      "##oud": 6252,
      "rule": 6253,
      "frustr": 6254,
      "Lond": 6255,
      "reb": 6256,
      "soundtrack": 6257,
      "Here": 6258,
      "##hood": 6259,
      "##ym": 6260,
      "##ellect": 6261,
      "incorpor": 6262,
      "Count": 6263,
      "third": 6264,
      "publ": 6265,
      "roll": 6266,
      "##unk": 6267,
      "setting": 6268,
      "belief": 6269,
      "##come": 6270,
      "beauty": 6271,
      "Med": 6272,
      "##iques": 6273,
      "lacked": 6274,
      "title": 6275,
      "##anish": 6276,
      "phot": 6277,
      "response": 6278,
      "regarding": 6279,
      "22": 6280,
      "din": 6281,
      "romantic": 6282,
      "teach": 6283,
      "Reg": 6284,
      "longer": 6285,
      "obv": 6286,
      "authen": 6287,
      "##iller": 6288,
      "funny": 6289,
      "introduced": 6290,
      "believed": 6291,
      "kne": 6292,
      "television": 6293,
      "install": 6294,
      "Greek": 6295,
      "dimens": 6296,
      "fostering": 6297,
      "conditions": 6298,
      "TV": 6299,
      "##reg": 6300,
      "extensive": 6301,
      "uncom": 6302,
      "intricate": 6303,
      "##porary": 6304,
      "bord": 6305,
      "sac": 6306,
      "vict": 6307,
      "##arian": 6308,
      "##outhern": 6309,
      "##itting": 6310,
      "earli": 6311,
      "##ushed": 6312,
      "intellect": 6313,
      "widely": 6314,
      "authentic": 6315,
      "##ards": 6316,
      "peace": 6317,
      "State": 6318,
      "bother": 6319,
      "##eth": 6320,
      "effortlessly": 6321,
      "promoting": 6322,
      "mental": 6323,
      "delivering": 6324,
      "center": 6325,
      "leaves": 6326,
      "America": 6327,
      "sexual": 6328,
      "Jan": 6329,
      "south": 6330,
      "##apan": 6331,
      "Instead": 6332,
      "Geor": 6333,
      "ris": 6334,
      "fine": 6335,
      "##ms": 6336,
      "object": 6337,
      "ir": 6338,
      "island": 6339,
      "prec": 6340,
      "##ites": 6341,
      "##ellig": 6342,
      "##oses": 6343,
      "El": 6344,
      "##care": 6345,
      "brilli": 6346,
      "finally": 6347,
      "tour": 6348,
      "arr": 6349,
      "reduc": 6350,
      "International": 6351,
      "unex": 6352,
      "##itty": 6353,
      "viewing": 6354,
      "comprehens": 6355,
      "dom": 6356,
      "##ring": 6357,
      "mathem": 6358,
      "hang": 6359,
      "flaw": 6360,
      "amount": 6361,
      "seeing": 6362,
      "##nal": 6363,
      "guess": 6364,
      "##useum": 6365,
      "London": 6366,
      "##ana": 6367,
      "drama": 6368,
      "Pol": 6369,
      "Cal": 6370,
      "##ores": 6371,
      "university": 6372,
      "Mal": 6373,
      "king": 6374,
      "##ricult": 6375,
      "Japan": 6376,
      "sought": 6377,
      "plans": 6378,
      "City": 6379,
      "Even": 6380,
      "contact": 6381,
      "supposed": 6382,
      "Comp": 6383,
      "worldwide": 6384,
      "caused": 6385,
      "football": 6386,
      "benef": 6387,
      "Latin": 6388,
      "##ios": 6389,
      "20th": 6390,
      "introdu": 6391,
      "mut": 6392,
      "##astic": 6393,
      "shows": 6394,
      "district": 6395,
      "artistic": 6396,
      "util": 6397,
      "valuable": 6398,
      "scholars": 6399,
      "hom": 6400,
      "ways": 6401,
      "unw": 6402,
      "prevent": 6403,
      "domin": 6404,
      "includes": 6405,
      "##ury": 6406,
      "sustain": 6407,
      "##aving": 6408,
      "influential": 6409,
      "Hol": 6410,
      "##ulations": 6411,
      "##de": 6412,
      "surrounding": 6413,
      "##wood": 6414,
      "chance": 6415,
      "uncomfortable": 6416,
      "##ecess": 6417,
      "clean": 6418,
      "highlight": 6419,
      "capture": 6420,
      "surv": 6421,
      "animated": 6422,
      "hers": 6423,
      "##ship": 6424,
      "essence": 6425,
      "talented": 6426,
      "station": 6427,
      "amaz": 6428,
      "##isms": 6429,
      "slow": 6430,
      "predecess": 6431,
      "literature": 6432,
      "Catholic": 6433,
      "depend": 6434,
      "stands": 6435,
      "agree": 6436,
      "growing": 6437,
      "Russian": 6438,
      "Dr": 6439,
      "##ara": 6440,
      "haven": 6441,
      "status": 6442,
      "demonstr": 6443,
      "Per": 6444,
      "Ireland": 6445,
      "lines": 6446,
      "##ctions": 6447,
      "ill": 6448,
      "round": 6449,
      "prefer": 6450,
      "Great": 6451,
      "distribut": 6452,
      "north": 6453,
      "stories": 6454,
      "maintaining": 6455,
      "DR": 6456,
      "James": 6457,
      "cop": 6458,
      "mid": 6459,
      "psych": 6460,
      "##riage": 6461,
      "dog": 6462,
      "er": 6463,
      "stage": 6464,
      "included": 6465,
      "distance": 6466,
      "fields": 6467,
      "legacy": 6468,
      "Willi": 6469,
      "extremely": 6470,
      "House": 6471,
      "Tod": 6472,
      "Whe": 6473,
      "location": 6474,
      "gather": 6475,
      "contributing": 6476,
      "recognized": 6477,
      "Mich": 6478,
      "lingu": 6479,
      "consum": 6480,
      "significantly": 6481,
      "Dire": 6482,
      "##iment": 6483,
      "##arming": 6484,
      "Alex": 6485,
      "guys": 6486,
      "priorit": 6487,
      "six": 6488,
      "##aid": 6489,
      "Mc": 6490,
      "US": 6491,
      "excess": 6492,
      "23": 6493,
      "##ocratic": 6494,
      "seamlessly": 6495,
      "weak": 6496,
      "nov": 6497,
      "studies": 6498,
      "##ER": 6499,
      "##astern": 6500,
      "revol": 6501,
      "##odies": 6502,
      "constant": 6503,
      "interactions": 6504,
      "seat": 6505,
      "noticed": 6506,
      "knew": 6507,
      "##to": 6508,
      "##chan": 6509,
      "lo": 6510,
      "##istics": 6511,
      "worked": 6512,
      "##airs": 6513,
      "economy": 6514,
      "moving": 6515,
      "techniques": 6516,
      "commonly": 6517,
      "Sarah": 6518,
      "Aug": 6519,
      "##ifying": 6520,
      "##usive": 6521,
      "healthy": 6522,
      "review": 6523,
      "testament": 6524,
      "##mark": 6525,
      "##liament": 6526,
      "cannot": 6527,
      "concl": 6528,
      "enhancing": 6529,
      "##uary": 6530,
      "stress": 6531,
      "protagonist": 6532,
      "comprehensive": 6533,
      "##yl": 6534,
      "##rap": 6535,
      "mentioned": 6536,
      "##ederal": 6537,
      "tra": 6538,
      "schools": 6539,
      "initially": 6540,
      "exhib": 6541,
      "produced": 6542,
      "##rible": 6543,
      "anymore": 6544,
      "independent": 6545,
      "jokes": 6546,
      "##rif": 6547,
      "shape": 6548,
      "implement": 6549,
      "syn": 6550,
      "finish": 6551,
      "##gypt": 6552,
      "names": 6553,
      "##unic": 6554,
      "situations": 6555,
      "currently": 6556,
      "available": 6557,
      "Qu": 6558,
      "##cend": 6559,
      "##ysis": 6560,
      "educational": 6561,
      "argument": 6562,
      "##lin": 6563,
      "arri": 6564,
      "ending": 6565,
      "critic": 6566,
      "Egypt": 6567,
      "Has": 6568,
      "Germany": 6569,
      "version": 6570,
      "consequ": 6571,
      "conversations": 6572,
      "cit": 6573,
      "mass": 6574,
      "##oe": 6575,
      "##oor": 6576,
      "##rial": 6577,
      "provoking": 6578,
      "dedication": 6579,
      "vot": 6580,
      "##ky": 6581,
      "regular": 6582,
      "teams": 6583,
      "Park": 6584,
      "##erved": 6585,
      "##aches": 6586,
      "horror": 6587,
      "sal": 6588,
      "report": 6589,
      "##standing": 6590,
      "problems": 6591,
      "select": 6592,
      "##erc": 6593,
      "overwhel": 6594,
      "commer": 6595,
      "unexpected": 6596,
      "ideas": 6597,
      "computer": 6598,
      "digital": 6599,
      "fire": 6600,
      "assum": 6601,
      "disappointed": 6602,
      "policies": 6603,
      "mist": 6604,
      "sold": 6605,
      "##ested": 6606,
      "immediately": 6607,
      "female": 6608,
      "log": 6609,
      "26": 6610,
      "Acc": 6611,
      "nice": 6612,
      "##atter": 6613,
      "altern": 6614,
      "adult": 6615,
      "agricult": 6616,
      "regional": 6617,
      "confused": 6618,
      "Jack": 6619,
      "absolutely": 6620,
      "##af": 6621,
      "##ips": 6622,
      "spoken": 6623,
      "potentially": 6624,
      "##itude": 6625,
      "Earth": 6626,
      "##hest": 6627,
      "mount": 6628,
      "den": 6629,
      "private": 6630,
      "display": 6631,
      "revolution": 6632,
      "Dem": 6633,
      "##ols": 6634,
      "##room": 6635,
      "spiritual": 6636,
      "Mon": 6637,
      "Sun": 6638,
      "ten": 6639,
      "added": 6640,
      "Const": 6641,
      "##**": 6642,
      "reput": 6643,
      "intellig": 6644,
      "Ang": 6645,
      "medical": 6646,
      "boasts": 6647,
      "referred": 6648,
      "rely": 6649,
      "positive": 6650,
      "security": 6651,
      "pictures": 6652,
      "battle": 6653,
      "comments": 6654,
      "interp": 6655,
      "passed": 6656,
      "August": 6657,
      "##ino": 6658,
      "video": 6659,
      "##yp": 6660,
      "justice": 6661,
      "sad": 6662,
      "##aul": 6663,
      "##otal": 6664,
      "Tur": 6665,
      "Res": 6666,
      "lif": 6667,
      "##rain": 6668,
      "inspiring": 6669,
      "##rying": 6670,
      "considering": 6671,
      "turned": 6672,
      "fear": 6673,
      "##uments": 6674,
      "favor": 6675,
      "document": 6676,
      "lately": 6677,
      "##sc": 6678,
      "lacks": 6679,
      "respond": 6680,
      "variety": 6681,
      "dedicated": 6682,
      "hit": 6683,
      "online": 6684,
      "marriage": 6685,
      "##sw": 6686,
      "##acle": 6687,
      "##agn": 6688,
      "expectations": 6689,
      "Fl": 6690,
      "##aign": 6691,
      "acts": 6692,
      "##igen": 6693,
      "##iché": 6694,
      "web": 6695,
      "##ender": 6696,
      "Well": 6697,
      "cyc": 6698,
      "BC": 6699,
      "Ber": 6700,
      "##ael": 6701,
      "accur": 6702,
      "election": 6703,
      "Each": 6704,
      "##uk": 6705,
      "##onic": 6706,
      "cliché": 6707,
      "elev": 6708,
      "100": 6709,
      "##haps": 6710,
      "choice": 6711,
      "points": 6712,
      "dimensional": 6713,
      "27": 6714,
      "Sov": 6715,
      "rout": 6716,
      "##lim": 6717,
      "##ags": 6718,
      "score": 6719,
      "Today": 6720,
      "##erves": 6721,
      "foundation": 6722,
      "Soviet": 6723,
      "Mor": 6724,
      "##raz": 6725,
      "##amics": 6726,
      "##istance": 6727,
      "28": 6728,
      "healthcare": 6729,
      "Ac": 6730,
      "theory": 6731,
      "organization": 6732,
      "Many": 6733,
      "##never": 6734,
      "solar": 6735,
      "College": 6736,
      "birthday": 6737,
      "ok": 6738,
      "reasons": 6739,
      "black": 6740,
      "##isl": 6741,
      "viewer": 6742,
      "Soc": 6743,
      "Then": 6744,
      "##rian": 6745,
      "amazing": 6746,
      "interesting": 6747,
      "structures": 6748,
      "purpose": 6749,
      "questions": 6750,
      "Dav": 6751,
      "rap": 6752,
      "##heart": 6753,
      "appar": 6754,
      "Rev": 6755,
      "ast": 6756,
      "demand": 6757,
      "designed": 6758,
      "standards": 6759,
      "urban": 6760,
      "manages": 6761,
      "##ensity": 6762,
      "increasingly": 6763,
      "unnecessary": 6764,
      "Do": 6765,
      "construction": 6766,
      "successful": 6767,
      "Africa": 6768,
      "characterized": 6769,
      "founded": 6770,
      "function": 6771,
      "Spanish": 6772,
      "ones": 6773,
      "coast": 6774,
      "captures": 6775,
      "bud": 6776,
      "##eal": 6777,
      "leadership": 6778,
      "thoughts": 6779,
      "followed": 6780,
      "tar": 6781,
      "reputation": 6782,
      "catch": 6783,
      "sem": 6784,
      "##asty": 6785,
      "##encies": 6786,
      "management": 6787,
      "published": 6788,
      "mechan": 6789,
      "messages": 6790,
      "Every": 6791,
      "famil": 6792,
      "larger": 6793,
      "struggle": 6794,
      "##works": 6795,
      "pick": 6796,
      "##uge": 6797,
      "expressed": 6798,
      "promote": 6799,
      "planning": 6800,
      "Council": 6801,
      "##chers": 6802,
      "artic": 6803,
      "independence": 6804,
      "faith": 6805,
      "watched": 6806,
      "Under": 6807,
      "##ask": 6808,
      "changed": 6809,
      "degree": 6810,
      "\")": 6811,
      "middle": 6812,
      "acqu": 6813,
      "gri": 6814,
      "substance": 6815,
      "##imp": 6816,
      "alike": 6817,
      "pattern": 6818,
      "speak": 6819,
      "approximately": 6820,
      "higher": 6821,
      "herself": 6822,
      "agreed": 6823,
      "citiz": 6824,
      "hot": 6825,
      "##breaking": 6826,
      "##mas": 6827,
      "serving": 6828,
      "innovative": 6829,
      "##ables": 6830,
      "Fin": 6831,
      "Val": 6832,
      "lin": 6833,
      "##aves": 6834,
      "##ucle": 6835,
      "minor": 6836,
      "holds": 6837,
      "blood": 6838,
      "establishment": 6839,
      "release": 6840,
      "##laim": 6841,
      "##cast": 6842,
      "project": 6843,
      "##amental": 6844,
      "length": 6845,
      "Sm": 6846,
      "managed": 6847,
      "surface": 6848,
      "factors": 6849,
      "##iliar": 6850,
      "##hetic": 6851,
      "##aling": 6852,
      "initiatives": 6853,
      "tone": 6854,
      "##men": 6855,
      "older": 6856,
      "ethn": 6857,
      "January": 6858,
      "##uate": 6859,
      "broke": 6860,
      "contributed": 6861,
      "argue": 6862,
      "awe": 6863,
      "wind": 6864,
      "soft": 6865,
      "##going": 6866,
      "gone": 6867,
      "hous": 6868,
      "##era": 6869,
      "formed": 6870,
      "truth": 6871,
      "analysis": 6872,
      "kid": 6873,
      "##otic": 6874,
      "turns": 6875,
      "conflicts": 6876,
      "##iation": 6877,
      "Apr": 6878,
      "##ocked": 6879,
      "##cember": 6880,
      "sports": 6881,
      "torn": 6882,
      "##of": 6883,
      "##ford": 6884,
      "March": 6885,
      "satisf": 6886,
      "cand": 6887,
      "##omy": 6888,
      "stra": 6889,
      "influenced": 6890,
      "remember": 6891,
      "Sept": 6892,
      "Other": 6893,
      "km": 6894,
      "##oul": 6895,
      "##vey": 6896,
      "remain": 6897,
      "Sam": 6898,
      "April": 6899,
      "arts": 6900,
      "secret": 6901,
      "epis": 6902,
      "acknow": 6903,
      "recomm": 6904,
      "slight": 6905,
      "expected": 6906,
      "dinner": 6907,
      "intellectual": 6908,
      "##itely": 6909,
      "root": 6910,
      "##ugh": 6911,
      "Te": 6912,
      "##reet": 6913,
      "keeping": 6914,
      "subsequent": 6915,
      "##asy": 6916,
      "##ety": 6917,
      "exact": 6918,
      "players": 6919,
      "December": 6920,
      "President": 6921,
      "County": 6922,
      "##irt": 6923,
      "continu": 6924,
      "campaign": 6925,
      "rise": 6926,
      "excl": 6927,
      "##arsh": 6928,
      "##ropri": 6929,
      "##ending": 6930,
      "##bers": 6931,
      "white": 6932,
      "##ovember": 6933,
      "delight": 6934,
      "embr": 6935,
      "##itch": 6936,
      "avoid": 6937,
      "Kar": 6938,
      "filmm": 6939,
      "levels": 6940,
      "simple": 6941,
      "Party": 6942,
      "reality": 6943,
      "eyes": 6944,
      "September": 6945,
      "Redditors": 6946,
      "50": 6947,
      "November": 6948,
      "communicate": 6949,
      "##ware": 6950,
      "loved": 6951,
      "piv": 6952,
      "reached": 6953,
      "Ass": 6954,
      "reaction": 6955,
      "principles": 6956,
      "wild": 6957,
      "decl": 6958,
      "symp": 6959,
      "skill": 6960,
      "complexity": 6961,
      "Canada": 6962,
      "majority": 6963,
      "require": 6964,
      "base": 6965,
      "##gment": 6966,
      "reign": 6967,
      "remained": 6968,
      "operations": 6969,
      "dynamics": 6970,
      "##atur": 6971,
      "##alg": 6972,
      "suc": 6973,
      "June": 6974,
      "stability": 6975,
      "##ses": 6976,
      "worse": 6977,
      "authority": 6978,
      "Islamic": 6979,
      "residents": 6980,
      "mathemat": 6981,
      "cities": 6982,
      "size": 6983,
      "##ester": 6984,
      "anx": 6985,
      "consequences": 6986,
      "Don": 6987,
      "Mad": 6988,
      "forg": 6989,
      "##irm": 6990,
      "antic": 6991,
      "applications": 6992,
      "transm": 6993,
      "##ille": 6994,
      "training": 6995,
      "##road": 6996,
      "instance": 6997,
      "unfold": 6998,
      "exchange": 6999,
      "##estig": 7000,
      "Oct": 7001,
      "diversity": 7002,
      "therap": 7003,
      "meant": 7004,
      "capturing": 7005,
      "Just": 7006,
      "park": 7007,
      "manner": 7008,
      "talked": 7009,
      "Central": 7010,
      "pivotal": 7011,
      "complete": 7012,
      "follows": 7013,
      "##itable": 7014,
      "site": 7015,
      "##uf": 7016,
      "##key": 7017,
      "involve": 7018,
      "responsibility": 7019,
      "star": 7020,
      "##rug": 7021,
      "refers": 7022,
      "fundamental": 7023,
      "sort": 7024,
      "##aver": 7025,
      "explained": 7026,
      "Tw": 7027,
      "##chant": 7028,
      "underwhel": 7029,
      "elected": 7030,
      "dil": 7031,
      "##head": 7032,
      "plant": 7033,
      "exploring": 7034,
      "habit": 7035,
      "partn": 7036,
      "nucle": 7037,
      "vul": 7038,
      "conduct": 7039,
      "families": 7040,
      "showcases": 7041,
      "dise": 7042,
      "desire": 7043,
      "rules": 7044,
      "instru": 7045,
      "mad": 7046,
      "##oly": 7047,
      "reform": 7048,
      "evidence": 7049,
      "straight": 7050,
      "rid": 7051,
      "attack": 7052,
      "Jew": 7053,
      "spent": 7054,
      "offered": 7055,
      "##time": 7056,
      "canc": 7057,
      "fast": 7058,
      "enduring": 7059,
      "finding": 7060,
      "##abling": 7061,
      "##ologies": 7062,
      "radio": 7063,
      "unsure": 7064,
      "powers": 7065,
      "Recently": 7066,
      "occasionally": 7067,
      "groundbreaking": 7068,
      "collection": 7069,
      "feature": 7070,
      "office": 7071,
      "effective": 7072,
      "generations": 7073,
      "Ag": 7074,
      "##cean": 7075,
      "origins": 7076,
      "##igenous": 7077,
      "July": 7078,
      "Unfortunately": 7079,
      "construct": 7080,
      "Kh": 7081,
      "Kore": 7082,
      "incredible": 7083,
      "excessive": 7084,
      "tired": 7085,
      "Australian": 7086,
      "Pal": 7087,
      "comfortable": 7088,
      "sport": 7089,
      "Black": 7090,
      "policy": 7091,
      "dress": 7092,
      "Was": 7093,
      "cas": 7094,
      "enabling": 7095,
      "mostly": 7096,
      "laws": 7097,
      "practice": 7098,
      "sor": 7099,
      "##elled": 7100,
      "##overn": 7101,
      "caught": 7102,
      "##hero": 7103,
      "traced": 7104,
      "guil": 7105,
      "looks": 7106,
      "follow": 7107,
      ".)": 7108,
      "divid": 7109,
      "captivate": 7110,
      "novel": 7111,
      "According": 7112,
      "Gl": 7113,
      "##back": 7114,
      "##bert": 7115,
      "popularity": 7116,
      "lower": 7117,
      "Irish": 7118,
      "learn": 7119,
      "color": 7120,
      "girls": 7121,
      "enthusiasts": 7122,
      "anticip": 7123,
      "investig": 7124,
      "##connect": 7125,
      "questioning": 7126,
      "absolute": 7127,
      "Our": 7128,
      "decisions": 7129,
      "politics": 7130,
      "existence": 7131,
      "packed": 7132,
      "ban": 7133,
      "normal": 7134,
      "grew": 7135,
      "##enge": 7136,
      "##dden": 7137,
      "magn": 7138,
      "spread": 7139,
      "##uild": 7140,
      "sudden": 7141,
      "directed": 7142,
      "involves": 7143,
      "dead": 7144,
      "learning": 7145,
      "administr": 7146,
      "budget": 7147,
      "Foll": 7148,
      "cook": 7149,
      "lab": 7150,
      "##het": 7151,
      "foreign": 7152,
      "chann": 7153,
      "types": 7154,
      "fiction": 7155,
      "hear": 7156,
      "infr": 7157,
      "motiv": 7158,
      "##craft": 7159,
      "##orial": 7160,
      "drive": 7161,
      "Australia": 7162,
      "crafted": 7163,
      "expanded": 7164,
      "send": 7165,
      "##aint": 7166,
      "whose": 7167,
      "constitut": 7168,
      "separate": 7169,
      "guilty": 7170,
      "##ria": 7171,
      "##istor": 7172,
      "univers": 7173,
      "190": 7174,
      "legisl": 7175,
      "##anned": 7176,
      "treatment": 7177,
      "citizens": 7178,
      "processes": 7179,
      "executed": 7180,
      "rail": 7181,
      "younger": 7182,
      "increased": 7183,
      "Tom": 7184,
      "##allow": 7185,
      "gar": 7186,
      "ord": 7187,
      "depart": 7188,
      "contemporary": 7189,
      "Michael": 7190,
      "ensemb": 7191,
      "superhero": 7192,
      "target": 7193,
      "##verage": 7194,
      "Ap": 7195,
      "ongoing": 7196,
      "compan": 7197,
      "interested": 7198,
      "invested": 7199,
      "##itation": 7200,
      "dism": 7201,
      "decades": 7202,
      "explores": 7203,
      "da": 7204,
      "matt": 7205,
      "##ped": 7206,
      "prestig": 7207,
      "##ander": 7208,
      "##iplom": 7209,
      "voc": 7210,
      "##ett": 7211,
      "users": 7212,
      "extended": 7213,
      "died": 7214,
      "desper": 7215,
      "##ampions": 7216,
      "student": 7217,
      "loyal": 7218,
      "infect": 7219,
      "meticul": 7220,
      "texts": 7221,
      "meaningful": 7222,
      "diss": 7223,
      "##ober": 7224,
      "Also": 7225,
      "focused": 7226,
      "safety": 7227,
      "insec": 7228,
      "hair": 7229,
      "journal": 7230,
      "suggestions": 7231,
      "##inating": 7232,
      "directly": 7233,
      "sounds": 7234,
      "Govern": 7235,
      "calling": 7236,
      "Cam": 7237,
      "##ein": 7238,
      "##ald": 7239,
      "flow": 7240,
      "##ructure": 7241,
      "bur": 7242,
      "mach": 7243,
      "##pper": 7244,
      "unins": 7245,
      "above": 7246,
      "hilar": 7247,
      "##ka": 7248,
      "committed": 7249,
      "helped": 7250,
      "##oil": 7251,
      "relatable": 7252,
      "knows": 7253,
      "household": 7254,
      "thri": 7255,
      "rapid": 7256,
      "##warming": 7257,
      "##ishes": 7258,
      "##earing": 7259,
      "wides": 7260,
      "##osy": 7261,
      "##ha": 7262,
      "earlier": 7263,
      "rob": 7264,
      "exam": 7265,
      "occup": 7266,
      "transportation": 7267,
      "##iers": 7268,
      "heard": 7269,
      "perspectives": 7270,
      "African": 7271,
      "Following": 7272,
      "Air": 7273,
      "answ": 7274,
      "resil": 7275,
      "##gar": 7276,
      "##ibilities": 7277,
      "seek": 7278,
      "custom": 7279,
      "Sl": 7280,
      "##FL": 7281,
      "##erving": 7282,
      "musc": 7283,
      "wondering": 7284,
      "frequently": 7285,
      "October": 7286,
      "Que": 7287,
      "swe": 7288,
      "heartwarming": 7289,
      "initial": 7290,
      "newsp": 7291,
      "ensemble": 7292,
      "miles": 7293,
      "technical": 7294,
      "seats": 7295,
      "plants": 7296,
      "familiar": 7297,
      "animals": 7298,
      "vulner": 7299,
      "Ben": 7300,
      "##odes": 7301,
      "scale": 7302,
      "##ression": 7303,
      "pregn": 7304,
      "unfor": 7305,
      "unden": 7306,
      "comprom": 7307,
      "infrast": 7308,
      "advancements": 7309,
      "authenticity": 7310,
      "candid": 7311,
      "fasc": 7312,
      "practical": 7313,
      "immersive": 7314,
      "award": 7315,
      "##pread": 7316,
      "##entions": 7317,
      "produc": 7318,
      "##pping": 7319,
      "impression": 7320,
      "pul": 7321,
      "wood": 7322,
      "allow": 7323,
      "##where": 7324,
      "##igr": 7325,
      "artists": 7326,
      "temper": 7327,
      "##uated": 7328,
      "spending": 7329,
      "opinion": 7330,
      "annoy": 7331,
      "games": 7332,
      "table": 7333,
      "west": 7334,
      "##olid": 7335,
      "additional": 7336,
      "core": 7337,
      "twists": 7338,
      "figures": 7339,
      "territory": 7340,
      "widespread": 7341,
      "##cript": 7342,
      "Ital": 7343,
      "Asia": 7344,
      "portrayed": 7345,
      "easy": 7346,
      "strategic": 7347,
      "kn": 7348,
      "freed": 7349,
      "piece": 7350,
      "expans": 7351,
      "belong": 7352,
      "Vis": 7353,
      "##off": 7354,
      "witnessed": 7355,
      "intriguing": 7356,
      "William": 7357,
      "interpret": 7358,
      "Eastern": 7359,
      "gives": 7360,
      "reve": 7361,
      "substant": 7362,
      "29": 7363,
      "rock": 7364,
      "trib": 7365,
      "##upid": 7366,
      "##like": 7367,
      "violence": 7368,
      "turning": 7369,
      "Sen": 7370,
      "movements": 7371,
      "societal": 7372,
      "easily": 7373,
      "extraord": 7374,
      "Bel": 7375,
      "church": 7376,
      "explain": 7377,
      "cases": 7378,
      "##ham": 7379,
      "##ulated": 7380,
      "realm": 7381,
      "General": 7382,
      "matters": 7383,
      "determination": 7384,
      "infrastructure": 7385,
      "Paul": 7386,
      "parties": 7387,
      "earned": 7388,
      "execution": 7389,
      "angry": 7390,
      "square": 7391,
      "premise": 7392,
      "Muslim": 7393,
      "Sim": 7394,
      "model": 7395,
      "changing": 7396,
      "disappointment": 7397,
      "books": 7398,
      "distinctive": 7399,
      "Mr": 7400,
      "commend": 7401,
      "leader": 7402,
      "mission": 7403,
      "competition": 7404,
      "Cap": 7405,
      "##react": 7406,
      "shot": 7407,
      "accused": 7408,
      "insight": 7409,
      "Dan": 7410,
      "Law": 7411,
      "lived": 7412,
      "##ertain": 7413,
      "philosophy": 7414,
      "Go": 7415,
      "gain": 7416,
      "phen": 7417,
      "cultures": 7418,
      "countless": 7419,
      "sequel": 7420,
      "surprise": 7421,
      "kil": 7422,
      "##urb": 7423,
      "stupid": 7424,
      "phon": 7425,
      "honestly": 7426,
      "hoping": 7427,
      "##ieces": 7428,
      "189": 7429,
      "excellent": 7430,
      "voiced": 7431,
      "Beyond": 7432,
      "##ropriate": 7433,
      "overreact": 7434,
      "clim": 7435,
      "tale": 7436,
      "choices": 7437,
      "linguistic": 7438,
      "40": 7439,
      "##reams": 7440,
      "universe": 7441,
      "climate": 7442,
      "minim": 7443,
      "mine": 7444,
      "witty": 7445,
      "##felt": 7446,
      "##ether": 7447,
      "charismatic": 7448,
      "##osystem": 7449,
      "High": 7450,
      "##acher": 7451,
      "goals": 7452,
      "disj": 7453,
      "distingu": 7454,
      "beautifully": 7455,
      "Peter": 7456,
      "##ancy": 7457,
      "court": 7458,
      "definitely": 7459,
      "heartfelt": 7460,
      "Hen": 7461,
      "Lou": 7462,
      "Northern": 7463,
      "police": 7464,
      "opinions": 7465,
      "extraordinary": 7466,
      "diplom": 7467,
      "fuel": 7468,
      "##ograp": 7469,
      "See": 7470,
      "romance": 7471,
      "EU": 7472,
      "Rich": 7473,
      "sharing": 7474,
      "materials": 7475,
      "achievements": 7476,
      "summ": 7477,
      "##wise": 7478,
      "##GI": 7479,
      "##heless": 7480,
      "famous": 7481,
      "topic": 7482,
      "architectural": 7483,
      "ethnic": 7484,
      "prestigious": 7485,
      "Lake": 7486,
      "god": 7487,
      "wall": 7488,
      "##atal": 7489,
      "worst": 7490,
      "##ounced": 7491,
      "road": 7492,
      "village": 7493,
      "mutual": 7494,
      "counter": 7495,
      "Most": 7496,
      "subt": 7497,
      "##berg": 7498,
      "disjointed": 7499,
      "..": 7500,
      "Vict": 7501,
      "federal": 7502,
      "transition": 7503,
      "facing": 7504,
      "failing": 7505,
      "Prot": 7506,
      "consistently": 7507,
      "vary": 7508,
      "##ien": 7509,
      "creation": 7510,
      "supportive": 7511,
      "researchers": 7512,
      "respective": 7513,
      "eye": 7514,
      "hosp": 7515,
      "vision": 7516,
      "flic": 7517,
      "League": 7518,
      "##ya": 7519,
      "##oo": 7520,
      "aren": 7521,
      "overly": 7522,
      "dropp": 7523,
      "convolut": 7524,
      "joined": 7525,
      "running": 7526,
      "2000": 7527,
      "transl": 7528,
      "meeting": 7529,
      "##icr": 7530,
      "rang": 7531,
      "tough": 7532,
      "analy": 7533,
      "##istan": 7534,
      "drag": 7535,
      "opening": 7536,
      "tells": 7537,
      "commercial": 7538,
      ".,": 7539,
      "Mark": 7540,
      "nost": 7541,
      "compon": 7542,
      "embark": 7543,
      "innovation": 7544,
      "##AT": 7545,
      "##orr": 7546,
      "repe": 7547,
      "methods": 7548,
      "Robert": 7549,
      "tend": 7550,
      "##itan": 7551,
      "enchant": 7552,
      "incons": 7553,
      "controll": 7554,
      "Mel": 7555,
      "male": 7556,
      "ride": 7557,
      "basically": 7558,
      "Whether": 7559,
      "ends": 7560,
      "projects": 7561,
      "Foot": 7562,
      "active": 7563,
      "investment": 7564,
      "une": 7565,
      "industrial": 7566,
      "highest": 7567,
      "convoluted": 7568,
      "fix": 7569,
      "weight": 7570,
      "wealth": 7571,
      "thinks": 7572,
      "immense": 7573,
      "connections": 7574,
      "details": 7575,
      "magic": 7576,
      "eat": 7577,
      "evolved": 7578,
      "spectacle": 7579,
      "##acity": 7580,
      "outstanding": 7581,
      "intended": 7582,
      "Dis": 7583,
      "##ters": 7584,
      "shar": 7585,
      "##ception": 7586,
      "element": 7587,
      "encounter": 7588,
      "okay": 7589,
      "31": 7590,
      "advant": 7591,
      "##attle": 7592,
      "bomb": 7593,
      "mel": 7594,
      "Spe": 7595,
      "east": 7596,
      "ut": 7597,
      "##eem": 7598,
      "weird": 7599,
      "array": 7600,
      "##ensus": 7601,
      "required": 7602,
      "heavy": 7603,
      "nostalg": 7604,
      "fort": 7605,
      "##ianc": 7606,
      "George": 7607,
      "revolves": 7608,
      "Victor": 7609,
      "myst": 7610,
      "186": 7611,
      "nearly": 7612,
      "moral": 7613,
      "measure": 7614,
      "inher": 7615,
      "feed": 7616,
      "##inter": 7617,
      "search": 7618,
      "looked": 7619,
      "ecosystem": 7620,
      "filmmakers": 7621,
      "phenomen": 7622,
      "vent": 7623,
      "formula": 7624,
      "argued": 7625,
      "huge": 7626,
      "sources": 7627,
      "##anted": 7628,
      "compl": 7629,
      "##ference": 7630,
      "recon": 7631,
      "Sea": 7632,
      "dang": 7633,
      "##ulate": 7634,
      "circum": 7635,
      "Academ": 7636,
      "Italian": 7637,
      "Budd": 7638,
      "Star": 7639,
      "pressure": 7640,
      "slightly": 7641,
      "##licit": 7642,
      "monarch": 7643,
      "hands": 7644,
      "##erties": 7645,
      "combined": 7646,
      "jump": 7647,
      "labor": 7648,
      "southern": 7649,
      "tax": 7650,
      "myth": 7651,
      "ages": 7652,
      "ball": 7653,
      "functions": 7654,
      "picture": 7655,
      "effici": 7656,
      "##unicip": 7657,
      "Born": 7658,
      "average": 7659,
      "dance": 7660,
      "##iate": 7661,
      "##burg": 7662,
      "numbers": 7663,
      "religion": 7664,
      "##iveness": 7665,
      "aircraft": 7666,
      "commendable": 7667,
      "##olk": 7668,
      "compared": 7669,
      "speaking": 7670,
      "buy": 7671,
      "breaking": 7672,
      "sustainable": 7673,
      "##ufact": 7674,
      "dates": 7675,
      "match": 7676,
      "songs": 7677,
      "installment": 7678,
      "Red": 7679,
      "##abilities": 7680,
      "properties": 7681,
      "wonderful": 7682,
      "tast": 7683,
      "##och": 7684,
      "##isted": 7685,
      "challenge": 7686,
      "dialect": 7687,
      "anti": 7688,
      "administrative": 7689,
      "literary": 7690,
      "##connected": 7691,
      "categ": 7692,
      "standout": 7693,
      "Islam": 7694,
      "##ords": 7695,
      "##illa": 7696,
      "Paris": 7697,
      "expertise": 7698,
      "drug": 7699,
      "joy": 7700,
      "thous": 7701,
      "interv": 7702,
      "combination": 7703,
      "hilarious": 7704,
      "##icks": 7705,
      "hasn": 7706,
      "electr": 7707,
      "Christianity": 7708,
      "products": 7709,
      "unwaver": 7710,
      "unwavering": 7711,
      "ran": 7712,
      "##kward": 7713,
      "##iff": 7714,
      "chore": 7715,
      "relev": 7716,
      "composed": 7717,
      "spl": 7718,
      "finds": 7719,
      "contrast": 7720,
      "Lastly": 7721,
      "beliefs": 7722,
      "Are": 7723,
      "IS": 7724,
      "##alk": 7725,
      "internal": 7726,
      "succeed": 7727,
      "unforgettable": 7728,
      "CGI": 7729,
      "Pri": 7730,
      "Christmas": 7731,
      "fianc": 7732,
      "laughter": 7733,
      "##ients": 7734,
      "relatively": 7735,
      "distribution": 7736,
      "##VD": 7737,
      "##estic": 7738,
      "whenever": 7739,
      "door": 7740,
      "incident": 7741,
      "##ronic": 7742,
      "awkward": 7743,
      "card": 7744,
      "##eness": 7745,
      "willing": 7746,
      "2020": 7747,
      "efficient": 7748,
      "Cong": 7749,
      "Dep": 7750,
      "Middle": 7751,
      "greater": 7752,
      "##orough": 7753,
      "##ems": 7754,
      "scientists": 7755,
      "strategies": 7756,
      "strengths": 7757,
      "predecessor": 7758,
      "##bo": 7759,
      "redu": 7760,
      "Russia": 7761,
      "TH": 7762,
      "2011": 7763,
      "hind": 7764,
      "##ero": 7765,
      "##ume": 7766,
      "##olutions": 7767,
      "condition": 7768,
      "resilience": 7769,
      "rent": 7770,
      "##rect": 7771,
      "intensity": 7772,
      "worry": 7773,
      "Italy": 7774,
      "##tedly": 7775,
      "shaped": 7776,
      "##ooth": 7777,
      "##oubtedly": 7778,
      "##gen": 7779,
      "##urs": 7780,
      "##erson": 7781,
      "save": 7782,
      "discussions": 7783,
      "morning": 7784,
      "negative": 7785,
      "colonial": 7786,
      "substantial": 7787,
      "Mary": 7788,
      "gas": 7789,
      "outd": 7790,
      "manufact": 7791,
      "cheap": 7792,
      "##rest": 7793,
      "##otyp": 7794,
      "disres": 7795,
      "teen": 7796,
      "coop": 7797,
      "missed": 7798,
      "risk": 7799,
      "Like": 7800,
      "dated": 7801,
      "##!!": 7802,
      "cinema": 7803,
      "aims": 7804,
      "engagement": 7805,
      "##ari": 7806,
      "height": 7807,
      "##ushing": 7808,
      "income": 7809,
      "ensures": 7810,
      "broader": 7811,
      "reaching": 7812,
      "##hy": 7813,
      "proceed": 7814,
      "##aming": 7815,
      "advanced": 7816,
      "consists": 7817,
      "establishing": 7818,
      "aspir": 7819,
      "unre": 7820,
      "evolution": 7821,
      "acclaim": 7822,
      "2016": 7823,
      "opened": 7824,
      "cous": 7825,
      "##itor": 7826,
      "Je": 7827,
      "museum": 7828,
      "note": 7829,
      "underlying": 7830,
      "detract": 7831,
      "encompasses": 7832,
      "recommend": 7833,
      "pros": 7834,
      "##veloped": 7835,
      "activity": 7836,
      "32": 7837,
      "Est": 7838,
      "shown": 7839,
      "starts": 7840,
      "divided": 7841,
      "band": 7842,
      "western": 7843,
      "##tt": 7844,
      "##down": 7845,
      "speed": 7846,
      "hub": 7847,
      "inj": 7848,
      "discovered": 7849,
      "complexities": 7850,
      "raised": 7851,
      "##ram": 7852,
      "##hew": 7853,
      "##oving": 7854,
      "doubt": 7855,
      "camera": 7856,
      "circumst": 7857,
      "presented": 7858,
      "undoubtedly": 7859,
      "gift": 7860,
      "##ux": 7861,
      "##aved": 7862,
      "emerg": 7863,
      "suggested": 7864,
      "##lywood": 7865,
      "##bon": 7866,
      "spark": 7867,
      "betray": 7868,
      "parent": 7869,
      "governance": 7870,
      "represents": 7871,
      "freedom": 7872,
      "fiancé": 7873,
      "App": 7874,
      "##ugg": 7875,
      "##inn": 7876,
      "##vert": 7877,
      "##ifts": 7878,
      "ship": 7879,
      "empath": 7880,
      "##erial": 7881,
      "units": 7882,
      "uses": 7883,
      "exciting": 7884,
      "engineering": 7885,
      "kingdom": 7886,
      "Revolution": 7887,
      "indel": 7888,
      "##ternal": 7889,
      "likely": 7890,
      "La": 7891,
      "rac": 7892,
      "##ica": 7893,
      "places": 7894,
      "standing": 7895,
      "admit": 7896,
      "indelible": 7897,
      "Dut": 7898,
      "##enty": 7899,
      "##leg": 7900,
      "##iforn": 7901,
      "spot": 7902,
      "depict": 7903,
      "nu": 7904,
      "nob": 7905,
      "##iding": 7906,
      "shallow": 7907,
      "recre": 7908,
      "Ste": 7909,
      "centers": 7910,
      "defensive": 7911,
      "networks": 7912,
      "Parliament": 7913,
      "UN": 7914,
      "worried": 7915,
      "solely": 7916,
      "protection": 7917,
      "Mex": 7918,
      "mi": 7919,
      "##equ": 7920,
      "##roy": 7921,
      "calls": 7922,
      "Phil": 7923,
      "gradually": 7924,
      "Feb": 7925,
      "##piece": 7926,
      "##eria": 7927,
      "unp": 7928,
      "188": 7929,
      "David": 7930,
      "dismiss": 7931,
      "amp": 7932,
      "timeless": 7933,
      "clar": 7934,
      "conson": 7935,
      "apartment": 7936,
      "Californ": 7937,
      "Ter": 7938,
      "##drop": 7939,
      "repr": 7940,
      "Pro": 7941,
      "##oral": 7942,
      "Thanks": 7943,
      "property": 7944,
      "Mexic": 7945,
      "evident": 7946,
      "defe": 7947,
      "Scott": 7948,
      "alternative": 7949,
      "vac": 7950,
      "epic": 7951,
      "##hearted": 7952,
      "Cont": 7953,
      "Moon": 7954,
      "mes": 7955,
      "arc": 7956,
      "charming": 7957,
      "architecture": 7958,
      "Ke": 7959,
      "##zz": 7960,
      "results": 7961,
      "corpor": 7962,
      "limit": 7963,
      "Imp": 7964,
      "##hi": 7965,
      "beg": 7966,
      "stars": 7967,
      "##encing": 7968,
      "representation": 7969,
      "mob": 7970,
      "stere": 7971,
      "##irely": 7972,
      "Frank": 7973,
      "electric": 7974,
      "institution": 7975,
      "daily": 7976,
      "California": 7977,
      "Old": 7978,
      "sea": 7979,
      "cohes": 7980,
      "realized": 7981,
      "entirely": 7982,
      "Oh": 7983,
      "fest": 7984,
      "dram": 7985,
      "periods": 7986,
      "specifically": 7987,
      "discussing": 7988,
      "##force": 7989,
      "casual": 7990,
      "seriously": 7991,
      "Institut": 7992,
      "discovery": 7993,
      "Port": 7994,
      "##uan": 7995,
      "appointed": 7996,
      "believ": 7997,
      "defined": 7998,
      "originally": 7999,
      "ready": 8000,
      "adopted": 8001,
      "CD": 8002,
      "DVD": 8003,
      "##ruary": 8004,
      "leads": 8005,
      "claims": 8006,
      "##yle": 8007,
      "notice": 8008,
      "kilomet": 8009,
      "February": 8010,
      "gender": 8011,
      "disag": 8012,
      "fulf": 8013,
      "theme": 8014,
      "check": 8015,
      "steps": 8016,
      "territories": 8017,
      "rushed": 8018,
      "vari": 8019,
      "coord": 8020,
      "Island": 8021,
      "software": 8022,
      "pieces": 8023,
      "##ket": 8024,
      "uncon": 8025,
      "brain": 8026,
      "perhaps": 8027,
      "terrible": 8028,
      "Academy": 8029,
      "##ipped": 8030,
      "frustrated": 8031,
      "laug": 8032,
      "pun": 8033,
      "timing": 8034,
      "manip": 8035,
      "##rovers": 8036,
      "county": 8037,
      "2019": 8038,
      "resulted": 8039,
      "appearance": 8040,
      "described": 8041,
      "player": 8042,
      "expressing": 8043,
      "putting": 8044,
      "##cessarily": 8045,
      "exhilar": 8046,
      "overwhelming": 8047,
      "Ren": 8048,
      "poorly": 8049,
      "35": 8050,
      "Mount": 8051,
      "eager": 8052,
      "##igned": 8053,
      "bank": 8054,
      "emotion": 8055,
      "transformation": 8056,
      "circumstances": 8057,
      "Nor": 8058,
      "##ule": 8059,
      "resol": 8060,
      "delightful": 8061,
      "therapy": 8062,
      "bill": 8063,
      "tries": 8064,
      "devast": 8065,
      "clearly": 8066,
      "Hind": 8067,
      "intention": 8068,
      "187": 8069,
      "mood": 8070,
      "tack": 8071,
      "abilities": 8072,
      "inside": 8073,
      "broadcast": 8074,
      "reduced": 8075,
      "Japanese": 8076,
      "developing": 8077,
      "shouldn": 8078,
      "##grad": 8079,
      "animal": 8080,
      "occurred": 8081,
      "immersing": 8082,
      "Im": 8083,
      "##olar": 8084,
      "liked": 8085,
      "addressing": 8086,
      "damage": 8087,
      "inconsist": 8088,
      "Of": 8089,
      "##inking": 8090,
      "##atever": 8091,
      "##ogen": 8092,
      "designs": 8093,
      "pet": 8094,
      "oversh": 8095,
      "friendly": 8096,
      "distant": 8097,
      "legend": 8098,
      "integral": 8099,
      "Day": 8100,
      "humans": 8101,
      "differences": 8102,
      "auton": 8103,
      "topics": 8104,
      "industries": 8105,
      "##enses": 8106,
      "characteristics": 8107,
      "battles": 8108,
      "Football": 8109,
      "thus": 8110,
      "##ady": 8111,
      "decent": 8112,
      "prioritize": 8113,
      "sorry": 8114,
      "gold": 8115,
      "##bour": 8116,
      "##uous": 8117,
      "##IN": 8118,
      "controvers": 8119,
      "according": 8120,
      "selfish": 8121,
      "driven": 8122,
      "Mod": 8123,
      "##itz": 8124,
      "Henry": 8125,
      "flick": 8126,
      "Sal": 8127,
      "firm": 8128,
      "whom": 8129,
      "capacity": 8130,
      "expression": 8131,
      "geograph": 8132,
      "laid": 8133,
      "agricultural": 8134,
      "Mart": 8135,
      "##ieval": 8136,
      "appl": 8137,
      "greatest": 8138,
      "excited": 8139,
      "Jes": 8140,
      "##apped": 8141,
      "certainly": 8142,
      "Commun": 8143,
      "overshad": 8144,
      "Bec": 8145,
      "Cour": 8146,
      "##iny": 8147,
      "deserves": 8148,
      "conven": 8149,
      "creates": 8150,
      "societies": 8151,
      "uninspired": 8152,
      "sib": 8153,
      "formation": 8154,
      "showcase": 8155,
      "obvious": 8156,
      "Richard": 8157,
      "Pat": 8158,
      "Up": 8159,
      "bf": 8160,
      "Arch": 8161,
      "escal": 8162,
      "escape": 8163,
      "contract": 8164,
      "supported": 8165,
      "appears": 8166,
      "measures": 8167,
      "Charles": 8168,
      "obviously": 8169,
      "decline": 8170,
      "explos": 8171,
      "##ugby": 8172,
      "cells": 8173,
      "Cons": 8174,
      "##ossible": 8175,
      "helps": 8176,
      "Smith": 8177,
      "ath": 8178,
      "killed": 8179,
      "##ressive": 8180,
      "president": 8181,
      "larg": 8182,
      "alongside": 8183,
      "concerned": 8184,
      "creative": 8185,
      "employed": 8186,
      "judgment": 8187,
      "Royal": 8188,
      "northern": 8189,
      "rig": 8190,
      "resolution": 8191,
      "185": 8192,
      "III": 8193,
      "loves": 8194,
      "wait": 8195,
      "People": 8196,
      "##ampionship": 8197,
      "race": 8198,
      "##throp": 8199,
      "##mental": 8200,
      "##ocking": 8201,
      "evil": 8202,
      "represented": 8203,
      "pan": 8204,
      "##AN": 8205,
      "pra": 8206,
      "indigenous": 8207,
      "historic": 8208,
      "collaboration": 8209,
      "Gold": 8210,
      "Jer": 8211,
      "nations": 8212,
      "##rane": 8213,
      "roomm": 8214,
      "transfer": 8215,
      "2010": 8216,
      "enjoyed": 8217,
      "smaller": 8218,
      "literally": 8219,
      "Age": 8220,
      "sick": 8221,
      "##xic": 8222,
      "##BC": 8223,
      "desired": 8224,
      "detect": 8225,
      "box": 8226,
      "Overall": 8227,
      "Jewish": 8228,
      "Pac": 8229,
      "enchanting": 8230,
      "aest": 8231,
      "##urance": 8232,
      "personality": 8233,
      "pen": 8234,
      "##urder": 8235,
      "##idden": 8236,
      "Second": 8237,
      "##ented": 8238,
      "##ago": 8239,
      "sched": 8240,
      "liber": 8241,
      "realize": 8242,
      "arguments": 8243,
      "originality": 8244,
      "sacrif": 8245,
      "##lication": 8246,
      "captured": 8247,
      "exhilarating": 8248,
      "har": 8249,
      "sun": 8250,
      "##ails": 8251,
      "coher": 8252,
      "locations": 8253,
      "sequence": 8254,
      "captivated": 8255,
      "weekend": 8256,
      "Trans": 8257,
      "charisma": 8258,
      "hur": 8259,
      "losing": 8260,
      "##hic": 8261,
      "resource": 8262,
      "disrupt": 8263,
      "##rawn": 8264,
      "##incing": 8265,
      "channel": 8266,
      "companies": 8267,
      "largely": 8268,
      "##iest": 8269,
      "poly": 8270,
      "officially": 8271,
      "framework": 8272,
      "favorite": 8273,
      "Men": 8274,
      "afford": 8275,
      "Che": 8276,
      "troub": 8277,
      "shift": 8278,
      "##uman": 8279,
      "appeared": 8280,
      "conclusion": 8281,
      "Bo": 8282,
      "vow": 8283,
      "input": 8284,
      "convey": 8285,
      "compos": 8286,
      "invited": 8287,
      "showcased": 8288,
      "Hollywood": 8289,
      "hate": 8290,
      "##icking": 8291,
      "doctor": 8292,
      "##ittee": 8293,
      "2015": 8294,
      "benefits": 8295,
      "cart": 8296,
      "##ech": 8297,
      "scr": 8298,
      "##arrass": 8299,
      "involving": 8300,
      "dynasty": 8301,
      "intelligence": 8302,
      "picturesque": 8303,
      "##ida": 8304,
      "feet": 8305,
      "valid": 8306,
      "slap": 8307,
      "elections": 8308,
      "lighthearted": 8309,
      "emphasis": 8310,
      "please": 8311,
      "resonate": 8312,
      "platforms": 8313,
      "Uk": 8314,
      "bought": 8315,
      "##lig": 8316,
      "##field": 8317,
      "connected": 8318,
      "classical": 8319,
      "introduction": 8320,
      "acknowled": 8321,
      "Associ": 8322,
      "ce": 8323,
      "lose": 8324,
      "mil": 8325,
      "generation": 8326,
      "facilities": 8327,
      "mountain": 8328,
      "hospital": 8329,
      "league": 8330,
      "previously": 8331,
      "Bul": 8332,
      "river": 8333,
      "##rey": 8334,
      "crime": 8335,
      "writers": 8336,
      "Den": 8337,
      "mere": 8338,
      "##bed": 8339,
      "forgettable": 8340,
      "planned": 8341,
      "Army": 8342,
      "happens": 8343,
      "stopped": 8344,
      "reject": 8345,
      "##ulating": 8346,
      "aware": 8347,
      "basic": 8348,
      "##andon": 8349,
      "attend": 8350,
      "wrest": 8351,
      "embarrass": 8352,
      "attracting": 8353,
      "mixed": 8354,
      "neighbor": 8355,
      "print": 8356,
      "unfortunately": 8357,
      "actual": 8358,
      "upd": 8359,
      "helping": 8360,
      "##ficial": 8361,
      "honor": 8362,
      "devices": 8363,
      "closely": 8364,
      "patterns": 8365,
      "##lines": 8366,
      "tools": 8367,
      "track": 8368,
      "##umes": 8369,
      "underst": 8370,
      "accident": 8371,
      "mainly": 8372,
      "medic": 8373,
      "breakup": 8374,
      "driving": 8375,
      "division": 8376,
      "versat": 8377,
      "Bas": 8378,
      "cater": 8379,
      "##ctors": 8380,
      "branch": 8381,
      "extends": 8382,
      "loving": 8383,
      "expansion": 8384,
      "Histor": 8385,
      "##heast": 8386,
      "store": 8387,
      "whatever": 8388,
      "creativity": 8389,
      "Bay": 8390,
      "##unting": 8391,
      "unity": 8392,
      "Init": 8393,
      "Ant": 8394,
      "##azz": 8395,
      "sensitive": 8396,
      "laughs": 8397,
      "disagree": 8398,
      "Viet": 8399,
      "##aust": 8400,
      "##west": 8401,
      "##arding": 8402,
      "##ears": 8403,
      "oldest": 8404,
      "readers": 8405,
      "Scot": 8406,
      "masterpiece": 8407,
      "##ounds": 8408,
      "pace": 8409,
      "eastern": 8410,
      "existing": 8411,
      "San": 8412,
      "##andom": 8413,
      "backdrop": 8414,
      "endearing": 8415,
      "gotten": 8416,
      "cold": 8417,
      "rate": 8418,
      "tens": 8419,
      "waste": 8420,
      "trop": 8421,
      "cultiv": 8422,
      "chemical": 8423,
      "derived": 8424,
      "Dutch": 8425,
      "dreams": 8426,
      "sides": 8427,
      "tap": 8428,
      "##inative": 8429,
      "##olf": 8430,
      "unit": 8431,
      "Spain": 8432,
      "mesmer": 8433,
      "##oz": 8434,
      "cha": 8435,
      "shoot": 8436,
      "cool": 8437,
      "2014": 8438,
      "equal": 8439,
      "buildings": 8440,
      "memory": 8441,
      "geomet": 8442,
      "fighting": 8443,
      "fantasy": 8444,
      "##engt": 8445,
      "showed": 8446,
      "produce": 8447,
      "Super": 8448,
      "reducing": 8449,
      "exactly": 8450,
      "newspaper": 8451,
      "ment": 8452,
      "tong": 8453,
      "##inated": 8454,
      "18th": 8455,
      "pursuit": 8456,
      "cycle": 8457,
      "joint": 8458,
      "##rim": 8459,
      "##atisf": 8460,
      "stret": 8461,
      "##ules": 8462,
      "Franc": 8463,
      "discipl": 8464,
      "Atl": 8465,
      "##han": 8466,
      "options": 8467,
      "Louis": 8468,
      "Met": 8469,
      "adj": 8470,
      "perm": 8471,
      "block": 8472,
      "cerem": 8473,
      "Post": 8474,
      "tourn": 8475,
      "##rief": 8476,
      "overl": 8477,
      "writer": 8478,
      "2022": 8479,
      "##ta": 8480,
      "##iring": 8481,
      "leaders": 8482,
      "featuring": 8483,
      "staying": 8484,
      "cutting": 8485,
      "##eav": 8486,
      "##eror": 8487,
      "isol": 8488,
      "happiness": 8489,
      "2012": 8490,
      "##axim": 8491,
      "claimed": 8492,
      "safe": 8493,
      "##aturally": 8494,
      "garner": 8495,
      "thousands": 8496,
      "murder": 8497,
      "##ompl": 8498,
      "intim": 8499,
      "underm": 8500,
      "quiet": 8501,
      "cow": 8502,
      "##gent": 8503,
      "##ims": 8504,
      "##umph": 8505,
      "province": 8506,
      "equally": 8507,
      "consistent": 8508,
      "##esterday": 8509,
      "stereotyp": 8510,
      "bodies": 8511,
      "thriller": 8512,
      "Mu": 8513,
      "Never": 8514,
      "comfort": 8515,
      "abund": 8516,
      "##ees": 8517,
      "##pire": 8518,
      "endeav": 8519,
      "2018": 8520,
      "refused": 8521,
      "teachings": 8522,
      "astron": 8523,
      "dat": 8524,
      "##ctional": 8525,
      "##merse": 8526,
      "2021": 8527,
      "pleas": 8528,
      "mistake": 8529,
      "loud": 8530,
      "municip": 8531,
      "warm": 8532,
      "##rel": 8533,
      "onto": 8534,
      "goal": 8535,
      "preserving": 8536,
      "confusing": 8537,
      "1996": 8538,
      "destination": 8539,
      "AD": 8540,
      "Ocean": 8541,
      "##rees": 8542,
      "strengt": 8543,
      "autom": 8544,
      "renew": 8545,
      "anxiety": 8546,
      "Hell": 8547,
      "##ishop": 8548,
      "purch": 8549,
      "ecological": 8550,
      "uncertain": 8551,
      "paying": 8552,
      "occurs": 8553,
      "Let": 8554,
      "mouth": 8555,
      "##ione": 8556,
      "goods": 8557,
      "confronted": 8558,
      "native": 8559,
      "##co": 8560,
      "##erie": 8561,
      "roots": 8562,
      "responsibilities": 8563,
      "Nations": 8564,
      "Str": 8565,
      "apologize": 8566,
      "episode": 8567,
      "Ukrain": 8568,
      "Hall": 8569,
      "cul": 8570,
      "actress": 8571,
      "medieval": 8572,
      "dilem": 8573,
      "green": 8574,
      "##aline": 8575,
      "pron": 8576,
      "train": 8577,
      "##iber": 8578,
      "accompl": 8579,
      "basket": 8580,
      "Mac": 8581,
      "harsh": 8582,
      "odd": 8583,
      "##water": 8584,
      "##othes": 8585,
      "adap": 8586,
      "Grand": 8587,
      "administration": 8588,
      "Disney": 8589,
      "prow": 8590,
      "##unched": 8591,
      "resistance": 8592,
      "otherwise": 8593,
      "Prov": 8594,
      "foster": 8595,
      "**": 8596,
      "80": 8597,
      "Cor": 8598,
      "solution": 8599,
      "##osis": 8600,
      "##ommod": 8601,
      "terror": 8602,
      "regarded": 8603,
      "loyalty": 8604,
      "##inate": 8605,
      "underde": 8606,
      "##licated": 8607,
      "181": 8608,
      "reflecting": 8609,
      "totally": 8610,
      "Buddh": 8611,
      "Pacific": 8612,
      "Off": 8613,
      "yes": 8614,
      "##action": 8615,
      "adren": 8616,
      "perp": 8617,
      "reading": 8618,
      "conflicted": 8619,
      "accessible": 8620,
      "pursue": 8621,
      "minute": 8622,
      "##osen": 8623,
      "restaur": 8624,
      "Hi": 8625,
      "##ps": 8626,
      "##ola": 8627,
      "invas": 8628,
      "personalities": 8629,
      "2001": 8630,
      "wrote": 8631,
      "disease": 8632,
      "Cup": 8633,
      "Dist": 8634,
      "oil": 8635,
      "push": 8636,
      "rar": 8637,
      "wel": 8638,
      "##ple": 8639,
      "islands": 8640,
      "accommod": 8641,
      "showing": 8642,
      "184": 8643,
      "Jesus": 8644,
      "Vietn": 8645,
      "prowess": 8646,
      "rural": 8647,
      "##stick": 8648,
      "##away": 8649,
      "2008": 8650,
      "missing": 8651,
      "walk": 8652,
      "waiting": 8653,
      "contains": 8654,
      "preservation": 8655,
      "listen": 8656,
      "demonstrated": 8657,
      "gem": 8658,
      "##ocks": 8659,
      "Ann": 8660,
      "contributes": 8661,
      "democratic": 8662,
      "unfair": 8663,
      "disrespect": 8664,
      "jur": 8665,
      "paid": 8666,
      "##arly": 8667,
      "delicate": 8668,
      "combat": 8669,
      "typical": 8670,
      "disappointing": 8671,
      "magical": 8672,
      "##onym": 8673,
      "dimin": 8674,
      "returned": 8675,
      "soul": 8676,
      "##AS": 8677,
      "teacher": 8678,
      "prep": 8679,
      "2017": 8680,
      "styles": 8681,
      "underdeveloped": 8682,
      "##host": 8683,
      "##abet": 8684,
      "overcome": 8685,
      "2006": 8686,
      "screenplay": 8687,
      "flaws": 8688,
      "cooperation": 8689,
      "##natural": 8690,
      "##aled": 8691,
      "command": 8692,
      "immerse": 8693,
      "excellence": 8694,
      "tongue": 8695,
      "fish": 8696,
      "relies": 8697,
      "Why": 8698,
      "inspire": 8699,
      "improved": 8700,
      "brief": 8701,
      "weap": 8702,
      "distract": 8703,
      "presid": 8704,
      "##resp": 8705,
      "smooth": 8706,
      "hearted": 8707,
      "Britain": 8708,
      "fit": 8709,
      "rough": 8710,
      "##lo": 8711,
      "##eling": 8712,
      "intimate": 8713,
      "Stud": 8714,
      "triumph": 8715,
      "possibly": 8716,
      "creatures": 8717,
      "achieved": 8718,
      "brilliant": 8719,
      "Company": 8720,
      "objects": 8721,
      "CE": 8722,
      "##uke": 8723,
      "inject": 8724,
      "##icket": 8725,
      "technologies": 8726,
      "positions": 8727,
      "##ropol": 8728,
      "2023": 8729,
      "hyd": 8730,
      "calm": 8731,
      "##sembly": 8732,
      "inhabit": 8733,
      "Direct": 8734,
      "adrenaline": 8735,
      "Rock": 8736,
      "drawn": 8737,
      "##achel": 8738,
      "2005": 8739,
      "Edit": 8740,
      "fault": 8741,
      "Washing": 8742,
      "relevant": 8743,
      "cousin": 8744,
      "Bond": 8745,
      "Rad": 8746,
      "Sing": 8747,
      "Ultimately": 8748,
      "##isters": 8749,
      "unb": 8750,
      "##arring": 8751,
      "secure": 8752,
      "nearby": 8753,
      "rebuild": 8754,
      "?\"": 8755,
      "##assion": 8756,
      "enhances": 8757,
      "publish": 8758,
      "adopt": 8759,
      "slapstick": 8760,
      "Ob": 8761,
      "gun": 8762,
      "prol": 8763,
      "##ession": 8764,
      "difference": 8765,
      "restrict": 8766,
      "destroy": 8767,
      "Institute": 8768,
      "Washington": 8769,
      "2007": 8770,
      "Director": 8771,
      "Battle": 8772,
      "af": 8773,
      "poll": 8774,
      "##aud": 8775,
      "##raq": 8776,
      "complement": 8777,
      "empower": 8778,
      "privacy": 8779,
      "extreme": 8780,
      "involvement": 8781,
      "advantage": 8782,
      "Scotland": 8783,
      "lit": 8784,
      "##ao": 8785,
      "##under": 8786,
      "joke": 8787,
      "##ini": 8788,
      "##estry": 8789,
      "compar": 8790,
      "specialized": 8791,
      "Mur": 8792,
      "bust": 8793,
      "via": 8794,
      "##idst": 8795,
      "sector": 8796,
      "presents": 8797,
      "attracted": 8798,
      "council": 8799,
      "##ifies": 8800,
      "attribut": 8801,
      "Islands": 8802,
      "receive": 8803,
      "Minister": 8804,
      "(\"": 8805,
      "Rom": 8806,
      "rever": 8807,
      "##obb": 8808,
      "sites": 8809,
      "explaining": 8810,
      "code": 8811,
      "stood": 8812,
      "##anda": 8813,
      "Though": 8814,
      "assess": 8815,
      "simpl": 8816,
      "knowing": 8817,
      "awful": 8818,
      "##inity": 8819,
      "##erts": 8820,
      "toll": 8821,
      "##ella": 8822,
      "promising": 8823,
      "2004": 8824,
      "informed": 8825,
      "divor": 8826,
      "45": 8827,
      "##II": 8828,
      "##antine": 8829,
      "span": 8830,
      "innoc": 8831,
      "striking": 8832,
      "replaced": 8833,
      "Museum": 8834,
      "cry": 8835,
      "sen": 8836,
      "##rd": 8837,
      "##rich": 8838,
      "reliance": 8839,
      "arm": 8840,
      "explo": 8841,
      "inspired": 8842,
      "biggest": 8843,
      "Columb": 8844,
      "Iraq": 8845,
      "solutions": 8846,
      "virt": 8847,
      "seven": 8848,
      "combines": 8849,
      "relying": 8850,
      "ridicul": 8851,
      "Association": 8852,
      "hes": 8853,
      "rare": 8854,
      "##lers": 8855,
      "##eren": 8856,
      "toxic": 8857,
      "everyday": 8858,
      "formal": 8859,
      "dealing": 8860,
      "Av": 8861,
      "Ev": 8862,
      "Good": 8863,
      "random": 8864,
      "vel": 8865,
      "shock": 8866,
      "seemingly": 8867,
      "landmark": 8868,
      "affected": 8869,
      "Maybe": 8870,
      "basketball": 8871,
      "Boy": 8872,
      "crying": 8873,
      "dream": 8874,
      "lic": 8875,
      "usual": 8876,
      "delves": 8877,
      "determined": 8878,
      "Because": 8879,
      "Will": 8880,
      "##lights": 8881,
      "external": 8882,
      "causes": 8883,
      "correct": 8884,
      "emphasizing": 8885,
      "accepted": 8886,
      "Arabic": 8887,
      "credit": 8888,
      "efficiency": 8889,
      "Fast": 8890,
      "##ona": 8891,
      "##tered": 8892,
      "views": 8893,
      "obtain": 8894,
      "adaptation": 8895,
      "Nav": 8896,
      "dur": 8897,
      "holid": 8898,
      "rein": 8899,
      "##aker": 8900,
      "grown": 8901,
      "severe": 8902,
      "integrity": 8903,
      "facilitating": 8904,
      "Congress": 8905,
      "Elect": 8906,
      "border": 8907,
      "Democratic": 8908,
      "vocal": 8909,
      "Ple": 8910,
      "influences": 8911,
      "Rome": 8912,
      "Southern": 8913,
      "##err": 8914,
      "Armen": 8915,
      "integration": 8916,
      "mystery": 8917,
      "Jim": 8918,
      "lie": 8919,
      "##--": 8920,
      "##orous": 8921,
      "reven": 8922,
      "##amil": 8923,
      "Iran": 8924,
      "settings": 8925,
      "arrange": 8926,
      "hook": 8927,
      "##rived": 8928,
      "chosen": 8929,
      "##ption": 8930,
      "childhood": 8931,
      "announced": 8932,
      "domestic": 8933,
      "depending": 8934,
      "gripping": 8935,
      "nuclear": 8936,
      "Bal": 8937,
      "bul": 8938,
      "fur": 8939,
      "##kes": 8940,
      "comic": 8941,
      "spaces": 8942,
      "passeng": 8943,
      "compromise": 8944,
      "kill": 8945,
      "##atures": 8946,
      "##eder": 8947,
      "##ums": 8948,
      "neur": 8949,
      "genres": 8950,
      "Stand": 8951,
      "letter": 8952,
      "adults": 8953,
      "Wars": 8954,
      "##cent": 8955,
      "##ette": 8956,
      "conservation": 8957,
      "##anna": 8958,
      "##olec": 8959,
      "soldiers": 8960,
      "Jul": 8961,
      "##ville": 8962,
      "##well": 8963,
      "regret": 8964,
      "Korea": 8965,
      "Mat": 8966,
      "##bing": 8967,
      "##ounding": 8968,
      "workers": 8969,
      "flour": 8970,
      "coach": 8971,
      "2013": 8972,
      "enjoyment": 8973,
      "strike": 8974,
      "villain": 8975,
      "purposes": 8976,
      "Swed": 8977,
      "mesmerizing": 8978,
      "garnered": 8979,
      "Both": 8980,
      "##OT": 8981,
      "##rific": 8982,
      "shake": 8983,
      "1980s": 8984,
      "basis": 8985,
      "launched": 8986,
      "##razy": 8987,
      "mart": 8988,
      "##PA": 8989,
      "##ani": 8990,
      "explored": 8991,
      "representing": 8992,
      "borders": 8993,
      "Society": 8994,
      "believable": 8995,
      "nut": 8996,
      "wider": 8997,
      "##life": 8998,
      "##roc": 8999,
      "##IS": 9000,
      "assist": 9001,
      "2002": 9002,
      "respected": 9003,
      "ranging": 9004,
      "Wil": 9005,
      "lat": 9006,
      "##uits": 9007,
      "##NA": 9008,
      "##ora": 9009,
      "subpl": 9010,
      "defense": 9011,
      "1998": 9012,
      "neglect": 9013,
      "Jud": 9014,
      "Ok": 9015,
      "Sil": 9016,
      "dut": 9017,
      "##BA": 9018,
      "reass": 9019,
      "conver": 9020,
      "conqu": 9021,
      "disord": 9022,
      "proposed": 9023,
      "expecting": 9024,
      "Science": 9025,
      "dramatic": 9026,
      "60": 9027,
      "Civil": 9028,
      "Tel": 9029,
      "##add": 9030,
      "##apers": 9031,
      "speakers": 9032,
      "capabilities": 9033,
      "talents": 9034,
      "believes": 9035,
      "businesses": 9036,
      "answer": 9037,
      "##how": 9038,
      "##entional": 9039,
      "exerc": 9040,
      "chief": 9041,
      "reliable": 9042,
      "accomp": 9043,
      "twist": 9044,
      "Prince": 9045,
      "machine": 9046,
      "##empl": 9047,
      "models": 9048,
      "##sequently": 9049,
      "Angel": 9050,
      "meticulously": 9051,
      "pregnant": 9052,
      "split": 9053,
      "image": 9054,
      "Once": 9055,
      "News": 9056,
      "operates": 9057,
      "imagination": 9058,
      "appealing": 9059,
      "philosophical": 9060,
      "tool": 9061,
      "##umn": 9062,
      "##ellar": 9063,
      "disput": 9064,
      "appr": 9065,
      "board": 9066,
      "apparently": 9067,
      "ton": 9068,
      "wish": 9069,
      "##asm": 9070,
      "##opher": 9071,
      "impossible": 9072,
      "explan": 9073,
      "criticism": 9074,
      "eight": 9075,
      "##right": 9076,
      "indic": 9077,
      "Art": 9078,
      "covered": 9079,
      "Court": 9080,
      "fif": 9081,
      "##ij": 9082,
      "##ES": 9083,
      "crim": 9084,
      "realistic": 9085,
      "ideal": 9086,
      "credits": 9087,
      "palp": 9088,
      "##ographed": 9089,
      "##mar": 9090,
      "intentions": 9091,
      "relief": 9092,
      "Thom": 9093,
      "libr": 9094,
      "owned": 9095,
      "esteem": 9096,
      "portion": 9097,
      "diplomatic": 9098,
      "Award": 9099,
      "##cing": 9100,
      "forem": 9101,
      "relent": 9102,
      "##ressed": 9103,
      "2009": 9104,
      "##ashion": 9105,
      "celebrated": 9106,
      "summer": 9107,
      "inhab": 9108,
      "webs": 9109,
      "500": 9110,
      "Serv": 9111,
      "pil": 9112,
      "align": 9113,
      "myster": 9114,
      "abandon": 9115,
      "agg": 9116,
      "##race": 9117,
      "2003": 9118,
      "join": 9119,
      "rarely": 9120,
      "stream": 9121,
      "empire": 9122,
      "teaching": 9123,
      "motivations": 9124,
      "Ol": 9125,
      "##ala": 9126,
      "##sey": 9127,
      "inval": 9128,
      "colors": 9129,
      "chec": 9130,
      "voic": 9131,
      "holding": 9132,
      "Initially": 9133,
      "Found": 9134,
      "Li": 9135,
      "Leg": 9136,
      "##raid": 9137,
      "##reme": 9138,
      "seamless": 9139,
      "clubs": 9140,
      "preferences": 9141,
      "mathematics": 9142,
      "partnership": 9143,
      "disciplines": 9144,
      "palpable": 9145,
      "eating": 9146,
      "inner": 9147,
      "##urities": 9148,
      "##udes": 9149,
      "fourth": 9150,
      "treated": 9151,
      "frustrating": 9152,
      "gags": 9153,
      "paper": 9154,
      "user": 9155,
      "organized": 9156,
      "predomin": 9157,
      "busy": 9158,
      "uncle": 9159,
      "frustration": 9160,
      "arrived": 9161,
      "District": 9162,
      "census": 9163,
      "tun": 9164,
      "##irgin": 9165,
      "heat": 9166,
      "frag": 9167,
      "millions": 9168,
      "bothering": 9169,
      "suddenly": 9170,
      "Wal": 9171,
      "pione": 9172,
      "##theless": 9173,
      "##ON": 9174,
      "##allel": 9175,
      "increase": 9176,
      "request": 9177,
      "reforms": 9178,
      "anticipated": 9179,
      "die": 9180,
      "staff": 9181,
      "identify": 9182,
      "airport": 9183,
      "supply": 9184,
      "Before": 9185,
      "Kong": 9186,
      "ties": 9187,
      "ven": 9188,
      "##tery": 9189,
      "disconnected": 9190,
      "overse": 9191,
      "graph": 9192,
      "##auc": 9193,
      "format": 9194,
      "obst": 9195,
      "authorities": 9196,
      "lifest": 9197,
      "foremost": 9198,
      "',": 9199,
      "33": 9200,
      "##eur": 9201,
      "##ston": 9202,
      "183": 9203,
      "barely": 9204,
      "Social": 9205,
      "##ceived": 9206,
      "eval": 9207,
      "programming": 9208,
      "Loc": 9209,
      "Pre": 9210,
      "##AA": 9211,
      "relied": 9212,
      "speech": 9213,
      "signs": 9214,
      "accol": 9215,
      "below": 9216,
      "##astical": 9217,
      "carry": 9218,
      "civilizations": 9219,
      "gathering": 9220,
      "Hor": 9221,
      "Sur": 9222,
      "fi": 9223,
      "none": 9224,
      "##oes": 9225,
      "##uation": 9226,
      "##eries": 9227,
      "compassion": 9228,
      "populations": 9229,
      "predecessors": 9230,
      "Bat": 9231,
      "Com": 9232,
      "fashion": 9233,
      "pushing": 9234,
      "##ek": 9235,
      "forget": 9236,
      "quant": 9237,
      "complements": 9238,
      "studied": 9239,
      "Back": 9240,
      "Know": 9241,
      "##ble": 9242,
      "##arc": 9243,
      "earth": 9244,
      "traum": 9245,
      "##ealous": 9246,
      "embracing": 9247,
      "fishing": 9248,
      "paced": 9249,
      "##itc": 9250,
      "placed": 9251,
      "Asian": 9252,
      "highlights": 9253,
      "Americans": 9254,
      "technological": 9255,
      "considerable": 9256,
      "professionals": 9257,
      "backgrounds": 9258,
      "roommate": 9259,
      "##yer": 9260,
      "##backs": 9261,
      "tow": 9262,
      "##iled": 9263,
      "##stein": 9264,
      "Inter": 9265,
      "attempted": 9266,
      "likes": 9267,
      "apologized": 9268,
      "Government": 9269,
      "dull": 9270,
      "##iably": 9271,
      "##body": 9272,
      "wear": 9273,
      "##phabet": 9274,
      "maintained": 9275,
      "agriculture": 9276,
      "underwhelmed": 9277,
      "cos": 9278,
      "san": 9279,
      "##imental": 9280,
      "contrived": 9281,
      "phase": 9282,
      "humanity": 9283,
      "##bridge": 9284,
      "prosper": 9285,
      "begins": 9286,
      "compat": 9287,
      "impe": 9288,
      "datab": 9289,
      "vess": 9290,
      "##inger": 9291,
      "##itious": 9292,
      "##ician": 9293,
      "##rael": 9294,
      "qualities": 9295,
      "houses": 9296,
      "ecosystems": 9297,
      "Directed": 9298,
      "Later": 9299,
      "Mag": 9300,
      "molec": 9301,
      "stre": 9302,
      "complicated": 9303,
      "vehic": 9304,
      "shortcom": 9305,
      "concepts": 9306,
      "opposition": 9307,
      "dialects": 9308,
      "Hel": 9309,
      "##lings": 9310,
      "##itors": 9311,
      "stim": 9312,
      "guard": 9313,
      "choose": 9314,
      "hanging": 9315,
      "afraid": 9316,
      "Cro": 9317,
      "army": 9318,
      "appropriate": 9319,
      "parliament": 9320,
      "happening": 9321,
      "Flor": 9322,
      "reprodu": 9323,
      "understood": 9324,
      "'.": 9325,
      "Mo": 9326,
      "upper": 9327,
      "##ault": 9328,
      "theor": 9329,
      "survival": 9330,
      "mathematical": 9331,
      "Jones": 9332,
      "UK": 9333,
      "rat": 9334,
      "##unts": 9335,
      "shut": 9336,
      "provin": 9337,
      "sweet": 9338,
      "THE": 9339,
      "Jane": 9340,
      "Ott": 9341,
      "sitting": 9342,
      "##IT": 9343,
      "##ivals": 9344,
      "capable": 9345,
      "Israel": 9346,
      "globe": 9347,
      "affecting": 9348,
      "ignore": 9349,
      "taste": 9350,
      "!\"": 9351,
      "Div": 9352,
      "Fort": 9353,
      "Han": 9354,
      "jealous": 9355,
      "kick": 9356,
      "nurt": 9357,
      "##ulf": 9358,
      "shots": 9359,
      "gramm": 9360,
      "extr": 9361,
      "affairs": 9362,
      "underwhelming": 9363,
      "impecc": 9364,
      "Sant": 9365,
      "boring": 9366,
      "farm": 9367,
      "kiss": 9368,
      "##owd": 9369,
      "##odox": 9370,
      "chap": 9371,
      "##pped": 9372,
      "manif": 9373,
      "developments": 9374,
      "1999": 9375,
      "1991": 9376,
      "divine": 9377,
      "Canadian": 9378,
      "highlighting": 9379,
      "salv": 9380,
      "Turk": 9381,
      "Az": 9382,
      "ring": 9383,
      "##oan": 9384,
      "##atively": 9385,
      "blue": 9386,
      "refres": 9387,
      "##itution": 9388,
      "satisfying": 9389,
      "railway": 9390,
      "endeavors": 9391,
      "Cast": 9392,
      "Mont": 9393,
      "gard": 9394,
      "##OR": 9395,
      "##isis": 9396,
      "##ute": 9397,
      "chair": 9398,
      "unable": 9399,
      "1970s": 9400,
      "exchang": 9401,
      "Please": 9402,
      "micr": 9403,
      "stead": 9404,
      "alt": 9405,
      "##agger": 9406,
      "trig": 9407,
      "resent": 9408,
      "ups": 9409,
      "implications": 9410,
      "artist": 9411,
      "cheating": 9412,
      "##place": 9413,
      "operating": 9414,
      "brothers": 9415,
      "collective": 9416,
      "evolving": 9417,
      "Two": 9418,
      "tournament": 9419,
      "bath": 9420,
      "gang": 9421,
      "nor": 9422,
      "pu": 9423,
      "repet": 9424,
      "glimp": 9425,
      "featured": 9426,
      "accounts": 9427,
      "closer": 9428,
      "publishing": 9429,
      "Lord": 9430,
      "crazy": 9431,
      "##iy": 9432,
      "theat": 9433,
      "carbon": 9434,
      "proced": 9435,
      "1990s": 9436,
      "enhanced": 9437,
      "delivered": 9438,
      "Club": 9439,
      "overreacting": 9440,
      "Thomas": 9441,
      "accolades": 9442,
      "shortcomings": 9443,
      "Out": 9444,
      "rude": 9445,
      "verb": 9446,
      "##itarian": 9447,
      "##uls": 9448,
      "##ogle": 9449,
      "application": 9450,
      "colle": 9451,
      "concent": 9452,
      "superficial": 9453,
      "horrible": 9454,
      "momentum": 9455,
      "imaginative": 9456,
      "describe": 9457,
      "Mexico": 9458,
      "hidden": 9459,
      "##van": 9460,
      "scared": 9461,
      "subjects": 9462,
      "handled": 9463,
      "passing": 9464,
      "superior": 9465,
      "agreement": 9466,
      "bott": 9467,
      "du": 9468,
      "decor": 9469,
      "remaining": 9470,
      "editing": 9471,
      "##undred": 9472,
      "behavi": 9473,
      "Recogn": 9474,
      "recorded": 9475,
      "banter": 9476,
      "choreographed": 9477,
      "Pen": 9478,
      "hall": 9479,
      "lover": 9480,
      "##bra": 9481,
      "##ederation": 9482,
      "##areness": 9483,
      "shocked": 9484,
      "classes": 9485,
      "marine": 9486,
      "reported": 9487,
      "accurate": 9488,
      "gf": 9489,
      "##rid": 9490,
      "##oples": 9491,
      "enables": 9492,
      "granted": 9493,
      "brand": 9494,
      "amidst": 9495,
      "attacks": 9496,
      "corrupt": 9497,
      "Resear": 9498,
      "90": 9499,
      "Harr": 9500,
      "awards": 9501,
      "##ioc": 9502,
      "##ada": 9503,
      "regulations": 9504,
      "strain": 9505,
      "faces": 9506,
      "memories": 9507,
      "intimacy": 9508,
      "juris": 9509,
      "Saint": 9510,
      "Us": 9511,
      "fab": 9512,
      "hearing": 9513,
      "transpar": 9514,
      "matches": 9515,
      "ethical": 9516,
      "partners": 9517,
      "Hong": 9518,
      "Holy": 9519,
      "Wood": 9520,
      "Zeal": 9521,
      "Stan": 9522,
      "examples": 9523,
      "housing": 9524,
      "awarded": 9525,
      "##bourne": 9526,
      "##oval": 9527,
      "Harry": 9528,
      "tas": 9529,
      "tact": 9530,
      "##iant": 9531,
      "##la": 9532,
      "##bor": 9533,
      "##irty": 9534,
      "##ortion": 9535,
      "admitted": 9536,
      "devot": 9537,
      "diagn": 9538,
      "Emily": 9539,
      "BCE": 9540,
      "apparent": 9541,
      "Sir": 9542,
      "descend": 9543,
      "decide": 9544,
      "estim": 9545,
      "margin": 9546,
      "annual": 9547,
      "##coming": 9548,
      "utter": 9549,
      "Zealand": 9550,
      "sav": 9551,
      "stable": 9552,
      "lend": 9553,
      "union": 9554,
      "appreciation": 9555,
      "internet": 9556,
      "secondary": 9557,
      "awareness": 9558,
      "negot": 9559,
      "optim": 9560,
      "dominant": 9561,
      "stereotypes": 9562,
      "fle": 9563,
      "##oom": 9564,
      "##AM": 9565,
      "##erd": 9566,
      "stone": 9567,
      "##igration": 9568,
      "##ireless": 9569,
      "##artment": 9570,
      "experiment": 9571,
      "yourself": 9572,
      "1960s": 9573,
      "surprised": 9574,
      "biological": 9575,
      "laughing": 9576,
      "legendary": 9577,
      "Pet": 9578,
      "maxim": 9579,
      "##osc": 9580,
      "Inc": 9581,
      "##ifications": 9582,
      "inclusive": 9583,
      "consc": 9584,
      "entertained": 9585,
      "Mah": 9586,
      "Wind": 9587,
      "latter": 9588,
      "situated": 9589,
      "1997": 9590,
      "closure": 9591,
      "reminder": 9592,
      "constructed": 9593,
      "##respond": 9594,
      "bird": 9595,
      "retain": 9596,
      "##ulty": 9597,
      "discour": 9598,
      "waters": 9599,
      "skillfully": 9600,
      "applied": 9601,
      "refreshing": 9602,
      "70": 9603,
      "Have": 9604,
      "SIL": 9605,
      "thorough": 9606,
      "grab": 9607,
      "equip": 9608,
      "requires": 9609,
      "improving": 9610,
      "ridiculous": 9611,
      "Er": 9612,
      "finished": 9613,
      "scenar": 9614,
      "Byz": 9615,
      "reference": 9616,
      "##ocracy": 9617,
      "expertly": 9618,
      "Similar": 9619,
      "relentless": 9620,
      "Book": 9621,
      "lake": 9622,
      "##orter": 9623,
      "sciences": 9624,
      "clothes": 9625,
      "extent": 9626,
      "strongly": 9627,
      "regardless": 9628,
      "bedroom": 9629,
      "undeniably": 9630,
      "Bill": 9631,
      "Set": 9632,
      "weren": 9633,
      "##rated": 9634,
      "strict": 9635,
      "oblig": 9636,
      "hurtful": 9637,
      "Google": 9638,
      "##hr": 9639,
      "##ution": 9640,
      "proved": 9641,
      "flash": 9642,
      "studying": 9643,
      "carried": 9644,
      "governments": 9645,
      "organisms": 9646,
      "walking": 9647,
      "Valley": 9648,
      "component": 9649,
      "consonant": 9650,
      "bustling": 9651,
      "##can": 9652,
      "##).": 9653,
      "theater": 9654,
      "##ateful": 9655,
      "attended": 9656,
      "peoples": 9657,
      "focusing": 9658,
      "exhaust": 9659,
      "Republican": 9660,
      "benefit": 9661,
      "Big": 9662,
      "Es": 9663,
      "vote": 9664,
      "##AR": 9665,
      "##erk": 9666,
      "promotion": 9667,
      "psychological": 9668,
      "Rail": 9669,
      "ox": 9670,
      "royal": 9671,
      "completed": 9672,
      "discussion": 9673,
      "determine": 9674,
      "clichés": 9675,
      "Hung": 9676,
      "stuck": 9677,
      "alb": 9678,
      "somehow": 9679,
      "physically": 9680,
      "fantastic": 9681,
      "overwhelmed": 9682,
      "Vietnam": 9683,
      "Eth": 9684,
      "cher": 9685,
      "grav": 9686,
      "##apping": 9687,
      "correspond": 9688,
      "reactions": 9689,
      "illust": 9690,
      "Pers": 9691,
      "Serb": 9692,
      "drunk": 9693,
      "executive": 9694,
      "Georg": 9695,
      "tourism": 9696,
      "vulnerability": 9697,
      "interview": 9698,
      "Atlantic": 9699,
      "Tim": 9700,
      "Way": 9701,
      "promised": 9702,
      "functional": 9703,
      "Consequently": 9704,
      "Greece": 9705,
      "sacrifice": 9706,
      "300": 9707,
      "fought": 9708,
      "##hester": 9709,
      "##idable": 9710,
      "##ading": 9711,
      "##rier": 9712,
      "contain": 9713,
      "preserve": 9714,
      "1992": 9715,
      "detailed": 9716,
      "##opping": 9717,
      "unnecessarily": 9718,
      "inhabited": 9719,
      "fat": 9720,
      "rugby": 9721,
      "prison": 9722,
      "##uded": 9723,
      "##anches": 9724,
      "processing": 9725,
      "nomin": 9726,
      "##inations": 9727,
      "##ita": 9728,
      "##vereign": 9729,
      "plenty": 9730,
      "merely": 9731,
      "liners": 9732,
      "perpet": 9733,
      "inhabitants": 9734,
      "zone": 9735,
      "##nes": 9736,
      "##EC": 9737,
      "anger": 9738,
      "Arts": 9739,
      "letters": 9740,
      "coverage": 9741,
      "fascinating": 9742,
      "sharp": 9743,
      "empathy": 9744,
      "wrestling": 9745,
      "Nevertheless": 9746,
      "Ha": 9747,
      "##onia": 9748,
      "##stream": 9749,
      "##agan": 9750,
      "##neys": 9751,
      "Stone": 9752,
      "assistance": 9753,
      "##orthy": 9754,
      "forgot": 9755,
      "Department": 9756,
      "vowel": 9757,
      "streets": 9758,
      "##point": 9759,
      "##fall": 9760,
      "##ID": 9761,
      "stick": 9762,
      "alle": 9763,
      "##acles": 9764,
      "##egu": 9765,
      "environments": 9766,
      "double": 9767,
      "silly": 9768,
      "Secret": 9769,
      "instrumental": 9770,
[...]
