{
  "version": "1.0",
  "truncation": null,
  "padding": null,
  "added_tokens": [
    {
      "id": 0,
      "content": "[UNK]",
      "single_word": false,
      "lstrip": false,
      "rstrip": false,
      "normalized": false,
      "special": true
    },
    {
      "id": 1,
      "content": "[CLS]",
      "single_word": false,
      "lstrip": false,
      "rstrip": false,
      "normalized": false,
      "special": true
    },
    {
      "id": 2,
      "content": "[SEP]",
      "single_word": false,
      "lstrip": false,
      "rstrip": false,
      "normalized": false,
      "special": true
    },
    {
      "id": 3,
      "content": "[PAD]",
      "single_word": false,
      "lstrip": false,
      "rstrip": false,
      "normalized": false,
      "special": true
    },
    {
      "id": 4,
      "content": "[MASK]",
      "single_word": false,
      "lstrip": false,
      "rstrip": false,
      "normalized": false,
      "special": true
    }
  ],
  "normalizer": null,
  "pre_tokenizer": {
    "type": "Whitespace"
  },
  "post_processor": null,
  "decoder": null,
  "model": {
    "type": "BPE",
    "dropout": null,
    "unk_token": "[UNK]",
    "continuing_subword_prefix": null,
    "end_of_word_suffix": null,
    "fuse_unk": false,
    "byte_fallback": false,
    "ignore_merges": false,
    "vocab": {
      "[UNK]": 0,
      "[CLS]": 1,
      "[SEP]": 2,
      "[PAD]": 3,
      "[MASK]": 4,
      "!": 5,
      "\"": 6,
      "#": 7,
      "$": 8,
      "&": 9,
      "'": 10,
      "(": 11,
      ")": 12,
      "*": 13,
      "+": 14,
      ",": 15,
      "-": 16,
      ".": 17,
      "/": 18,
      "0": 19,
      "1": 20,
      "2": 21,
      "3": 22,
      "4": 23,
      "5": 24,
      "6": 25,
      "7": 26,
      "8": 27,
      "9": 28,
      ":": 29,
      "?": 30,
      "@": 31,
      "[": 32,
      "]": 33,
      "_": 34,
      "a": 35,
      "b": 36,
      "c": 37,
      "d": 38,
      "e": 39,
      "f": 40,
      "g": 41,
      "h": 42,
      "i": 43,
      "j": 44,
      "k": 45,
      "l": 46,
      "m": 47,
      "n": 48,
      "o": 49,
      "p": 50,
      "q": 51,
      "r": 52,
      "s": 53,
      "t": 54,
      "u": 55,
      "v": 56,
      "w": 57,
      "x": 58,
      "y": 59,
      "z": 60,
      "{": 61,
      "|": 62,
      "}": 63,
      "®": 64,
      "à": 65,
      "á": 66,
      "â": 67,
      "ã": 68,
      "ä": 69,
      "ç": 70,
      "è": 71,
      "é": 72,
      "ê": 73,
      "ì": 74,
      "í": 75,
      "î": 76,
      "ï": 77,
      "ñ": 78,
      "ó": 79,
      "ô": 80,
      "ö": 81,
      "ù": 82,
      "ú": 83,
      "ü": 84,
      "ý": 85,
      "ā": 86,
      "ă": 87,
      "đ": 88,
      "ē": 89,
      "ğ": 90,
      "ī": 91,
      "ı": 92,
      "ĺ": 93,
      "ō": 94,
      "ř": 95,
      "ś": 96,
      "ş": 97,
      "ū": 98,
      "ơ": 99,
      "ư": 100,
      "ə": 101,
      "ɦ": 102,
      "ɴ": 103,
      "ʀ": 104,
      "ʏ": 105,
      "ʙ": 106,
      "ʜ": 107,
      "̇": 108,
      "λ": 109,
      "ξ": 110,
      "а": 111,
      "б": 112,
      "в": 113,
      "г": 114,
      "д": 115,
      "е": 116,
      "з": 117,
      "и": 118,
      "й": 119,
      "к": 120,
      "л": 121,
      "м": 122,
      "н": 123,
      "о": 124,
      "р": 125,
      "с": 126,
      "т": 127,
      "у": 128,
      "ф": 129,
      "ц": 130,
      "ш": 131,
      "ы": 132,
      "ь": 133,
      "э": 134,
      "я": 135,
      "ג": 136,
      "ד": 137,
      "ה": 138,
      "ו": 139,
      "ח": 140,
      "ט": 141,
      "י": 142,
      "כ": 143,
      "ל": 144,
      "מ": 145,
      "נ": 146,
      "ע": 147,
      "ר": 148,
      "ש": 149,
      "ת": 150,
      "ء": 151,
      "أ": 152,
      "إ": 153,
      "ا": 154,
      "ب": 155,
      "ة": 156,
      "ت": 157,
      "ث": 158,
      "ج": 159,
      "ح": 160,
      "خ": 161,
      "د": 162,
      "ذ": 163,
      "ر": 164,
      "ز": 165,
      "س": 166,
      "ش": 167,
      "ص": 168,
      "ض": 169,
      "ط": 170,
      "ع": 171,
      "ف": 172,
      "ق": 173,
      "ك": 174,
      "ل": 175,
      "م": 176,
      "ن": 177,
      "ه": 178,
      "و": 179,
      "ى": 180,
      "ي": 181,
      "ं": 182,
      "अ": 183,
      "आ": 184,
      "इ": 185,
      "ई": 186,
      "औ": 187,
      "क": 188,
      "ग": 189,
      "घ": 190,
      "च": 191,
      "छ": 192,
      "ज": 193,
      "ञ": 194,
      "ट": 195,
      "ठ": 196,
      "ड": 197,
      "ण": 198,
      "त": 199,
      "थ": 200,
      "द": 201,
      "ध": 202,
      "न": 203,
      "प": 204,
      "फ": 205,
      "ब": 206,
      "भ": 207,
      "म": 208,
      "य": 209,
      "र": 210,
      "ल": 211,
      "व": 212,
      "श": 213,
      "ष": 214,
      "स": 215,
      "ह": 216,
      "ा": 217,
      "ि": 218,
      "ी": 219,
      "ु": 220,
      "े": 221,
      "ै": 222,
      "ो": 223,
      "ौ": 224,
      "्": 225,
      "ঁ": 226,
      "ং": 227,
      "অ": 228,
      "ই": 229,
      "এ": 230,
      "ক": 231,
      "গ": 232,
      "চ": 233,
      "ছ": 234,
      "জ": 235,
      "ট": 236,
      "ঠ": 237,
      "ড": 238,
      "ণ": 239,
      "ত": 240,
      "থ": 241,
      "দ": 242,
      "ধ": 243,
      "ন": 244,
      "প": 245,
      "ব": 246,
      "ভ": 247,
      "ম": 248,
      "য": 249,
      "র": 250,
      "ল": 251,
      "শ": 252,
      "স": 253,
      "়": 254,
      "া": 255,
      "ি": 256,
      "ী": 257,
      "ু": 258,
      "ে": 259,
      "ো": 260,
      "্": 261,
      "ਕ": 262,
      "ਜ": 263,
      "ਬ": 264,
      "ਭ": 265,
      "ਰ": 266,
      "ਲ": 267,
      "ਸ": 268,
      "ਹ": 269,
      "ਾ": 270,
      "ਿ": 271,
      "ੀ": 272,
      "ੈ": 273,
      "அ": 274,
      "இ": 275,
      "உ": 276,
      "எ": 277,
      "க": 278,
      "ங": 279,
      "ச": 280,
      "ஜ": 281,
      "ட": 282,
      "ண": 283,
      "த": 284,
      "ந": 285,
      "ன": 286,
      "ப": 287,
      "ம": 288,
      "ய": 289,
      "ர": 290,
      "ற": 291,
      "ல": 292,
      "ள": 293,
      "ழ": 294,
      "வ": 295,
      "ா": 296,
      "ி": 297,
      "ீ": 298,
      "ு": 299,
      "ெ": 300,
      "ே": 301,
      "ை": 302,
      "ொ": 303,
      "ோ": 304,
      "்": 305,
      "గ": 306,
      "త": 307,
      "న": 308,
      "ప": 309,
      "మ": 310,
      "ర": 311,
      "ల": 312,
      "స": 313,
      "ీ": 314,
      "ు": 315,
      "ె": 316,
      "్": 317,
      "ಂ": 318,
      "ಉ": 319,
      "ಎ": 320,
      "ಐ": 321,
      "ಕ": 322,
      "ಗ": 323,
      "ಚ": 324,
      "ಡ": 325,
      "ಣ": 326,
      "ತ": 327,
      "ದ": 328,
      "ನ": 329,
      "ಫ": 330,
      "ಮ": 331,
      "ಯ": 332,
      "ರ": 333,
      "ಲ": 334,
      "ಶ": 335,
      "ಸ": 336,
      "ಾ": 337,
      "ಿ": 338,
      "ು": 339,
      "ೂ": 340,
      "ೋ": 341,
      "್": 342,
      "ം": 343,
      "മ": 344,
      "യ": 345,
      "ല": 346,
      "ള": 347,
      "ാ": 348,
      "ග": 349,
      "ණ": 350,
      "ත": 351,
      "න": 352,
      "ය": 353,
      "ල": 354,
      "ස": 355,
      "හ": 356,
      "්": 357,
      "ි": 358,
      "ී": 359,
      "ก": 360,
      "ค": 361,
      "ง": 362,
      "จ": 363,
      "ช": 364,
      "ญ": 365,
      "ฐ": 366,
      "ด": 367,
      "ท": 368,
      "น": 369,
      "บ": 370,
      "พ": 371,
      "ฟ": 372,
      "ภ": 373,
      "ย": 374,
      "ร": 375,
      "ล": 376,
      "ว": 377,
      "ศ": 378,
      "ส": 379,
      "ห": 380,
      "อ": 381,
      "ั": 382,
      "า": 383,
      "ิ": 384,
      "ี": 385,
      "ุ": 386,
      "ู": 387,
      "เ": 388,
      "ไ": 389,
      "่": 390,
      "้": 391,
      "์": 392,
      "ํ": 393,
      "ህ": 394,
      "ሚ": 395,
      "ት": 396,
      "ን": 397,
      "ወ": 398,
      "ዛ": 399,
      "የ": 400,
      "ይ": 401,
      "ក": 402,
      "ជ": 403,
      "ត": 404,
      "ធ": 405,
      "ន": 406,
      "ប": 407,
      "ម": 408,
      "រ": 409,
      "ល": 410,
      "ហ": 411,
      "ា": 412,
      "ិ": 413,
      "ី": 414,
      "ុ": 415,
      "ូ": 416,
      "៉": 417,
      "៊": 418,
      "្": 419,
      "᭄": 420,
      "ᴀ": 421,
      "ᴅ": 422,
      "ᴇ": 423,
      "ᴍ": 424,
      "ᴛ": 425,
      "ᴜ": 426,
      "ḝ": 427,
      "ḹ": 428,
      "ṽ": 429,
      "ạ": 430,
      "ả": 431,
      "ấ": 432,
      "ầ": 433,
      "ậ": 434,
      "ế": 435,
      "ể": 436,
      "ễ": 437,
      "ệ": 438,
      "ị": 439,
      "ọ": 440,
      "ố": 441,
      "ồ": 442,
      "ộ": 443,
      "ờ": 444,
      "ụ": 445,
      "ừ": 446,
      "ử": 447,
      "‍": 448,
      "‎": 449,
      "–": 450,
      "—": 451,
      "‘": 452,
      "’": 453,
      "․": 454,
      "™": 455,
      "∆": 456,
      "ⓢ": 457,
      "☄": 458,
      "☆": 459,
      "☝": 460,
      "☣": 461,
      "☺": 462,
      "♥": 463,
      "♪": 464,
      "⛩": 465,
      "✔": 466,
      "❤": 467,
      "⭐": 468,
      "々": 469,
      "【": 470,
      "】": 471,
      "え": 472,
      "く": 473,
      "け": 474,
      "さ": 475,
      "っ": 476,
      "て": 477,
      "ぼ": 478,
      "ら": 479,
      "る": 480,
      "わ": 481,
      "ん": 482,
      "イ": 483,
      "エ": 484,
      "カ": 485,
      "サ": 486,
      "シ": 487,
      "ス": 488,
      "ソ": 489,
      "チ": 490,
      "ッ": 491,
      "ツ": 492,
      "ネ": 493,
      "メ": 494,
      "ャ": 495,
      "ヨ": 496,
      "ル": 497,
      "ン": 498,
      "・": 499,
      "业": 500,
      "为": 501,
      "事": 502,
      "人": 503,
      "佐": 504,
      "便": 505,
      "信": 506,
      "公": 507,
      "内": 508,
      "剧": 509,
      "務": 510,
      "原": 511,
      "口": 512,
      "國": 513,
      "坤": 514,
      "報": 515,
      "塾": 516,
      "大": 517,
      "女": 518,
      "学": 519,
      "學": 520,
      "官": 521,
      "室": 522,
      "小": 523,
      "工": 524,
      "平": 525,
      "年": 526,
      "式": 527,
      "慶": 528,
      "應": 529,
      "成": 530,
      "指": 531,
      "探": 532,
      "揮": 533,
      "教": 534,
      "数": 535,
      "早": 536,
      "晓": 537,
      "术": 538,
      "檬": 539,
      "檸": 540,
      "気": 541,
      "池": 542,
      "沙": 543,
      "滨": 544,
      "潇": 545,
      "澎": 546,
      "澳": 547,
      "灣": 548,
      "炯": 549,
      "爆": 550,
      "玉": 551,
      "王": 552,
      "理": 553,
      "田": 554,
      "發": 555,
      "研": 556,
      "科": 557,
      "稲": 558,
      "立": 559,
      "笑": 560,
      "索": 561,
      "組": 562,
      "義": 563,
      "職": 564,
      "臺": 565,
      "處": 566,
      "術": 567,
      "街": 568,
      "衡": 569,
      "覚": 570,
      "賀": 571,
      "輔": 572,
      "达": 573,
      "通": 574,
      "道": 575,
      "酒": 576,
      "阪": 577,
      "院": 578,
      "随": 579,
      "際": 580,
      "電": 581,
      "頻": 582,
      "麒": 583,
      "麟": 584,
      "黒": 585,
      "ꜱ": 586,
      "ꨄ": 587,
      "ꪜ": 588,
      "ꭱ": 589,
      "건": 590,
      "공": 591,
      "과": 592,
      "국": 593,
      "기": 594,
      "너": 595,
      "단": 596,
      "돌": 597,
      "들": 598,
      "리": 599,
      "매": 600,
      "배": 601,
      "성": 602,
      "션": 603,
      "수": 604,
      "순": 605,
      "술": 606,
      "약": 607,
      "업": 608,
      "에": 609,
      "여": 610,
      "오": 611,
      "와": 612,
      "요": 613,
      "원": 614,
      "유": 615,
      "육": 616,
      "의": 617,
      "이": 618,
      "인": 619,
      "일": 620,
      "재": 621,
      "전": 622,
      "주": 623,
      "진": 624,
      "터": 625,
      "티": 626,
      "파": 627,
      "학": 628,
      "한": 629,
      "화": 630,
      "흥": 631,
      "": 632,
      "︎": 633,
      "️": 634,
      "𝐀": 635,
      "𝐁": 636,
      "𝐄": 637,
      "𝐆": 638,
      "𝐇": 639,
      "𝐋": 640,
      "𝐌": 641,
      "𝐍": 642,
      "𝐎": 643,
      "𝐑": 644,
      "𝐒": 645,
      "𝐓": 646,
      "𝐖": 647,
      "𝐘": 648,
      "𝐚": 649,
      "𝐜": 650,
      "𝐝": 651,
      "𝐞": 652,
      "𝐠": 653,
      "𝐡": 654,
      "𝐢": 655,
      "𝐤": 656,
      "𝐦": 657,
      "𝐧": 658,
      "𝐨": 659,
      "𝐫": 660,
      "𝐬": 661,
      "𝐭": 662,
      "𝐮": 663,
      "𝐯": 664,
      "𝐱": 665,
      "𝐲": 666,
      "𝒋": 667,
      "𝒏": 668,
      "𝒜": 669,
      "𝒵": 670,
      "𝓉": 671,
      "𝗖": 672,
      "𝗘": 673,
      "𝗞": 674,
      "𝗠": 675,
      "𝗣": 676,
      "𝗦": 677,
      "𝗧": 678,
      "𝗪": 679,
      "𝗮": 680,
      "𝗱": 681,
      "𝗲": 682,
      "𝗵": 683,
      "𝗶": 684,
      "𝗹": 685,
      "𝗺": 686,
      "𝗻": 687,
      "𝗽": 688,
      "𝗿": 689,
      "𝘀": 690,
      "𝘁": 691,
      "𝘂": 692,
      "𝘅": 693,
      "𝘆": 694,
      "𝙞": 695,
      "𝙢": 696,
      "𝙣": 697,
      "𝙨": 698,
      "𝚊": 699,
      "𝚒": 700,
      "🇫": 701,
      "🇮": 702,
      "🇳": 703,
      "🇷": 704,
      "🌱": 705,
      "🌺": 706,
      "🌾": 707,
      "🍃": 708,
      "🍓": 709,
      "🍪": 710,
      "🎀": 711,
      "🎓": 712,
      "🎨": 713,
      "🎼": 714,
      "🏛": 715,
      "🐾": 716,
      "👉": 717,
      "👍": 718,
      "👩": 719,
      "💀": 720,
      "💉": 721,
      "💊": 722,
      "💔": 723,
      "💕": 724,
      "💖": 725,
      "💙": 726,
      "💜": 727,
      "💞": 728,
      "💫": 729,
      "💯": 730,
      "📚": 731,
      "📝": 732,
      "📦": 733,
      "📸": 734,
      "🔥": 735,
      "😁": 736,
      "😈": 737,
      "😉": 738,
      "😊": 739,
      "😎": 740,
      "🚀": 741,
      "🚩": 742,
      "🤍": 743,
      "🤗": 744,
      "🤣": 745,
      "🤩": 746,
      "🥀": 747,
      "🥰": 748,
      "🥼": 749,
      "🧡": 750,
      "🧪": 751,
      "🧮": 752,
      "🩵": 753,
      "🩷": 754,
      "🩺": 755,
      "in": 756,
      "an": 757,
      "at": 758,
      "er": 759,
      "en": 760,
      "ar": 761,
      "st": 762,
      "al": 763,
      "on": 764,
      "it": 765,
      "sc": 766,
      "ch": 767,
      "sh": 768,
      "ce": 769,
      "ed": 770,
      "sci": 771,
      "or": 772,
      "ad": 773,
      "as": 774,
      "ic": 775,
      "ence": 776,
      "science": 777,
      "le": 778,
      "am": 779,
      "un": 780,
      "te": 781,
      "ion": 782,
      "ol": 783,
      "th": 784,
      "es": 785,
      "em": 786,
      "ing": 787,
      "ra": 788,
      "ath": 789,
      "ac": 790,
      "ation": 791,
      "re": 792,
      "iv": 793,
      "ud": 794,
      "ne": 795,
      "ma": 796,
      "cl": 797,
      "ur": 798,
      "ass": 799,
      "ir": 800,
      "math": 801,
      "ine": 802,
      "and": 803,
      "ro": 804,
      "id": 805,
      "stud": 806,
      "class": 807,
      "of": 808,
      "og": 809,
      "ut": 810,
      "ers": 811,
      "il": 812,
      "emy": 813,
      "acad": 814,
      "di": 815,
      "academy": 816,
      "tech": 817,
      "study": 818,
      "om": 819,
      "ge": 820,
      "edu": 821,
      "ph": 822,
      "la": 823,
      "is": 824,
      "maths": 825,
      "el": 826,
      "et": 827,
      "ex": 828,
      "the": 829,
      "arn": 830,
      "ent": 831,
      "ys": 832,
      "ith": 833,
      "ity": 834,
      "learn": 835,
      "olog": 836,
      "ics": 837,
      "da": 838,
      "ap": 839,
      "ri": 840,
      "ology": 841,
      "educ": 842,
      "ho": 843,
      "sa": 844,
      "ts": 845,
      "eng": 846,
      "ant": 847,
      "with": 848,
      "education": 849,
      "um": 850,
      "us": 851,
      "ivers": 852,
      "phys": 853,
      "univers": 854,
      "ist": 855,
      "ya": 856,
      "im": 857,
      "by": 858,
      "bi": 859,
      "physics": 860,
      "to": 861,
      "university": 862,
      "classes": 863,
      "sir": 864,
      "ry": 865,
      "for": 866,
      "de": 867,
      "ul": 868,
      "engine": 869,
      "ial": 870,
      "bo": 871,
      "ik": 872,
      "pl": 873,
      "chem": 874,
      "engineer": 875,
      "ub": 876,
      "techn": 877,
      "ha": 878,
      "sp": 879,
      "je": 880,
      "no": 881,
      "exam": 882,
      "ka": 883,
      "new": 884,
      "engineering": 885,
      "co": 886,
      "chemist": 887,
      "col": 888,
      "se": 889,
      "ig": 890,
      "chemistry": 891,
      "ct": 892,
      "ute": 893,
      "ide": 894,
      "med": 895,
      "ive": 896,
      "if": 897,
      "up": 898,
      "indi": 899,
      "tv": 900,
      "colle": 901,
      "10": 902,
      "ind": 903,
      "ach": 904,
      "ab": 905,
      "ish": 906,
      "college": 907,
      "tut": 908,
      "fun": 909,
      "int": 910,
      "ster": 911,
      "ak": 912,
      "wal": 913,
      "pro": 914,
      "mo": 915,
      "scho": 916,
      "tutor": 917,
      "school": 918,
      "technology": 919,
      "po": 920,
      "uru": 921,
      "inst": 922,
      "ical": 923,
      "com": 924,
      "ia": 925,
      "onl": 926,
      "ou": 927,
      "gu": 928,
      "net": 929,
      "man": 930,
      "fo": 931,
      "ved": 932,
      "online": 933,
      "har": 934,
      "guru": 935,
      "ks": 936,
      "ip": 937,
      "est": 938,
      "art": 939,
      "sha": 940,
      "ess": 941,
      "learning": 942,
      "lo": 943,
      "ate": 944,
      "dr": 945,
      "instit": 946,
      "he": 947,
      "wor": 948,
      "antu": 949,
      "biology": 950,
      "vedantu": 951,
      "my": 952,
      "institute": 953,
      "os": 954,
      "ay": 955,
      "und": 956,
      "ins": 957,
      "ree": 958,
      "ke": 959,
      "ari": 960,
      "nation": 961,
      "ie": 962,
      "ard": 963,
      "gr": 964,
      "qu": 965,
      "tutorial": 966,
      "pra": 967,
      "ss": 968,
      "eas": 969,
      "mag": 970,
      "na": 971,
      "national": 972,
      "io": 973,
      "ust": 974,
      "ank": 975,
      "jo": 976,
      "pr": 977,
      "cra": 978,
      "are": 979,
      "op": 980,
      "found": 981,
      "foundation": 982,
      "ba": 983,
      "app": 984,
      "ric": 985,
      "news": 986,
      "ala": 987,
      "be": 988,
      "ck": 989,
      "ok": 990,
      "free": 991,
      "vide": 992,
      "bra": 993,
      "kid": 994,
      "chan": 995,
      "24": 996,
      "yo": 997,
      "orts": 998,
      "fit": 999,
      "han": 1000,
      "ld": 1001,
      "sing": 1002,
      "yan": 1003,
      "ti": 1004,
      "all": 1005,
      "do": 1006,
      "pla": 1007,
      "world": 1008,
      "vi": 1009,
      "inter": 1010,
      "fic": 1011,
      "ness": 1012,
      "psc": 1013,
      "day": 1014,
      "one": 1015,
      "ert": 1016,
      "amil": 1017,
      "max": 1018,
      "neet": 1019,
      "fitness": 1020,
      "ja": 1021,
      "ani": 1022,
      "adda": 1023,
      "ade": 1024,
      "lu": 1025,
      "lah": 1026,
      "jee": 1027,
      "kar": 1028,
      "sk": 1029,
      "magnet": 1030,
      "international": 1031,
      "tn": 1032,
      "teach": 1033,
      "offic": 1034,
      "go": 1035,
      "official": 1036,
      "now": 1037,
      "wallah": 1038,
      "brains": 1039,
      "con": 1040,
      "cent": 1041,
      "af": 1042,
      "ve": 1043,
      "ji": 1044,
      "ver": 1045,
      "nel": 1046,
      "ill": 1047,
      "videos": 1048,
      "fac": 1049,
      "gar": 1050,
      "12": 1051,
      "hu": 1052,
      "per": 1053,
      "su": 1054,
      "ital": 1055,
      "lab": 1056,
      "log": 1057,
      "unacademy": 1058,
      "top": 1059,
      "tutorials": 1060,
      "sho": 1061,
      "ga": 1062,
      "hd": 1063,
      "mar": 1064,
      "indian": 1065,
      "tal": 1066,
      "channel": 1067,
      "ht": 1068,
      "ian": 1069,
      "tamil": 1070,
      "dig": 1071,
      "ast": 1072,
      "ep": 1073,
      "know": 1074,
      "mr": 1075,
      "appy": 1076,
      "247": 1077,
      "me": 1078,
      "ias": 1079,
      "mind": 1080,
      "ran": 1081,
      "hi": 1082,
      "easy": 1083,
      "adda247": 1084,
      "iz": 1085,
      "vis": 1086,
      "alth": 1087,
      "how": 1088,
      "proje": 1089,
      "happy": 1090,
      "par": 1091,
      "sm": 1092,
      "ati": 1093,
      "edge": 1094,
      "let": 1095,
      "digital": 1096,
      "sw": 1097,
      "era": 1098,
      "master": 1099,
      "ouch": 1100,
      "ta": 1101,
      "ash": 1102,
      "lect": 1103,
      "ment": 1104,
      "health": 1105,
      "gam": 1106,
      "ki": 1107,
      "play": 1108,
      "cre": 1109,
      "dra": 1110,
      "test": 1111,
      "jan": 1112,
      "sy": 1113,
      "shan": 1114,
      "medic": 1115,
      "ledge": 1116,
      "ner": 1117,
      "oc": 1118,
      "ure": 1119,
      "kum": 1120,
      "raj": 1121,
      "comp": 1122,
      "knowledge": 1123,
      "hit": 1124,
      "win": 1125,
      "पु": 1126,
      "singh": 1127,
      "पुर": 1128,
      "bs": 1129,
      "pat": 1130,
      "tim": 1131,
      "les": 1132,
      "examपुर": 1133,
      "tiv": 1134,
      "vlog": 1135,
      "𝐚𝐫": 1136,
      "athi": 1137,
      "min": 1138,
      "𝐄𝐝": 1139,
      "𝐒𝐦": 1140,
      "𝐮𝐒𝐦": 1141,
      "kumar": 1142,
      "𝐚𝐫𝐭": 1143,
      "𝐄𝐝𝐮𝐒𝐦": 1144,
      "𝐄𝐝𝐮𝐒𝐦𝐚𝐫𝐭": 1145,
      "wa": 1146,
      "wari": 1147,
      "cts": 1148,
      "bk": 1149,
      "ssc": 1150,
      "care": 1151,
      "ory": 1152,
      "ker": 1153,
      "kul": 1154,
      "nc": 1155,
      "tra": 1156,
      "stouch": 1157,
      "iostouch": 1158,
      "playhd": 1159,
      "iostouchplayhd": 1160,
      "pe": 1161,
      "zone": 1162,
      "not": 1163,
      "tvok": 1164,
      "bktvok": 1165,
      "11": 1166,
      "gk": 1167,
      "plan": 1168,
      "show": 1169,
      "gen": 1170,
      "ham": 1171,
      "ies": 1172,
      "san": 1173,
      "medicine": 1174,
      "shala": 1175,
      "telu": 1176,
      "ifi": 1177,
      "telugu": 1178,
      "gan": 1179,
      "ore": 1180,
      "pt": 1181,
      "sol": 1182,
      "myster": 1183,
      "br": 1184,
      "hindi": 1185,
      "jr": 1186,
      "pre": 1187,
      "form": 1188,
      "grad": 1189,
      "kids": 1190,
      "od": 1191,
      "tr": 1192,
      "ution": 1193,
      "av": 1194,
      "sports": 1195,
      "projects": 1196,
      "shar": 1197,
      "ort": 1198,
      "point": 1199,
      "gate": 1200,
      "live": 1201,
      "ite": 1202,
      "motiv": 1203,
      "mystery": 1204,
      "lif": 1205,
      "nie": 1206,
      "vid": 1207,
      "ang": 1208,
      "rish": 1209,
      "tiwari": 1210,
      "sam": 1211,
      "shant": 1212,
      "vik": 1213,
      "ome": 1214,
      "hai": 1215,
      "kash": 1216,
      "pri": 1217,
      "res": 1218,
      "ign": 1219,
      "prashant": 1220,
      "ankit": 1221,
      "cse": 1222,
      "ey": 1223,
      "hub": 1224,
      "path": 1225,
      "shah": 1226,
      "14": 1227,
      "hac": 1228,
      "pan": 1229,
      "board": 1230,
      "ram": 1231,
      "ag": 1232,
      "creat": 1233,
      "ncert": 1234,
      "ah": 1235,
      "gre": 1236,
      "ly": 1237,
      "we": 1238,
      "student": 1239,
      "smart": 1240,
      "pa": 1241,
      "pand": 1242,
      "sim": 1243,
      "zz": 1244,
      "ond": 1245,
      "shorts": 1246,
      "mah": 1247,
      "exams": 1248,
      "far": 1249,
      "rit": 1250,
      "vin": 1251,
      "saba": 1252,
      "tests": 1253,
      "grades": 1254,
      "sabaq": 1255,
      "mc": 1256,
      "nur": 1257,
      "diy": 1258,
      "medical": 1259,
      "ips": 1260,
      "ff": 1261,
      "sciences": 1262,
      "unda": 1263,
      "india": 1264,
      "life": 1265,
      "bb": 1266,
      "ek": 1267,
      "kh": 1268,
      "sathi": 1269,
      "box": 1270,
      "plus": 1271,
      "jgar": 1272,
      "mu": 1273,
      "pur": 1274,
      "son": 1275,
      "zad": 1276,
      "stem": 1277,
      "rojgar": 1278,
      "time": 1279,
      "vlogs": 1280,
      "ding": 1281,
      "ral": 1282,
      "alex": 1283,
      "shiv": 1284,
      "shahzad": 1285,
      "home": 1286,
      "jay": 1287,
      "sal": 1288,
      "tof": 1289,
      "you": 1290,
      "coach": 1291,
      "upsc": 1292,
      "craf": 1293,
      "ear": 1294,
      "sup": 1295,
      "minds": 1296,
      "howtof": 1297,
      "howtofunda": 1298,
      "bas": 1299,
      "mad": 1300,
      "ata": 1301,
      "room": 1302,
      "sair": 1303,
      "tnpsc": 1304,
      "solution": 1305,
      "ai": 1306,
      "ni": 1307,
      "ru": 1308,
      "tric": 1309,
      "unya": 1310,
      "mathem": 1311,
      "kidunya": 1312,
      "mat": 1313,
      "mon": 1314,
      "nat": 1315,
      "si": 1316,
      "guruji": 1317,
      "patel": 1318,
      "ca": 1319,
      "sum": 1320,
      "ted": 1321,
      "shi": 1322,
      "career": 1323,
      "ber": 1324,
      "bal": 1325,
      "car": 1326,
      "ty": 1327,
      "lish": 1328,
      "mer": 1329,
      "our": 1330,
      "vel": 1331,
      "indust": 1332,
      "your": 1333,
      "vision": 1334,
      "ju": 1335,
      "tu": 1336,
      "ero": 1337,
      "ease": 1338,
      "rican": 1339,
      "talks": 1340,
      "pathshala": 1341,
      "mathemat": 1342,
      "aust": 1343,
      "cu": 1344,
      "gyan": 1345,
      "iit": 1346,
      "nal": 1347,
      "van": 1348,
      "endra": 1349,
      "arge": 1350,
      "ces": 1351,
      "doub": 1352,
      "bhu": 1353,
      "esh": 1354,
      "krish": 1355,
      "ot": 1356,
      "pad": 1357,
      "conce": 1358,
      "fact": 1359,
      "nursing": 1360,
      "coaching": 1361,
      "mit": 1362,
      "amp": 1363,
      "rist": 1364,
      "ford": 1365,
      "center": 1366,
      "mp": 1367,
      "ura": 1368,
      "ens": 1369,
      "state": 1370,
      "ick": 1371,
      "less": 1372,
      "tnut": 1373,
      "oci": 1374,
      "minute": 1375,
      "austral": 1376,
      "doubtnut": 1377,
      "mk": 1378,
      "wan": 1379,
      "ink": 1380,
      "ons": 1381,
      "ited": 1382,
      "cha": 1383,
      "boo": 1384,
      "plat": 1385,
      "ideas": 1386,
      "centre": 1387,
      "cb": 1388,
      "cor": 1389,
      "ds": 1390,
      "riv": 1391,
      "ions": 1392,
      "ther": 1393,
      "vet": 1394,
      "yn": 1395,
      "ung": 1396,
      "iss": 1397,
      "ries": 1398,
      "english": 1399,
      "use": 1400,
      "crack": 1401,
      "winner": 1402,
      "az": 1403,
      "gir": 1404,
      "gro": 1405,
      "wis": 1406,
      "star": 1407,
      "des": 1408,
      "ug": 1409,
      "wer": 1410,
      "wing": 1411,
      "wifi": 1412,
      "ali": 1413,
      "chin": 1414,
      "classroom": 1415,
      "igh": 1416,
      "pandey": 1417,
      "industries": 1418,
      "concept": 1419,
      "platform": 1420,
      "91": 1421,
      "mi": 1422,
      "scishow": 1423,
      "old": 1424,
      "raph": 1425,
      "real": 1426,
      "irst": 1427,
      "itya": 1428,
      "african": 1429,
      "comput": 1430,
      "motives": 1431,
      "creative": 1432,
      "wifistudy": 1433,
      "aut": 1434,
      "hel": 1435,
      "technical": 1436,
      "hacks": 1437,
      "ter": 1438,
      "ton": 1439,
      "ary": 1440,
      "bio": 1441,
      "ube": 1442,
      "green": 1443,
      "bhushan": 1444,
      "ush": 1445,
      "aditya": 1446,
      "power": 1447,
      "jam": 1448,
      "தம": 1449,
      "ider": 1450,
      "kaj": 1451,
      "gurukul": 1452,
      "simpl": 1453,
      "bh": 1454,
      "iq": 1455,
      "mith": 1456,
      "uk": 1457,
      "system": 1458,
      "bro": 1459,
      "bhar": 1460,
      "bhai": 1461,
      "csir": 1462,
      "kal": 1463,
      "made": 1464,
      "pol": 1465,
      "sud": 1466,
      "vo": 1467,
      "adi": 1468,
      "ell": 1469,
      "pankaj": 1470,
      "fi": 1471,
      "first": 1472,
      "mul": 1473,
      "ohit": 1474,
      "pw": 1475,
      "ron": 1476,
      "yal": 1477,
      "ana": 1478,
      "ack": 1479,
      "coding": 1480,
      "media": 1481,
      "que": 1482,
      "purohit": 1483,
      "nalm": 1484,
      "hacksmith": 1485,
      "du": 1486,
      "li": 1487,
      "land": 1488,
      "zy": 1489,
      "christ": 1490,
      "exper": 1491,
      "sak": 1492,
      "code": 1493,
      "ignited": 1494,
      "craft": 1495,
      "cce": 1496,
      "cro": 1497,
      "dine": 1498,
      "del": 1499,
      "elect": 1500,
      "gh": 1501,
      "miss": 1502,
      "tes": 1503,
      "ations": 1504,
      "mathkidunya": 1505,
      "etit": 1506,
      "dep": 1507,
      "deep": 1508,
      "ight": 1509,
      "10th": 1510,
      "teacher": 1511,
      "ee": 1512,
      "uzz": 1513,
      "vig": 1514,
      "ints": 1515,
      "iment": 1516,
      "iksha": 1517,
      "ction": 1518,
      "boxing": 1519,
      "lessons": 1520,
      "australia": 1521,
      "rank": 1522,
      "ada": 1523,
      "maker": 1524,
      "prakash": 1525,
      "succe": 1526,
      "drawing": 1527,
      "dinesh": 1528,
      "36": 1529,
      "blo": 1530,
      "cs": 1531,
      "can": 1532,
      "data": 1533,
      "fin": 1534,
      "jun": 1535,
      "pi": 1536,
      "va": 1537,
      "wiz": 1538,
      "chand": 1539,
      "byju": 1540,
      "sport": 1541,
      "abh": 1542,
      "teaching": 1543,
      "mcq": 1544,
      "super": 1545,
      "ius": 1546,
      "ser": 1547,
      "sar": 1548,
      "tips": 1549,
      "ance": 1550,
      "ste": 1551,
      "think": 1552,
      "ild": 1553,
      "gram": 1554,
      "competit": 1555,
      "11th": 1556,
      "fe": 1557,
      "nor": 1558,
      "red": 1559,
      "vani": 1560,
      "eration": 1561,
      "adh": 1562,
      "ures": 1563,
      "appro": 1564,
      "points": 1565,
      "vidya": 1566,
      "hn": 1567,
      "high": 1568,
      "sun": 1569,
      "ilm": 1570,
      "ific": 1571,
      "yout": 1572,
      "genius": 1573,
      "kan": 1574,
      "mus": 1575,
      "oor": 1576,
      "sen": 1577,
      "vive": 1578,
      "wo": 1579,
      "ena": 1580,
      "itt": 1581,
      "lewis": 1582,
      "ivil": 1583,
      "educational": 1584,
      "forum": 1585,
      "12th": 1586,
      "cuet": 1587,
      "experiment": 1588,
      "approach": 1589,
      "aum": 1590,
      "mal": 1591,
      "por": 1592,
      "so": 1593,
      "wn": 1594,
      "eric": 1595,
      "utkar": 1596,
      "expla": 1597,
      "work": 1598,
      "video": 1599,
      "teachers": 1600,
      "ranjan": 1601,
      "vigyan": 1602,
      "aumsum": 1603,
      "utkarsh": 1604,
      "9th": 1605,
      "dre": 1606,
      "glo": 1607,
      "mant": 1608,
      "rn": 1609,
      "vir": 1610,
      "inc": 1611,
      "ury": 1612,
      "guide": 1613,
      "keys": 1614,
      "group": 1615,
      "sakshar": 1616,
      "civil": 1617,
      "jar": 1618,
      "ny": 1619,
      "pers": 1620,
      "ris": 1621,
      "wond": 1622,
      "yle": 1623,
      "ழ்": 1624,
      "ிழ்": 1625,
      "amit": 1626,
      "club": 1627,
      "ograph": 1628,
      "hab": 1629,
      "cour": 1630,
      "ctor": 1631,
      "schooling": 1632,
      "adeep": 1633,
      "very": 1634,
      "ified": 1635,
      "தமிழ்": 1636,
      "youtube": 1637,
      "ace": 1638,
      "eth": 1639,
      "ice": 1640,
      "ium": 1641,
      "kir": 1642,
      "lc": 1643,
      "pub": 1644,
      "sat": 1645,
      "sco": 1646,
      "thom": 1647,
      "john": 1648,
      "facts": 1649,
      "resour": 1650,
      "tuit": 1651,
      "cbse": 1652,
      "computer": 1653,
      "help": 1654,
      "fan": 1655,
      "king": 1656,
      "ox": 1657,
      "vent": 1658,
      "scient": 1659,
      "organ": 1660,
      "ict": 1661,
      "sciencesk": 1662,
      "mathfirst": 1663,
      "dev": 1664,
      "htas": 1665,
      "trick": 1666,
      "krishna": 1667,
      "rivel": 1668,
      "vetrivel": 1669,
      "success": 1670,
      "vidyakul": 1671,
      "global": 1672,
      "cy": 1673,
      "dy": 1674,
      "ght": 1675,
      "just": 1676,
      "kv": 1677,
      "md": 1678,
      "tom": 1679,
      "uj": 1680,
      "vie": 1681,
      "za": 1682,
      "story": 1683,
      "thing": 1684,
      "rech": 1685,
      "apoor": 1686,
      "boy": 1687,
      "ious": 1688,
      "talk": 1689,
      "bbc": 1690,
      "auto": 1691,
      "organic": 1692,
      "cle": 1693,
      "ec": 1694,
      "fa": 1695,
      "lic": 1696,
      "rk": 1697,
      "yt": 1698,
      "ina": 1699,
      "its": 1700,
      "amaz": 1701,
      "ravi": 1702,
      "ety": 1703,
      "ishek": 1704,
      "gujar": 1705,
      "insider": 1706,
      "abhishek": 1707,
      "vivek": 1708,
      "resources": 1709,
      "bri": 1710,
      "best": 1711,
      "den": 1712,
      "ger": 1713,
      "odi": 1714,
      "sou": 1715,
      "ze": 1716,
      "inab": 1717,
      "ita": 1718,
      "che": 1719,
      "edia": 1720,
      "tec": 1721,
      "learner": 1722,
      "sahu": 1723,
      "abc": 1724,
      "akh": 1725,
      "artment": 1726,
      "facul": 1727,
      "lectures": 1728,
      "gaming": 1729,
      "resear": 1730,
      "mathematical": 1731,
      "department": 1732,
      "course": 1733,
      "recharge": 1734,
      "research": 1735,
      "der": 1736,
      "mb": 1737,
      "men": 1738,
      "set": 1739,
      "insp": 1740,
      "oninab": 1741,
      "unt": 1742,
      "tham": 1743,
      "ney": 1744,
      "mahar": 1745,
      "royal": 1746,
      "studyiq": 1747,
      "schools": 1748,
      "skill": 1749,
      "project": 1750,
      "paration": 1751,
      "janvik": 1752,
      "preparation": 1753,
      "sharma": 1754,
      "tedx": 1755,
      "bharat": 1756,
      "mantra": 1757,
      "public": 1758,
      "janvikapoor": 1759,
      "bud": 1760,
      "bang": 1761,
      "gi": 1762,
      "gcse": 1763,
      "hy": 1764,
      "ied": 1765,
      "mun": 1766,
      "nir": 1767,
      "oo": 1768,
      "obs": 1769,
      "sn": 1770,
      "anim": 1771,
      "att": 1772,
      "erts": 1773,
      "shub": 1774,
      "americ": 1775,
      "clin": 1776,
      "instyn": 1777,
      "sslc": 1778,
      "ope": 1779,
      "game": 1780,
      "motivation": 1781,
      "simplified": 1782,
      "competitive": 1783,
      "explain": 1784,
      "thomas": 1785,
      "bl": 1786,
      "fut": 1787,
      "gup": 1788,
      "ique": 1789,
      "jit": 1790,
      "khan": 1791,
      "nam": 1792,
      "puzz": 1793,
      "soci": 1794,
      "targe": 1795,
      "vy": 1796,
      "tha": 1797,
      "associ": 1798,
      "techsp": 1799,
      "dak": 1800,
      "dav": 1801,
      "appl": 1802,
      "prof": 1803,
      "mansi": 1804,
      "bee": 1805,
      "itech": 1806,
      "salem": 1807,
      "tricks": 1808,
      "dream": 1809,
      "gujarati": 1810,
      "faculty": 1811,
      "gupta": 1812,
      "puzzles": 1813,
      "target": 1814,
      "techsperts": 1815,
      "city": 1816,
      "dh": 1817,
      "dar": 1818,
      "ejee": 1819,
      "gs": 1820,
      "tam": 1821,
      "ws": 1822,
      "alam": 1823,
      "shiksha": 1824,
      "ley": 1825,
      "tex": 1826,
      "myth": 1827,
      "crash": 1828,
      "operation": 1829,
      "prep": 1830,
      "rankers": 1831,
      "future": 1832,
      "society": 1833,
      "association": 1834,
      "bar": 1835,
      "cast": 1836,
      "camp": 1837,
      "hum": 1838,
      "nu": 1839,
      "nut": 1840,
      "sr": 1841,
      "sad": 1842,
      "sur": 1843,
      "soc": 1844,
      "ual": 1845,
      "war": 1846,
      "way": 1847,
      "zero": 1848,
      "inno": 1849,
      "inform": 1850,
      "sch": 1851,
      "ors": 1852,
      "studies": 1853,
      "book": 1854,
      "ika": 1855,
      "space": 1856,
      "love": 1857,
      "pebb": 1858,
      "matt": 1859,
      "padhai": 1860,
      "electric": 1861,
      "360": 1862,
      "oxford": 1863,
      "pebbles": 1864,
      "bc": 1865,
      "ban": 1866,
      "bha": 1867,
      "jwal": 1868,
      "lal": 1869,
      "ms": 1870,
      "mam": 1871,
      "np": 1872,
      "pal": 1873,
      "ven": 1874,
      "vish": 1875,
      "ال": 1876,
      "info": 1877,
      "tet": 1878,
      "rah": 1879,
      "ili": 1880,
      "ily": 1881,
      "key": 1882,
      "crazy": 1883,
      "young": 1884,
      "toppers": 1885,
      "mark": 1886,
      "mathematics": 1887,
      "wizard": 1888,
      "ple": 1889,
      "tan": 1890,
      "yam": 1891,
      "ates": 1892,
      "aral": 1893,
      "stk": 1894,
      "adal": 1895,
      "rose": 1896,
      "idian": 1897,
      "geograph": 1898,
      "phar": 1899,
      "sais": 1900,
      "sachin": 1901,
      "igan": 1902,
      "program": 1903,
      "kesh": 1904,
      "naik": 1905,
      "pradi": 1906,
      "open": 1907,
      "gov": 1908,
      "hiba": 1909,
      "students": 1910,
      "vinay": 1911,
      "urav": 1912,
      "chandra": 1913,
      "music": 1914,
      "obsidian": 1915,
      "shubham": 1916,
      "applied": 1917,
      "ain": 1918,
      "cer": 1919,
      "fl": 1920,
      "ile": 1921,
      "mel": 1922,
      "nit": 1923,
      "rath": 1924,
      "answ": 1925,
      "arun": 1926,
      "station": 1927,
      "orn": 1928,
      "acitech": 1929,
      "ims": 1930,
      "big": 1931,
      "toys": 1932,
      "ryan": 1933,
      "placitech": 1934,
      "guy": 1935,
      "guid": 1936,
      "topic": 1937,
      "lecture": 1938,
      "train": 1939,
      "earth": 1940,
      "adhya": 1941,
      "tuitions": 1942,
      "ujjwal": 1943,
      "amazing": 1944,
      "clinic": 1945,
      "crashcourse": 1946,
      "information": 1947,
      "20": 1948,
      "ib": 1949,
      "ix": 1950,
      "kat": 1951,
      "oma": 1952,
      "rat": 1953,
      "uth": 1954,
      "ಮ್": 1955,
      "ಸ್": 1956,
      "inte": 1957,
      "alla": 1958,
      "champ": 1959,
      "aso": 1960,
      "esaral": 1961,
      "revis": 1962,
      "revision": 1963,
      "ural": 1964,
      "forens": 1965,
      "ishadal": 1966,
      "produ": 1967,
      "mos": 1968,
      "ipp": 1969,
      "quest": 1970,
      "quick": 1971,
      "joy": 1972,
      "doctor": 1973,
      "sure": 1974,
      "gaj": 1975,
      "mahishadal": 1976,
      "servi": 1977,
      "wonders": 1978,
      "revise": 1979,
      "dan": 1980,
      "dam": 1981,
      "her": 1982,
      "iya": 1983,
      "nik": 1984,
      "rad": 1985,
      "yad": 1986,
      "ಐಡ": 1987,
      "ಫೋ": 1988,
      "ಯಾ": 1989,
      "ರಮ್": 1990,
      "ಿಯಾ": 1991,
      "ara": 1992,
      "oria": 1993,
      "asa": 1994,
      "disco": 1995,
      "pher": 1996,
      "house": 1997,
      "amily": 1998,
      "gaurav": 1999,
      "swati": 2000,
      "design": 2001,
      "ugc": 2002,
      "vanij": 2003,
      "autotech": 2004,
      "mythili": 2005,
      "innov": 2006,
      "gajendra": 2007,
      "ಐಡಿಯಾ": 2008,
      "ಫೋರಮ್": 2009,
      "ಐಡಿಯಾಸ್": 2010,
      "bre": 2011,
      "bel": 2012,
      "bus": 2013,
      "fury": 2014,
      "gul": 2015,
      "hero": 2016,
      "ken": 2017,
      "lan": 2018,
      "port": 2019,
      "tion": 2020,
      "wat": 2021,
      "ans": 2022,
      "atom": 2023,
      "stat": 2024,
      "char": 2025,
      "shom": 2026,
      "aman": 2027,
      "raja": 2028,
      "phil": 2029,
      "entert": 2030,
      "daily": 2031,
      "safar": 2032,
      "yaa": 2033,
      "notes": 2034,
      "network": 2035,
      "grade": 2036,
      "gamer": 2037,
      "nated": 2038,
      "mkr": 2039,
      "corner": 2040,
      "giri": 2041,
      "delhi": 2042,
      "habad": 2043,
      "american": 2044,
      "training": 2045,
      "allahabad": 2046,
      "shomu": 2047,
      "akash": 2048,
      "blu": 2049,
      "dd": 2050,
      "don": 2051,
      "fat": 2052,
      "family": 2053,
      "hist": 2054,
      "jas": 2055,
      "ko": 2056,
      "ku": 2057,
      "ls": 2058,
      "litt": 2059,
      "mand": 2060,
      "nh": 2061,
      "nand": 2062,
      "ps": 2063,
      "pir": 2064,
      "vmk": 2065,
      "arts": 2066,
      "shers": 2067,
      "shyam": 2068,
      "mak": 2069,
      "techy": 2070,
      "jeff": 2071,
      "ifas": 2072,
      "aries": 2073,
      "pract": 2074,
      "magic": 2075,
      "hana": 2076,
      "jaya": 2077,
      "iller": 2078,
      "ashish": 2079,
      "sanjay": 2080,
      "tren": 2081,
      "multi": 2082,
      "ilmkidunya": 2083,
      "ification": 2084,
      "things": 2085,
      "snap": 2086,
      "ainment": 2087,
      "guidance": 2088,
      "forensic": 2089,
      "little": 2090,
      "bon": 2091,
      "bur": 2092,
      "bis": 2093,
      "cur": 2094,
      "fer": 2095,
      "hir": 2096,
      "hil": 2097,
      "ling": 2098,
      "lim": 2099,
      "mac": 2100,
      "nish": 2101,
      "ob": 2102,
      "pil": 2103,
      "sj": 2104,
      "sil": 2105,
      "sik": 2106,
      "tri": 2107,
      "ini": 2108,
      "anand": 2109,
      "ated": 2110,
      "ark": 2111,
      "make": 2112,
      "eta": 2113,
      "ult": 2114,
      "manish": 2115,
      "pradeep": 2116,
      "syl": 2117,
      "youth": 2118,
      "james": 2119,
      "poly": 2120,
      "sudip": 2121,
      "croca": 2122,
      "snaprevise": 2123,
      "00": 2124,
      "bu": 2125,
      "cal": 2126,
      "gy": 2127,
      "jk": 2128,
      "ligan": 2129,
      "ns": 2130,
      "nis": 2131,
      "rs": 2132,
      "sub": 2133,
      "uv": 2134,
      "infin": 2135,
      "ato": 2136,
      "stu": 2137,
      "alakh": 2138,
      "scope": 2139,
      "chal": 2140,
      "tele": 2141,
      "ement": 2142,
      "rag": 2143,
      "rav": 2144,
      "andre": 2145,
      "dies": 2146,
      "yson": 2147,
      "food": 2148,
      "quant": 2149,
      "jour": 2150,
      "pras": 2151,
      "good": 2152,
      "labus": 2153,
      "rition": 2154,
      "shivam": 2155,
      "shire": 2156,
      "mulligan": 2157,
      "christo": 2158,
      "buddies": 2159,
      "nutrition": 2160,
      "entertainment": 2161,
      "history": 2162,
      "syllabus": 2163,
      "bab": 2164,
      "cir": 2165,
      "cute": 2166,
      "call": 2167,
      "film": 2168,
      "gl": 2169,
      "jer": 2170,
      "ksha": 2171,
      "kala": 2172,
      "lin": 2173,
      "pedia": 2174,
      "piller": 2175,
      "sel": 2176,
      "yog": 2177,
      "arjun": 2178,
      "cho": 2179,
      "edy": 2180,
      "edit": 2181,
      "ora": 2182,
      "thak": 2183,
      "esp": 2184,
      "rap": 2185,
      "anda": 2186,
      "andgo": 2187,
      "roel": 2188,
      "dave": 2189,
      "mechan": 2190,
      "vikram": 2191,
      "hacker": 2192,
      "paar": 2193,
      "shivani": 2194,
      "basics": 2195,
      "solutions": 2196,
      "aiims": 2197,
      "merit": 2198,
      "booster": 2199,
      "fire": 2200,
      "craftpiller": 2201,
      "mission": 2202,
      "north": 2203,
      "kiri": 2204,
      "inspir": 2205,
      "maharash": 2206,
      "campus": 2207,
      "andgoedu": 2208,
      "air": 2209,
      "bd": 2210,
      "cog": 2211,
      "gold": 2212,
      "ier": 2213,
      "ll": 2214,
      "lt": 2215,
      "num": 2216,
      "nive": 2217,
      "nipp": 2218,
      "ous": 2219,
      "pert": 2220,
      "sma": 2221,
      "tw": 2222,
      "ten": 2223,
      "tya": 2224,
      "ward": 2225,
      "दी": 2226,
      "हि": 2227,
      "💖🥰": 2228,
      "arsh": 2229,
      "eda": 2230,
      "thorn": 2231,
      "udd": 2232,
      "rock": 2233,
      "ida": 2234,
      "theory": 2235,
      "learnfat": 2236,
      "dear": 2237,
      "cook": 2238,
      "commun": 2239,
      "ipur": 2240,
      "prat": 2241,
      "jain": 2242,
      "afat": 2243,
      "mary": 2244,
      "ava": 2245,
      "priya": 2246,
      "faru": 2247,
      "ritik": 2248,
      "basant": 2249,
      "girl": 2250,
      "libr": 2251,
      "scientist": 2252,
      "view": 2253,
      "npc": 2254,
      "govt": 2255,
      "adhyay": 2256,
      "asoka": 2257,
      "services": 2258,
      "yadav": 2259,
      "gulati": 2260,
      "jayakumar": 2261,
      "arjuna": 2262,
      "thakur": 2263,
      "maharashtra": 2264,
      "nippard": 2265,
      "tyagi": 2266,
      "learnfatafat": 2267,
      "..": 2268,
      "6th": 2269,
      "every": 2270,
      "fly": 2271,
      "gal": 2272,
      "gho": 2273,
      "gya": 2274,
      "ire": 2275,
      "ilearn": 2276,
      "liv": 2277,
      "mic": 2278,
      "met": 2279,
      "pp": 2280,
      "vers": 2281,
      "wh": 2282,
      "wani": 2283,
      "will": 2284,
      "xt": 2285,
      "xy": 2286,
      "xyle": 2287,
      "ino": 2288,
      "iness": 2289,
      "str": 2290,
      "alph": 2291,
      "ong": 2292,
      "ities": 2293,
      "shu": 2294,
      "shree": 2295,
      "sciencelessons": 2296,
      "act": 2297,
      "uduru": 2298,
      "idis": 2299,
      "ological": 2300,
      "bile": 2301,
      "toy": 2302,
      "today": 2303,
      "desh": 2304,
      "akidis": 2305,
      "comedy": 2306,
      "harsh": 2307,
      "press": 2308,
      "freesciencelessons": 2309,
      "veer": 2310,
      "verma": 2311,
      "peri": 2312,
      "swadhyay": 2313,
      "christos": 2314,
      "mcqs": 2315,
      "redd": 2316,
      "experiments": 2317,
      "mendak": 2318,
      "social": 2319,
      "question": 2320,
      "business": 2321,
      "blue": 2322,
      "trending": 2323,
      "christopher": 2324,
      "kiriakidis": 2325,
      "ltd": 2326,
      "nivetha": 2327,
      "smashers": 2328,
      "xylem": 2329,
      "alpha": 2330,
      "mendakuduru": 2331,
      "09": 2332,
      "au": 2333,
      "ben": 2334,
      "beng": 2335,
      "bert": 2336,
      "back": 2337,
      "cks": 2338,
      "cbs": 2339,
      "gur": 2340,
      "gati": 2341,
      "ler": 2342,
      "mes": 2343,
      "mem": 2344,
      "ming": 2345,
      "ners": 2346,
      "pen": 2347,
      "pet": 2348,
      "sank": 2349,
      "tit": 2350,
      "two": 2351,
      "uhan": 2352,
      "ंदी": 2353,
      "any": 2354,
      "shredd": 2355,
      "edification": 2356,
      "org": 2357,
      "ica": 2358,
      "may": 2359,
      "clips": 2360,
      "diaries": 2361,
      "gets": 2362,
      "expl": 2363,
      "umesh": 2364,
      "ikalam": 2365,
      "hav": 2366,
      "pop": 2367,
      "guild": 2368,
      "mannu": 2369,
      "lock": 2370,
      "pragati": 2371,
      "easyaa": 2372,
      "brain": 2373,
      "allen": 2374,
      "sky": 2375,
      "toppr": 2376,
      "panchal": 2377,
      "natural": 2378,
      "padikalam": 2379,
      "chauhan": 2380,
      "rivast": 2381,
      "conceptera": 2382,
      "polit": 2383,
      "odia": 2384,
      "thamiz": 2385,
      "explained": 2386,
      "vyas": 2387,
      "profess": 2388,
      "human": 2389,
      "vishal": 2390,
      "nito": 2391,
      "infinity": 2392,
      "cognito": 2393,
      "हिंदी": 2394,
      "thornton": 2395,
      "shredded": 2396,
      "98": 2397,
      "aj": 2398,
      "aw": 2399,
      "ax": 2400,
      "bhit": 2401,
      "dat": 2402,
      "dom": 2403,
      "dada": 2404,
      "eesh": 2405,
      "iwiz": 2406,
      "jad": 2407,
      "kit": 2408,
      "kle": 2409,
      "kun": 2410,
      "lat": 2411,
      "lam": 2412,
      "muse": 2413,
      "ng": 2414,
      "nan": 2415,
      "out": 2416,
      "ohub": 2417,
      "pbs": 2418,
      "sof": 2419,
      "well": 2420,
      "्र": 2421,
      "ក្": 2422,
      "ជា": 2423,
      "ជី": 2424,
      "តិ": 2425,
      "ធម": 2426,
      "នជី": 2427,
      "មហ": 2428,
      "មជា": 2429,
      "រុ": 2430,
      "ុនជី": 2431,
      "៊ុនជី": 2432,
      "្មជា": 2433,
      "invent": 2434,
      "arh": 2435,
      "arena": 2436,
      "iti": 2437,
      "chen": 2438,
      "cham": 2439,
      "she": 2440,
      "ase": 2441,
      "level": 2442,
      "than": 2443,
      "race": 2444,
      "activ": 2445,
      "reka": 2446,
      "mahe": 2447,
      "mayo": 2448,
      "studio": 2449,
      "geo": 2450,
      "get": 2451,
      "edureka": 2452,
      "lak": 2453,
      "ise": 2454,
      "extra": 2455,
      "ologies": 2456,
      "educat": 2457,
      "physicsfun": 2458,
      "technique": 2459,
      "technologies": 2460,
      "haz": 2461,
      "spark": 2462,
      "igarh": 2463,
      "medium": 2464,
      "indiab": 2465,
      "indore": 2466,
      "mobile": 2467,
      "only": 2468,
      "jobs": 2469,
      "shobhit": 2470,
      "winners": 2471,
      "patil": 2472,
      "simple": 2473,
      "mukh": 2474,
      "monash": 2475,
      "merce": 2476,
      "factz": 2477,
      "grow": 2478,
      "brother": 2479,
      "deepak": 2480,
      "nirwan": 2481,
      "bansal": 2482,
      "discovery": 2483,
      "biswa": 2484,
      "nishant": 2485,
      "sjy": 2486,
      "rapid": 2487,
      "number": 2488,
      "pratap": 2489,
      "library": 2490,
      "rivastava": 2491,
      "ក្រុ": 2492,
      "ធម្មជា": 2493,
      "មហ៊ុនជី": 2494,
      "indiabud": 2495,
      "ក្រុមហ៊ុនជី": 2496,
      "ធម្មជាតិ": 2497,
      "ក្រុមហ៊ុនជីធម្មជាតិ": 2498,
      "4u": 2499,
      "aar": 2500,
      "agr": 2501,
      "eer": 2502,
      "fus": 2503,
      "ii": 2504,
      "kari": 2505,
      "mil": 2506,
      "mart": 2507,
      "nbc": 2508,
      "sv": 2509,
      "vs": 2510,
      "ุง": 2511,
      "sthan": 2512,
      "chak": 2513,
      "orat": 2514,
      "thi": 2515,
      "thar": 2516,
      "ema": 2517,
      "andari": 2518,
      "diwal": 2519,
      "eduworld": 2520,
      "eduscope": 2521,
      "explan": 2522,
      "learnohub": 2523,
      "right": 2524,
      "bour": 2525,
      "spe": 2526,
      "upd": 2527,
      "pod": 2528,
      "mance": 2529,
      "hari": 2530,
      "ipura": 2531,
      "works": 2532,
      "ayush": 2533,
      "keeda": 2534,
      "jose": 2535,
      "doc": 2536,
      "karth": 2537,
      "megh": 2538,
      "rang": 2539,
      "winkle": 2540,
      "mini": 2541,
      "travel": 2542,
      "pee": 2543,
      "primit": 2544,
      "creativ": 2545,
      "shivadeep": 2546,
      "australian": 2547,
      "boost": 2548,
      "simplilearn": 2549,
      "bhandari": 2550,
      "365": 2551,
      "tricky": 2552,
      "rahul": 2553,
      "rathore": 2554,
      "break": 2555,
      "rajasthan": 2556,
      "practical": 2557,
      "community": 2558,
      "thamizhan": 2559,
      "museum": 2560,
      "fusion": 2561,
      "diwalipura": 2562,
      "explanations": 2563,
      "primitive": 2564,
      "bt": 2565,
      "buzz": 2566,
      "cap": 2567,
      "div": 2568,
      "dhar": 2569,
      "drish": 2570,
      "dney": 2571,
      "fre": 2572,
      "gg": 2573,
      "gp": 2574,
      "hill": 2575,
      "ios": 2576,
      "jon": 2577,
      "jiv": 2578,
      "kate": 2579,
      "mid": 2580,
      "mns": 2581,
      "nath": 2582,
      "oy": 2583,
      "osh": 2584,
      "pap": 2585,
      "rr": 2586,
      "rpsc": 2587,
      "sand": 2588,
      "sri": 2589,
      "sist": 2590,
      "squ": 2591,
      "ting": 2592,
      "uc": 2593,
      "xpert": 2594,
      "yes": 2595,
      "का": 2596,
      "লা": 2597,
      "வே": 2598,
      "งพ": 2599,
      "ลงพ": 2600,
      "ange": 2601,
      "chi": 2602,
      "aspir": 2603,
      "ami": 2604,
      "ams": 2605,
      "team": 2606,
      "ola": 2607,
      "rakesh": 2608,
      "rev": 2609,
      "next": 2610,
      "ropp": 2611,
      "ila": 2612,
      "rich": 2613,
      "universe": 2614,
      "imran": 2615,
      "formance": 2616,
      "devel": 2617,
      "ctive": 2618,
      "able": 2619,
      "wala": 2620,
      "wale": 2621,
      "mani": 2622,
      "ques": 2623,
      "job": 2624,
      "opath": 2625,
      "vijay": 2626,
      "logical": 2627,
      "gagan": 2628,
      "vines": 2629,
      "support": 2630,
      "basic": 2631,
      "carb": 2632,
      "books": 2633,
      "தம்": 2634,
      "codebasics": 2635,
      "scientific": 2636,
      "bright": 2637,
      "south": 2638,
      "bangla": 2639,
      "texas": 2640,
      "sadhana": 2641,
      "geographic": 2642,
      "answer": 2643,
      "ible": 2644,
      "katy": 2645,
      "pilates": 2646,
      "andrew": 2647,
      "quantum": 2648,
      "prasad": 2649,
      "uddin": 2650,
      "periwinkle": 2651,
      "activities": 2652,
      "drishti": 2653,
      "ลงพุง": 2654,
      "ropping": 2655,
      "develop": 2656,
      "18": 2657,
      "bor": 2658,
      "fel": 2659,
      "hence": 2660,
      "kel": 2661,
      "kho": 2662,
      "kha": 2663,
      "mor": 2664,
      "mish": 2665,
      "pit": 2666,
      "rud": 2667,
      "sid": 2668,
      "uq": 2669,
      "vard": 2670,
      "wi": 2671,
      "west": 2672,
      "x_": 2673,
      "yor": 2674,
      "না": 2675,
      "க்": 2676,
      "inn": 2677,
      "atri": 2678,
      "eral": 2679,
      "ener": 2680,
      "arch": 2681,
      "aryan": 2682,
      "stute": 2683,
      "scot": 2684,
      "unf": 2685,
      "uni": 2686,
      "thou": 2687,
      "ese": 2688,
      "maest": 2689,
      "emyhe": 2690,
      "die": 2691,
      "omy": 2692,
      "edumantra": 2693,
      "law": 2694,
      "etfly": 2695,
      "ument": 2696,
      "uson": 2697,
      "def": 2698,
      "chemxpert": 2699,
      "jeet": 2700,
      "stern": 2701,
      "mohit": 2702,
      "post": 2703,
      "mano": 2704,
      "vedham": 2705,
      "harish": 2706,
      "nagar": 2707,
      "joemyhe": 2708,
      "kidz": 2709,
      "adev": 2710,
      "performance": 2711,
      "topper": 2712,
      "astro": 2713,
      "astron": 2714,
      "mrs": 2715,
      "pariksha": 2716,
      "smile": 2717,
      "asheesh": 2718,
      "creation": 2719,
      "sydney": 2720,
      "pec": 2721,
      "planet": 2722,
      "hammad": 2723,
      "sanjiv": 2724,
      "vikas": 2725,
      "panda": 2726,
      "crafts": 2727,
      "tual": 2728,
      "fordshire": 2729,
      "mppsc": 2730,
      "desk": 2731,
      "conceptual": 2732,
      "kalvi": 2733,
      "wood": 2734,
      "devasheesh": 2735,
      "fair": 2736,
      "bangl": 2737,
      "geography": 2738,
      "joynews": 2739,
      "makkala": 2740,
      "getsetfly": 2741,
      "jadropping": 2742,
      "inventor": 2743,
      "podcast": 2744,
      "வேதம்": 2745,
      "নাত": 2746,
      "maestrang": 2747,
      "joemyheck": 2748,
      "getsetflyscience": 2749,
      "50": 2750,
      "90": 2751,
      "97": 2752,
      "_sh": 2753,
      "_of": 2754,
      "_physics": 2755,
      "aa": 2756,
      "ajay": 2757,
      "bat": 2758,
      "bla": 2759,
      "ball": 2760,
      "btec": 2761,
      "dol": 2762,
      "dha": 2763,
      "fro": 2764,
      "gm": 2765,
      "hen": 2766,
      "has": 2767,
      "hle": 2768,
      "hol": 2769,
      "hem": 2770,
      "jh": 2771,
      "kur": 2772,
      "kitt": 2773,
      "len": 2774,
      "mom": 2775,
      "mate": 2776,
      "non": 2777,
      "night": 2778,
      "pun": 2779,
      "pass": 2780,
      "ren": 2781,
      "rid": 2782,
      "sb": 2783,
      "som": 2784,
      "tar": 2785,
      "tube": 2786,
      "vine": 2787,
      "xpl": 2788,
      "ye": 2789,
      "ार": 2790,
      "வி": 2791,
      "anj": 2792,
      "anu": 2793,
      "anal": 2794,
      "anub": 2795,
      "arya": 2796,
      "army": 2797,
      "stor": 2798,
      "ale": 2799,
      "shik": 2800,
      "lean": 2801,
      "unc": 2802,
      "tee": 2803,
      "olution": 2804,
      "neha": 2805,
      "maya": 2806,
      "uri": 2807,
      "roshan": 2808,
      "idi": 2809,
      "isa": 2810,
      "eli": 2811,
      "enter": 2812,
      "hosp": 2813,
      "sai": 2814,
      "sahil": 2815,
      "physi": 2816,
      "deak": 2817,
      "bot": 2818,
      "kaksha": 2819,
      "count": 2820,
      "ideal": 2821,
      "ify": 2822,
      "101": 2823,
      "akank": 2824,
      "commit": 2825,
      "commerce": 2826,
      "ippi": 2827,
      "lover": 2828,
      "drkir": 2829,
      "under": 2830,
      "beaut": 2831,
      "fiction": 2832,
      "lux": 2833,
      "laborat": 2834,
      "mental": 2835,
      "games": 2836,
      "generation": 2837,
      "bryson": 2838,
      "trust": 2839,
      "vidy": 2840,
      "prime": 2841,
      "web": 2842,
      "khatri": 2843,
      "cause": 2844,
      "padhle": 2845,
      "corpor": 2846,
      "stars": 2847,
      "sudhir": 2848,
      "blocks": 2849,
      "juni": 2850,
      "wonder": 2851,
      "odisha": 2852,
      "maharshi": 2853,
      "answers": 2854,
      "integr": 2855,
      "product": 2856,
      "innovation": 2857,
      "uvlearn": 2858,
      "stuff": 2859,
      "espn": 2860,
      "theory_of": 2861,
      "deshmukh": 2862,
      "hav_sh": 2863,
      "professor": 2864,
      "numberblocks": 2865,
      "agric": 2866,
      "joseph": 2867,
      "meghwani": 2868,
      "quesmed": 2869,
      "development": 2870,
      "astronomy": 2871,
      "kitten": 2872,
      "xplore": 2873,
      "anubhav_sh": 2874,
      "hospital": 2875,
      "akanksha": 2876,
      "committee": 2877,
      "drkirti": 2878,
      "theory_of_physics": 2879,
      "anubhav_shrivastava": 2880,
      "_97": 2881,
      "aan": 2882,
      "aim": 2883,
      "bad": 2884,
      "bury": 2885,
      "eur": 2886,
      "fran": 2887,
      "gol": 2888,
      "gri": 2889,
      "gala": 2890,
      "graph": 2891,
      "him": 2892,
      "kin": 2893,
      "kim": 2894,
      "light": 2895,
      "mrose": 2896,
      "nada": 2897,
      "nasa": 2898,
      "sle": 2899,
      "sant": 2900,
      "vil": 2901,
      "vict": 2902,
      "wb": 2903,
      "yl": 2904,
      "yx": 2905,
      "ঠশ": 2906,
      "পা": 2907,
      "ালা": 2908,
      "ல்": 2909,
      "sto": 2910,
      "store": 2911,
      "stru": 2912,
      "alch": 2913,
      "chu": 2914,
      "chris": 2915,
      "shad": 2916,
      "shwari": 2917,
      "edut": 2918,
      "ori": 2919,
      "ader": 2920,
      "adam": 2921,
      "unlock": 2922,
      "ray": 2923,
      "rel": 2924,
      "mast": 2925,
      "machin": 2926,
      "studios": 2927,
      "academ": 2928,
      "eld": 2929,
      "david": 2930,
      "apni": 2931,
      "uss": 2932,
      "physic": 2933,
      "yake": 2934,
      "bihar": 2935,
      "ike": 2936,
      "chemical": 2937,
      "engineerguy": 2938,
      "hakar": 2939,
      "note": 2940,
      "kaboo": 2941,
      "seek": 2942,
      "funny": 2943,
      "hey": 2944,
      "quiz": 2945,
      "bag": 2946,
      "adesh": 2947,
      "vevo": 2948,
      "jiz": 2949,
      "lesics": 2950,
      "prize": 2951,
      "primrose": 2952,
      "great": 2953,
      "webs": 2954,
      "western": 2955,
      "paul": 2956,
      "mukesh": 2957,
      "homeopath": 2958,
      "chael": 2959,
      "therap": 2960,
      "girish": 2961,
      "mix": 2962,
      "michael": 2963,
      "computers": 2964,
      "kalam": 2965,
      "sudhakar": 2966,
      "csuson": 2967,
      "tips_97": 2968,
      "competition": 2969,
      "forum09": 2970,
      "virtual": 2971,
      "tuition": 2972,
      "tommy": 2973,
      "blippi": 2974,
      "daksh": 2975,
      "tamu": 2976,
      "schol": 2977,
      "melbour": 2978,
      "silver": 2979,
      "sikar": 2980,
      "television": 2981,
      "ravind": 2982,
      "shivamx_": 2983,
      "films": 2984,
      "mechanical": 2985,
      "kunjiz": 2986,
      "peekaboo": 2987,
      "sisters": 2988,
      "defence": 2989,
      "bangladesh": 2990,
      "deakin": 2991,
      "generationgenius": 2992,
      "agricult": 2993,
      "ঠশালা": 2994,
      "পাঠশালা": 2995,
      "alchemy": 2996,
      "csusonoma": 2997,
      "tips_9798": 2998,
      "melbourne": 2999,
      "shivamx_yt": 3000,
      "21": 3001,
      "4g": 3002,
      "__": 3003,
      "age": 3004,
      "abo": 3005,
      "bed": 3006,
      "bet": 3007,
      "bits": 3008,
      "ci": 3009,
      "dur": 3010,
      "dsa": 3011,
      "dul": 3012,
      "dub": 3013,
      "fle": 3014,
      "ful": 3015,
      "gon": 3016,
      "gad": 3017,
      "gun": 3018,
      "ges": 3019,
      "gma": 3020,
      "hs": 3021,
      "imag": 3022,
      "jack": 3023,
      "kap": 3024,
      "lm": 3025,
      "lor": 3026,
      "mpsc": 3027,
      "nt": 3028,
      "nar": 3029,
      "nab": 3030,
      "oe": 3031,
      "oth": 3032,
      "oak": 3033,
      "py": 3034,
      "pac": 3035,
      "rem": 3036,
      "sl": 3037,
      "tas": 3038,
      "tur": 3039,
      "tip": 3040,
      "tict": 3041,
      "val": 3042,
      "ymp": 3043,
      "्य": 3044,
      "ano": 3045,
      "envir": 3046,
      "arif": 3047,
      "stan": 3048,
      "cher": 3049,
      "shin": 3050,
      "advan": 3051,
      "unique": 3052,
      "olymp": 3053,
      "thed": 3054,
      "ravan": 3055,
      "aclearn": 3056,
      "nepal": 3057,
      "maj": 3058,
      "mach": 3059,
      "assam": 3060,
      "road": 3061,
      "rober": 3062,
      "iden": 3063,
      "dia": 3064,
      "disha": 3065,
      "tech2": 3066,
      "omed": 3067,
      "lau": 3068,
      "apol": 3069,
      "sain": 3070,
      "saint": 3071,
      "universit": 3072,
      "sirbas": 3073,
      "dee": 3074,
      "uber": 3075,
      "techno": 3076,
      "jesh": 3077,
      "nobel": 3078,
      "cos": 3079,
      "acheer": 3080,
      "abhi": 3081,
      "model": 3082,
      "mann": 3083,
      "kevin": 3084,
      "because": 3085,
      "bravo": 3086,
      "change": 3087,
      "garwal": 3088,
      "perfe": 3089,
      "marathi": 3090,
      "visual": 3091,
      "creations": 3092,
      "rajoria": 3093,
      "kerala": 3094,
      "track": 3095,
      "general": 3096,
      "pton": 3097,
      "truth": 3098,
      "samacheer": 3099,
      "ahmed": 3100,
      "mahadev": 3101,
      "madchem": 3102,
      "matsci": 3103,
      "monster": 3104,
      "nature": 3105,
      "suman": 3106,
      "berg": 3107,
      "balan": 3108,
      "yourpedia": 3109,
      "ushal": 3110,
      "brown": 3111,
      "crow": 3112,
      "cross": 3113,
      "junction": 3114,
      "norther": 3115,
      "kannada": 3116,
      "gamebest": 3117,
      "darshan": 3118,
      "journey": 3119,
      "jeremy": 3120,
      "self": 3121,
      "inspiration": 3122,
      "gyaani": 3123,
      "micro": 3124,
      "explor": 3125,
      "biswajit": 3126,
      "update": 3127,
      "katewa": 3128,
      "revolution": 3129,
      "rudra": 3130,
      "energy": 3131,
      "laboratory": 3132,
      "europe": 3133,
      "galaxy": 3134,
      "yakeen": 3135,
      "therapy": 3136,
      "dakshta": 3137,
      "tictaclearn": 3138,
      "advance": 3139,
      "aud": 3140,
      "bit": 3141,
      "ble": 3142,
      "bay": 3143,
      "bala": 3144,
      "bani": 3145,
      "cat": 3146,
      "cam": 3147,
      "cul": 3148,
      "dum": 3149,
      "dbt": 3150,
      "e7": 3151,
      "eya": 3152,
      "fx": 3153,
      "gra": 3154,
      "gof": 3155,
      "hr": 3156,
      "hand": 3157,
      "hom": 3158,
      "het": 3159,
      "hind": 3160,
      "jim": 3161,
      "jind": 3162,
      "jyo": 3163,
      "line": 3164,
      "ml": 3165,
      "more": 3166,
      "oce": 3167,
      "pm": 3168,
      "pack": 3169,
      "tin": 3170,
      "tro": 3171,
      "uw": 3172,
      "uce": 3173,
      "uate": 3174,
      "was": 3175,
      "wom": 3176,
      "writ": 3177,
      "wild": 3178,
      "wjh": 3179,
      "yu": 3180,
      "கல்": 3181,
      "மொ": 3182,
      "ழி": 3183,
      "ative": 3184,
      "sty": 3185,
      "start": 3186,
      "alp": 3187,
      "als": 3188,
      "chol": 3189,
      "chil": 3190,
      "shre": 3191,
      "short": 3192,
      "orig": 3193,
      "adlab": 3194,
      "advent": 3195,
      "ico": 3196,
      "leiden": 3197,
      "amic": 3198,
      "emot": 3199,
      "inger": 3200,
      "rai": 3201,
      "raon": 3202,
      "rehab": 3203,
      "udaan": 3204,
      "maeli": 3205,
      "urer": 3206,
      "urya": 3207,
      "urrican": 3208,
      "irshad": 3209,
      "mathscience": 3210,
      "mathwith": 3211,
      "ander": 3212,
      "dipl": 3213,
      "technet": 3214,
      "gee": 3215,
      "phub": 3216,
      "lage": 3217,
      "exphub": 3218,
      "apn": 3219,
      "apna": 3220,
      "rix": 3221,
      "saf": 3222,
      "tse": 3223,
      "physboy": 3224,
      "yak": 3225,
      "bytes": 3226,
      "biomed": 3227,
      "ultim": 3228,
      "engineers": 3229,
      "boi": 3230,
      "ikh": 3231,
      "hajas": 3232,
      "spr": 3233,
      "secon": 3234,
      "pot": 3235,
      "many": 3236,
      "heel": 3237,
      "quip": 3238,
      "ssible": 3239,
      "rick": 3240,
      "alaya": 3241,
      "down": 3242,
      "veen": 3243,
      "verge": 3244,
      "talent": 3245,
      "mindz": 3246,
      "janine": 3247,
      "shane": 3248,
      "sscds": 3249,
      "sansad": 3250,
      "graduate": 3251,
      "avan": 3252,
      "sami": 3253,
      "boarding": 3254,
      "ramesh": 3255,
      "agement": 3256,
      "ahmad": 3257,
      "lifescience": 3258,
      "muhammad": 3259,
      "factory": 3260,
      "bhatt": 3261,
      "bhaiya": 3262,
      "zygof": 3263,
      "successcds": 3264,
      "bloom": 3265,
      "finance": 3266,
      "grammar": 3267,
      "higher": 3268,
      "chester": 3269,
      "animated": 3270,
      "pharma": 3271,
      "champs": 3272,
      "atomic": 3273,
      "nhurrican": 3274,
      "fernand": 3275,
      "limited": 3276,
      "obje": 3277,
      "circle": 3278,
      "golden": 3279,
      "wards": 3280,
      "what": 3281,
      "willi": 3282,
      "bengali": 3283,
      "soft": 3284,
      "laksh": 3285,
      "document": 3286,
      "manibalan": 3287,
      "hemant": 3288,
      "vineet": 3289,
      "leaning": 3290,
      "integrated": 3291,
      "griff": 3292,
      "homeopathy": 3293,
      "about": 3294,
      "environ": 3295,
      "stanford": 3296,
      "thedadlab": 3297,
      "machine": 3298,
      "tech2game": 3299,
      "kevinmathscience": 3300,
      "northernhurrican": 3301,
      "dumraon": 3302,
      "jindal": 3303,
      "wjhl": 3304,
      "கல்வி": 3305,
      "மொழி": 3306,
      "emotion": 3307,
      "mathwithjanine": 3308,
      "technetium": 3309,
      "ultimate": 3310,
      "zygoflux": 3311,
      "northernhurricane7": 3312,
      "மொழிக்": 3313,
      "07": 3314,
      "2m": 3315,
      "47": 3316,
      "4all": 3317,
      "ae": 3318,
      "bir": 3319,
      "bill": 3320,
      "blog": 3321,
      "cas": 3322,
      "cri": 3323,
      "ctet": 3324,
      "dk": 3325,
      "dhan": 3326,
      "ever": 3327,
      "fal": 3328,
      "fri": 3329,
      "hk": 3330,
      "hun": 3331,
      "hid": 3332,
      "hung": 3333,
      "jp": 3334,
      "jor": 3335,
      "jab": 3336,
      "km": 3337,
      "kam": 3338,
      "kri": 3339,
      "kish": 3340,
      "khar": 3341,
      "kips": 3342,
      "lon": 3343,
      "lad": 3344,
      "lond": 3345,
      "mill": 3346,
      "mond": 3347,
      "nak": 3348,
      "nanim": 3349,
      "oh": 3350,
      "oja": 3351,
      "pg": 3352,
      "rv": 3353,
      "rum": 3354,
      "sin": 3355,
      "sul": 3356,
      "sse": 3357,
      "side": 3358,
      "tor": 3359,
      "uch": 3360,
      "usa": 3361,
      "vip": 3362,
      "varun": 3363,
      "wr": 3364,
      "wol": 3365,
      "wart": 3366,
      "wang": 3367,
      "xel": 3368,
      "yar": 3369,
      "zam": 3370,
      "त्र": 3371,
      "😉👍": 3372,
      "anil": 3373,
      "eram": 3374,
      "erman": 3375,
      "ene": 3376,
      "ars": 3377,
      "ston": 3378,
      "stop": 3379,
      "aligarh": 3380,
      "onboarding": 3381,
      "scri": 3382,
      "chap": 3383,
      "sham": 3384,
      "shravan": 3385,
      "cell": 3386,
      "advis": 3387,
      "ask": 3388,
      "asu": 3389,
      "asap": 3390,
      "ician": 3391,
      "esome": 3392,
      "eme": 3393,
      "ivas": 3394,
      "udhar": 3395,
      "nect": 3396,
      "maha": 3397,
      "irl": 3398,
      "ande": 3399,
      "rosh": 3400,
      "techs": 3401,
      "eduka": 3402,
      "phia": 3403,
      "phot": 3404,
      "elo": 3405,
      "express": 3406,
      "ength": 3407,
      "antrix": 3408,
      "usia": 3409,
      "usman": 3410,
      "biological": 3411,
      "depra": 3412,
      "devi": 3413,
      "pline": 3414,
      "technic": 3415,
      "hauddin": 3416,
      "kaushal": 3417,
      "coun": 3418,
      "cool": 3419,
      "ctv": 3420,
      "updiaries": 3421,
      "tvet": 3422,
      "collection": 3423,
      "achie": 3424,
      "abeya": 3425,
      "ake": 3426,
      "pool": 3427,
      "possible": 3428,
      "institution": 3429,
      "ardo": 3430,
      "magnanim": 3431,
      "prem": 3432,
      "bahauddin": 3433,
      "bey": 3434,
      "cky": 3435,
      "neetu": 3436,
      "constru": 3437,
      "connect": 3438,
      "central": 3439,
      "gary": 3440,
      "iance": 3441,
      "park": 3442,
      "digitalteachers": 3443,
      "lecturer": 3444,
      "rajdeep": 3445,
      "brand": 3446,
      "agri": 3447,
      "farm": 3448,
      "vincent": 3449,
      "homeschool": 3450,
      "mindset": 3451,
      "cardi": 3452,
      "wisdom": 3453,
      "uganda": 3454,
      "field": 3455,
      "electron": 3456,
      "ghts": 3457,
      "pire": 3458,
      "steve": 3459,
      "stewart": 3460,
      "feel": 3461,
      "malay": 3462,
      "malmes": 3463,
      "explains": 3464,
      "ethier": 3465,
      "globalshiksha": 3466,
      "clear": 3467,
      "germany": 3468,
      "tecquip": 3469,
      "skills": 3470,
      "america": 3471,
      "dhru": 3472,
      "hummus": 3473,
      "lalit": 3474,
      "pharmac": 3475,
      "openmind": 3476,
      "suresh": 3477,
      "here": 3478,
      "radhey": 3479,
      "watch": 3480,
      "donut": 3481,
      "mandi": 3482,
      "curious": 3483,
      "polytechnic": 3484,
      "ragdol": 3485,
      "ghousia": 3486,
      "strength": 3487,
      "memes": 3488,
      "penn": 3489,
      "sankalp": 3490,
      "political": 3491,
      "awesome": 3492,
      "kitchen": 3493,
      "hazel": 3494,
      "growupdiaries": 3495,
      "buzzz": 3496,
      "york": 3497,
      "from": 3498,
      "lenin": 3499,
      "beauty": 3500,
      "productions": 3501,
      "agriculture": 3502,
      "imagine": 3503,
      "kapil": 3504,
      "banijay": 3505,
      "packt": 3506,
      "fernandes": 3507,
      "objective": 3508,
      "hungry": 3509,
      "london": 3510,
      "udhary": 3511,
      "depraz": 3512,
      "abeyaantrix": 3513,
      "magnanimous": 3514,
      "digitalteachersuganda": 3515,
      "malmesbury": 3516,
      "tecquipment": 3517,
      "25": 3518,
      "_iit": 3519,
      "agu": 3520,
      "bun": 3521,
      "cin": 3522,
      "cnc": 3523,
      "dg": 3524,
      "dj": 3525,
      "dw": 3526,
      "das": 3527,
      "dds": 3528,
      "ead": 3529,
      "ector": 3530,
      "fil": 3531,
      "find": 3532,
      "fish": 3533,
      "fest": 3534,
      "fast": 3535,
      "gn": 3536,
      "gin": 3537,
      "gand": 3538,
      "gard": 3539,
      "hunt": 3540,
      "jen": 3541,
      "jac": 3542,
      "jap": 3543,
      "kr": 3544,
      "kas": 3545,
      "kent": 3546,
      "kush": 3547,
      "kita": 3548,
      "kgp": 3549,
      "las": 3550,
      "lass": 3551,
      "lou": 3552,
      "muru": 3553,
      "must": 3554,
      "nas": 3555,
      "ntse": 3556,
      "ose": 3557,
      "ota": 3558,
      "pc": 3559,
      "pts": 3560,
      "pak": 3561,
      "part": 3562,
      "ports": 3563,
      "rc": 3564,
      "ras": 3565,
      "rol": 3566,
      "rider": 3567,
      "sg": 3568,
      "sree": 3569,
      "tc": 3570,
      "tad": 3571,
      "tre": 3572,
      "toria": 3573,
      "tlm": 3574,
      "ue": 3575,
      "vas": 3576,
      "vest": 3577,
      "wir": 3578,
      "xclass": 3579,
      "се": 3580,
      "يم": 3581,
      "ির": 3582,
      "றி": 3583,
      "inf": 3584,
      "inja": 3585,
      "ants": 3586,
      "anura": 3587,
      "ery": 3588,
      "enka": 3589,
      "arora": 3590,
      "stre": 3591,
      "alum": 3592,
      "chat": 3593,
      "chit": 3594,
      "shine": 3595,
      "shri": 3596,
      "shak": 3597,
      "shigh": 3598,
      "edo": 3599,
      "admiss": 3600,
      "adarsh": 3601,
      "icon": 3602,
      "icah": 3603,
      "leg": 3604,
      "lets": 3605,
      "amoe": 3606,
      "tea": 3607,
      "ional": 3608,
      "thre": 3609,
      "thod": 3610,
      "esa": 3611,
      "ather": 3612,
      "reg": 3613,
      "ival": 3614,
      "udas": 3615,
      "clus": 3616,
      "robon": 3617,
      "robert": 3618,
      "ropolit": 3619,
      "idge": 3620,
      "uts": 3621,
      "utam": 3622,
      "omile": 3623,
      "geeta": 3624,
      "lax": 3625,
      "islam": 3626,
      "elite": 3627,
      "ysis": 3628,
      "learnop": 3629,
      "apur": 3630,
      "riya": 3631,
      "universite": 3632,
      "ists": 3633,
      "impossible": 3634,
      "bia": 3635,
      "todd": 3636,
      "deja": 3637,
      "boys": 3638,
      "ikol": 3639,
      "uptet": 3640,
      "abs": 3641,
      "isha": 3642,
      "modi": 3643,
      "pooja": 3644,
      "harvard": 3645,
      "kson": 3646,
      "estyle": 3647,
      "low": 3648,
      "local": 3649,
      "gress": 3650,
      "nai": 3651,
      "nair": 3652,
      "rica": 3653,
      "bees": 3654,
      "hani": 3655,
      "yansh": 3656,
      "concor": 3657,
      "africa": 3658,
      "gautam": 3659,
      "marks": 3660,
      "mech": 3661,
      "ranveer": 3662,
      "hix": 3663,
      "parag": 3664,
      "eraj": 3665,
      "kies": 3666,
      "ocks": 3667,
      "hitesh": 3668,
      "winxclass": 3669,
      "gkk": 3670,
      "gktrick": 3671,
      "pretoria": 3672,
      "lifestyle": 3673,
      "hack": 3674,
      "mahkita": 3675,
      "examsdaily": 3676,
      "farming": 3677,
      "ritu": 3678,
      "songs": 3679,
      "crafted": 3680,
      "madhu": 3681,
      "nichol": 3682,
      "rumahkita": 3683,
      "carto": 3684,
      "yourself": 3685,
      "ensland": 3686,
      "wings": 3687,
      "china": 3688,
      "chinmaya": 3689,
      "helpline": 3690,
      "systems": 3691,
      "queensland": 3692,
      "codecrafted": 3693,
      "depth": 3694,
      "sarkari": 3695,
      "sunil": 3696,
      "viral": 3697,
      "ography": 3698,
      "ethan": 3699,
      "inspector": 3700,
      "ooji": 3701,
      "attle": 3702,
      "explainer": 3703,
      "warri": 3704,
      "rahman": 3705,
      "programming": 3706,
      "revisionboost": 3707,
      "discover": 3708,
      "water": 3709,
      "statist": 3710,
      "jason": 3711,
      "nhs": 3712,
      "journal": 3713,
      "cooking": 3714,
      "...": 3715,
      "everything": 3716,
      "ghosh": 3717,
      "metropolit": 3718,
      "gurooji": 3719,
      "chamomile": 3720,
      "maheikol": 3721,
      "tharan": 3722,
      "karthik": 3723,
      "square": 3724,
      "mishra": 3725,
      "analysis": 3726,
      "enterpr": 3727,
      "physiological": 3728,
      "corporation": 3729,
      "junior": 3730,
      "edutap": 3731,
      "physicshigh": 3732,
      "nabin": 3733,
      "european": 3734,
      "cular": 3735,
      "jyoti": 3736,
      "origin": 3737,
      "diploma": 3738,
      "seconds": 3739,
      "atomicschool": 3740,
      "lakshya": 3741,
      "griffith": 3742,
      "mondal": 3743,
      "asapscience": 3744,
      "beyond": 3745,
      "construction": 3746,
      "ragdolls": 3747,
      "festival": 3748,
      "muruga": 3749,
      "anurag": 3750,
      "admissions": 3751,
      "icahn": 3752,
      "amoeba": 3753,
      "clusive": 3754,
      "robonyx": 3755,
      "learnopedia": 3756,
      "concordia": 3757,
      "nicholas": 3758,
      "codecraftedphysics": 3759,
      "metropolitan": 3760,
      "01": 3761,
      "22": 3762,
      "88": 3763,
      "8th": 3764,
      "a2": 3765,
      "aasoka": 3766,
      "bap": 3767,
      "bank": 3768,
      "beta": 3769,
      "cg": 3770,
      "cil": 3771,
      "cus": 3772,
      "caf": 3773,
      "cinc": 3774,
      "dud": 3775,
      "det": 3776,
      "dex": 3777,
      "dhe": 3778,
      "dyn": 3779,
      "ef": 3780,
      "ez": 3781,
      "east": 3782,
      "evan": 3783,
      "five": 3784,
      "fak": 3785,
      "fiz": 3786,
      "fram": 3787,
      "frank": 3788,
      "gas": 3789,
      "gem": 3790,
      "had": 3791,
      "hra": 3792,
      "hus": 3793,
      "iy": 3794,
      "iacad": 3795,
      "iis": 3796,
      "jin": 3797,
      "jig": 3798,
      "kn": 3799,
      "ky": 3800,
      "kart": 3801,
      "kare": 3802,
      "kendra": 3803,
      "lar": 3804,
      "mj": 3805,
      "mv": 3806,
      "mir": 3807,
      "mari": 3808,
      "nd": 3809,
      "nes": 3810,
      "nus": 3811,
      "nta": 3812,
      "ow": 3813,
      "other": 3814,
      "pk": 3815,
      "pv": 3816,
      "pul": 3817,
      "pink": 3818,
      "pmrs": 3819,
      "qas": 3820,
      "rand": 3821,
      "rup": 3822,
      "slim": 3823,
      "sardo": 3824,
      "tg": 3825,
      "tun": 3826,
      "til": 3827,
      "tent": 3828,
      "tik": 3829,
      "tran": 3830,
      "tarun": 3831,
      "uf": 3832,
      "uol": 3833,
      "vit": 3834,
      "vind": 3835,
      "vora": 3836,
      "vfx": 3837,
      "wt": 3838,
      "wy": 3839,
      "wad": 3840,
      "wright": 3841,
      "yat": 3842,
      "yas": 3843,
      "zee": 3844,
      "يا": 3845,
      "নির": 3846,
      "বা": 3847,
      "ines": 3848,
      "inary": 3849,
      "ansh": 3850,
      "anam": 3851,
      "anna": 3852,
      "atan": 3853,
      "atma": 3854,
      "atta": 3855,
      "std": 3856,
      "stic": 3857,
      "staf": 3858,
      "alo": 3859,
      "alis": 3860,
      "alive": 3861,
      "onic": 3862,
      "onda": 3863,
      "itam": 3864,
      "chel": 3865,
      "chint": 3866,
      "child": 3867,
      "shop": 3868,
      "cet": 3869,
      "edun": 3870,
      "edwards": 3871,
      "scian": 3872,
      "orp": 3873,
      "orida": 3874,
      "ado": 3875,
      "ason": 3876,
      "lecular": 3877,
      "temp": 3878,
      "that": 3879,
      "thol": 3880,
      "esis": 3881,
      "ings": 3882,
      "ington": 3883,
      "raf": 3884,
      "athlet": 3885,
      "rey": 3886,
      "reac": 3887,
      "review": 3888,
      "relax": 3889,
      "andy": 3890,
      "ros": 3891,
      "roy": 3892,
      "idol": 3893,
      "iders": 3894,
      "off": 3895,
      "iler": 3896,
      "ilit": 3897,
      "dist": 3898,
      "studycity": 3899,
      "edutech": 3900,
      "edupoint": 3901,
      "ella": 3902,
      "elight": 3903,
      "eter": 3904,
      "exclusive": 3905,
      "ental": 3906,
      "itha": 3907,
      "learners": 3908,
      "apron": 3909,
      "educate": 3910,
      "educare": 3911,
      "sab": 3912,
      "save": 3913,
      "sabc": 3914,
      "umang": 3915,
      "yash": 3916,
      "byte": 3917,
      "bish": 3918,
      "fort": 3919,
      "forest": 3920,
      "death": 3921,
      "iko": 3922,
      "ubc": 3923,
      "hay": 3924,
      "spir": 3925,
      "jeeram": 3926,
      "copy": 3927,
      "sean": 3928,
      "igraph": 3929,
      "abdul": 3930,
      "most": 3931,
      "movie": 3932,
      "mouth": 3933,
      "molecular": 3934,
      "iah": 3935,
      "manipur": 3936,
      "management": 3937,
      "foot": 3938,
      "harry": 3939,
      "harris": 3940,
      "ipa": 3941,
      "heart": 3942,
      "worth": 3943,
      "aye": 3944,
      "inside": 3945,
      "insiders": 3946,
      "arijit": 3947,
      "magaz": 3948,
      "nayak": 3949,
      "baby": 3950,
      "beat": 3951,
      "behind": 3952,
      "freecode": 3953,
      "freethink": 3954,
      "dot": 3955,
      "place": 3956,
      "oney": 3957,
      "jag": 3958,
      "goenka": 3959,
      "illi": 3960,
      "tops": 3961,
      "hds": 3962,
      "marine": 3963,
      "hta": 3964,
      "digi": 3965,
      "method": 3966,
      "mehta": 3967,
      "paris": 3968,
      "swe": 3969,
      "nerd": 3970,
      "raju": 3971,
      "times": 3972,
      "waha": 3973,
      "careers": 3974,
      "ganga": 3975,
      "oregon": 3976,
      "bridge": 3977,
      "itesh": 3978,
      "ignite": 3979,
      "huberman": 3980,
      "boards": 3981,
      "lyn": 3982,
      "pawan": 3983,
      "mahatma": 3984,
      "mahidol": 3985,
      "rita": 3986,
      "khata": 3987,
      "sonu": 3988,
      "thern": 3989,
      "bioeth": 3990,
      "bharathi": 3991,
      "voo": 3992,
      "duke": 3993,
      "block": 3994,
      "canada": 3995,
      "cancer": 3996,
      "chandigarh": 3997,
      "series": 3998,
      "feed": 3999,
      "wow": 4000,
      "porwal": 4001,
      "portal": 4002,
      "johnson": 4003,
      "brij": 4004,
      "brian": 4005,
      "southern": 4006,
      "tecnis": 4007,
      "mbbs": 4008,
      "thampton": 4009,
      "buddy": 4010,
      "animation": 4011,
      "black": 4012,
      "namdev": 4013,
      "citycollege": 4014,
      "futurekul": 4015,
      "srin": 4016,
      "florida": 4017,
      "intell": 4018,
      "champion": 4019,
      "production": 4020,
      "service": 4021,
      "damon": 4022,
      "damian": 4023,
      "araj": 4024,
      "designhub": 4025,
      "statgraph": 4026,
      "mando": 4027,
      "007": 4028,
      "telecom": 4029,
      "calligraph": 4030,
      "meritnation": 4031,
      "inspired": 4032,
      "rocket": 4033,
      "gyaan": 4034,
      "liver": 4035,
      "xyz": 4036,
      "titans": 4037,
      "chennai": 4038,
      "speed": 4039,
      "creatives": 4040,
      "divyansh": 4041,
      "jones": 4042,
      "paper": 4043,
      "angel": 4044,
      "aspiration": 4045,
      "kelvin": 4046,
      "scotting": 4047,
      "thought": 4048,
      "thoughts": 4049,
      "jeetendra": 4050,
      "manocha": 4051,
      "নাতি": 4052,
      "নাতনির": 4053,
      "stories": 4054,
      "sleep": 4055,
      "machining": 4056,
      "jimmy": 4057,
      "ocean": 4058,
      "childr": 4059,
      "frien": 4060,
      "photography": 4061,
      "malayalam": 4062,
      "dhruv": 4063,
      "pharmacy": 4064,
      "_iitkgp": 4065,
      "sgcitycollege": 4066,
      "alumni": 4067,
      "dejavoo": 4068,
      "chintan": 4069,
      "eduniti": 4070,
      "magazine": 4071,
      "freecodecamp": 4072,
      "goenka_iitkgp": 4073,
      "mahatmaji": 4074,
      "bioethics": 4075,
      "tecnisiacad": 4076,
      "statgraphics": 4077,
      "calligraphy": 4078,
      "13": 4079,
      "15": 4080,
      "19": 4081,
      "190": 4082,
      "2k": 4083,
      "42": 4084,
      "55": 4085,
      "747": 4086,
      "86": 4087,
      "_ex": 4088,
      "_memes": 4089,
      "aha": 4090,
      "aka": 4091,
      "aast": 4092,
      "agen": 4093,
      "bath": 4094,
      "bho": 4095,
      "bul": 4096,
      "bhan": 4097,
      "bell": 4098,
      "cc": 4099,
      "cr": 4100,
      "cis": 4101,
      "cru": 4102,
      "cmp": 4103,
      "dn": 4104,
      "dad": 4105,
      "dun": 4106,
      "dall": 4107,
      "didi": 4108,
      "eb": 4109,
      "eg": 4110,
      "ele": 4111,
      "elearning": 4112,
      "econ": 4113,
      "eep": 4114,
      "fu": 4115,
      "fy": 4116,
      "fli": 4117,
      "gor": 4118,
      "gers": 4119,
      "gab": 4120,
      "gild": 4121,
      "glau": 4122,
      "hindust": 4123,
      "ience": 4124,
      "ima": 4125,
      "jal": 4126,
      "jelo": 4127,
      "kon": 4128,
      "kth": 4129,
      "karn": 4130,
      "kadi": 4131,
      "kyle": 4132,
      "lall": 4133,
      "lite": 4134,
      "mm": 4135,
      "mum": 4136,
      "muri": 4137,
      "mike": 4138,
      "nun": 4139,
      "nick": 4140,
      "nana": 4141,
      "nico": 4142,
      "pu": 4143,
      "pas": 4144,
      "put": 4145,
      "psy": 4146,
      "rj": 4147,
      "rus": 4148,
      "riss": 4149,
      "ritesh": 4150,
      "sor": 4151,
      "sath": 4152,
      "sney": 4153,
      "tt": 4154,
      "tz": 4155,
      "tat": 4156,
      "tma": 4157,
      "ux": 4158,
      "ues": 4159,
      "ucl": 4160,
      "ula": 4161,
      "ushi": 4162,
      "uven": 4163,
      "uhari": 4164,
      "vr": 4165,
      "var": 4166,
      "ves": 4167,
      "vai": 4168,
      "vious": 4169,
      "vrs": 4170,
      "want": 4171,
      "wak": 4172,
      "wash": 4173,
      "wheel": 4174,
      "xa": 4175,
      "yy": 4176,
      "zi": 4177,
      "zen": 4178,
      "zar": 4179,
      "zhi": 4180,
      "zwan": 4181,
      "ов": 4182,
      "عل": 4183,
      "ला": 4184,
      "ন্": 4185,
      "স্": 4186,
      "கள": 4187,
      "ச்": 4188,
      "டம": 4189,
      "ince": 4190,
      "invest": 4191,
      "anshu": 4192,
      "atul": 4193,
      "ere": 4194,
      "aru": 4195,
      "arvind": 4196,
      "armando": 4197,
      "stal": 4198,
      "itis": 4199,
      "scare": 4200,
      "chim": 4201,
      "chigan": 4202,
      "chriss": 4203,
      "shep": 4204,
      "shold": 4205,
      "shuk": 4206,
      "orado": 4207,
      "adel": 4208,
      "asian": 4209,
      "lesh": 4210,
      "leuven": 4211,
      "amul": 4212,
      "unknow": 4213,
      "ungan": 4214,
      "tel": 4215,
      "oli": 4216,
      "esmath": 4217,
      "athar": 4218,
      "athlon": 4219,
      "acion": 4220,
      "ational": 4221,
      "read": 4222,
      "rehan": 4223,
      "retro": 4224,
      "reason": 4225,
      "udungan": 4226,
      "nest": 4227,
      "maurya": 4228,
      "urved": 4229,
      "iro": 4230,
      "rohit": 4231,
      "idul": 4232,
      "utah": 4233,
      "ility": 4234,
      "acadgild": 4235,
      "diary": 4236,
      "diksha": 4237,
      "disney": 4238,
      "geor": 4239,
      "geek": 4240,
      "geeth": 4241,
      "eduhub": 4242,
      "phy": 4243,
      "issa": 4244,
      "eto": 4245,
      "learnology": 4246,
      "learnify": 4247,
      "icse": 4248,
      "dash": 4249,
      "api": 4250,
      "apee": 4251,
      "riel": 4252,
      "hoo": 4253,
      "hoss": 4254,
      "sagar": 4255,
      "england": 4256,
      "istgrammar": 4257,
      "yaasa": 4258,
      "ime": 4259,
      "imper": 4260,
      "biol": 4261,
      "town": 4262,
      "sirji": 4263,
      "forre": 4264,
      "deb": 4265,
      "bob": 4266,
      "uba": 4267,
      "hash": 4268,
      "spard": 4269,
      "spec": 4270,
      "spaw": 4271,
      "newcast": 4272,
      "colorado": 4273,
      "seba": 4274,
      "ctwt": 4275,
      "idea": 4276,
      "ife": 4277,
      "abas": 4278,
      "abroad": 4279,
      "aki": 4280,
      "walla": 4281,
      "moder": 4282,
      "mozhi": 4283,
      "pour": 4284,
      "comfle": 4285,
      "mania": 4286,
      "fox": 4287,
      "focus": 4288,
      "harmon": 4289,
      "esting": 4290,
      "shash": 4291,
      "look": 4292,
      "heen": 4293,
      "head": 4294,
      "myos": 4295,
      "ayurved": 4296,
      "inson": 4297,
      "prajap": 4298,
      "nauk": 4299,
      "naveen": 4300,
      "ankar": 4301,
      "joe": 4302,
      "prathi": 4303,
      "pritam": 4304,
      "prince": 4305,
      "oper": 4306,
      "ople": 4307,
      "bean": 4308,
      "being": 4309,
      "beast": 4310,
      "cken": 4311,
      "yana": 4312,
      "ally": 4313,
      "door": 4314,
      "interesting": 4315,
      "jaipur": 4316,
      "jauhari": 4317,
      "karia": 4318,
      "affair": 4319,
      "nell": 4320,
      "123": 4321,
      "suraj": 4322,
      "shoba": 4323,
      "marg": 4324,
      "iana": 4325,
      "mr_memes": 4326,
      "parth": 4327,
      "lette": 4328,
      "gamelight": 4329,
      "jana": 4330,
      "kumari": 4331,
      "hitendra": 4332,
      "minist": 4333,
      "wagh": 4334,
      "people": 4335,
      "sangeeta": 4336,
      "ganit": 4337,
      "gannon": 4338,
      "brit": 4339,
      "trent": 4340,
      "vidh": 4341,
      "samirst": 4342,
      "vikmath": 4343,
      "priyan": 4344,
      "eye": 4345,
      "aggarwal": 4346,
      "page": 4347,
      "farru": 4348,
      "ritvikmath": 4349,
      "khal": 4350,
      "alexander": 4351,
      "ataka": 4352,
      "niraj": 4353,
      "matthe": 4354,
      "mont": 4355,
      "caster": 4356,
      "carol": 4357,
      "mercy": 4358,
      "visionil": 4359,
      "cuit": 4360,
      "concepts": 4361,
      "chahar": 4362,
      "veter": 4363,
      "michigan": 4364,
      "autom": 4365,
      "voice": 4366,
      "ellie": 4367,
      "yale": 4368,
      "queen": 4369,
      "experience": 4370,
      "codewith": 4371,
      "steam": 4372,
      "sunshine": 4373,
      "malik": 4374,
      "person": 4375,
      "cyber": 4376,
      "justice": 4377,
      "views": 4378,
      "denki": 4379,
      "inspire": 4380,
      "nirman": 4381,
      "snappy": 4382,
      "namma": 4383,
      "barsto": 4384,
      "surg": 4385,
      "electrician": 4386,
      "mama": 4387,
      "vishwa": 4388,
      "الم": 4389,
      "market": 4390,
      "govind": 4391,
      "2021": 4392,
      "products": 4393,
      "charles": 4394,
      "philipp": 4395,
      "philadel": 4396,
      "nandana": 4397,
      "practice": 4398,
      "burg": 4399,
      "build": 4400,
      "subje": 4401,
      "stuart": 4402,
      "quanta": 4403,
      "entertainments": 4404,
      "baba": 4405,
      "circuit": 4406,
      "calling": 4407,
      "lincol": 4408,
      "yoga": 4409,
      "yogesh": 4410,
      "choice": 4411,
      "choudhary": 4412,
      "editz": 4413,
      "tware": 4414,
      "axel": 4415,
      "software": 4416,
      "maheshwari": 4417,
      "educators": 4418,
      "aaron": 4419,
      "creativity": 4420,
      "richard": 4421,
      "khokhar": 4422,
      "innati": 4423,
      "manoj": 4424,
      "9018": 4425,
      "blaze": 4426,
      "hasudungan": 4427,
      "moment": 4428,
      "punjab": 4429,
      "country": 4430,
      "vidyapee": 4431,
      "victoria": 4432,
      "ylistgrammar": 4433,
      "reliance": 4434,
      "masti": 4435,
      "seeken": 4436,
      "websedge": 4437,
      "scholar": 4438,
      "ravinder": 4439,
      "ravindra": 4440,
      "bedfordshire": 4441,
      "ntist": 4442,
      "slick": 4443,
      "majuba": 4444,
      "apollo": 4445,
      "perfect": 4446,
      "explorer": 4447,
      "advanced": 4448,
      "audio": 4449,
      "women": 4450,
      "adventure": 4451,
      "geeks": 4452,
      "biomedical": 4453,
      "spress": 4454,
      "documentary": 4455,
      "falgun": 4456,
      "hunter": 4457,
      "krishoba": 4458,
      "nakul": 4459,
      "ohio": 4460,
      "achieve": 4461,
      "premier": 4462,
      "cardiff": 4463,
      "hunting": 4464,
      "lasses": 4465,
      "louis": 4466,
      "tadka": 4467,
      "street": 4468,
      "threshold": 4469,
      "universiteit": 4470,
      "statistics": 4471,
      "cincinnati": 4472,
      "dynamic": 4473,
      "hussain": 4474,
      "jigyaasa": 4475,
      "kareem": 4476,
      "rupani": 4477,
      "slime": 4478,
      "sardo_ex": 4479,
      "scianntist": 4480,
      "reacts": 4481,
      "ipaat": 4482,
      "methods": 4483,
      "brijbala": 4484,
      "intellipaat": 4485,
      "liverpool": 4486,
      "children": 4487,
      "agency": 4488,
      "flix": 4489,
      "glaucomfle": 4490,
      "karnataka": 4491,
      "kadiyan": 4492,
      "கள்": 4493,
      "ச்ச": 4494,
      "scarecrow": 4495,
      "chrissie": 4496,
      "shepard": 4497,
      "amulya": 4498,
      "unknown": 4499,
      "imperial": 4500,
      "spardha": 4501,
      "special": 4502,
      "spawner": 4503,
      "newcastle": 4504,
      "modern": 4505,
      "harmony": 4506,
      "myositis": 4507,
      "ayurveda": 4508,
      "prajapati": 4509,
      "prathibha": 4510,
      "affairs": 4511,
      "mr_memes747": 4512,
      "samirstylistgrammar": 4513,
      "barstool": 4514,
      "philadelphia": 4515,
      "sardo_exspress": 4516,
      "glaucomflecken": 4517,
      "!!": 4518,
      "3cb": 4519,
      "41": 4520,
      "62": 4521,
      "aal": 4522,
      "aur": 4523,
      "aid": 4524,
      "abi": 4525,
      "agarwal": 4526,
      "bol": 4527,
      "bac": 4528,
      "but": 4529,
      "bil": 4530,
      "bry": 4531,
      "bach": 4532,
      "cit": 4533,
      "csc": 4534,
      "cad": 4535,
      "cine": 4536,
      "cant": 4537,
      "cup": 4538,
      "cure": 4539,
      "cca": 4540,
      "dc": 4541,
      "dsc": 4542,
      "dil": 4543,
      "demy": 4544,
      "dht": 4545,
      "dham": 4546,
      "dbrown": 4547,
      "ea": 4548,
      "ev": 4549,
      "een": 4550,
      "earn": 4551,
      "eco": 4552,
      "event": 4553,
      "ekeeda": 4554,
      "fr": 4555,
      "fig": 4556,
      "fah": 4557,
      "faz": 4558,
      "frid": 4559,
      "gst": 4560,
      "gil": 4561,
      "gis": 4562,
      "gig": 4563,
      "ghana": 4564,
      "hat": 4565,
      "hor": 4566,
      "hku": 4567,
      "hong": 4568,
      "jat": 4569,
      "jre": 4570,
      "jul": 4571,
      "jha": 4572,
      "jcu": 4573,
      "kk": 4574,
      "ksh": 4575,
      "kad": 4576,
      "kind": 4577,
      "kos": 4578,
      "kie": 4579,
      "khi": 4580,
      "krist": 4581,
      "lie": 4582,
      "mur": 4583,
      "mass": 4584,
      "mint": 4585,
      "mund": 4586,
      "nce": 4587,
      "nem": 4588,
      "nim": 4589,
      "ngo": 4590,
      "nvs": 4591,
      "ninja": 4592,
      "ov": 4593,
      "oud": 4594,
      "ound": 4595,
      "otes": 4596,
      "pic": 4597,
      "past": 4598,
      "pson": 4599,
      "pcb": 4600,
      "pcs": 4601,
      "pavan": 4602,
      "rg": 4603,
      "ré": 4604,
      "rar": 4605,
      "rut": 4606,
      "rical": 4607,
      "rare": 4608,
      "rwa": 4609,
      "rhy": 4610,
      "russ": 4611,
      "sz": 4612,
      "sas": 4613,
      "sac": 4614,
      "ske": 4615,
      "tâ": 4616,
      "tle": 4617,
      "tass": 4618,
      "tute": 4619,
      "tab": 4620,
      "tay": 4621,
      "table": 4622,
      "tbooks": 4623,
      "u_": 4624,
      "uin": 4625,
      "viv": 4626,
      "vast": 4627,
      "vita": 4628,
      "vement": 4629,
      "wik": 4630,
      "ware": 4631,
      "whit": 4632,
      "yap": 4633,
      "yudas": 4634,
      "zges": 4635,
      "ça": 4636,
      "ал": 4637,
      "ंत्र": 4638,
      "नि": 4639,
      "मंत्र": 4640,
      "দি": 4641,
      "বন্": 4642,
      "ಂದ": 4643,
      "ಚಂದ": 4644,
      "ದರ": 4645,
      "ದೂ": 4646,
      "ರದರ": 4647,
      "ಶನ": 4648,
      "್ಶನ": 4649,
      "너수": 4650,
      "에너수": 4651,
      "inda": 4652,
      "inbur": 4653,
      "inchak": 4654,
      "anth": 4655,
      "anne": 4656,
      "anush": 4657,
      "anjit": 4658,
      "ating": 4659,
      "erva": 4660,
      "eni": 4661,
      "eners": 4662,
      "enfel": 4663,
      "arth": 4664,
      "arma": 4665,
      "arah": 4666,
      "stand": 4667,
      "stone": 4668,
      "still": 4669,
      "style": 4670,
      "stocks": 4671,
      "ald": 4672,
      "alan": 4673,
      "alini": 4674,
      "ones": 4675,
      "ondie": 4676,
      "sche": 4677,
      "score": 4678,
      "sclasses": 4679,
      "chid": 4680,
      "chard": 4681,
      "chok": 4682,
      "chond": 4683,
      "challen": 4684,
      "sher": 4685,
      "shed": 4686,
      "ship": 4687,
      "share": 4688,
      "shell": 4689,
      "shalini": 4690,
      "edits": 4691,
      "ores": 4692,
      "oriz": 4693,
      "add": 4694,
      "asl": 4695,
      "lex": 4696,
      "lead": 4697,
      "leagu": 4698,
      "amader": 4699,
      "una": 4700,
      "tewal": 4701,
      "thers": 4702,
      "thap": 4703,
      "thosh": 4704,
      "emi": 4705,
      "emon": 4706,
      "emed": 4707,
      "emade": 4708,
      "empire": 4709,
      "rac": 4710,
      "rail": 4711,
      "raiya": 4712,
      "raipur": 4713,
      "rajesh": 4714,
      "acy": 4715,
      "account": 4716,
      "neh": 4717,
      "maz": 4718,
      "main": 4719,
      "maast": 4720,
      "clar": 4721,
      "clay": 4722,
      "click": 4723,
      "urana": 4724,
      "urdu": 4725,
      "irud": 4726,
      "andel": 4727,
      "rounder": 4728,
      "rohid": 4729,
      "idad": 4730,
      "studious": 4731,
      "utosh": 4732,
      "erson": 4733,
      "dian": 4734,
      "dire": 4735,
      "diya": 4736,
      "omoo": 4737,
      "gel": 4738,
      "gear": 4739,
      "edu4all": 4740,
      "pho": 4741,
      "phx": 4742,
      "last": 4743,
      "ism": 4744,
      "isal": 4745,
      "isfun": 4746,
      "issan": 4747,
      "elmund": 4748,
      "eti": 4749,
      "etan": 4750,
      "etch": 4751,
      "ento": 4752,
      "entri": 4753,
      "learnfree": 4754,
      "days": 4755,
      "apial": 4756,
      "apki": 4757,
      "rika": 4758,
      "educorp": 4759,
      "hou": 4760,
      "hopk": 4761,
      "sah": 4762,
      "sav": 4763,
      "saini": 4764,
      "anta": 4765,
      "anton": 4766,
      "antop": 4767,
      "umi": 4768,
      "iverse": 4769,
      "physical": 4770,
      "istan": 4771,
      "imia": 4772,
      "byu": 4773,
      "biof": 4774,
      "bike": 4775,
      "tous": 4776,
      "to12": 4777,
      "touch": 4778,
      "force": 4779,
      "dest": 4780,
      "deah": 4781,
      "uld": 4782,
      "ull": 4783,
      "ultr": 4784,
      "bow": 4785,
      "body": 4786,
      "bosse": 4787,
      "ikr": 4788,
      "plas": 4789,
      "hao": 4790,
      "spm": 4791,
      "spo": 4792,
      "jest": 4793,
      "examrace": 4794,
      "kaur": 4795,
      "coast": 4796,
      "colum": 4797,
      "see": 4798,
      "secre": 4799,
      "medi": 4800,
      "ifa": 4801,
      "indtechy": 4802,
      "indones": 4803,
      "abram": 4804,
      "funplay": 4805,
      "akb": 4806,
      "aks": 4807,
      "wali": 4808,
      "movi": 4809,
      "mount": 4810,
      "moores": 4811,
      "moomoo": 4812,
      "tutors": 4813,
      "come": 4814,
      "guyana": 4815,
      "netflix": 4816,
      "harraiya": 4817,
      "artan": 4818,
      "shaw": 4819,
      "shaala": 4820,
      "shaikh": 4821,
      "lok": 4822,
      "lot": 4823,
      "loud": 4824,
      "lovel": 4825,
      "myguru": 4826,
      "osis": 4827,
      "ayushi": 4828,
      "kee": 4829,
      "grand": 4830,
      "quinn": 4831,
      "quimia": 4832,
      "quikr": 4833,
      "prabhu": 4834,
      "nah": 4835,
      "nav": 4836,
      "naz": 4837,
      "anki": 4838,
      "ankul": 4839,
      "prk": 4840,
      "bear": 4841,
      "becca": 4842,
      "vice": 4843,
      "amila": 4844,
      "jah": 4845,
      "aniya": 4846,
      "lucky": 4847,
      "karim": 4848,
      "skm": 4849,
      "skmp": 4850,
      "goyal": 4851,
      "connor": 4852,
      "afa": 4853,
      "garh": 4854,
      "suhani": 4855,
      "sukhi": 4856,
      "logic": 4857,
      "marki": 4858,
      "marvel": 4859,
      "ians": 4860,
      "smith": 4861,
      "swami": 4862,
      "swirl": 4863,
      "mastersclasses": 4864,
      "ashutosh": 4865,
      "healthcare": 4866,
      "rajat": 4867,
      "rajput": 4868,
      "company": 4869,
      "minerva": 4870,
      "wave": 4871,
      "waqas": 4872,
      "pear": 4873,
      "notification": 4874,
      "notting": 4875,
      "genesis": 4876,
      "santhosh": 4877,
      "solanki": 4878,
      "mysterious": 4879,
      "bruce": 4880,
      "orton": 4881,
      "sama": 4882,
      "samriya": 4883,
      "result": 4884,
      "rama": 4885,
      "agt": 4886,
      "agro": 4887,
      "creators": 4888,
      "greg": 4889,
      "grey": 4890,
      "weather": 4891,
      "simran": 4892,
      "khrist": 4893,
      "khurana": 4894,
      "musa": 4895,
      "soni": 4896,
      "madani": 4897,
      "mates": 4898,
      "matem": 4899,
      "siwale": 4900,
      "sumit": 4901,
      "bern": 4902,
      "balwant": 4903,
      "veland": 4904,
      "tushar": 4905,
      "nalac": 4906,
      "krishi": 4907,
      "lesson": 4908,
      "minutes": 4909,
      "river": 4910,
      "ighthol": 4911,
      "miles": 4912,
      "computing": 4913,
      "tony": 4914,
      "bhas": 4915,
      "ukwad": 4916,
      "brothers": 4917,
      "bharath": 4918,
      "fiu": 4919,
      "liam": 4920,
      "saksham": 4921,
      "electro": 4922,
      "electrical": 4923,
      "tesmaths": 4924,
      "rankplus": 4925,
      "canvas": 4926,
      "pixel": 4927,
      "pihoo": 4928,
      "chandana": 4929,
      "supercar": 4930,
      "supercross": 4931,
      "saranjit": 4932,
      "steph": 4933,
      "highschool": 4934,
      "sense": 4935,
      "vivekan": 4936,
      "pori": 4937,
      "porinchak": 4938,
      "rise": 4939,
      "amites": 4940,
      "kiran": 4941,
      "publish": 4942,
      "satya": 4943,
      "scode": 4944,
      "thompson": 4945,
      "johns": 4946,
      "kvs": 4947,
      "tomar": 4948,
      "cleo": 4949,
      "cleveland": 4950,
      "faiz": 4951,
      "faisal": 4952,
      "ytics": 4953,
      "amaze": 4954,
      "southampton": 4955,
      "check": 4956,
      "publications": 4957,
      "munil": 4958,
      "munee": 4959,
      "obser": 4960,
      "clinical": 4961,
      "blondie": 4962,
      "dreams": 4963,
      "textbooks": 4964,
      "nutshell": 4965,
      "surge": 4966,
      "soccer": 4967,
      "spacetime": 4968,
      "lovescode": 4969,
      "bhav": 4970,
      "nptel": 4971,
      "venk": 4972,
      "stknight": 4973,
      "programs": 4974,
      "flip": 4975,
      "bigdat": 4976,
      "adhyayan": 4977,
      "omai": 4978,
      "rattewal": 4979,
      "intel": 4980,
      "nikhil": 4981,
      "innovations": 4982,
      "ansari": 4983,
      "nandni": 4984,
      "triathlon": 4985,
      "polymer": 4986,
      "buil": 4987,
      "uvic": 4988,
      "andreas": 4989,
      "babu": 4990,
      "twists": 4991,
      "tennis": 4992,
      "galatta": 4993,
      "bengal": 4994,
      "sanket": 4995,
      "icago": 4996,
      "popul": 4997,
      "axis": 4998,
      "datamites": 4999,
      "lakes": 5000,
      "biswajyoti": 5001,
      "spect": 5002,
      "dharma": 5003,
      "freshers": 5004,
      "midd": 5005,
      "squad": 5006,
      "chirag": 5007,
      "richt": 5008,
      "pitts": 5009,
      "vardhan": 5010,
      "aryanlovescode": 5011,
      "scott": 5012,
      "unfold": 5013,
      "batch": 5014,
      "holly": 5015,
      "kurzges": 5016,
      "pune": 5017,
      "analytics": 5018,
      "isaac": 5019,
      "physiology": 5020,
      "vidyalaya": 5021,
      "sleighthol": 5022,
      "ville": 5023,
      "victor": 5024,
      "masters": 5025,
      "academic": 5026,
      "notebook": 5027,
      "baggy": 5028,
      "bagdevi": 5029,
      "websankul": 5030,
      "better": 5031,
      "durga": 5032,
      "dubukwad": 5033,
      "valley": 5034,
      "shinhan": 5035,
      "olympic": 5036,
      "cosmos": 5037,
      "perfection": 5038,
      "potato": 5039,
      "bloomberg": 5040,
      "william": 5041,
      "williams": 5042,
      "environment": 5043,
      "environmental": 5044,
      "crime": 5045,
      "wrl": 5046,
      "advisement": 5047,
      "county": 5048,
      "awesomefram": 5049,
      "cinema": 5050,
      "gandhi": 5051,
      "gardens": 5052,
      "jacob": 5053,
      "kushwaha": 5054,
      "mustafa": 5055,
      "trek": 5056,
      "wired": 5057,
      "chatpat": 5058,
      "edoesmath": 5059,
      "cartoons": 5060,
      "viraled": 5061,
      "warriors": 5062,
      "...)": 5063,
      "trans": 5064,
      "staffordshire": 5065,
      "alova": 5066,
      "athletics": 5067,
      "sabine": 5068,
      "pariskha": 5069,
      "srinivas": 5070,
      "friends": 5071,
      "econom": 5072,
      "lallantop": 5073,
      "paswan": 5074,
      "psych": 5075,
      "washington": 5076,
      "shukla": 5077,
      "atharva": 5078,
      "reasoning": 5079,
      "etoos": 5080,
      "hossenfel": 5081,
      "forrestknight": 5082,
      "naukri": 5083,
      "doordarshan": 5084,
      "margdarshan": 5085,
      "veterinary": 5086,
      "codewithharry": 5087,
      "surgical": 5088,
      "subjects": 5089,
      "lincoln": 5090,
      "dhamaka": 5091,
      "dbrownshinhan": 5092,
      "earning": 5093,
      "ecole": 5094,
      "events": 5095,
      "fazal": 5096,
      "fridman": 5097,
      "rutgers": 5098,
      "tâm": 5099,
      "tassomai": 5100,
      "বন্দি": 5101,
      "ಚಂದನ": 5102,
      "ದೂರದರ": 5103,
      "enersoo": 5104,
      "chondhe": 5105,
      "challenge": 5106,
      "league": 5107,
      "maastricht": 5108,
      "rohidas": 5109,
      "elmundo": 5110,
      "hopkins": 5111,
      "bossetesmaths": 5112,
      "moomoomath": 5113,
      "lovely": 5114,
      "quimiayudas": 5115,
      "sukhija": 5116,
      "markiedoesmath": 5117,
      "swirltex": 5118,
      "nottingham": 5119,
      "khristine": 5120,
      "pihoozz": 5121,
      "bigdatakb": 5122,
      "kurzgesagt": 5123,
      "sleightholm": 5124,
      "awesomeframers": 5125,
      "hossenfelder": 5126,
      "ದೂರದರ್ಶನ": 5127,
      "--": 5128,
      "05": 5129,
      "38": 5130,
      "3d": 5131,
      "307": 5132,
      "4apki": 5133,
      "70": 5134,
      "85": 5135,
      "95": 5136,
      "99": 5137,
      "_bap": 5138,
      "_solanki": 5139,
      "aas": 5140,
      "aest": 5141,
      "avi": 5142,
      "avis": 5143,
      "bin": 5144,
      "bing": 5145,
      "bum": 5146,
      "bite": 5147,
      "bond": 5148,
      "brist": 5149,
      "bli": 5150,
      "cz": 5151,
      "cst": 5152,
      "ccl": 5153,
      "cut": 5154,
      "cry": 5155,
      "cart": 5156,
      "cash": 5157,
      "cise": 5158,
      "cgp": 5159,
      "dt": 5160,
      "dic": 5161,
      "dog": 5162,
      "dut": 5163,
      "dent": 5164,
      "dani": 5165,
      "esc": 5166,
      "elearn": 5167,
      "ecs": 5168,
      "ft": 5169,
      "fis": 5170,
      "flo": 5171,
      "fcb": 5172,
      "gt": 5173,
      "ged": 5174,
      "gif": 5175,
      "gop": 5176,
      "gill": 5177,
      "giz": 5178,
      "grav": 5179,
      "grace": 5180,
      "ginger": 5181,
      "gwrl": 5182,
      "hall": 5183,
      "hatt": 5184,
      "ij": 5185,
      "iu": 5186,
      "iad": 5187,
      "iel": 5188,
      "iwan": 5189,
      "js": 5190,
      "jet": 5191,
      "jmd": 5192,
      "jdg": 5193,
      "kt": 5194,
      "kol": 5195,
      "kes": 5196,
      "kra": 5197,
      "kus": 5198,
      "kunda": 5199,
      "kong": 5200,
      "kfcb": 5201,
      "lw": 5202,
      "lion": 5203,
      "lac": 5204,
      "lut": 5205,
      "lers": 5206,
      "lil": 5207,
      "lik": 5208,
      "lati": 5209,
      "lata": 5210,
      "mg": 5211,
      "mt": 5212,
      "msc": 5213,
      "mas": 5214,
      "mgs": 5215,
      "morn": 5216,
      "money": 5217,
      "nm": 5218,
      "nz": 5219,
      "nith": 5220,
      "nda": 5221,
      "nap": 5222,
      "nup": 5223,
      "nyan": 5224,
      "nani": 5225,
      "nsw": 5226,
      "oday": 5227,
      "oste": 5228,
      "pd": 5229,
      "pig": 5230,
      "pari": 5231,
      "pall": 5232,
      "pian": 5233,
      "push": 5234,
      "pitt": 5235,
      "pps": 5236,
      "run": 5237,
      "ration": 5238,
      "ril": 5239,
      "radi": 5240,
      "rena": 5241,
      "rural": 5242,
      "ses": 5243,
      "sre": 5244,
      "sus": 5245,
      "sya": 5246,
      "sig": 5247,
      "sadh": 5248,
      "srivastava": 5249,
      "sgm": 5250,
      "seme": 5251,
      "sivas": 5252,
      "sneh": 5253,
      "tm": 5254,
      "tac": 5255,
      "ters": 5256,
      "tics": 5257,
      "tak": 5258,
      "tade": 5259,
      "taf": 5260,
      "tws": 5261,
      "tica": 5262,
      "tuber": 5263,
      "take": 5264,
      "tiverse": 5265,
      "uof": 5266,
      "uga": 5267,
      "uec": 5268,
      "uams": 5269,
      "ucky": 5270,
      "vam": 5271,
      "vens": 5272,
      "vick": 5273,
      "vpass": 5274,
      "wf": 5275,
      "wk": 5276,
      "wen": 5277,
      "wind": 5278,
      "wess": 5279,
      "wick": 5280,
      "wonda": 5281,
      "xx": 5282,
      "yon": 5283,
      "year": 5284,
      "zo": 5285,
      "zu": 5286,
      "zol": 5287,
      "zir": 5288,
      "zil": 5289,
      "zet": 5290,
      "zano": 5291,
      "ática": 5292,
      "ʙᴀ": 5293,
      "ʜᴀ": 5294,
      "ек": 5295,
      "нт": 5296,
      "تعل": 5297,
      "مد": 5298,
      "अध": 5299,
      "जो": 5300,
      "द्य": 5301,
      "भार": 5302,
      "मि": 5303,
      "यन": 5304,
      "वि": 5305,
      "্য": 5306,
      "ற்": 5307,
      "᭄ʙᴀ": 5308,
      "ᴅⓢ": 5309,
      "大学": 5310,
      "inay": 5311,
      "inash": 5312,
      "ane": 5313,
      "ann": 5314,
      "anya": 5315,
      "anvi": 5316,
      "anirud": 5317,
      "atl": 5318,
      "ator": 5319,
      "atics": 5320,
      "atory": 5321,
      "eron": 5322,
      "erus": 5323,
      "erial": 5324,
      "ente": 5325,
      "ense": 5326,
      "arir": 5327,
      "arwal": 5328,
      "stri": 5329,
      "step": 5330,
      "stron": 5331,
      "alk": 5332,
      "alak": 5333,
      "alight": 5334,
      "onest": 5335,
      "ito": 5336,
      "itv": 5337,
      "itz": 5338,
      "itas": 5339,
      "itanya": 5340,
      "scz": 5341,
      "scle": 5342,
      "chik": 5343,
      "chill": 5344,
      "chicago": 5345,
      "shir": 5346,
      "cester": 5347,
      "cess": 5348,
      "edi": 5349,
      "edx": 5350,
      "edith": 5351,
      "scimath": 5352,
      "orial": 5353,
      "orchid": 5354,
      "adri": 5355,
      "aditi": 5356,
      "administ": 5357,
      "asri": 5358,
      "aspire": 5359,
      "sciencetv": 5360,
      "leaf": 5361,
      "lease": 5362,
      "amik": 5363,
      "unit": 5364,
      "unath": 5365,
      "unik": 5366,
      "unak": 5367,
      "unsw": 5368,
      "unbox": 5369,
      "uniq": 5370,
      "tek": 5371,
      "tetr": 5372,
      "olic": 5373,
      "tho": 5374,
      "then": 5375,
      "thies": 5376,
      "esi": 5377,
      "eswari": 5378,
      "eslati": 5379,
      "empor": 5380,
      "rab": 5381,
      "rain": 5382,
      "rael": 5383,
      "rajan": 5384,
      "rakash": 5385,
      "raksh": 5386,
      "raunak": 5387,
      "athap": 5388,
      "acle": 5389,
      "action": 5390,
      "reh": 5391,
      "recor": 5392,
      "really": 5393,
      "reviews": 5394,
      "rebecca": 5395,
      "ivity": 5396,
      "ivedi": 5397,
      "udit": 5398,
      "need": 5399,
      "neider": 5400,
      "maza": 5401,
      "cloud": 5402,
      "iri": 5403,
      "irs": 5404,
      "andi": 5405,
      "andré": 5406,
      "rom": 5407,
      "roo": 5408,
      "rots": 5409,
      "round": 5410,
      "roger": 5411,
      "idhi": 5412,
      "classic": 5413,
      "classical": 5414,
      "oga": 5415,
      "ogy": 5416,
      "ogle": 5417,
      "ilo": 5418,
      "ilter": 5419,
      "dik": 5420,
      "dip": 5421,
      "disci": 5422,
      "omi": 5423,
      "georg": 5424,
      "phuk": 5425,
      "phile": 5426,
      "lav": 5427,
      "laur": 5428,
      "lake": 5429,
      "lawn": 5430,
      "ison": 5431,
      "ises": 5432,
      "isac": 5433,
      "ely": 5434,
      "etic": 5435,
      "expert": 5436,
      "theor": 5437,
      "thepap": 5438,
      "dazz": 5439,
      "apo": 5440,
      "apex": 5441,
      "apore": 5442,
      "aprakash": 5443,
      "rizwan": 5444,
      "sae": 5445,
      "sava": 5446,
      "engg": 5447,
      "umn": 5448,
      "umar": 5449,
      "usf": 5450,
      "usi": 5451,
      "uset": 5452,
      "universidad": 5453,
      "iste": 5454,
      "bie": 5455,
      "bias": 5456,
      "physicsisfun": 5457,
      "tour": 5458,
      "total": 5459,
      "toplas": 5460,
      "forn": 5461,
      "forever": 5462,
      "dey": 5463,
      "deer": 5464,
      "deut": 5465,
      "decoding": 5466,
      "depress": 5467,
      "deemed": 5468,
      "ulu": 5469,
      "ulas": 5470,
      "boden": 5471,
      "botan": 5472,
      "bodha": 5473,
      "ikato": 5474,
      "spot": 5475,
      "noc": 5476,
      "nova": 5477,
      "kavi": 5478,
      "kawas": 5479,
      "newng": 5480,
      "counc": 5481,
      "sea": 5482,
      "sey": 5483,
      "search": 5484,
      "seattle": 5485,
      "iger": 5486,
      "cture": 5487,
      "medit": 5488,
      "ifer": 5489,
      "iful": 5490,
      "inders": 5491,
      "abrar": 5492,
      "tutway": 5493,
      "funda": 5494,
      "fundam": 5495,
      "walker": 5496,
      "progress": 5497,
      "prowess": 5498,
      "mohan": 5499,
      "motion": 5500,
      "mohammad": 5501,
      "momaya": 5502,
      "motor": 5503,
      "movement": 5504,
      "coming": 5505,
      "comment": 5506,
      "combat": 5507,
      "comfort": 5508,
      "oueslati": 5509,
      "gust": 5510,
      "mana": 5511,
      "manthan": 5512,
      "manchester": 5513,
      "hart": 5514,
      "ksapollo": 5515,
      "ipedia": 5516,
      "arti": 5517,
      "lost": 5518,
      "lozano": 5519,
      "dram": 5520,
      "drug": 5521,
      "heena": 5522,
      "heidi": 5523,
      "oso": 5524,
      "ayam": 5525,
      "aymen": 5526,
      "keep": 5527,
      "grind": 5528,
      "quotes": 5529,
      "praveen": 5530,
      "ssom": 5531,
      "naga": 5532,
      "josh": 5533,
      "joshu": 5534,
      "prathap": 5535,
      "areeb": 5536,
      "apple": 5537,
      "rict": 5538,
      "news18": 5539,
      "beby": 5540,
      "bepec": 5541,
      "becoming": 5542,
      "ckn": 5543,
      "singapore": 5544,
      "tiar": 5545,
      "allstars": 5546,
      "doza": 5547,
      "plays": 5548,
      "vier": 5549,
      "lucas": 5550,
      "jeeb": 5551,
      "sketch": 5552,
      "sk_solanki": 5553,
      "gover": 5554,
      "google": 5555,
      "after": 5556,
      "veranda": 5557,
      "veritas": 5558,
      "garjen": 5559,
      "huang": 5560,
      "perio": 5561,
      "sugeeth": 5562,
      "gazet": 5563,
      "indianapol": 5564,
      "channels": 5565,
      "astra": 5566,
      "mridul": 5567,
      "mr᭄ʙᴀ": 5568,
      "meena": 5569,
      "ranu": 5570,
      "ize": 5571,
      "izen": 5572,
      "para": 5573,
      "parmar": 5574,
      "pardeep": 5575,
      "swan": 5576,
      "swast": 5577,
      "swapn": 5578,
      "taj": 5579,
      "tail": 5580,
      "taiwan": 5581,
      "ashley": 5582,
      "mentor": 5583,
      "kiii": 5584,
      "tested": 5585,
      "medicin": 5586,
      "medicosis": 5587,
      "patter": 5588,
      "waz": 5589,
      "waikato": 5590,
      "11alive": 5591,
      "sanchit": 5592,
      "gang": 5593,
      "ganesh": 5594,
      "pt3": 5595,
      "brilli": 5596,
      "prey": 5597,
      "previous": 5598,
      "odam": 5599,
      "trin": 5600,
      "true": 5601,
      "avy": 5602,
      "aven": 5603,
      "avinash": 5604,
      "ortuk": 5605,
      "gateway": 5606,
      "samu": 5607,
      "vikatan": 5608,
      "pathak": 5609,
      "raman": 5610,
      "agician": 5611,
      "creator": 5612,
      "nurse": 5613,
      "nurser": 5614,
      "ekam": 5615,
      "muscle": 5616,
      "shiva": 5617,
      "shivi": 5618,
      "jayaprakash": 5619,
      "salvi": 5620,
      "early": 5621,
      "madhy": 5622,
      "aib": 5623,
      "aire": 5624,
      "rush": 5625,
      "rushi": 5626,
      "mathemagician": 5627,
      "material": 5628,
      "monkey": 5629,
      "summit": 5630,
      "carrots": 5631,
      "mathematician": 5632,
      "gyanoday": 5633,
      "iitm": 5634,
      "iitian": 5635,
      "iitgn": 5636,
      "wanshi": 5637,
      "chain": 5638,
      "chaitanya": 5639,
      "cbc": 5640,
      "corp": 5641,
      "cornell": 5642,
      "cracker": 5643,
      "wise": 5644,
      "ught": 5645,
      "miami": 5646,
      "hello": 5647,
      "tonight": 5648,
      "gurukulam": 5649,
      "simply": 5650,
      "kalki": 5651,
      "police": 5652,
      "ellen": 5653,
      "multiverse": 5654,
      "pwian": 5655,
      "libert": 5656,
      "christian": 5657,
      "imento": 5658,
      "blow": 5659,
      "blox": 5660,
      "blossom": 5661,
      "finland": 5662,
      "pix": 5663,
      "abhinay": 5664,
      "serious": 5665,
      "sara": 5666,
      "sarkar": 5667,
      "sarah": 5668,
      "steven": 5669,
      "stevens": 5670,
      "reddy": 5671,
      "redlan": 5672,
      "adhunik": 5673,
      "sunny": 5674,
      "youtuber": 5675,
      "sound": 5676,
      "virgin": 5677,
      "courses": 5678,
      "ethio": 5679,
      "cbseclass": 5680,
      "helpnated": 5681,
      "fancy": 5682,
      "ictio": 5683,
      "dylan": 5684,
      "zaid": 5685,
      "gujarat": 5686,
      "sourav": 5687,
      "cheung": 5688,
      "akhil": 5689,
      "hyman": 5690,
      "nirja": 5691,
      "attarwal": 5692,
      "shubh": 5693,
      "gamescz": 5694,
      "namrita": 5695,
      "dhattarwal": 5696,
      "tamest": 5697,
      "srm": 5698,
      "surya": 5699,
      "suryaa": 5700,
      "socksapollo": 5701,
      "schneider": 5702,
      "mamun": 5703,
      "الب": 5704,
      "keytalks": 5705,
      "pharmonash": 5706,
      "programmes": 5707,
      "ceramic": 5708,
      "flinders": 5709,
      "nitin": 5710,
      "rathee": 5711,
      "katar": 5712,
      "ratna": 5713,
      "champions": 5714,
      "danny": 5715,
      "aravi": 5716,
      "pherd": 5717,
      "innovative": 5718,
      "atoms": 5719,
      "philoso": 5720,
      "kobi": 5721,
      "kuiu": 5722,
      "trends": 5723,
      "bismil": 5724,
      "curtin": 5725,
      "pilani": 5726,
      "sikhiba": 5727,
      "trip": 5728,
      "subhash": 5729,
      "infinite": 5730,
      "raghu": 5731,
      "babita": 5732,
      "glad": 5733,
      "kalai": 5734,
      "linus": 5735,
      "edition": 5736,
      "espino": 5737,
      "northwestern": 5738,
      "campusx": 5739,
      "airy": 5740,
      "tenthies": 5741,
      "rocky": 5742,
      "communic": 5743,
      "everyday": 5744,
      "everyone": 5745,
      "verse": 5746,
      "string": 5747,
      "harshvardhan": 5748,
      "pencil": 5749,
      "mayank": 5750,
      "explore": 5751,
      "latur": 5752,
      "lama": 5753,
      "wellness": 5754,
      "्रा": 5755,
      "shepherd": 5756,
      "thanarah": 5757,
      "educator": 5758,
      "mukhtiar": 5759,
      "svc": 5760,
      "chakrika": 5761,
      "updates": 5762,
      "karthika": 5763,
      "breaking": 5764,
      "breakdown": 5765,
      "practically": 5766,
      "nathans": 5767,
      "sandip": 5768,
      "angela": 5769,
      "aspirants": 5770,
      "felix": 5771,
      "kelly": 5772,
      "archive": 5773,
      "unfilter": 5774,
      "diego": 5775,
      "postpart": 5776,
      "astrokobi": 5777,
      "henry": 5778,
      "somoy": 5779,
      "yeah": 5780,
      "anjum": 5781,
      "anusha": 5782,
      "shikha": 5783,
      "beautiful": 5784,
      "mentalphysics": 5785,
      "juniortuk": 5786,
      "francis": 5787,
      "graphix": 5788,
      "himanshu": 5789,
      "santa": 5790,
      "santosh": 5791,
      "wbcs": 5792,
      "adamgamescz": 5793,
      "academies": 5794,
      "mixed": 5795,
      "full": 5796,
      "narendra": 5797,
      "othy": 5798,
      "tipfak": 5799,
      "tiptoplas": 5800,
      "्ययन": 5801,
      "olympiad": 5802,
      "assamese": 5803,
      "models": 5804,
      "homemade": 5805,
      "mlnewng": 5806,
      "woman": 5807,
      "startalk": 5808,
      "adventures": 5809,
      "safari": 5810,
      "safety": 5811,
      "heeler": 5812,
      "ricket": 5813,
      "documentaries": 5814,
      "jorge": 5815,
      "kmeng": 5816,
      "kishan": 5817,
      "ladies": 5818,
      "sultan": 5819,
      "sulthanarah": 5820,
      "wolf": 5821,
      "scripps": 5822,
      "chapter": 5823,
      "electronic": 5824,
      "electronics": 5825,
      "filmy": 5826,
      "kentucky": 5827,
      "pakistan": 5828,
      "يمي": 5829,
      "shakil": 5830,
      "legacy": 5831,
      "toddler": 5832,
      "toddlers": 5833,
      "enterprise": 5834,
      "enterprises": 5835,
      "cafe": 5836,
      "dexter": 5837,
      "dheeraj": 5838,
      "knya": 5839,
      "kartik": 5840,
      "mjt": 5841,
      "pvt": 5842,
      "random": 5843,
      "tilak": 5844,
      "temple": 5845,
      "relaxation": 5846,
      "district": 5847,
      "ikoodam": 5848,
      "spirit": 5849,
      "copyright": 5850,
      "digiimento": 5851,
      "sweet": 5852,
      "sleepy": 5853,
      "bhopal": 5854,
      "bhannat": 5855,
      "dnb": 5856,
      "dads": 5857,
      "dallas": 5858,
      "gabriel": 5859,
      "hindustan": 5860,
      "sathish": 5861,
      "zenith": 5862,
      "george": 5863,
      "debnath": 5864,
      "abasfan": 5865,
      "wallace": 5866,
      "british": 5867,
      "khalid": 5868,
      "matthew": 5869,
      "automation": 5870,
      "personal": 5871,
      "vidyapeeth": 5872,
      "ச்சி": 5873,
      "fahim": 5874,
      "gillette": 5875,
      "nced": 5876,
      "ngoma": 5877,
      "rhymes": 5878,
      "tutelage": 5879,
      "u_307": 5880,
      "white": 5881,
      "anushka": 5882,
      "addict": 5883,
      "thapro": 5884,
      "biofairy": 5885,
      "ultralight": 5886,
      "indonesia": 5887,
      "movies": 5888,
      "pearson": 5889,
      "samahar": 5890,
      "matemática": 5891,
      "bhasker": 5892,
      "vivekanand": 5893,
      "population": 5894,
      "spectrum": 5895,
      "freshersnow": 5896,
      "perfectionalis": 5897,
      "_bapu_307": 5898,
      "aesthet": 5899,
      "avisio": 5900,
      "bristol": 5901,
      "gravity": 5902,
      "gwrlwi": 5903,
      "kfcbabasfan": 5904,
      "lwm": 5905,
      "morning": 5906,
      "pallikoodam": 5907,
      "sadhguru": 5908,
      "tadeo": 5909,
      "vicky": 5910,
      "wondastic": 5911,
      "ʜᴀʜ": 5912,
      "अध्ययन": 5913,
      "भारत": 5914,
      "मित्र": 5915,
      "विद्य": 5916,
      "ᴅⓢʜᴀʜ": 5917,
      "anirudh": 5918,
      "arirang": 5919,
      "orchids": 5920,
      "administration": 5921,
      "tetris": 5922,
      "emporium": 5923,
      "mazaa": 5924,
      "georgia": 5925,
      "lawns": 5926,
      "thepapare": 5927,
      "dazzling": 5928,
      "depression": 5929,
      "bodhaguru": 5930,
      "kawasaki": 5931,
      "council": 5932,
      "motorsports": 5933,
      "heena2": 5934,
      "nagauri": 5935,
      "joshua": 5936,
      "sk_solanki_bapu_307": 5937,
      "gazette": 5938,
      "indianapolis": 5939,
      "mr᭄ʙᴀᴅⓢʜᴀʜ": 5940,
      "swapnil": 5941,
      "pattern": 5942,
      "brilliant": 5943,
      "nursery": 5944,
      "madhyamik": 5945,
      "liberty": 5946,
      "redlancer": 5947,
      "virginia": 5948,
      "bismillah": 5949,
      "subhashini": 5950,
      "espinosa": 5951,
      "unfiltered": 5952,
      "postpartum": 5953,
      "juniortukkie": 5954,
      "tiptoplaser": 5955,
      "sulthanarahman": 5956,
      "0n": 5957,
      "0x": 5958,
      "17": 5959,
      "1m": 5960,
      "1to12": 5961,
      "23": 5962,
      "27": 5963,
      "29": 5964,
      "33": 5965,
      "44": 5966,
      "45": 5967,
      "48": 5968,
      "4k": 5969,
      "69": 5970,
      "74": 5971,
      "75": 5972,
      "7th": 5973,
      "786": 5974,
      "80": 5975,
      "_it": 5976,
      "_to": 5977,
      "_do": 5978,
      "_official": 5979,
      "_gamer": 5980,
      "_mozhi": 5981,
      "ao": 5982,
      "aq": 5983,
      "asc": 5984,
      "aad": 5985,
      "asha": 5986,
      "aqu": 5987,
      "aero": 5988,
      "aadi": 5989,
      "aadhya": 5990,
      "aakash": 5991,
      "aato": 5992,
      "aica": 5993,
      "bw": 5994,
      "bes": 5995,
      "barn": 5996,
      "bsa": 5997,
      "bub": 5998,
      "bak": 5999,
      "bran": 6000,
      "bca": 6001,
      "buj": 6002,
      "batt": 6003,
      "born": 6004,
      "battle": 6005,
      "cn": 6006,
      "cô": 6007,
      "cand": 6008,
      "cial": 6009,
      "cert": 6010,
      "core": 6011,
      "cali": 6012,
      "cris": 6013,
      "cult": 6014,
      "cnbc": 6015,
      "cams": 6016,
      "cande": 6017,
      "cather": 6018,
      "coff": 6019,
      "dm": 6020,
      "dp": 6021,
      "din": 6022,
      "dri": 6023,
      "dart": 6024,
      "dos": 6025,
      "dare": 6026,
      "dhu": 6027,
      "dera": 6028,
      "dly": 6029,
      "dmc": 6030,
      "dana": 6031,
      "dyson": 6032,
      "dvs": 6033,
      "dilli": 6034,
      "eag": 6035,
      "eff": 6036,
      "ecet": 6037,
      "fm": 6038,
      "fv": 6039,
      "fam": 6040,
      "fol": 6041,
      "fay": 6042,
      "ffic": 6043,
      "flu": 6044,
      "flux": 6045,
      "flow": 6046,
      "ging": 6047,
      "gtech": 6048,
      "gde": 6049,
      "gou": 6050,
      "ghar": 6051,
      "gio": 6052,
      "gare": 6053,
      "gok": 6054,
      "gian": 6055,
      "gates": 6056,
      "glan": 6057,
      "hg": 6058,
      "hư": 6059,
      "hsc": 6060,
      "hes": 6061,
      "hass": 6062,
      "hant": 6063,
      "hive": 6064,
      "happ": 6065,
      "hert": 6066,
      "hink": 6067,
      "hika": 6068,
      "honey": 6069,
      "hull": 6070,
      "ige": 6071,
      "ient": 6072,
      "ield": 6073,
      "jv": 6074,
      "jes": 6075,
      "jud": 6076,
      "jid": 6077,
      "jhar": 6078,
      "jung": 6079,
      "kd": 6080,
      "kine": 6081,
      "kers": 6082,
      "kom": 6083,
      "kant": 6084,
      "kok": 6085,
      "kert": 6086,
      "k12": 6087,
      "kot": 6088,
      "kris": 6089,
      "khab": 6090,
      "kapoor": 6091,
      "knik": 6092,
      "kls": 6093,
      "kori": 6094,
      "lit": 6095,
      "lun": 6096,
      "lum": 6097,
      "list": 6098,
      "lub": 6099,
      "lia": 6100,
      "long": 6101,
      "lisa": 6102,
      "m4": 6103,
      "mh": 6104,
      "mx": 6105,
      "mol": 6106,
      "mine": 6107,
      "mut": 6108,
      "mex": 6109,
      "mson": 6110,
      "mvo": 6111,
      "miller": 6112,
      "nj": 6113,
      "ned": 6114,
      "nad": 6115,
      "nic": 6116,
      "nine": 6117,
      "nil": 6118,
      "niz": 6119,
      "nment": 6120,
      "nkos": 6121,
      "nifer": 6122,
      "oscience": 6123,
      "ole": 6124,
      "othe": 6125,
      "oop": 6126,
      "obot": 6127,
      "pon": 6128,
      "peng": 6129,
      "pup": 6130,
      "pie": 6131,
      "pep": 6132,
      "pati": 6133,
      "pure": 6134,
      "pali": 6135,
      "pict": 6136,
      "pinn": 6137,
      "qr": 6138,
      "rence": 6139,
      "rent": 6140,
      "rant": 6141,
      "rivers": 6142,
      "rust": 6143,
      "rbe": 6144,
      "rument": 6145,
      "s1": 6146,
      "sit": 6147,
      "smed": 6148,
      "sind": 6149,
      "sks": 6150,
      "sru": 6151,
      "srk": 6152,
      "sunder": 6153,
      "suss": 6154,
      "saniya": 6155,
      "tậ": 6156,
      "tic": 6157,
      "tap": 6158,
      "tts": 6159,
      "tide": 6160,
      "tif": 6161,
      "tind": 6162,
      "tree": 6163,
      "tari": 6164,
      "tast": 6165,
      "tato": 6166,
      "tiger": 6167,
      "usc": 6168,
      "uka": 6169,
      "ukey": 6170,
      "v6": 6171,
      "vk": 6172,
      "von": 6173,
      "via": 6174,
      "vall": 6175,
      "varsh": 6176,
      "vable": 6177,
      "vacion": 6178,
      "wl": 6179,
      "wu": 6180,
      "wit": 6181,
      "wine": 6182,
      "wel": 6183,
      "wri": 6184,
      "wson": 6185,
      "watt": 6186,
      "wire": 6187,
      "yin": 6188,
      "yarn": 6189,
      "yian": 6190,
      "yola": 6191,
      "zon": 6192,
      "zation": 6193,
      "zach": 6194,
      "zab": 6195,
      "zak": 6196,
      "zag": 6197,
      "zoo": 6198,
      "étit": 6199,
      "ơng": 6200,
      "ат": 6201,
      "ел": 6202,
      "ков": 6203,
      "яков": 6204,
      "أح": 6205,
      "ار": 6206,
      "تح": 6207,
      "تو": 6208,
      "جذ": 6209,
      "را": 6210,
      "في": 6211,
      "ंघ": 6212,
      "जा": 6213,
      "थी": 6214,
      "दर": 6215,
      "धव": 6216,
      "नव": 6217,
      "बर": 6218,
      "बार": 6219,
      "मा": 6220,
      "मनि": 6221,
      "लंघ": 6222,
      "लबर": 6223,
      "वा": 6224,
      "षा": 6225,
      "ोल": 6226,
      "्ला": 6227,
      "्थी": 6228,
      "ংলা": 6229,
      "থ্য": 6230,
      "ধি": 6231,
      "বি": 6232,
      "িন": 6233,
      "அக": 6234,
      "கு": 6235,
      "ட்": 6236,
      "ன்": 6237,
      "ம்": 6238,
      "ளக்": 6239,
      "வெ": 6240,
      "ாடம": 6241,
      "గు": 6242,
      "తె": 6243,
      "లు": 6244,
      "ಿತ": 6245,
      "ầy": 6246,
      "ọc": 6247,
      "チャ": 6248,
      "ネル": 6249,
      "ンネル": 6250,
      "𝐋𝐞": 6251,
      "𝐢𝐭": 6252,
      "𝗶𝗻": 6253,
      "🧪📚": 6254,
      "ination": 6255,
      "inly": 6256,
      "indepth": 6257,
      "income": 6258,
      "anik": 6259,
      "anup": 6260,
      "ancollege": 6261,
      "anmar": 6262,
      "anjan": 6263,
      "anju": 6264,
      "atp": 6265,
      "ater": 6266,
      "ature": 6267,
      "ators": 6268,
      "atlas": 6269,
      "erd": 6270,
      "erac": 6271,
      "ercise": 6272,
      "enham": 6273,
      "ender": 6274,
      "enjoy": 6275,
      "endur": 6276,
      "arm": 6277,
      "aran": 6278,
      "aram": 6279,
      "ariv": 6280,
      "arne": 6281,
      "arist": 6282,
      "arial": 6283,
      "arak": 6284,
      "arvin": 6285,
      "around": 6286,
      "sta": 6287,
      "stur": 6288,
      "stom": 6289,
      "stjohn": 6290,
      "stau": 6291,
      "sthink": 6292,
      "aling": 6293,
      "ality": 6294,
      "alok": 6295,
      "alert": 6296,
      "algo": 6297,
      "alana": 6298,
      "onne": 6299,
      "onitha": 6300,
      "ondoza": 6301,
      "scop": 6302,
      "chath": 6303,
      "chip": 6304,
      "chie": 6305,
      "chick": 6306,
      "chetan": 6307,
      "shd": 6308,
      "shand": 6309,
      "shil": 6310,
      "shim": 6311,
      "shig": 6312,
      "shani": 6313,
      "shek": 6314,
      "shale": 6315,
      "shonitha": 6316,
      "cel": 6317,
      "edic": 6318,
      "edson": 6319,
      "orte": 6320,
      "ories": 6321,
      "orium": 6322,
      "adhan": 6323,
      "advice": 6324,
      "asma": 6325,
      "asia": 6326,
      "asala": 6327,
      "aslife": 6328,
      "asiya": 6329,
      "icy": 6330,
      "icul": 6331,
      "icks": 6332,
      "icious": 6333,
      "science101": 6334,
      "lee": 6335,
      "legen": 6336,
      "leib": 6337,
      "leader": 6338,
      "amy": 6339,
      "amar": 6340,
      "amir": 6341,
      "ambi": 6342,
      "une": 6343,
      "unk": 6344,
      "uny": 6345,
      "unic": 6346,
      "unes": 6347,
      "unim": 6348,
      "unboxing": 6349,
      "uncle": 6350,
      "teen": 6351,
      "ols": 6352,
      "olle": 6353,
      "thu": 6354,
      "this": 6355,
      "thim": 6356,
      "three": 6357,
      "thram": 6358,
      "thuni": 6359,
      "thoriz": 6360,
      "thầy": 6361,
      "emak": 6362,
      "empir": 6363,
      "raa": 6364,
      "raut": 6365,
      "rawal": 6366,
      "raham": 6367,
      "rabh": 6368,
      "rafi": 6369,
      "raina": 6370,
      "athan": 6371,
      "athon": 6372,
      "aco": 6373,
      "acid": 6374,
      "actu": 6375,
      "rei": 6376,
      "rest": 6377,
      "reel": 6378,
      "recap": 6379,
      "release": 6380,
      "ivf": 6381,
      "iving": 6382,
      "ivia": 6383,
      "ivate": 6384,
      "ivanam": 6385,
      "udi": 6386,
      "nea": 6387,
      "neem": 6388,
      "neur": 6389,
      "neil": 6390,
      "neel": 6391,
      "neeraj": 6392,
      "makar": 6393,
      "clare": 6394,
      "clark": 6395,
      "clair": 6396,
      "close": 6397,
      "claire": 6398,
      "cluny": 6399,
      "url": 6400,
      "urday": 6401,
      "iram": 6402,
      "irfan": 6403,
      "andonly": 6404,
      "rot": 6405,
      "robo": 6406,
      "roug": 6407,
      "rocks": 6408,
      "robot": 6409,
      "studix": 6410,
      "ofc": 6411,
      "offi": 6412,
      "uttar": 6413,
      "ilar": 6414,
      "diffic": 6415,
      "dization": 6416,
      "techz": 6417,
      "studyhub": 6418,
      "studyvlogs": 6419,
      "studylight": 6420,
      "omon": 6421,
      "omyadav": 6422,
      "edustudio": 6423,
      "lay": 6424,
      "lael": 6425,
      "isi": 6426,
      "iser": 6427,
      "isgreat": 6428,
      "mathsindepth": 6429,
      "elly": 6430,
      "ets": 6431,
      "etw": 6432,
      "etical": 6433,
      "exp": 6434,
      "exercise": 6435,
      "theone": 6436,
      "theellen": 6437,
      "ential": 6438,
      "ysia": 6439,
      "ologus": 6440,
      "dao": 6441,
      "daph": 6442,
      "davis": 6443,
      "dawn": 6444,
      "daganga": 6445,
      "apere": 6446,
      "rio": 6447,
      "hok": 6448,
      "hot": 6449,
      "houst": 6450,
      "savi": 6451,
      "sagan": 6452,
      "saints": 6453,
      "saurav": 6454,
      "sauce": 6455,
      "engagement": 6456,
      "anti": 6457,
      "antic": 6458,
      "antiis": 6459,
      "educations": 6460,
      "umass": 6461,
      "user": 6462,
      "usapo": 6463,
      "universal": 6464,
      "ista": 6465,
      "ister": 6466,
      "istic": 6467,
      "yaka": 6468,
      "img": 6469,
      "imm": 6470,
      "imp": 6471,
      "iman": 6472,
      "imar": 6473,
      "impro": 6474,
      "imaslife": 6475,
      "biolog": 6476,
      "biot": 6477,
      "bihari": 6478,
      "bikas": 6479,
      "forward": 6480,
      "forgeeks": 6481,
      "deen": 6482,
      "deco": 6483,
      "dekho": 6484,
      "ulam": 6485,
      "ulum": 6486,
      "ulos": 6487,
      "ultra": 6488,
      "bose": 6489,
      "boss": 6490,
      "bobs": 6491,
      "iki": 6492,
      "plant": 6493,
      "plug": 6494,
      "hax": 6495,
      "hair": 6496,
      "haute": 6497,
      "hawa": 6498,
      "haven": 6499,
      "hayes": 6500,
      "hafiz": 6501,
      "spa": 6502,
      "spar": 6503,
      "spet": 6504,
      "spang": 6505,
      "spee": 6506,
      "sparsh": 6507,
      "spartan": 6508,
      "jev": 6509,
      "jetha": 6510,
      "nobody": 6511,
      "examvita": 6512,
      "kao": 6513,
      "kay": 6514,
      "kaust": 6515,
      "kakar": 6516,
      "kabir": 6517,
      "newmedicin": 6518,
      "newsthink": 6519,
      "cot": 6520,
      "cock": 6521,
      "cowan": 6522,
      "cooper": 6523,
      "coll": 6524,
      "colli": 6525,
      "seth": 6526,
      "section": 6527,
      "igg": 6528,
      "igo": 6529,
      "medtech": 6530,
      "medtalks": 6531,
      "mednerd": 6532,
      "ifatul": 6533,
      "upgrad": 6534,
      "indiagro": 6535,
      "tva": 6536,
      "colleges": 6537,
      "indologus": 6538,
      "achuset": 6539,
      "aber": 6540,
      "tuts": 6541,
      "fundas": 6542,
      "akshar": 6543,
      "akrish": 6544,
      "wall": 6545,
      "wales": 6546,
      "wallet": 6547,
      "walking": 6548,
      "walkth": 6549,
      "process": 6550,
      "moon": 6551,
      "mojo": 6552,
      "mould": 6553,
      "poulos": 6554,
      "instrument": 6555,
      "common": 6556,
      "oug": 6557,
      "oucester": 6558,
      "outhuni": 6559,
      "guar": 6560,
      "nett": 6561,
      "networks": 6562,
      "manhatt": 6563,
      "manthram": 6564,
      "vedprep": 6565,
      "hara": 6566,
      "hardy": 6567,
      "hardik": 6568,
      "artz": 6569,
      "artist": 6570,
      "shaa": 6571,
      "shaurya": 6572,
      "essions": 6573,
      "loo": 6574,
      "loka": 6575,
      "loki": 6576,
      "loves": 6577,
      "driving": 6578,
      "heim": 6579,
      "heavy": 6580,
      "words": 6581,
      "biologyexams": 6582,
      "myanmar": 6583,
      "ayan": 6584,
      "kei": 6585,
      "arihant": 6586,
      "grant": 6587,
      "quality": 6588,
      "quartz": 6589,
      "prave": 6590,
      "navi": 6591,
      "navy": 6592,
      "nawaz": 6593,
      "iowa": 6594,
      "join": 6595,
      "joma": 6596,
      "joshi": 6597,
      "pran": 6598,
      "prondoza": 6599,
      "private": 6600,
      "bai": 6601,
      "appa": 6602,
      "appétit": 6603,
      "riculum": 6604,
      "alai": 6605,
      "alaysia": 6606,
      "beach": 6607,
      "beard": 6608,
      "beals": 6609,
      "chanel": 6610,
      "2411": 6611,
      "hannah": 6612,
      "alli": 6613,
      "allied": 6614,
      "plainly": 6615,
      "viya": 6616,
      "vijetha": 6617,
      "intermant": 6618,
      "interact": 6619,
      "ficient": 6620,
      "ertility": 6621,
      "maxsi": 6622,
      "jaat": 6623,
      "jaim": 6624,
      "adeshorts": 6625,
      "karanj": 6626,
      "karuna": 6627,
      "karmakar": 6628,
      "skp": 6629,
      "skin": 6630,
      "god": 6631,
      "gobi": 6632,
      "officialhill": 6633,
      "conse": 6634,
      "confer": 6635,
      "convers": 6636,
      "content": 6637,
      "consultan": 6638,
      "afresearch": 6639,
      "verham": 6640,
      "verage": 6641,
      "illy": 6642,
      "illino": 6643,
      "facilit": 6644,
      "huan": 6645,
      "sukal": 6646,
      "suthar": 6647,
      "labs": 6648,
      "shots": 6649,
      "shook": 6650,
      "marr": 6651,
      "marocks": 6652,
      "marathon": 6653,
      "indiana": 6654,
      "tale": 6655,
      "talkies": 6656,
      "astic": 6657,
      "epic": 6658,
      "epapere": 6659,
      "meet": 6660,
      "mehand": 6661,
      "rane": 6662,
      "hiel": 6663,
      "hilesh": 6664,
      "ization": 6665,
      "izzab": 6666,
      "visit": 6667,
      "how_to": 6668,
      "parad": 6669,
      "param": 6670,
      "parul": 6671,
      "letters": 6672,
      "swif": 6673,
      "swaraj": 6674,
      "swinbur": 6675,
      "ashima": 6676,
      "healthy": 6677,
      "kib": 6678,
      "testbook": 6679,
      "jansen": 6680,
      "symb": 6681,
      "syrac": 6682,
      "syphx": 6683,
      "shana": 6684,
      "medico": 6685,
      "medicina": 6686,
      "rajendra": 6687,
      "rajkot": 6688,
      "knowledgegate": 6689,
      "singhkori": 6690,
      "timel": 6691,
      "timothy": 6692,
      "wah": 6693,
      "wahen": 6694,
      "nccr": 6695,
      "pesh": 6696,
      "pect": 6697,
      "shownet": 6698,
      "hamed": 6699,
      "hamim": 6700,
      "sang": 6701,
      "sanjee": 6702,
      "gana": 6703,
      "pty": 6704,
      "ptic": 6705,
      "solent": 6706,
      "brad": 6707,
      "bram": 6708,
      "preet": 6709,
      "formula": 6710,
      "kidso": 6711,
      "odh": 6712,
      "ody": 6713,
      "trol": 6714,
      "avat": 6715,
      "avers": 6716,
      "sharda": 6717,
      "vidhy": 6718,
      "vidnyan": 6719,
      "angry": 6720,
      "angalam": 6721,
      "anglia": 6722,
      "samrat": 6723,
      "samtheone": 6724,
      "kashif": 6725,
      "kashyap": 6726,
      "price": 6727,
      "respect": 6728,
      "csec": 6729,
      "eym": 6730,
      "pathshaala": 6731,
      "pathasala": 6732,
      "ramento": 6733,
      "agiri": 6734,
      "agrawal": 6735,
      "smarty": 6736,
      "smartpathshala": 6737,
      "pande": 6738,
      "mahendra": 6739,
      "mahshwari": 6740,
      "farmer": 6741,
      "faroo": 6742,
      "mcb": 6743,
      "mcdon": 6744,
      "ffa": 6745,
      "ffin": 6746,
      "ffield": 6747,
      "lifeada": 6748,
      "eklav": 6749,
      "khandel": 6750,
      "kheti": 6751,
      "khusi": 6752,
      "muffin": 6753,
      "purdu": 6754,
      "sona": 6755,
      "ralfy": 6756,
      "alextoys": 6757,
      "shivonne": 6758,
      "salvacion": 6759,
      "crafty": 6760,
      "supari": 6761,
      "suprem": 6762,
      "supaero": 6763,
      "madison": 6764,
      "madhok": 6765,
      "rooms": 6766,
      "niu": 6767,
      "ruchi": 6768,
      "careerinno": 6769,
      "berly": 6770,
      "carl": 6771,
      "cars": 6772,
      "tyc": 6773,
      "lish_gamer": 6774,
      "industry": 6775,
      "juug": 6776,
      "jugal": 6777,
      "jugad": 6778,
      "erock": 6779,
      "endrakumar": 6780,
      "factor": 6781,
      "facttechz": 6782,
      "mitch": 6783,
      "mitra": 6784,
      "wane": 6785,
      "chaudhary": 6786,
      "cbn": 6787,
      "dsguruji": 6788,
      "vetri": 6789,
      "vetree": 6790,
      "ungisi": 6791,
      "useengineer": 6792,
      "aziz": 6793,
      "girls": 6794,
      "wisley": 6795,
      "desai": 6796,
      "helena": 6797,
      "teria": 6798,
      "terfly": 6799,
      "bioogy": 6800,
      "jamnagar": 6801,
      "jamaica": 6802,
      "bhat": 6803,
      "broad": 6804,
      "broke": 6805,
      "brook": 6806,
      "kale": 6807,
      "yalar": 6808,
      "christina": 6809,
      "delta": 6810,
      "delicious": 6811,
      "ghulam": 6812,
      "deporte": 6813,
      "deepika": 6814,
      "eea": 6815,
      "eee": 6816,
      "ranking": 6817,
      "vaid": 6818,
      "chandu": 6819,
      "sporting": 6820,
      "sportshd": 6821,
      "supercoaching": 6822,
      "supernan": 6823,
      "gramin": 6824,
      "gramener": 6825,
      "redible": 6826,
      "sunstone": 6827,
      "kanth": 6828,
      "kanpur": 6829,
      "kansal": 6830,
      "kanika": 6831,
      "ivillage": 6832,
      "soum": 6833,
      "sojo": 6834,
      "soye": 6835,
      "workshop": 6836,
      "drexel": 6837,
      "virgi": 6838,
      "groups": 6839,
      "ographics": 6840,
      "saty": 6841,
      "saturday": 6842,
      "resource": 6843,
      "fans": 6844,
      "fan2k": 6845,
      "kings": 6846,
      "autochim": 6847,
      "ecss": 6848,
      "faith": 6849,
      "rkdemy": 6850,
      "vivekkumar": 6851,
      "gery": 6852,
      "sourabh": 6853,
      "chewy": 6854,
      "tecn": 6855,
      "abc7": 6856,
      "courseware": 6857,
      "derive": 6858,
      "mbits": 6859,
      "untold": 6860,
      "thamangalam": 6861,
      "bharatvarsh": 6862,
      "budge": 6863,
      "anime": 6864,
      "animal": 6865,
      "name": 6866,
      "applic": 6867,
      "dhwani": 6868,
      "darpan": 6869,
      "barbell": 6870,
      "barasiya": 6871,
      "nutan": 6872,
      "surrey": 6873,
      "wayne": 6874,
      "schmid": 6875,
      "bangar": 6876,
      "الجذ": 6877,
      "key86": 6878,
      "plex": 6879,
      "tanya": 6880,
      "pharmarocks": 6881,
      "opencourseware": 6882,
      "cerer": 6883,
      "nitish": 6884,
      "rathod": 6885,
      "bigbrain": 6886,
      "guides": 6887,
      "2024": 6888,
      "forensics": 6889,
      "doctors": 6890,
      "herbert": 6891,
      "iyah": 6892,
      "nikola": 6893,
      "nikhilesh": 6894,
      "brett": 6895,
      "belie": 6896,
      "kenji": 6897,
      "status": 6898,
      "charlie": 6899,
      "donisgreat": 6900,
      "jasneet": 6901,
      "kothamangalam": 6902,
      "mandeep": 6903,
      "psb": 6904,
      "makers": 6905,
      "bong": 6906,
      "bongo": 6907,
      "burgh": 6908,
      "current": 6909,
      "curriculum": 6910,
      "hired": 6911,
      "hiriy": 6912,
      "nisha": 6913,
      "pilot": 6914,
      "silent": 6915,
      "silicon": 6916,
      "polytechnique": 6917,
      "buck": 6918,
      "subham": 6919,
      "chalk": 6920,
      "prasar": 6921,
      "prasanth": 6922,
      "goodin": 6923,
      "christoulas": 6924,
      "cirothe": 6925,
      "callsmed": 6926,
      "glen": 6927,
      "glam": 6928,
      "gloucester": 6929,
      "jerry": 6930,
      "selor": 6931,
      "yogi": 6932,
      "yogendra": 6933,
      "editor": 6934,
      "mechanic": 6935,
      "northwest": 6936,
      "inspiring": 6937,
      "arship": 6938,
      "govtjob": 6939,
      "ireland": 6940,
      "lives": 6941,
      "deshpande": 6942,
      "august": 6943,
      "backben": 6944,
      "gurunath": 6945,
      "lersciencetv": 6946,
      "peter": 6947,
      "anytime": 6948,
      "mayta": 6949,
      "explorat": 6950,
      "brainx": 6951,
      "professional": 6952,
      "datac": 6953,
      "domin": 6954,
      "kites": 6955,
      "latifatul": 6956,
      "chamber": 6957,
      "asean": 6958,
      "thanu": 6959,
      "thanthi": 6960,
      "mahesh": 6961,
      "geoid": 6962,
      "geopop": 6963,
      "educating": 6964,
      "onlyias": 6965,
      "monashunim": 6966,
      "mercedes": 6967,
      "deepakstudyvlogs": 6968,
      "rapidminds": 6969,
      "iii": 6970,
      "martial": 6971,
      "svm": 6972,
      "emaster": 6973,
      "bournem": 6974,
      "speaks": 6975,
      "karthike": 6976,
      "creativem": 6977,
      "jonathan": 6978,
      "papers": 6979,
      "srijana": 6980,
      "aspirant": 6981,
      "borah": 6982,
      "boradeshorts": 6983,
      "morris": 6984,
      "morinda": 6985,
      "morshed": 6986,
      "misha": 6987,
      "pitre": 6988,
      "pitstop": 6989,
      "siddaganga": 6990,
      "yorkies": 6991,
      "archite": 6992,
      "unfurl": 6993,
      "lawrence": 6994,
      "postgraduate": 6995,
      "sydneyolympic": 6996,
      "blaha": 6997,
      "ballstom": 6998,
      "fromcb": 6999,
      "henson": 7000,
      "kurt": 7001,
      "noni": 7002,
      "passion": 7003,
      "renuka": 7004,
      "sbj": 7005,
      "yeany": 7006,
      "ार्थी": 7007,
      "anjali": 7008,
      "isae": 7009,
      "corporate": 7010,
      "france": 7011,
      "goln": 7012,
      "golu": 7013,
      "golam": 7014,
      "kimmel": 7015,
      "village": 7016,
      "stock": 7017,
      "orient": 7018,
      "relle": 7019,
      "machines": 7020,
      "scholarship": 7021,
      "agricultural": 7022,
      "duluth": 7023,
      "dublin": 7024,
      "othman": 7025,
      "pacer": 7026,
      "pacific": 7027,
      "remus": 7028,
      "tasneem": 7029,
      "turings": 7030,
      "nepalivillage": 7031,
      "roberts": 7032,
      "università": 7033,
      "deewane": 7034,
      "cosmo": 7035,
      "abhiyan": 7036,
      "visualization": 7037,
      "microsoft": 7038,
      "exploring": 7039,
      "baylor": 7040,
      "bayerus": 7041,
      "cambridge": 7042,
      "cameron": 7043,
      "handwrit": 7044,
      "hindu": 7045,
      "mlungisi": 7046,
      "oceans": 7047,
      "writer": 7048,
      "writes": 7049,
      "stylish_gamer": 7050,
      "shreya": 7051,
      "rehabilit": 7052,
      "spring": 7053,
      "bhattach": 7054,
      "birds": 7055,
      "billy": 7056,
      "casey": 7057,
      "dhanani": 7058,
      "kamal": 7059,
      "kishor": 7060,
      "mills": 7061,
      "sinai": 7062,
      "wolverham": 7063,
      "wangbw": 7064,
      "zambia": 7065,
      "scribe": 7066,
      "advisor": 7067,
      "mahajan": 7068,
      "counselor": 7069,
      "institutions": 7070,
      "feeling": 7071,
      "filter": 7072,
      "fisher": 7073,
      "gandh": 7074,
      "garden": 7075,
      "jennifer": 7076,
      "jackson": 7077,
      "portsmouth": 7078,
      "сей": 7079,
      "сент": 7080,
      "றிச்சி": 7081,
      "infra": 7082,
      "infographics": 7083,
      "shakti": 7084,
      "regional": 7085,
      "hackers": 7086,
      "warrior": 7087,
      "waterloo": 7088,
      "a2z": 7089,
      "banking": 7090,
      "caferac": 7091,
      "dude": 7092,
      "efficient": 7093,
      "evanthoriz": 7094,
      "iiser": 7095,
      "mirza": 7096,
      "owl": 7097,
      "pullat": 7098,
      "tenty": 7099,
      "zeeshan": 7100,
      "ياء": 7101,
      "বাস্": 7102,
      "বাংলা": 7103,
      "educatee": 7104,
      "bishnup": 7105,
      "jagdera": 7106,
      "digilearning": 7107,
      "speedie": 7108,
      "ahascience": 7109,
      "duniya": 7110,
      "element": 7111,
      "gordonisgreat": 7112,
      "kylegordonisgreat": 7113,
      "nunm": 7114,
      "nicole": 7115,
      "ruskin": 7116,
      "sorcerer": 7117,
      "tattva": 7118,
      "ucla": 7119,
      "vaibhav": 7120,
      "wakarma": 7121,
      "लालबर": 7122,
      "স্বাস্": 7123,
      "டம்": 7124,
      "asianet": 7125,
      "biolive": 7126,
      "biolabs": 7127,
      "bobby": 7128,
      "mozhiyin": 7129,
      "shashank": 7130,
      "vidhya": 7131,
      "vidhyaa": 7132,
      "priyanka": 7133,
      "montclair": 7134,
      "caroline": 7135,
      "carolina": 7136,
      "philippine": 7137,
      "buildexperience": 7138,
      "circuitshorts": 7139,
      "countryballstom": 7140,
      "geeksforgeeks": 7141,
      "louisiana": 7142,
      "கள்ளக்": 7143,
      "aalto": 7144,
      "butterfly": 7145,
      "brystjohn": 7146,
      "citizen": 7147,
      "gigil": 7148,
      "ghanaweb": 7149,
      "jatin": 7150,
      "skeptic": 7151,
      "taylor": 7152,
      "vivo": 7153,
      "wikipedia": 7154,
      "алек": 7155,
      "anne8": 7156,
      "scoreshala": 7157,
      "chokri": 7158,
      "railway": 7159,
      "clarkson": 7160,
      "clayton": 7161,
      "direct": 7162,
      "issance": 7163,
      "sahni": 7164,
      "antonio": 7165,
      "columbia": 7166,
      "seeker": 7167,
      "secret": 7168,
      "marvelous": 7169,
      "stephen": 7170,
      "highschoolscience101": 7171,
      "poriyalar": 7172,
      "publishing": 7173,
      "surgeon": 7174,
      "polymerworld": 7175,
      "building": 7176,
      "middle": 7177,
      "pittsburgh": 7178,
      "economist": 7179,
      "psychology": 7180,
      "blien": 7181,
      "crystal": 7182,
      "ielts": 7183,
      "kraken": 7184,
      "likhit": 7185,
      "nithin": 7186,
      "osteopath": 7187,
      "renaissance": 7188,
      "sreen": 7189,
      "susmi": 7190,
      "sigma": 7191,
      "semester": 7192,
      "wfsb": 7193,
      "years": 7194,
      "ற்றி": 7195,
      "chikodi": 7196,
      "adrian": 7197,
      "raelfromcb": 7198,
      "rakshita": 7199,
      "rehman": 7200,
      "records": 7201,
      "dipankar": 7202,
      "disciple": 7203,
      "phukan": 7204,
      "rizwana": 7205,
      "savage": 7206,
      "umnduluth": 7207,
      "botany": 7208,
      "meditonic": 7209,
      "hartmann": 7210,
      "prathapgtech": 7211,
      "government": 7212,
      "veritasium": 7213,
      "periodization": 7214,
      "trinity": 7215,
      "avenues": 7216,
      "tonightshownet": 7217,
      "ceramicgermany": 7218,
      "philosophy": 7219,
      "everyonecallsmed": 7220,
      "विद्यार्थी": 7221,
      "_do_it": 7222,
      "aadil": 7223,
      "aatoons": 7224,
      "bujor": 7225,
      "battles": 7226,
      "californ": 7227,
      "candela": 7228,
      "coffee": 7229,
      "dartmouth": 7230,
      "darekar": 7231,
      "dhure": 7232,
      "dilliwala": 7233,
      "effe": 7234,
      "gareth": 7235,
      "hương": 7236,
      "hertfordshire": 7237,
      "jesse": 7238,
      "jungle": 7239,
      "khabri": 7240,
      "nilav": 7241,
      "nkosi": 7242,
      "penguin": 7243,
      "riverside": 7244,
      "sindh": 7245,
      "sunderland": 7246,
      "sussex": 7247,
      "tận": 7248,
      "tindivanam": 7249,
      "yiannis": 7250,
      "أحمد": 7251,
      "تحت": 7252,
      "जाधव": 7253,
      "दरबार": 7254,
      "मनिषा": 7255,
      "लंघे": 7256,
      "বিধি": 7257,
      "அகாடம": 7258,
      "குறிச்சி": 7259,
      "வெற்றி": 7260,
      "తెలు": 7261,
      "チャンネル": 7262,
      "endurance": 7263,
      "sturt": 7264,
      "stauff": 7265,
      "leibniz": 7266,
      "actuarial": 7267,
      "closeintel": 7268,
      "roughs": 7269,
      "office": 7270,
      "uttarakh": 7271,
      "difficult": 7272,
      "laeliyah": 7273,
      "theellenshow": 7274,
      "houston": 7275,
      "antiisraelfromcb": 7276,
      "usaposter": 7277,
      "biotonic": 7278,
      "spanglersciencetv": 7279,
      "speech": 7280,
      "kakarobot": 7281,
      "newmedicinerock": 7282,
      "cocktail": 7283,
      "collier": 7284,
      "walkthroughs": 7285,
      "instruments": 7286,
      "manhattancollege": 7287,
      "biologyexams4u": 7288,
      "interactive": 7289,
      "maxsima": 7290,
      "karanjkar": 7291,
      "officialhillspet": 7292,
      "conference": 7293,
      "conversations": 7294,
      "afresearchlab": 7295,
      "illinois": 7296,
      "sukalyan": 7297,
      "mehandi": 7298,
      "how_to_do_it": 7299,
      "swinburne": 7300,
      "syracuseengineer": 7301,
      "wahenoor": 7302,
      "vidhyalaya": 7303,
      "samtheoneandonly": 7304,
      "mahshwariboradeshorts": 7305,
      "farooq": 7306,
      "eklavya": 7307,
      "khandelkar": 7308,
      "purdue": 7309,
      "alextoysvideos": 7310,
      "careerinnova": 7311,
      "juugnu": 7312,
      "supernanny": 7313,
      "soyeb": 7314,
      "virgile": 7315,
      "fan2k12": 7316,
      "autochimp": 7317,
      "schmidt": 7318,
      "الجذر": 7319,
      "hiriyur": 7320,
      "cirothecountryballstom": 7321,
      "gloucestershire": 7322,
      "augustine": 7323,
      "exploratorium": 7324,
      "monashunimnhs": 7325,
      "bournemouthuni": 7326,
      "karthikeyan": 7327,
      "sydneyolympicpark": 7328,
      "rehabilitacion": 7329,
      "wolverhampton": 7330,
      "сентяков": 7331,
      "caferacer": 7332,
      "evanthorizon": 7333,
      "bishnupada": 7334,
      "लालबर्रा": 7335,
      "স্বাস্থ্য": 7336,
      "mozhiyin_mozhi": 7337,
      "கள்ளக்குறிச்சி": 7338,
      "алексей": 7339,
      "everyonecallsmedan": 7340,
      "அகாடமி": 7341,
      "తెలుగు": 7342,
      "cirothecountryballstomfan2k12": 7343,
      "##": 7344,
      "(*": 7345,
      ".)": 7346,
      "06": 7347,
      "16": 7348,
      "1y": 7349,
      "1st": 7350,
      "112": 7351,
      "198": 7352,
      "1lil": 7353,
      "2d": 7354,
      "30": 7355,
      "31": 7356,
      "3m": 7357,
      "43": 7358,
      "56": 7359,
      "5wu": 7360,
      "66": 7361,
      "600": 7362,
      "7d": 7363,
      "82": 7364,
      "800": 7365,
      "92": 7366,
      "909": 7367,
      "::": 7368,
      "?:": 7369,
      "_l": 7370,
      "_maths": 7371,
      "_neet": 7372,
      "_patel": 7373,
      "_boy": 7374,
      "_edit": 7375,
      "_travel": 7376,
      "_ecs": 7377,
      "_akhil": 7378,
      "a1": 7379,
      "ait": 7380,
      "aap": 7381,
      "aya": 7382,
      "aub": 7383,
      "aengineering": 7384,
      "aip": 7385,
      "a24": 7386,
      "ago": 7387,
      "aga": 7388,
      "aces": 7389,
      "aec": 7390,
      "auth": 7391,
      "aaj": 7392,
      "ajeet": 7393,
      "astern": 7394,
      "auss": 7395,
      "ajah": 7396,
      "bm": 7397,
      "bn": 7398,
      "bá": 7399,
      "bte": 7400,
      "bass": 7401,
      "band": 7402,
      "bers": 7403,
      "bom": 7404,
      "bind": 7405,
      "bhe": 7406,
      "bins": 7407,
      "bari": 7408,
      "bare": 7409,
      "bles": 7410,
      "bless": 7411,
      "bug": 7412,
      "bina": 7413,
      "brick": 7414,
      "binson": 7415,
      "cq": 7416,
      "cv": 7417,
      "cú": 7418,
      "cath": 7419,
      "cum": 7420,
      "cia": 7421,
      "cnet": 7422,
      "cna": 7423,
      "cust": 7424,
      "cala": 7425,
      "cmu": 7426,
      "cds": 7427,
      "crad": 7428,
      "cns": 7429,
      "cgl": 7430,
      "cmt": 7431,
      "cricket": 7432,
      "crane": 7433,
      "db": 7434,
      "dé": 7435,
      "dal": 7436,
      "dor": 7437,
      "dass": 7438,
      "dir": 7439,
      "dro": 7440,
      "did": 7441,
      "dsp": 7442,
      "dss": 7443,
      "dtn": 7444,
      "dhi": 7445,
      "dang": 7446,
      "dick": 7447,
      "dush": 7448,
      "dli": 7449,
      "dance": 7450,
      "dental": 7451,
      "dandel": 7452,
      "doug": 7453,
      "d2d": 7454,
      "ej": 7455,
      "eq": 7456,
      "ew": 7457,
      "ein": 7458,
      "eat": 7459,
      "eon": 7460,
      "eit": 7461,
      "eam": 7462,
      "eel": 7463,
      "ewal": 7464,
      "equ": 7465,
      "eck": 7466,
      "eja": 7467,
      "ego": 7468,
      "eclassroom": 7469,
      "efl": 7470,
      "ehim": 7471,
      "egress": 7472,
      "ehra": 7473,
      "fc": 7474,
      "fü": 7475,
      "fad": 7476,
      "fine": 7477,
      "fid": 7478,
      "fla": 7479,
      "fant": 7480,
      "fari": 7481,
      "fati": 7482,
      "fera": 7483,
      "flect": 7484,
      "fight": 7485,
      "fred": 7486,
      "face": 7487,
      "fren": 7488,
      "fpm": 7489,
      "feni": 7490,
      "fifa": 7491,
      "fertility": 7492,
      "gine": 7493,
      "gom": 7494,
      "gha": 7495,
      "gos": 7496,
      "gone": 7497,
      "gsk": 7498,
      "gta": 7499,
      "gadh": 7500,
      "gyle": 7501,
      "gza": 7502,
      "gger": 7503,
      "ghaz": 7504,
      "guson": 7505,
      "gtc": 7506,
      "h_": 7507,
      "hb": 7508,
      "hm": 7509,
      "hù": 7510,
      "hal": 7511,
      "hur": 7512,
      "hog": 7513,
      "hex": 7514,
      "hank": 7515,
      "hpi": 7516,
      "hors": 7517,
      "hrad": 7518,
      "hudd": 7519,
      "hida": 7520,
      "horton": 7521,
      "honest": 7522,
      "học": 7523,
      "higg": 7524,
      "ih": 7525,
      "iol": 7526,
      "iac": 7527,
      "iach": 7528,
      "iest": 7529,
      "ihu": 7530,
      "iquestion": 7531,
      "ibiomed": 7532,
      "ische": 7533,
      "jb": 7534,
      "jc": 7535,
      "jj": 7536,
      "jog": 7537,
      "jith": 7538,
      "jak": 7539,
      "jore": 7540,
      "jmu": 7541,
      "jchar": 7542,
      "jida": 7543,
      "jake": 7544,
      "joff": 7545,
      "kc": 7546,
      "kg": 7547,
      "kl": 7548,
      "kp": 7549,
      "kor": 7550,
      "kre": 7551,
      "kud": 7552,
      "kik": 7553,
      "kno": 7554,
      "kou": 7555,
      "kest": 7556,
      "khe": 7557,
      "kcra": 7558,
      "kkar": 7559,
      "khu": 7560,
      "kati": 7561,
      "kru": 7562,
      "kmit": 7563,
      "kuk": 7564,
      "kino": 7565,
      "kushal": 7566,
      "kctv": 7567,
      "kcc": 7568,
      "kemon": 7569,
      "kto12": 7570,
      "kdram": 7571,
      "lb": 7572,
      "lk": 7573,
      "lé": 7574,
      "lur": 7575,
      "lis": 7576,
      "lind": 7577,
      "lani": 7578,
      "lmc": 7579,
      "link": 7580,
      "ligh": 7581,
      "llc": 7582,
      "lara": 7583,
      "lact": 7584,
      "like": 7585,
      "lpu": 7586,
      "mw": 7587,
      "mạ": 7588,
      "mma": 7589,
      "mis": 7590,
      "mys": 7591,
      "msa": 7592,
      "mist": 7593,
      "mya": 7594,
      "mim": 7595,
      "mse": 7596,
      "mie": 7597,
      "mck": 7598,
      "mung": 7599,
      "mgh": 7600,
      "might": 7601,
      "mdre": 7602,
      "mhat": 7603,
      "missan": 7604,
      "mudit": 7605,
      "malaysia": 7606,
      "nin": 7607,
      "nen": 7608,
      "nst": 7609,
      "ning": 7610,
      "nid": 7611,
      "nco": 7612,
      "nsu": 7613,
      "nite": 7614,
      "ntu": 7615,
      "nitya": 7616,
      "nguy": 7617,
      "nxt": 7618,
      "nlimited": 7619,
      "norton": 7620,
      "nhuan": 7621,
      "oj": 7622,
      "oad": 7623,
      "ool": 7624,
      "oom": 7625,
      "olearn": 7626,
      "ohe": 7627,
      "odo": 7628,
      "over": 7629,
      "otiv": 7630,
      "ows": 7631,
      "overs": 7632,
      "oaengineering": 7633,
      "pb": 7634,
      "pn": 7635,
      "pin": 7636,
      "pam": 7637,
      "pis": 7638,
      "pto": 7639,
      "pical": 7640,
      "pcom": 7641,
      "pia": 7642,
      "pay": 7643,
      "pree": 7644,
      "pank": 7645,
      "pala": 7646,
      "pill": 7647,
      "pmr": 7648,
      "pens": 7649,
      "puth": 7650,
      "pshire": 7651,
      "pino": 7652,
      "pfiz": 7653,
      "pdot": 7654,
      "pizzab": 7655,
      "qa": 7656,
      "qd": 7657,
      "qut": 7658,
      "qest": 7659,
      "rb": 7660,
      "rd": 7661,
      "ror": 7662,
      "rics": 7663,
      "rub": 7664,
      "rtv": 7665,
      "rani": 7666,
      "r247": 7667,
      "rms": 7668,
      "raso": 7669,
      "rps": 7670,
      "rudd": 7671,
      "ruddin": 7672,
      "rhet": 7673,
      "s3": 7674,
      "s4": 7675,
      "sd": 7676,
      "sed": 7677,
      "sem": 7678,
      "sass": 7679,
      "sut": 7680,
      "sent": 7681,
      "sap": 7682,
      "sart": 7683,
      "sie": 7684,
      "sala": 7685,
      "skid": 7686,
      "sati": 7687,
      "sour": 7688,
      "sfi": 7689,
      "sgs": 7690,
      "smyth": 7691,
      "sworth": 7692,
      "sapi": 7693,
      "semi": 7694,
      "silly": 7695,
      "s_travel": 7696,
      "tk": 7697,
      "tir": 7698,
      "tid": 7699,
      "try": 7700,
      "tive": 7701,
      "tia": 7702,
      "tank": 7703,
      "ture": 7704,
      "tcu": 7705,
      "tung": 7706,
      "tmen": 7707,
      "tyson": 7708,
      "tumi": 7709,
      "uan": 7710,
      "uine": 7711,
      "uab": 7712,
      "ushan": 7713,
      "uvan": 7714,
      "ufact": 7715,
      "uza": 7716,
      "uits": 7717,
      "uche": 7718,
      "uino": 7719,
      "uoaengineering": 7720,
      "v_": 7721,
      "vj": 7722,
      "vm": 7723,
      "vp": 7724,
      "vt": 7725,
      "vu": 7726,
      "vä": 7727,
      "vac": 7728,
      "vtv": 7729,
      "vart": 7730,
      "vofficial": 7731,
      "vital": 7732,
      "voc": 7733,
      "vpt": 7734,
      "vign": 7735,
      "vader": 7736,
      "vander": 7737,
      "vdivyansh": 7738,
      "vatory": 7739,
      "vrush": 7740,
      "wg": 7741,
      "ww": 7742,
      "wion": 7743,
      "wil": 7744,
      "wex": 7745,
      "warn": 7746,
      "who": 7747,
      "wha": 7748,
      "wack": 7749,
      "wdine": 7750,
      "wada": 7751,
      "wpi": 7752,
      "wrest": 7753,
      "xe": 7754,
      "xic": 7755,
      "xpo": 7756,
      "xia": 7757,
      "xty": 7758,
      "xena": 7759,
      "yd": 7760,
      "yen": 7761,
      "yur": 7762,
      "yel": 7763,
      "yant": 7764,
      "yuk": 7765,
      "yee": 7766,
      "ycle": 7767,
      "ygn": 7768,
      "z0": 7769,
      "zin": 7770,
      "zer": 7771,
      "zes": 7772,
      "zem": 7773,
      "zom": 7774,
      "zia": 7775,
      "zene": 7776,
      "zhou": 7777,
      "zaib": 7778,
      "®)": 7779,
      "áo": 7780,
      "ät": 7781,
      "ävä": 7782,
      "ève": 7783,
      "ée": 7784,
      "écial": 7785,
      "ênc": 7786,
      "öğ": 7787,
      "ườ": 7788,
      "ай": 7789,
      "бр": 7790,
      "гэ": 7791,
      "ес": 7792,
      "ит": 7793,
      "ия": 7794,
      "ол": 7795,
      "ри": 7796,
      "נו": 7797,
      "اد": 7798,
      "حة": 7799,
      "حس": 7800,
      "ريا": 7801,
      "ررا": 7802,
      "ضيا": 7803,
      "فتو": 7804,
      "قررا": 7805,
      "كم": 7806,
      "كيم": 7807,
      "نق": 7808,
      "نو": 7809,
      "गर": 7810,
      "जी": 7811,
      "ट्र": 7812,
      "डि": 7813,
      "तन": 7814,
      "ती": 7815,
      "दि": 7816,
      "ना": 7817,
      "न्": 7818,
      "बोल": 7819,
      "भा": 7820,
      "भी": 7821,
      "या": 7822,
      "री": 7823,
      "र्": 7824,
      "ले": 7825,
      "ल्ला": 7826,
      "वै": 7827,
      "सना": 7828,
      "हल्ला": 7829,
      "ोक": 7830,
      "কু": 7831,
      "য়": 7832,
      "লো": 7833,
      "সিন": 7834,
      "ਜਾ": 7835,
      "ਰਾ": 7836,
      "ਲੀ": 7837,
      "அறி": 7838,
      "ஜா": 7839,
      "தோ": 7840,
      "நி": 7841,
      "னி": 7842,
      "யம்": 7843,
      "ரோ": 7844,
      "ಗಣ": 7845,
      "ನ್": 7846,
      "ಲೋ": 7847,
      "ễn": 7848,
      "】(": 7849,
      "える": 7850,
      "って": 7851,
      "らぼ": 7852,
      "わらぼ": 7853,
      "事務": 7854,
      "國際": 7855,
      "大街": 7856,
      "学教": 7857,
      "小報": 7858,
      "慶應": 7859,
      "数学教": 7860,
      "玉麒": 7861,
      "笑って": 7862,
      "義塾": 7863,
      "覚える": 7864,
      "随便": 7865,
      "오션": 7866,
      "한국": 7867,
      "한화": 7868,
      "𝐆𝐲": 7869,
      "𝐓𝐮": 7870,
      "𝐚𝐜": 7871,
      "𝐚𝐦": 7872,
      "𝐚𝐧": 7873,
      "𝐠𝐚𝐜": 7874,
      "𝐢𝐨": 7875,
      "𝒵𝒜": 7876,
      "𝗘𝘅": 7877,
      "𝗮𝗻": 7878,
      "𝗮𝗶𝗻": 7879,
      "𝗲𝗿": 7880,
      "𝗹𝗮𝗶𝗻": 7881,
      "𝗽𝗹𝗮𝗶𝗻": 7882,
      "𝘀𝘁": 7883,
      "🧮)": 7884,
      "inx": 7885,
      "iny": 7886,
      "inor": 7887,
      "iners": 7888,
      "infor": 7889,
      "inah": 7890,
      "invader": 7891,
      "anc": 7892,
      "anis": 7893,
      "anant": 7894,
      "anish": 7895,
      "annet": 7896,
      "anie": 7897,
      "anga": 7898,
      "annie": 7899,
      "anny": 7900,
      "anuj": 7901,
      "annam": 7902,
      "antha": 7903,
      "anika": 7904,
      "anjana": 7905,
      "anmol": 7906,
      "atc": 7907,
      "atic": 7908,
      "atto": 7909,
      "atik": 7910,
      "atif": 7911,
      "atou": 7912,
      "erent": 7913,
      "erology": 7914,
      "erbi": 7915,
      "erly": 7916,
      "ervy": 7917,
      "ermac": 7918,
      "endr": 7919,
      "enca": 7920,
      "enious": 7921,
      "encer": 7922,
      "enix": 7923,
      "endan": 7924,
      "enkiri": 7925,
      "enthol": 7926,
      "en56": 7927,
      "arde": 7928,
      "arab": 7929,
      "arman": 7930,
      "arjee": 7931,
      "arshan": 7932,
      "argurukul": 7933,
      "arbh": 7934,
      "armen": 7935,
      "aroo": 7936,
      "arms": 7937,
      "array": 7938,
      "arrail": 7939,
      "argyle": 7940,
      "stc": 7941,
      "sti": 7942,
      "stra": 7943,
      "stil": 7944,
      "stha": 7945,
      "stup": 7946,
      "stak": 7947,
      "stest": 7948,
      "stay": 7949,
      "stsu": 7950,
      "stian": 7951,
      "stell": 7952,
      "stwy": 7953,
      "aly": 7954,
      "aline": 7955,
      "alog": 7956,
      "alys": 7957,
      "alka": 7958,
      "alchemist": 7959,
      "alif": 7960,
      "alia": 7961,
      "alone": 7962,
      "allah": 7963,
      "alera": 7964,
      "aloy": 7965,
      "alila": 7966,
      "alcala": 7967,
      "oni": 7968,
      "onz": 7969,
      "onan": 7970,
      "onam": 7971,
      "onto": 7972,
      "onance": 7973,
      "onnan": 7974,
      "ontari": 7975,
      "onthim": 7976,
      "itwith": 7977,
      "itry": 7978,
      "itty": 7979,
      "itary": 7980,
      "scom": 7981,
      "scul": 7982,
      "scert": 7983,
      "schu": 7984,
      "scricket": 7985,
      "scolle": 7986,
      "chor": 7987,
      "chse": 7988,
      "chlo": 7989,
      "chbs": 7990,
      "chrish": 7991,
      "chero": 7992,
      "chron": 7993,
      "chita": 7994,
      "choo": 7995,
      "chase": 7996,
      "chavan": 7997,
      "chiro": 7998,
      "chburg": 7999,
      "chasri": 8000,
      "chlani": 8001,
      "chschu": 8002,
      "shem": 8003,
      "shma": 8004,
      "shet": 8005,
      "shif": 8006,
      "shab": 8007,
      "shari": 8008,
      "shrad": 8009,
      "shankar": 8010,
      "shrooms": 8011,
      "shatto": 8012,
      "cek": 8013,
      "cele": 8014,
      "ceps": 8015,
      "celon": 8016,
      "edr": 8017,
      "eds": 8018,
      "edur": 8019,
      "edial": 8020,
      "edhar": 8021,
      "eddy": 8022,
      "edinbur": 8023,
      "scious": 8024,
      "orm": 8025,
      "orion": 8026,
      "orth": 8027,
      "ority": 8028,
      "orio": 8029,
      "orhy": 8030,
      "adv": 8031,
      "adin": 8032,
      "adum": 8033,
      "adik": 8034,
      "adha": 8035,
      "adav": 8036,
      "adtw": 8037,
      "asi": 8038,
      "ases": 8039,
      "asing": 8040,
      "asics": 8041,
      "asim": 8042,
      "aspr": 8043,
      "asmr": 8044,
      "asessions": 8045,
      "icut": 8046,
      "icker": 8047,
      "scienceet": 8048,
      "sciencelab": 8049,
      "science55": 8050,
      "lek": 8051,
      "leon": 8052,
      "leau": 8053,
      "lechu": 8054,
      "leston": 8055,
      "leesa": 8056,
      "learne": 8057,
      "lewdine": 8058,
      "amc": 8059,
      "amg": 8060,
      "amri": 8061,
      "ampl": 8062,
      "amide": 8063,
      "amna": 8064,
      "amare": 8065,
      "amod": 8066,
      "amrit": 8067,
      "ammus": 8068,
      "ammal": 8069,
      "ambar": 8070,
      "amher": 8071,
      "amanda": 8072,
      "ambad": 8073,
      "amrita": 8074,
      "amjid": 8075,
      "amigo": 8076,
      "unil": 8077,
      "unge": 8078,
      "unco": 8079,
      "unplan": 8080,
      "united": 8081,
      "unuk": 8082,
      "unified": 8083,
      "unice": 8084,
      "unlimited": 8085,
      "unbeat": 8086,
      "unbias": 8087,
      "uncture": 8088,
      "unbelie": 8089,
      "uninor": 8090,
      "tez": 8091,
      "tess": 8092,
      "tewari": 8093,
      "teena": 8094,
      "olan": 8095,
      "olar": 8096,
      "olive": 8097,
      "olga": 8098,
      "olyn": 8099,
      "oledo": 8100,
      "olife": 8101,
      "olamide": 8102,
      "thm": 8103,
      "thal": 8104,
      "thri": 8105,
      "thund": 8106,
      "tharun": 8107,
      "thesis": 8108,
      "thunuk": 8109,
      "esk": 8110,
      "esity": 8111,
      "esnews": 8112,
      "esert": 8113,
      "esix": 8114,
      "emu": 8115,
      "eman": 8116,
      "emer": 8117,
      "emen": 8118,
      "emath": 8119,
      "embi": 8120,
      "empl": 8121,
      "emory": 8122,
      "emens": 8123,
      "emble": 8124,
      "emiah": 8125,
      "ingenious": 8126,
      "raw": 8127,
      "ract": 8128,
      "rakar": 8129,
      "rabb": 8130,
      "rachel": 8131,
      "athy": 8132,
      "athle": 8133,
      "acl": 8134,
      "acm": 8135,
      "acce": 8136,
      "acus": 8137,
      "acup": 8138,
      "acorp": 8139,
      "rec": 8140,
      "rep": 8141,
      "reed": 8142,
      "reim": 8143,
      "reco": 8144,
      "reach": 8145,
      "reak": 8146,
      "reyo": 8147,
      "reja": 8148,
      "regar": 8149,
      "report": 8150,
      "rell": 8151,
      "react": 8152,
      "relat": 8153,
      "refre": 8154,
      "reyes": 8155,
      "reconnect": 8156,
      "reflect": 8157,
      "retmen": 8158,
      "iver": 8159,
      "ivie": 8160,
      "ivartan": 8161,
      "ively": 8162,
      "uds": 8163,
      "uday": 8164,
      "udie": 8165,
      "udio": 8166,
      "udgam": 8167,
      "uddy": 8168,
      "neo": 8169,
      "nex": 8170,
      "nesh": 8171,
      "nestor": 8172,
      "neev": 8173,
      "nepali": 8174,
      "neolife": 8175,
      "maa": 8176,
      "mab": 8177,
      "maan": 8178,
      "mail": 8179,
      "mael": 8180,
      "clas": 8181,
      "clicks": 8182,
      "uring": 8183,
      "urban": 8184,
      "urmil": 8185,
      "ird": 8186,
      "iru": 8187,
      "irse": 8188,
      "andhu": 8189,
      "anderson": 8190,
      "andhika": 8191,
      "andolan": 8192,
      "row": 8193,
      "roit": 8194,
      "roam": 8195,
      "roid": 8196,
      "rout": 8197,
      "roster": 8198,
      "rogu": 8199,
      "ross": 8200,
      "ropy": 8201,
      "rosse": 8202,
      "rodri": 8203,
      "robinson": 8204,
      "idp": 8205,
      "idu": 8206,
      "idar": 8207,
      "classified": 8208,
      "ogam": 8209,
      "ogie": 8210,
      "oggin": 8211,
      "utc": 8212,
      "utm": 8213,
      "utrech": 8214,
      "utica": 8215,
      "ersed": 8216,
      "ersfield": 8217,
      "iled": 8218,
      "iling": 8219,
      "illa": 8220,
      "illo": 8221,
      "ilendra": 8222,
      "ilight": 8223,
      "ilates": 8224,
      "dium": 8225,
      "dise": 8226,
      "diff": 8227,
      "dietit": 8228,
      "disr": 8229,
      "dipesh": 8230,
      "techie": 8231,
      "techwa": 8232,
      "techbias": 8233,
      "techtuts": 8234,
      "studying": 8235,
      "studywith": 8236,
      "study24": 8237,
      "studyhouse": 8238,
      "studytube": 8239,
      "omg": 8240,
      "oming": 8241,
      "ompr": 8242,
      "gesh": 8243,
      "geel": 8244,
      "geet": 8245,
      "geshwari": 8246,
      "gegee": 8247,
      "edusolutions": 8248,
      "eduplex": 8249,
      "phal": 8250,
      "phoe": 8251,
      "lag": 8252,
      "lai": 8253,
      "laia": 8254,
      "lakh": 8255,
      "laura": 8256,
      "lachie": 8257,
      "isd": 8258,
      "isu": 8259,
      "ision": 8260,
      "isab": 8261,
      "isakh": 8262,
      "isée": 8263,
      "elor": 8264,
      "elle": 8265,
      "eland": 8266,
      "elph": 8267,
      "ello": 8268,
      "elds": 8269,
      "etc": 8270,
      "etal": 8271,
      "etut": 8272,
      "etunes": 8273,
      "exhi": 8274,
      "excell": 8275,
      "excel": 8276,
      "thealth": 8277,
      "thefly": 8278,
      "thebattle": 8279,
      "theplug": 8280,
      "thejungle": 8281,
      "theastern": 8282,
      "thequt": 8283,
      "arna": 8284,
      "arno": 8285,
      "arnold": 8286,
      "arnihu": 8287,
      "enta": 8288,
      "ents": 8289,
      "entran": 8290,
      "entire": 8291,
      "itham": 8292,
      "itharaj": 8293,
      "ithemath": 8294,
      "learncoach": 8295,
      "ologic": 8296,
      "dah": 8297,
      "daya": 8298,
      "dabb": 8299,
      "dawson": 8300,
      "ape": 8301,
      "apu": 8302,
      "apolog": 8303,
      "appoint": 8304,
      "apalli": 8305,
      "rif": 8306,
      "rice": 8307,
      "riwas": 8308,
      "rights": 8309,
      "rizol": 8310,
      "educom": 8311,
      "hob": 8312,
      "hos": 8313,
      "hole": 8314,
      "hope": 8315,
      "hoefl": 8316,
      "sag": 8317,
      "saar": 8318,
      "saad": 8319,
      "saul": 8320,
      "saaf": 8321,
      "saura": 8322,
      "sawan": 8323,
      "saadi": 8324,
      "safe": 8325,
      "saied": 8326,
      "saaral": 8327,
      "saikh": 8328,
      "sayar": 8329,
      "sahay": 8330,
      "sakib": 8331,
      "saxena": 8332,
      "tson": 8333,
      "antique": 8334,
      "with_": 8335,
      "without": 8336,
      "umt": 8337,
      "uman": 8338,
      "umtech": 8339,
      "umina": 8340,
      "umbri": 8341,
      "umder": 8342,
      "usic": 8343,
      "ussp": 8344,
      "usports": 8345,
      "usyd": 8346,
      "physio": 8347,
      "istar": 8348,
      "yah": 8349,
      "yakumari": 8350,
      "imperfect": 8351,
      "imphal": 8352,
      "bik": 8353,
      "bian": 8354,
      "bios": 8355,
      "biok": 8356,
      "bipla": 8357,
      "biola": 8358,
      "bible": 8359,
      "biorhy": 8360,
      "tok": 8361,
      "tool": 8362,
      "tobi": 8363,
      "took": 8364,
      "toknow": 8365,
      "toons": 8366,
      "tower": 8367,
      "towards": 8368,
      "toxic": 8369,
      "classess": 8370,
      "sirjee": 8371,
      "sirplus": 8372,
      "ryl": 8373,
      "dec": 8374,
      "deon": 8375,
      "dept": 8376,
      "deek": 8377,
      "delaw": 8378,
      "depaul": 8379,
      "delau": 8380,
      "dehrad": 8381,
      "ulti": 8382,
      "boe": 8383,
      "boz": 8384,
      "bole": 8385,
      "boom": 8386,
      "boces": 8387,
      "boston": 8388,
      "bokart": 8389,
      "boiler": 8390,
      "bosworth": 8391,
      "boogie": 8392,
      "iku": 8393,
      "iksh": 8394,
      "ikey": 8395,
      "ikrat": 8396,
      "ikkik": 8397,
      "chemtube": 8398,
      "chembridge": 8399,
      "chem_akhil": 8400,
      "ubey": 8401,
      "ubanny": 8402,
      "haf": 8403,
      "hak": 8404,
      "haq": 8405,
      "hau": 8406,
      "have": 8407,
      "haider": 8408,
      "hasty": 8409,
      "hawk": 8410,
      "spine": 8411,
      "spider": 8412,
      "spécial": 8413,
      "no1": 8414,
      "nou": 8415,
      "noal": 8416,
      "noor": 8417,
      "nothing": 8418,
      "noob": 8419,
      "noonan": 8420,
      "examin": 8421,
      "kaari": 8422,
      "kaben": 8423,
      "kaiser": 8424,
      "kakkar": 8425,
      "newtech": 8426,
      "newsho": 8427,
      "cost": 8428,
      "cosi": 8429,
      "covent": 8430,
      "coder": 8431,
      "collaborat": 8432,
      "seb": 8433,
      "sec": 8434,
      "sein": 8435,
      "seva": 8436,
      "igcse": 8437,
      "igong": 8438,
      "ignou": 8439,
      "chemistryclassess": 8440,
      "ctus": 8441,
      "medshow": 8442,
      "med25": 8443,
      "ivevo": 8444,
      "ivelai": 8445,
      "iff": 8446,
      "ups": 8447,
      "upto": 8448,
      "upendrakumar": 8449,
      "uptive": 8450,
      "indie": 8451,
      "tv5": 8452,
      "tv9": 8453,
      "collective": 8454,
      "100": 8455,
      "10q": 8456,
      "1024": 8457,
      "indor": 8458,
      "indra": 8459,
      "indunil": 8460,
      "acher": 8461,
      "abk": 8462,
      "abad": 8463,
      "abol": 8464,
      "abir": 8465,
      "abdi": 8466,
      "abery": 8467,
      "ability": 8468,
      "abacus": 8469,
      "ishan": 8470,
      "ishara": 8471,
      "funnlimited": 8472,
      "intu": 8473,
      "inting": 8474,
      "ako": 8475,
      "akya": 8476,
      "akshi": 8477,
      "akthi": 8478,
      "waltham": 8479,
      "proton": 8480,
      "mosh": 8481,
      "moto": 8482,
      "mode": 8483,
      "moore": 8484,
      "mood": 8485,
      "mouse": 8486,
      "moota": 8487,
      "moines": 8488,
      "mohamed": 8489,
      "tutoring": 8490,
      "pose": 8491,
      "posit": 8492,
      "pokemon": 8493,
      "poonam": 8494,
      "instant": 8495,
      "instorm": 8496,
      "ically": 8497,
      "comics": 8498,
      "command": 8499,
      "combin": 8500,
      "comets": 8501,
      "iawala": 8502,
      "gues": 8503,
      "guage": 8504,
      "guelph": 8505,
      "neta": 8506,
      "mans": 8507,
      "manor": 8508,
      "mangal": 8509,
      "manjesh": 8510,
      "manente": 8511,
      "manito": 8512,
      "manufact": 8513,
      "foster": 8514,
      "vedic": 8515,
      "hare": 8516,
      "harley": 8517,
      "harjas": 8518,
      "harvest": 8519,
      "guruv": 8520,
      "ksm": 8521,
      "ipe": 8522,
      "ipal": 8523,
      "iples": 8524,
      "ipvr": 8525,
      "estate": 8526,
      "estead": 8527,
      "arty": 8528,
      "artai": 8529,
      "articul": 8530,
      "shay": 8531,
      "shaan": 8532,
      "shaik": 8533,
      "shaheen": 8534,
      "shailendra": 8535,
      "essential": 8536,
      "learningstar": 8537,
      "lob": 8538,
      "loco": 8539,
      "loss": 8540,
      "lovet": 8541,
      "lows": 8542,
      "lokesh": 8543,
      "lovers": 8544,
      "loose": 8545,
      "loyola": 8546,
      "atever": 8547,
      "drive": 8548,
      "institut": 8549,
      "healing": 8550,
      "word": 8551,
      "myers": 8552,
      "mygov": 8553,
      "mygirl": 8554,
      "myuni": 8555,
      "ayani": 8556,
      "insight": 8557,
      "keer": 8558,
      "keon": 8559,
      "keio": 8560,
      "arib": 8561,
      "ariansh": 8562,
      "arizon": 8563,
      "iec": 8564,
      "arduino": 8565,
      "arden56": 8566,
      "grid": 8567,
      "grubanny": 8568,
      "quants": 8569,
      "qubole": 8570,
      "tutorialspo": 8571,
      "prash": 8572,
      "prabha": 8573,
      "ssj": 8574,
      "easily": 8575,
      "maglab": 8576,
      "magadum": 8577,
      "nag": 8578,
      "nash": 8579,
      "naim": 8580,
      "nava": 8581,
      "nahil": 8582,
      "nayaka": 8583,
      "iota": 8584,
      "ustrat": 8585,
      "ankush": 8586,
      "joel": 8587,
      "jock": 8588,
      "johan": 8589,
      "jodie": 8590,
      "prer": 8591,
      "prati": 8592,
      "princ": 8593,
      "prema": 8594,
      "pramod": 8595,
      "area": 8596,
      "opala": 8597,
      "optics": 8598,
      "bagh": 8599,
      "basty": 8600,
      "bahad": 8601,
      "baisakh": 8602,
      "apps": 8603,
      "apptato": 8604,
      "alageshwari": 8605,
      "beck": 8606,
      "beep": 8607,
      "beau": 8608,
      "beaud": 8609,
      "beerbi": 8610,
      "beartai": 8611,
      "cknow": 8612,
      "ckland": 8613,
      "okie": 8614,
      "freek": 8615,
      "brajesh": 8616,
      "brainstorm": 8617,
      "changma": 8618,
      "chanchlani": 8619,
      "chanakya": 8620,
      "24hr": 8621,
      "youss": 8622,
      "yowl": 8623,
      "fitchamp": 8624,
      "hanshi": 8625,
      "hanshu": 8626,
      "hanwha": 8627,
      "hanuman": 8628,
      "yang": 8629,
      "ties": 8630,
      "tiya": 8631,
      "tierology": 8632,
      "allhealth": 8633,
      "dow": 8634,
      "dost": 8635,
      "doing": 8636,
      "doha": 8637,
      "dose": 8638,
      "dojo": 8639,
      "dotson": 8640,
      "viet": 8641,
      "vicha": 8642,
      "vichar": 8643,
      "vibes": 8644,
      "internet": 8645,
      "interview": 8646,
      "onews": 8647,
      "maxwell": 8648,
      "neeta": 8649,
      "jaq": 8650,
      "jaw": 8651,
      "jax": 8652,
      "javier": 8653,
      "luther": 8654,
      "lucy": 8655,
      "lukas": 8656,
      "lucknow": 8657,
      "jeevan": 8658,
      "kara": 8659,
      "karl": 8660,
      "karan": 8661,
      "karts": 8662,
      "karaw": 8663,
      "sking": 8664,
      "skhan": 8665,
      "skrit": 8666,
      "tner": 8667,
      "officer": 8668,
      "goo": 8669,
      "got": 8670,
      "gowri": 8671,
      "gopoulos": 8672,
      "goudie": 8673,
      "conrad": 8674,
      "control": 8675,
      "conscious": 8676,
      "century": 8677,
      "afl": 8678,
      "afr": 8679,
      "affan": 8680,
      "afamily": 8681,
      "afcat": 8682,
      "vee": 8683,
      "vesh": 8684,
      "vector": 8685,
      "veshakti": 8686,
      "vered": 8687,
      "illiance": 8688,
      "illumina": 8689,
      "factual": 8690,
      "gara": 8691,
      "garic": 8692,
      "garage": 8693,
      "huy": 8694,
      "perry": 8695,
      "perera": 8696,
      "perscolle": 8697,
      "permanente": 8698,
      "suvy": 8699,
      "surab": 8700,
      "suaces": 8701,
      "sushma": 8702,
      "labz": 8703,
      "logics": 8704,
      "topics": 8705,
      "shoo": 8706,
      "should": 8707,
      "gav": 8708,
      "gaw": 8709,
      "gain": 8710,
      "marak": 8711,
      "marina": 8712,
      "marwaha": 8713,
      "tales": 8714,
      "channelind": 8715,
      "ianhacker": 8716,
      "ian_boy": 8717,
      "digikey": 8718,
      "knows": 8719,
      "mrp": 8720,
      "mrsaaf": 8721,
      "mej": 8722,
      "meen": 8723,
      "mela": 8724,
      "mehra": 8725,
      "mindblo": 8726,
      "rana": 8727,
      "ranger": 8728,
      "hiyar": 8729,
      "iza": 8730,
      "izon": 8731,
      "izha": 8732,
      "althcincinnati": 8733,
      "projector": 8734,
      "paras": 8735,
      "parks": 8736,
      "parash": 8737,
      "parker": 8738,
      "parcham": 8739,
      "parliam": 8740,
      "parivartan": 8741,
      "small": 8742,
      "smiling": 8743,
      "letz": 8744,
      "swathy": 8745,
      "mastery": 8746,
      "tain": 8747,
      "taught": 8748,
      "ashu": 8749,
      "ashwin": 8750,
      "lectron": 8751,
      "ments": 8752,
      "mentors": 8753,
      "gamemak": 8754,
      "kiya": 8755,
      "kiervy": 8756,
      "create": 8757,
      "drag": 8758,
      "jane": 8759,
      "jang": 8760,
      "shanm": 8761,
      "shanmu": 8762,
      "nerdist": 8763,
      "ocb": 8764,
      "occup": 8765,
      "bson": 8766,
      "patna": 8767,
      "pattay": 8768,
      "patidar": 8769,
      "timedia": 8770,
      "lesex": 8771,
      "athiyam": 8772,
      "minh": 8773,
      "mineral": 8774,
      "minnes": 8775,
      "waj": 8776,
      "waq": 8777,
      "wail": 8778,
      "waaj": 8779,
      "waaas": 8780,
      "carewell": 8781,
      "kuldeep": 8782,
      "trap": 8783,
      "trash": 8784,
      "trailer": 8785,
      "pey": 8786,
      "peace": 8787,
      "peaco": 8788,
      "notre": 8789,
      "111": 8790,
      "gene": 8791,
      "genuine": 8792,
      "hamton": 8793,
      "hampshire": 8794,
      "sansar": 8795,
      "sanatan": 8796,
      "sanskrit": 8797,
      "ganam": 8798,
      "ption": 8799,
      "ptaru": 8800,
      "sola": 8801,
      "solar": 8802,
      "solved": 8803,
      "solomon": 8804,
      "brush": 8805,
      "britt": 8806,
      "bruin": 8807,
      "brendan": 8808,
      "brithemath": 8809,
      "brussp": 8810,
      "brilliance": 8811,
      "jrf": 8812,
      "prek": 8813,
      "formation": 8814,
      "formerly": 8815,
      "odd": 8816,
      "trad": 8817,
      "trung": 8818,
      "trinja": 8819,
      "trivedi": 8820,
      "trivia": 8821,
      "trườ": 8822,
      "avans": 8823,
      "shark": 8824,
      "live1": 8825,
      "iteknik": 8826,
      "lifes": 8827,
      "vids": 8828,
      "vidarbh": 8829,
      "anger": 8830,
      "angles": 8831,
      "samz": 8832,
      "samar": 8833,
      "samiksha": 8834,
      "samini": 8835,
      "samanta": 8836,
      "samadhan": 8837,
      "samrudd": 8838,
      "samantha": 8839,
      "vikrant": 8840,
      "prisha": 8841,
      "priations": 8842,
      "resonance": 8843,
      "shahid": 8844,
      "pana": 8845,
      "panwar": 8846,
      "agon": 8847,
      "agnew": 8848,
      "ahika": 8849,
      "ahasessions": 8850,
      "lyon": 8851,
      "lyhead": 8852,
      "wealth": 8853,
      "smarter": 8854,
      "smartivity": 8855,
      "pai": 8856,
      "pain": 8857,
      "pace": 8858,
      "pawar": 8859,
      "pairs": 8860,
      "pakao": 8861,
      "painting": 8862,
      "pandit": 8863,
      "pandya": 8864,
      "simo": 8865,
      "simon": 8866,
      "ondata": 8867,
      "mahuts": 8868,
      "maheswari": 8869,
      "farms": 8870,
      "vinu": 8871,
      "mcp": 8872,
      "mcmaster": 8873,
      "mcgra": 8874,
      "nurul": 8875,
      "ipsers": 8876,
      "bbuddy": 8877,
      "ekta": 8878,
      "khud": 8879,
      "khand": 8880,
      "muic": 8881,
      "mujeeb": 8882,
      "muthu": 8883,
      "mushrooms": 8884,
      "purpose": 8885,
      "sonic": 8886,
      "sonty": 8887,
      "sonile": 8888,
      "shivansh": 8889,
      "shahzada": 8890,
      "homework": 8891,
      "salle": 8892,
      "salam": 8893,
      "salford": 8894,
      "salila": 8895,
      "youcand": 8896,
      "base": 8897,
      "based": 8898,
      "maddi": 8899,
      "madhav": 8900,
      "madras": 8901,
      "nix": 8902,
      "nich": 8903,
      "nios": 8904,
      "nihay": 8905,
      "nilesh": 8906,
      "nihao": 8907,
      "niscricket": 8908,
      "tricycle": 8909,
      "matter": 8910,
      "monk": 8911,
      "mons": 8912,
      "monday": 8913,
      "monkeys": 8914,
      "montess": 8915,
      "siu": 8916,
      "sibi": 8917,
      "siwan": 8918,
      "siena": 8919,
      "sicham": 8920,
      "sixty": 8921,
      "siemens": 8922,
      "patels": 8923,
      "sumer": 8924,
      "summer": 8925,
      "summary": 8926,
      "shibu": 8927,
      "careeronest": 8928,
      "berger": 8929,
      "balakrish": 8930,
      "carr": 8931,
      "caravans": 8932,
      "tyt": 8933,
      "tyehim": 8934,
      "meritech": 8935,
      "ouri": 8936,
      "yourbigbrain": 8937,
      "juice": 8938,
      "cuhk": 8939,
      "iitb": 8940,
      "vane": 8941,
      "vania": 8942,
      "otle": 8943,
      "otive": 8944,
      "padhiyar": 8945,
      "factical": 8946,
      "mittal": 8947,
      "mitabh": 8948,
      "mp4": 8949,
      "mpi": 8950,
      "urap": 8951,
      "ensemble": 8952,
      "ickenham": 8953,
      "minutephysics": 8954,
      "chaya": 8955,
      "chaubey": 8956,
      "chaganam": 8957,
      "there": 8958,
      "crackers": 8959,
      "azure": 8960,
      "starr": 8961,
      "starbean": 8962,
      "dese": 8963,
      "desi": 8964,
      "desire": 8965,
      "chinese": 8966,
      "miya": 8967,
      "mihan": 8968,
      "oldcrow": 8969,
      "computational": 8970,
      "bioscience": 8971,
      "biostudy": 8972,
      "aditya_patel": 8973,
      "power88": 8974,
      "jamiest": 8975,
      "bhad": 8976,
      "bhalera": 8977,
      "iqbal": 8978,
      "bros": 8979,
      "brow": 8980,
      "brock": 8981,
      "bhargav": 8982,
      "kalvit": 8983,
      "kalhara": 8984,
      "kalptaru": 8985,
      "polakh": 8986,
      "policy": 8987,
      "politeknik": 8988,
      "sudhanshu": 8989,
      "void": 8990,
      "voke": 8991,
      "adiya": 8992,
      "fix": 8993,
      "fied": 8994,
      "multimedia": 8995,
      "rona": 8996,
      "ronas": 8997,
      "anagar": 8998,
      "mediagames": 8999,
      "duck": 9000,
      "duvall": 9001,
      "lands": 9002,
      "lander": 9003,
      "zyt": 9004,
      "experts": 9005,
      "sakshig": 9006,
      "craftmanthan": 9007,
      "crown": 9008,
      "missouri": 9009,
      "deped": 9010,
      "deepchandra": 9011,
      "uzzaman": 9012,
      "vignesh": 9013,
      "canon": 9014,
      "canyon": 9015,
      "finals": 9016,
      "chandan": 9017,
      "abhyas": 9018,
      "teachings": 9019,
      "superstor": 9020,
      "serv": 9021,
      "saral": 9022,
      "saras": 9023,
      "saravan": 9024,
      "sarcaster": 9025,
      "saroj": 9026,
      "stein": 9027,
      "thinktac": 9028,
      "fever": 9029,
      "reds_travel": 9030,
      "adhik": 9031,
      "appropriations": 9032,
      "highligh": 9033,
      "suny": 9034,
      "suneel": 9035,
      "sunlike": 9036,
      "sunitharaj": 9037,
      "kanel": 9038,
      "kanyakumari": 9039,
      "seni": 9040,
      "senate": 9041,
      "malla": 9042,
      "malviya": 9043,
      "soon": 9044,
      "soda": 9045,
      "soul": 9046,
      "sophia": 9047,
      "drew": 9048,
      "dretheplug": 9049,
      "incredible": 9050,
      "perspe": 9051,
      "persian_boy": 9052,
      "rising": 9053,
      "amita": 9054,
      "satis": 9055,
      "satnam": 9056,
      "satyad": 9057,
      "fany": 9058,
      "oxo": 9059,
      "ventures": 9060,
      "devry": 9061,
      "devcom": 9062,
      "successful": 9063,
      "cyrus": 9064,
      "dypian": 9065,
      "tomato": 9066,
      "ujwal": 9067,
      "zain": 9068,
      "storytime": 9069,
      "fau": 9070,
      "amazon": 9071,
      "brijesh": 9072,
      "zeiss": 9073,
      "zewail": 9074,
      "itage": 9075,
      "chewan": 9076,
      "abcmouse": 9077,
      "faculties": 9078,
      "bangor": 9079,
      "giáo": 9080,
      "gibson": 9081,
      "hyiki": 9082,
      "niranjan": 9083,
      "gameinvader": 9084,
      "simplifiedminds": 9085,
      "jitbe": 9086,
      "namadev": 9087,
      "beef": 9088,
      "beehive": 9089,
      "targetstudy": 9090,
      "cityu": 9091,
      "dhande": 9092,
      "dheswari": 9093,
      "dhikrat": 9094,
      "darsha": 9095,
      "darling": 9096,
      "darryl": 9097,
      "dariawala": 9098,
      "tamer": 9099,
      "tamrakar": 9100,
      "tamizha": 9101,
      "ws5wu": 9102,
      "wsusports": 9103,
      "mythra": 9104,
      "prepare": 9105,
      "barcelon": 9106,
      "nuclear": 9107,
      "surgery": 9108,
      "warpdot": 9109,
      "scher": 9110,
      "schwen": 9111,
      "banasri": 9112,
      "bhag": 9113,
      "bhakt": 9114,
      "msbte": 9115,
      "msdtn": 9116,
      "venu": 9117,
      "venky": 9118,
      "vishwakarma": 9119,
      "الخ": 9120,
      "التعل": 9121,
      "rahwali": 9122,
      "crazyruss": 9123,
      "marky": 9124,
      "please": 9125,
      "tanmay": 9126,
      "pharmahuts": 9127,
      "flat": 9128,
      "flofc": 9129,
      "flipsers": 9130,
      "melissa": 9131,
      "melody": 9132,
      "arunima": 9133,
      "trainer": 9134,
      "2022": 9135,
      "2023": 9136,
      "ibm": 9137,
      "ibps": 9138,
      "katchewan": 9139,
      "omairse": 9140,
      "integza": 9141,
      "allain": 9142,
      "quest1": 9143,
      "questions": 9144,
      "quickprep": 9145,
      "surekha": 9146,
      "danish": 9147,
      "dame": 9148,
      "damedit": 9149,
      "herbal": 9150,
      "nikki": 9151,
      "nikita": 9152,
      "radio": 9153,
      "radford": 9154,
      "yaduvan": 9155,
      "innovator": 9156,
      "kenya": 9157,
      "lanka": 9158,
      "lancaster": 9159,
      "language": 9160,
      "statsports": 9161,
      "charging": 9162,
      "charleston": 9163,
      "philip": 9164,
      "entertain": 9165,
      "gamerz": 9166,
      "gamergg": 9167,
      "donn": 9168,
      "kov": 9169,
      "kota": 9170,
      "pirate": 9171,
      "jeffrey": 9172,
      "practic": 9173,
      "bonjour": 9174,
      "fermil": 9175,
      "ferguson": 9176,
      "hiram": 9177,
      "lingo": 9178,
      "nishtha": 9179,
      "obvious": 9180,
      "obesity": 9181,
      "silodh": 9182,
      "sikhe": 9183,
      "manisha": 9184,
      "polyu": 9185,
      "001": 9186,
      "calcul": 9187,
      "calgary": 9188,
      "gyand": 9189,
      "jkcs": 9190,
      "subhanshi": 9191,
      "scopefilm": 9192,
      "foodinnovation": 9193,
      "foodlk": 9194,
      "foodtechwa": 9195,
      "babble": 9196,
      "jeremiah": 9197,
      "liner": 9198,
      "selvan": 9199,
      "yogic": 9200,
      "editions": 9201,
      "esports": 9202,
      "rapani": 9203,
      "davehax": 9204,
      "mechanics": 9205,
      "mechanik": 9206,
      "mechanism": 9207,
      "northumbri": 9208,
      "airforce": 9209,
      "llp": 9210,
      "numbers": 9211,
      "twente": 9212,
      "twilight": 9213,
      "twickenham": 9214,
      "tennes": 9215,
      "tenniscricket": 9216,
      "हिन्": 9217,
      "thornley": 9218,
      "idaho": 9219,
      "idaivelai": 9220,
      "jainul": 9221,
      "maryland": 9222,
      "marywood": 9223,
      "librariansh": 9224,
      "scientists": 9225,
      "galway": 9226,
      "mickey": 9227,
      "metal": 9228,
      "metavers": 9229,
      "versity": 9230,
      "whale": 9231,
      "whipvr": 9232,
      "whatever": 9233,
      "stress": 9234,
      "strate": 9235,
      "actor": 9236,
      "deshbhakt": 9237,
      "harshal": 9238,
      "harshita": 9239,
      "periscopefilm": 9240,
      "auckland": 9241,
      "gurzaib": 9242,
      "memoriz": 9243,
      "memorial": 9244,
      "petcare": 9245,
      "petronas": 9246,
      "sankhyiki": 9247,
      "titan": 9248,
      "twooceans": 9249,
      "anything": 9250,
      "mayur": 9251,
      "mayandhika": 9252,
      "lockdown": 9253,
      "naturalscience": 9254,
      "databas": 9255,
      "jadhav": 9256,
      "kunj": 9257,
      "kunal": 9258,
      "outcome": 9259,
      "inventions": 9260,
      "shea": 9261,
      "sheffield": 9262,
      "sheetal": 9263,
      "thanish": 9264,
      "activity": 9265,
      "getmyuni": 9266,
      "lakeland": 9267,
      "educative": 9268,
      "sparkup": 9269,
      "only4": 9270,
      "simpleghar": 9271,
      "discoverychannelind": 9272,
      "aarya": 9273,
      "aarav": 9274,
      "milano": 9275,
      "milky": 9276,
      "military": 9277,
      "svr": 9278,
      "chakra": 9279,
      "chakrapani": 9280,
      "thieme": 9281,
      "tharsi": 9282,
      "haribokart": 9283,
      "ayushkaari": 9284,
      "docunlock": 9285,
      "docdana": 9286,
      "meghwal": 9287,
      "miniature": 9288,
      "buzzcast": 9289,
      "buzzfeed": 9290,
      "cape": 9291,
      "capf": 9292,
      "divya": 9293,
      "division": 9294,
      "hills": 9295,
      "midco": 9296,
      "midiach": 9297,
      "oyment": 9298,
      "rrb": 9299,
      "sandbox": 9300,
      "sandeep": 9301,
      "ucsi": 9302,
      "yesudas": 9303,
      "angelo": 9304,
      "able4u": 9305,
      "southwest": 9306,
      "developer": 9307,
      "boro": 9308,
      "border": 9309,
      "feld": 9310,
      "fellows": 9311,
      "morley": 9312,
      "mishaa": 9313,
      "siddheswari": 9314,
      "scotland": 9315,
      "defense": 9316,
      "postharvest": 9317,
      "astrox": 9318,
      "astroquest1": 9319,
      "craftswoman": 9320,
      "woods": 9321,
      "fairy": 9322,
      "banglargurukul": 9323,
      "aawaaj": 9324,
      "dhawale": 9325,
      "hasi": 9326,
      "hasitha": 9327,
      "holic": 9328,
      "holistic": 9329,
      "kurlyhead": 9330,
      "mommy": 9331,
      "nonstop": 9332,
      "tariko": 9333,
      "aryabhatt": 9334,
      "shikshana": 9335,
      "olutions": 9336,
      "bottle": 9337,
      "countdown": 9338,
      "idealphysics": 9339,
      "gamesense": 9340,
      "webin": 9341,
      "webteam": 9342,
      "corporis": 9343,
      "hospitals": 9344,
      "badger": 9345,
      "frances": 9346,
      "frança": 9347,
      "golf": 9348,
      "kinu": 9349,
      "kimberly": 9350,
      "vilcek": 9351,
      "ylarde": 9352,
      "stoic": 9353,
      "struct": 9354,
      "chula": 9355,
      "chuck": 9356,
      "edutainment": 9357,
      "oriental": 9358,
      "rayat": 9359,
      "machinery": 9360,
      "seekers": 9361,
      "___": 9362,
      "cien": 9363,
      "flex": 9364,
      "gadgets": 9365,
      "gadget": 9366,
      "gadkari": 9367,
      "narayani": 9368,
      "slate": 9369,
      "taslim": 9370,
      "tasmania": 9371,
      "tasrif": 9372,
      "turn": 9373,
      "turing": 9374,
      "turtle": 9375,
      "values": 9376,
      "्या": 9377,
      "anoop": 9378,
      "arifuzzaman": 9379,
      "cherry": 9380,
      "olympics": 9381,
      "majiku": 9382,
      "roadtoknow": 9383,
      "sainik": 9384,
      "université": 9385,
      "universitat": 9386,
      "universitas": 9387,
      "universität": 9388,
      "technoplus": 9389,
      "tracking": 9390,
      "camera": 9391,
      "graz": 9392,
      "grainger": 9393,
      "hands": 9394,
      "handmade": 9395,
      "hometunes": 9396,
      "homestead": 9397,
      "jimikkik": 9398,
      "jyothi": 9399,
      "trobe": 9400,
      "wildlife": 9401,
      "styropy": 9402,
      "cholo": 9403,
      "raiyan": 9404,
      "yakkara": 9405,
      "second": 9406,
      "whatz": 9407,
      "softtech": 9408,
      "machinearena": 9409,
      "billion": 9410,
      "blogger": 9411,
      "blogilates": 9412,
      "crimson": 9413,
      "falcon": 9414,
      "hidalgo": 9415,
      "jordan": 9416,
      "kamiya": 9417,
      "kishore": 9418,
      "kharat": 9419,
      "ladka": 9420,
      "millan": 9421,
      "toronto": 9422,
      "enews": 9423,
      "askki": 9424,
      "mahavidyalaya": 9425,
      "devices": 9426,
      "achievers": 9427,
      "connecticut": 9428,
      "cardiology": 9429,
      "dhruvi": 9430,
      "lalitlama": 9431,
      "pharmacology": 9432,
      "watching": 9433,
      "yorktest": 9434,
      "fromstress": 9435,
      "aguilar": 9436,
      "bunny": 9437,
      "bunkers": 9438,
      "bunnich": 9439,
      "dwivedi": 9440,
      "finds": 9441,
      "fastest": 9442,
      "japan": 9443,
      "kranti": 9444,
      "nasm": 9445,
      "nasir": 9446,
      "otago": 9447,
      "party": 9448,
      "rcm": 9449,
      "roll": 9450,
      "sreepath": 9451,
      "stream": 9452,
      "chitti": 9453,
      "threesix": 9454,
      "regina": 9455,
      "register": 9456,
      "apuram": 9457,
      "apurva": 9458,
      "universitetet": 9459,
      "modified": 9460,
      "kieser": 9461,
      "madhukar": 9462,
      "cartoon": 9463,
      "discovermaths": 9464,
      "a2u": 9465,
      "cgpsc": 9466,
      "dudhat": 9467,
      "detroit": 9468,
      "dext": 9469,
      "dheey": 9470,
      "ezvid": 9471,
      "fakruddin": 9472,
      "gemizon": 9473,
      "larimar": 9474,
      "mvls": 9475,
      "marie": 9476,
      "marian": 9477,
      "pullingo": 9478,
      "tikle": 9479,
      "ufract": 9480,
      "wyoming": 9481,
      "yasir": 9482,
      "anamika": 9483,
      "staff": 9484,
      "alison": 9485,
      "temples": 9486,
      "athletic": 9487,
      "roses": 9488,
      "royce": 9489,
      "abdullah": 9490,
      "abdulrehman": 9491,
      "football": 9492,
      "footdocdana": 9493,
      "beats": 9494,
      "behindwoods": 9495,
      "placement": 9496,
      "lynn": 9497,
      "mahidolqd": 9498,
      "blockstars": 9499,
      "blockchain": 9500,
      "feedback": 9501,
      "srinu": 9502,
      "friendly": 9503,
      "195": 9504,
      "ahaguru": 9505,
      "aastha": 9506,
      "bullet": 9507,
      "cruz": 9508,
      "dundee": 9509,
      "egie": 9510,
      "hindustani": 9511,
      "jalgas": 9512,
      "kont": 9513,
      "konark": 9514,
      "nanayakkara": 9515,
      "nicolette": 9516,
      "sorapalli": 9517,
      "varde": 9518,
      "wheelsz": 9519,
      "zihad": 9520,
      "zaraffan": 9521,
      "investig": 9522,
      "reading": 9523,
      "nestleau": 9524,
      "iroshan": 9525,
      "georgopoulos": 9526,
      "imeathletics": 9527,
      "sebastian": 9528,
      "shashtra": 9529,
      "looking": 9530,
      "beastchemist": 9531,
      "ministry": 9532,
      "priyanshi": 9533,
      "eyewit": 9534,
      "matthews": 9535,
      "montreal": 9536,
      "automotive": 9537,
      "yalecourses": 9538,
      "cybernet": 9539,
      "المفتو": 9540,
      "المقررا": 9541,
      "philippines": 9542,
      "aaronclare": 9543,
      "richardondata": 9544,
      "moments": 9545,
      "vidyapeetham": 9546,
      "scholartech": 9547,
      "audioversity": 9548,
      "hussainappa": 9549,
      "ச்சயம்": 9550,
      "imperialinstitute": 9551,
      "bolly": 9552,
      "bacon": 9553,
      "bilt": 9554,
      "bachao": 9555,
      "bachelor": 9556,
      "cantt": 9557,
      "figtree": 9558,
      "horse": 9559,
      "kristina": 9560,
      "massmut": 9561,
      "massachuset": 9562,
      "pastimeathletics": 9563,
      "russell": 9564,
      "sacred": 9565,
      "sacramento": 9566,
      "vastu": 9567,
      "wiki": 9568,
      "yapa": 9569,
      "निर्": 9570,
      "arthur": 9571,
      "armaan": 9572,
      "chokas": 9573,
      "leaders": 9574,
      "racing": 9575,
      "mazumder": 9576,
      "phoenix": 9577,
      "savvy": 9578,
      "savvas": 9579,
      "touchpoint": 9580,
      "columbus": 9581,
      "secrets": 9582,
      "mediate": 9583,
      "mediacorp": 9584,
      "lokshala": 9585,
      "lotus": 9586,
      "keebbuddy": 9587,
      "nazia": 9588,
      "jahnavi": 9589,
      "ramaiah": 9590,
      "bernard": 9591,
      "pixelstest": 9592,
      "stephanie": 9593,
      "sensei": 9594,
      "faizan": 9595,
      "checkrare": 9596,
      "observer": 9597,
      "observatory": 9598,
      "middlesex": 9599,
      "pittsburg": 9600,
      "hollywood": 9601,
      "puneet": 9602,
      "isaacsamz": 9603,
      "victorian": 9604,
      "transformation": 9605,
      "srinivasulu": 9606,
      "0509": 9607,
      "aasai": 9608,
      "aviation": 9609,
[...]
