{
  "version": "1.0",
  "truncation": null,
  "padding": null,
  "added_tokens": [
    {
      "id": 0,
      "content": "[UNK]",
      "single_word": false,
      "lstrip": false,
      "rstrip": false,
      "normalized": false,
      "special": true
    },
    {
      "id": 1,
      "content": "[CLS]",
      "single_word": false,
      "lstrip": false,
      "rstrip": false,
      "normalized": false,
      "special": true
    },
    {
      "id": 2,
      "content": "[SEP]",
      "single_word": false,
      "lstrip": false,
      "rstrip": false,
      "normalized": false,
      "special": true
    },
    {
      "id": 3,
      "content": "[PAD]",
      "single_word": false,
      "lstrip": false,
      "rstrip": false,
      "normalized": false,
      "special": true
    },
    {
      "id": 4,
      "content": "[MASK]",
      "single_word": false,
      "lstrip": false,
      "rstrip": false,
      "normalized": false,
      "special": true
    }
  ],
  "normalizer": null,
  "pre_tokenizer": {
    "type": "Whitespace"
  },
  "post_processor": null,
  "decoder": null,
  "model": {
    "type": "BPE",
    "dropout": null,
    "unk_token": "[UNK]",
    "continuing_subword_prefix": null,
    "end_of_word_suffix": null,
    "fuse_unk": false,
    "byte_fallback": false,
    "ignore_merges": false,
    "vocab": {
      "[UNK]": 0,
      "[CLS]": 1,
      "[SEP]": 2,
      "[PAD]": 3,
      "[MASK]": 4,
      "!": 5,
      "\"": 6,
      "#": 7,
      "$": 8,
      "%": 9,
      "&": 10,
      "'": 11,
      "(": 12,
      ")": 13,
      "*": 14,
      "+": 15,
      ",": 16,
      "-": 17,
      ".": 18,
      "/": 19,
      "0": 20,
      "1": 21,
      "2": 22,
      "3": 23,
      "4": 24,
      "5": 25,
      "6": 26,
      "7": 27,
      "8": 28,
      "9": 29,
      ":": 30,
      ";": 31,
      "=": 32,
      "?": 33,
      "@": 34,
      "[": 35,
      "\\": 36,
      "]": 37,
      "^": 38,
      "_": 39,
      "`": 40,
      "a": 41,
      "b": 42,
      "c": 43,
      "d": 44,
      "e": 45,
      "f": 46,
      "g": 47,
      "h": 48,
      "i": 49,
      "j": 50,
      "k": 51,
      "l": 52,
      "m": 53,
      "n": 54,
      "o": 55,
      "p": 56,
      "q": 57,
      "r": 58,
      "s": 59,
      "t": 60,
      "u": 61,
      "v": 62,
      "w": 63,
      "x": 64,
      "y": 65,
      "z": 66,
      "{": 67,
      "|": 68,
      "}": 69,
      "~": 70,
      "": 71,
      "": 72,
      "¡": 73,
      "¢": 74,
      "£": 75,
      "¤": 76,
      "¥": 77,
      "¦": 78,
      "§": 79,
      "©": 80,
      "ª": 81,
      "«": 82,
      "­": 83,
      "®": 84,
      "¯": 85,
      "°": 86,
      "±": 87,
      "²": 88,
      "³": 89,
      "´": 90,
      "µ": 91,
      "¶": 92,
      "·": 93,
      "¸": 94,
      "¹": 95,
      "º": 96,
      "»": 97,
      "½": 98,
      "¿": 99,
      "×": 100,
      "ß": 101,
      "à": 102,
      "á": 103,
      "â": 104,
      "ã": 105,
      "ä": 106,
      "å": 107,
      "æ": 108,
      "ç": 109,
      "è": 110,
      "é": 111,
      "ê": 112,
      "ë": 113,
      "ì": 114,
      "í": 115,
      "î": 116,
      "ï": 117,
      "ñ": 118,
      "ò": 119,
      "ó": 120,
      "ô": 121,
      "õ": 122,
      "ö": 123,
      "÷": 124,
      "ø": 125,
      "ù": 126,
      "ú": 127,
      "û": 128,
      "ü": 129,
      "ý": 130,
      "ā": 131,
      "ă": 132,
      "ą": 133,
      "ć": 134,
      "č": 135,
      "ď": 136,
      "đ": 137,
      "ē": 138,
      "ĕ": 139,
      "ė": 140,
      "ę": 141,
      "ğ": 142,
      "ī": 143,
      "ı": 144,
      "ł": 145,
      "ń": 146,
      "ō": 147,
      "ő": 148,
      "œ": 149,
      "ŕ": 150,
      "ř": 151,
      "ś": 152,
      "ş": 153,
      "š": 154,
      "ť": 155,
      "ũ": 156,
      "ŭ": 157,
      "ź": 158,
      "ż": 159,
      "ž": 160,
      "ơ": 161,
      "ư": 162,
      "ƿ": 163,
      "ǐ": 164,
      "ə": 165,
      "ɢ": 166,
      "ɪ": 167,
      "ɴ": 168,
      "ʀ": 169,
      "ʏ": 170,
      "ʙ": 171,
      "ʜ": 172,
      "ʟ": 173,
      "ʰ": 174,
      "ʳ": 175,
      "ʷ": 176,
      "ʸ": 177,
      "ʻ": 178,
      "ʼ": 179,
      "ˊ": 180,
      "ˋ": 181,
      "ˍ": 182,
      "˚": 183,
      "ˢ": 184,
      "̀": 185,
      "́": 186,
      "̃": 187,
      "̄": 188,
      "̇": 189,
      "̈": 190,
      "̉": 191,
      "̣": 192,
      "̥": 193,
      "̩": 194,
      "̳": 195,
      "̵": 196,
      "̶": 197,
      "͙": 198,
      "α": 199,
      "δ": 200,
      "ε": 201,
      "θ": 202,
      "ι": 203,
      "κ": 204,
      "λ": 205,
      "μ": 206,
      "ν": 207,
      "π": 208,
      "ρ": 209,
      "σ": 210,
      "τ": 211,
      "υ": 212,
      "φ": 213,
      "χ": 214,
      "ω": 215,
      "ϝ": 216,
      "а": 217,
      "б": 218,
      "в": 219,
      "г": 220,
      "д": 221,
      "е": 222,
      "ж": 223,
      "з": 224,
      "и": 225,
      "й": 226,
      "к": 227,
      "л": 228,
      "м": 229,
      "н": 230,
      "о": 231,
      "п": 232,
      "р": 233,
      "с": 234,
      "т": 235,
      "у": 236,
      "ф": 237,
      "х": 238,
      "ц": 239,
      "ч": 240,
      "ш": 241,
      "щ": 242,
      "ъ": 243,
      "ы": 244,
      "ь": 245,
      "э": 246,
      "ю": 247,
      "я": 248,
      "ё": 249,
      "ѕ": 250,
      "ғ": 251,
      "қ": 252,
      "،": 253,
      "؛": 254,
      "؟": 255,
      "ء": 256,
      "آ": 257,
      "أ": 258,
      "ؤ": 259,
      "إ": 260,
      "ئ": 261,
      "ا": 262,
      "ب": 263,
      "ة": 264,
      "ت": 265,
      "ث": 266,
      "ج": 267,
      "ح": 268,
      "خ": 269,
      "د": 270,
      "ذ": 271,
      "ر": 272,
      "ز": 273,
      "س": 274,
      "ش": 275,
      "ص": 276,
      "ض": 277,
      "ط": 278,
      "ظ": 279,
      "ع": 280,
      "غ": 281,
      "ـ": 282,
      "ف": 283,
      "ق": 284,
      "ك": 285,
      "ل": 286,
      "م": 287,
      "ن": 288,
      "ه": 289,
      "و": 290,
      "ى": 291,
      "ي": 292,
      "ً": 293,
      "ٌ": 294,
      "َ": 295,
      "ُ": 296,
      "ِ": 297,
      "ّ": 298,
      "ْ": 299,
      "ٓ": 300,
      "ٔ": 301,
      "٠": 302,
      "١": 303,
      "٢": 304,
      "٣": 305,
      "٦": 306,
      "٧": 307,
      "٨": 308,
      "٩": 309,
      "ٰ": 310,
      "ٹ": 311,
      "پ": 312,
      "چ": 313,
      "ڈ": 314,
      "ڑ": 315,
      "ک": 316,
      "گ": 317,
      "ں": 318,
      "ھ": 319,
      "ہ": 320,
      "ی": 321,
      "ے": 322,
      "۔": 323,
      "ۖ": 324,
      "ۚ": 325,
      "۞": 326,
      "۩": 327,
      "۴": 328,
      "۵": 329,
      "ँ": 330,
      "ं": 331,
      "ः": 332,
      "अ": 333,
      "आ": 334,
      "इ": 335,
      "ई": 336,
      "उ": 337,
      "ऊ": 338,
      "ऋ": 339,
      "ऍ": 340,
      "ए": 341,
      "ऐ": 342,
      "ऑ": 343,
      "ओ": 344,
      "औ": 345,
      "क": 346,
      "ख": 347,
      "ग": 348,
      "घ": 349,
      "ङ": 350,
      "च": 351,
      "छ": 352,
      "ज": 353,
      "झ": 354,
      "ञ": 355,
      "ट": 356,
      "ठ": 357,
      "ड": 358,
      "ढ": 359,
      "ण": 360,
      "त": 361,
      "थ": 362,
      "द": 363,
      "ध": 364,
      "न": 365,
      "प": 366,
      "फ": 367,
      "ब": 368,
      "भ": 369,
      "म": 370,
      "य": 371,
      "र": 372,
      "ऱ": 373,
      "ल": 374,
      "ळ": 375,
      "व": 376,
      "श": 377,
      "ष": 378,
      "स": 379,
      "ह": 380,
      "़": 381,
      "ा": 382,
      "ि": 383,
      "ी": 384,
      "ु": 385,
      "ू": 386,
      "ृ": 387,
      "ॅ": 388,
      "े": 389,
      "ै": 390,
      "ॉ": 391,
      "ो": 392,
      "ौ": 393,
      "्": 394,
      "ॕ": 395,
      "क़": 396,
      "ख़": 397,
      "ज़": 398,
      "ड़": 399,
      "ढ़": 400,
      "फ़": 401,
      "।": 402,
      "॥": 403,
      "०": 404,
      "१": 405,
      "२": 406,
      "३": 407,
      "४": 408,
      "५": 409,
      "६": 410,
      "७": 411,
      "८": 412,
      "९": 413,
      "ঁ": 414,
      "ং": 415,
      "ঃ": 416,
      "অ": 417,
      "আ": 418,
      "ই": 419,
      "ঈ": 420,
      "উ": 421,
      "ঋ": 422,
      "এ": 423,
      "ও": 424,
      "ঔ": 425,
      "ক": 426,
      "খ": 427,
      "গ": 428,
      "ঘ": 429,
      "ঙ": 430,
      "চ": 431,
      "ছ": 432,
      "জ": 433,
      "ঝ": 434,
      "ঞ": 435,
      "ট": 436,
      "ঠ": 437,
      "ড": 438,
      "ঢ": 439,
      "ণ": 440,
      "ত": 441,
      "থ": 442,
      "দ": 443,
      "ধ": 444,
      "ন": 445,
      "প": 446,
      "ফ": 447,
      "ব": 448,
      "ভ": 449,
      "ম": 450,
      "য": 451,
      "র": 452,
      "ল": 453,
      "শ": 454,
      "ষ": 455,
      "স": 456,
      "হ": 457,
      "়": 458,
      "া": 459,
      "ি": 460,
      "ী": 461,
      "ু": 462,
      "ূ": 463,
      "ৃ": 464,
      "ে": 465,
      "ৈ": 466,
      "ো": 467,
      "ৌ": 468,
      "্": 469,
      "ৎ": 470,
      "ড়": 471,
      "ঢ়": 472,
      "য়": 473,
      "০": 474,
      "১": 475,
      "২": 476,
      "৩": 477,
      "৪": 478,
      "৫": 479,
      "৬": 480,
      "৭": 481,
      "৮": 482,
      "৯": 483,
      "ৰ": 484,
      "ৱ": 485,
      "৷": 486,
      "ਂ": 487,
      "ਅ": 488,
      "ਆ": 489,
      "ਇ": 490,
      "ਈ": 491,
      "ਉ": 492,
      "ਏ": 493,
      "ਓ": 494,
      "ਕ": 495,
      "ਖ": 496,
      "ਗ": 497,
      "ਚ": 498,
      "ਜ": 499,
      "ਝ": 500,
      "ਟ": 501,
      "ਡ": 502,
      "ਣ": 503,
      "ਤ": 504,
      "ਥ": 505,
      "ਦ": 506,
      "ਧ": 507,
      "ਨ": 508,
      "ਪ": 509,
      "ਫ": 510,
      "ਬ": 511,
      "ਭ": 512,
      "ਮ": 513,
      "ਯ": 514,
      "ਰ": 515,
      "ਲ": 516,
      "ਵ": 517,
      "ਸ਼": 518,
      "ਸ": 519,
      "ਹ": 520,
      "ਾ": 521,
      "ਿ": 522,
      "ੀ": 523,
      "ੁ": 524,
      "ੂ": 525,
      "ੇ": 526,
      "ੈ": 527,
      "ੋ": 528,
      "ੌ": 529,
      "੍": 530,
      "ਜ਼": 531,
      "ੜ": 532,
      "ੰ": 533,
      "ੱ": 534,
      "ં": 535,
      "ઃ": 536,
      "અ": 537,
      "આ": 538,
      "ઇ": 539,
      "ઈ": 540,
      "ઉ": 541,
      "ઊ": 542,
      "ઍ": 543,
      "એ": 544,
      "ઓ": 545,
      "ક": 546,
      "ખ": 547,
      "ગ": 548,
      "ઘ": 549,
      "ચ": 550,
      "છ": 551,
      "જ": 552,
      "ઝ": 553,
      "ઞ": 554,
      "ટ": 555,
      "ઠ": 556,
      "ડ": 557,
      "ઢ": 558,
      "ણ": 559,
      "ત": 560,
      "થ": 561,
      "દ": 562,
      "ધ": 563,
      "ન": 564,
      "પ": 565,
      "ફ": 566,
      "બ": 567,
      "ભ": 568,
      "મ": 569,
      "ય": 570,
      "ર": 571,
      "લ": 572,
      "ળ": 573,
      "વ": 574,
      "શ": 575,
      "ષ": 576,
      "સ": 577,
      "હ": 578,
      "ા": 579,
      "િ": 580,
      "ી": 581,
      "ુ": 582,
      "ૂ": 583,
      "ૃ": 584,
      "ે": 585,
      "ૈ": 586,
      "ૉ": 587,
      "ો": 588,
      "ૌ": 589,
      "્": 590,
      "૦": 591,
      "૧": 592,
      "૨": 593,
      "૩": 594,
      "૪": 595,
      "૫": 596,
      "૬": 597,
      "૭": 598,
      "૮": 599,
      "૯": 600,
      "ଁ": 601,
      "ଂ": 602,
      "ଃ": 603,
      "ଅ": 604,
      "ଆ": 605,
      "ଇ": 606,
      "ଉ": 607,
      "ଏ": 608,
      "ଓ": 609,
      "କ": 610,
      "ଖ": 611,
      "ଗ": 612,
      "ଘ": 613,
      "ଙ": 614,
      "ଚ": 615,
      "ଛ": 616,
      "ଜ": 617,
      "ଝ": 618,
      "ଞ": 619,
      "ଟ": 620,
      "ଠ": 621,
      "ଡ": 622,
      "ଢ": 623,
      "ଣ": 624,
      "ତ": 625,
      "ଥ": 626,
      "ଦ": 627,
      "ଧ": 628,
      "ନ": 629,
      "ପ": 630,
      "ବ": 631,
      "ଭ": 632,
      "ମ": 633,
      "ଯ": 634,
      "ର": 635,
      "ଲ": 636,
      "ଳ": 637,
      "ଶ": 638,
      "ଷ": 639,
      "ସ": 640,
      "ହ": 641,
      "଼": 642,
      "ା": 643,
      "ି": 644,
      "ୀ": 645,
      "ୁ": 646,
      "ୂ": 647,
      "ୃ": 648,
      "େ": 649,
      "ୈ": 650,
      "ୋ": 651,
      "ୌ": 652,
      "୍": 653,
      "ୟ": 654,
      "୦": 655,
      "୧": 656,
      "୨": 657,
      "ୱ": 658,
      "ஃ": 659,
      "அ": 660,
      "ஆ": 661,
      "இ": 662,
      "உ": 663,
      "ஊ": 664,
      "எ": 665,
      "ஏ": 666,
      "ஐ": 667,
      "ஒ": 668,
      "ஓ": 669,
      "ஔ": 670,
      "க": 671,
      "ங": 672,
      "ச": 673,
      "ஜ": 674,
      "ஞ": 675,
      "ட": 676,
      "ண": 677,
      "த": 678,
      "ந": 679,
      "ன": 680,
      "ப": 681,
      "ம": 682,
      "ய": 683,
      "ர": 684,
      "ற": 685,
      "ல": 686,
      "ள": 687,
      "ழ": 688,
      "வ": 689,
      "ஷ": 690,
      "ஸ": 691,
      "ஹ": 692,
      "ா": 693,
      "ி": 694,
      "ீ": 695,
      "ு": 696,
      "ூ": 697,
      "ெ": 698,
      "ே": 699,
      "ை": 700,
      "ொ": 701,
      "ோ": 702,
      "ௌ": 703,
      "்": 704,
      "ం": 705,
      "అ": 706,
      "ఆ": 707,
      "ఇ": 708,
      "ఈ": 709,
      "ఉ": 710,
      "ఊ": 711,
      "ఎ": 712,
      "ఏ": 713,
      "ఐ": 714,
      "ఒ": 715,
      "ఓ": 716,
      "ఔ": 717,
      "క": 718,
      "ఖ": 719,
      "గ": 720,
      "చ": 721,
      "ఛ": 722,
      "జ": 723,
      "ఞ": 724,
      "ట": 725,
      "డ": 726,
      "ణ": 727,
      "త": 728,
      "థ": 729,
      "ద": 730,
      "ధ": 731,
      "న": 732,
      "ప": 733,
      "ఫ": 734,
      "బ": 735,
      "భ": 736,
      "మ": 737,
      "య": 738,
      "ర": 739,
      "ల": 740,
      "ళ": 741,
      "వ": 742,
      "శ": 743,
      "ష": 744,
      "స": 745,
      "హ": 746,
      "ా": 747,
      "ి": 748,
      "ీ": 749,
      "ు": 750,
      "ూ": 751,
      "ృ": 752,
      "ె": 753,
      "ే": 754,
      "ై": 755,
      "ొ": 756,
      "ో": 757,
      "ౌ": 758,
      "్": 759,
      "ಂ": 760,
      "ಅ": 761,
      "ಆ": 762,
      "ಇ": 763,
      "ಈ": 764,
      "ಉ": 765,
      "ಎ": 766,
      "ಏ": 767,
      "ಒ": 768,
      "ಕ": 769,
      "ಖ": 770,
      "ಗ": 771,
      "ಘ": 772,
      "ಚ": 773,
      "ಛ": 774,
      "ಜ": 775,
      "ಞ": 776,
      "ಟ": 777,
      "ಠ": 778,
      "ಡ": 779,
      "ಣ": 780,
      "ತ": 781,
      "ಥ": 782,
      "ದ": 783,
      "ಧ": 784,
      "ನ": 785,
      "ಪ": 786,
      "ಫ": 787,
      "ಬ": 788,
      "ಭ": 789,
      "ಮ": 790,
      "ಯ": 791,
      "ರ": 792,
      "ಲ": 793,
      "ಳ": 794,
      "ವ": 795,
      "ಶ": 796,
      "ಷ": 797,
      "ಸ": 798,
      "ಹ": 799,
      "ಾ": 800,
      "ಿ": 801,
      "ೀ": 802,
      "ು": 803,
      "ೂ": 804,
      "ೃ": 805,
      "ೆ": 806,
      "ೇ": 807,
      "ೈ": 808,
      "ೊ": 809,
      "ೋ": 810,
      "ೌ": 811,
      "್": 812,
      "೯": 813,
      "ം": 814,
      "അ": 815,
      "ആ": 816,
      "ഇ": 817,
      "ഈ": 818,
      "ഉ": 819,
      "ഊ": 820,
      "എ": 821,
      "ഏ": 822,
      "ഐ": 823,
      "ഒ": 824,
      "ഓ": 825,
      "ക": 826,
      "ഖ": 827,
      "ഗ": 828,
      "ഘ": 829,
      "ങ": 830,
      "ച": 831,
      "ജ": 832,
      "ഞ": 833,
      "ട": 834,
      "ഠ": 835,
      "ഡ": 836,
      "ണ": 837,
      "ത": 838,
      "ഥ": 839,
      "ദ": 840,
      "ധ": 841,
      "ന": 842,
      "പ": 843,
      "ഫ": 844,
      "ബ": 845,
      "ഭ": 846,
      "മ": 847,
      "യ": 848,
      "ര": 849,
      "റ": 850,
      "ല": 851,
      "ള": 852,
      "ഴ": 853,
      "വ": 854,
      "ശ": 855,
      "ഷ": 856,
      "സ": 857,
      "ഹ": 858,
      "ാ": 859,
      "ി": 860,
      "ീ": 861,
      "ു": 862,
      "ൂ": 863,
      "ൃ": 864,
      "െ": 865,
      "േ": 866,
      "ൈ": 867,
      "ൊ": 868,
      "ോ": 869,
      "ൌ": 870,
      "്": 871,
      "ൗ": 872,
      "ൺ": 873,
      "ൻ": 874,
      "ർ": 875,
      "ൽ": 876,
      "ൾ": 877,
      "ං": 878,
      "අ": 879,
      "ආ": 880,
      "ඇ": 881,
      "ඉ": 882,
      "ඊ": 883,
      "උ": 884,
      "එ": 885,
      "ඒ": 886,
      "ඔ": 887,
      "ඕ": 888,
      "ක": 889,
      "ඛ": 890,
      "ග": 891,
      "ඝ": 892,
      "ඟ": 893,
      "ච": 894,
      "ඡ": 895,
      "ජ": 896,
      "ට": 897,
      "ඨ": 898,
      "ඩ": 899,
      "ණ": 900,
      "ත": 901,
      "ථ": 902,
      "ද": 903,
      "ධ": 904,
      "න": 905,
      "ඳ": 906,
      "ප": 907,
      "බ": 908,
      "භ": 909,
      "ම": 910,
      "ය": 911,
      "ර": 912,
      "ල": 913,
      "ව": 914,
      "ශ": 915,
      "ෂ": 916,
      "ස": 917,
      "හ": 918,
      "ළ": 919,
      "ෆ": 920,
      "්": 921,
      "ා": 922,
      "ැ": 923,
      "ෑ": 924,
      "ි": 925,
      "ී": 926,
      "ු": 927,
      "ූ": 928,
      "ෘ": 929,
      "ෙ": 930,
      "ේ": 931,
      "ෛ": 932,
      "ො": 933,
      "ෝ": 934,
      "ෲ": 935,
      "ก": 936,
      "ข": 937,
      "ค": 938,
      "ฆ": 939,
      "ง": 940,
      "จ": 941,
      "ฉ": 942,
      "ช": 943,
      "ซ": 944,
      "ญ": 945,
      "ฎ": 946,
      "ฏ": 947,
      "ฐ": 948,
      "ฒ": 949,
      "ณ": 950,
      "ด": 951,
      "ต": 952,
      "ถ": 953,
      "ท": 954,
      "ธ": 955,
      "น": 956,
      "บ": 957,
      "ป": 958,
      "ผ": 959,
      "ฝ": 960,
      "พ": 961,
      "ฟ": 962,
      "ภ": 963,
      "ม": 964,
      "ย": 965,
      "ร": 966,
      "ฤ": 967,
      "ล": 968,
      "ว": 969,
      "ศ": 970,
      "ษ": 971,
      "ส": 972,
      "ห": 973,
      "อ": 974,
      "ฮ": 975,
      "ะ": 976,
      "ั": 977,
      "า": 978,
      "ำ": 979,
      "ิ": 980,
      "ี": 981,
      "ึ": 982,
      "ื": 983,
      "ุ": 984,
      "ู": 985,
      "เ": 986,
      "แ": 987,
      "โ": 988,
      "ใ": 989,
      "ไ": 990,
      "ๆ": 991,
      "็": 992,
      "่": 993,
      "้": 994,
      "๊": 995,
      "๋": 996,
      "์": 997,
      "་": 998,
      "༝": 999,
      "ག": 1000,
      "པ": 1001,
      "བ": 1002,
      "ར": 1003,
      "ས": 1004,
      "ི": 1005,
      "ོ": 1006,
      "က": 1007,
      "ခ": 1008,
      "ဂ": 1009,
      "င": 1010,
      "စ": 1011,
      "ဆ": 1012,
      "ဇ": 1013,
      "ည": 1014,
      "ဌ": 1015,
      "တ": 1016,
      "ထ": 1017,
      "ဒ": 1018,
      "ဓ": 1019,
      "န": 1020,
      "ပ": 1021,
      "ဖ": 1022,
      "ဗ": 1023,
      "မ": 1024,
      "ယ": 1025,
      "ရ": 1026,
      "လ": 1027,
      "ဝ": 1028,
      "သ": 1029,
      "အ": 1030,
      "ါ": 1031,
      "ာ": 1032,
      "ိ": 1033,
      "ီ": 1034,
      "ု": 1035,
      "ူ": 1036,
      "ေ": 1037,
      "ဲ": 1038,
      "ံ": 1039,
      "့": 1040,
      "း": 1041,
      "္": 1042,
      "်": 1043,
      "ျ": 1044,
      "ြ": 1045,
      "ွ": 1046,
      "ှ": 1047,
      "၆": 1048,
      "၊": 1049,
      "။": 1050,
      "ሁ": 1051,
      "ህ": 1052,
      "ሆ": 1053,
      "ለ": 1054,
      "ሉ": 1055,
      "ሊ": 1056,
      "ላ": 1057,
      "ሌ": 1058,
      "ል": 1059,
      "ሎ": 1060,
      "ሐ": 1061,
      "መ": 1062,
      "ሙ": 1063,
      "ሚ": 1064,
      "ማ": 1065,
      "ም": 1066,
      "ሞ": 1067,
      "ረ": 1068,
      "ሪ": 1069,
      "ራ": 1070,
      "ር": 1071,
      "ሮ": 1072,
      "ሰ": 1073,
      "ሱ": 1074,
      "ስ": 1075,
      "ሶ": 1076,
      "ሺ": 1077,
      "ሼ": 1078,
      "ሽ": 1079,
      "ሿ": 1080,
      "ቀ": 1081,
      "ቁ": 1082,
      "ቂ": 1083,
      "ቃ": 1084,
      "ቄ": 1085,
      "ቅ": 1086,
      "በ": 1087,
      "ቢ": 1088,
      "ባ": 1089,
      "ቤ": 1090,
      "ብ": 1091,
      "ቪ": 1092,
      "ተ": 1093,
      "ቱ": 1094,
      "ታ": 1095,
      "ት": 1096,
      "ቶ": 1097,
      "ቸ": 1098,
      "ቻ": 1099,
      "ች": 1100,
      "ነ": 1101,
      "ኑ": 1102,
      "ና": 1103,
      "ን": 1104,
      "ኛ": 1105,
      "ኝ": 1106,
      "አ": 1107,
      "ኣ": 1108,
      "ኤ": 1109,
      "እ": 1110,
      "ከ": 1111,
      "ካ": 1112,
      "ክ": 1113,
      "ኮ": 1114,
      "ወ": 1115,
      "ው": 1116,
      "ዎ": 1117,
      "ዘ": 1118,
      "ዙ": 1119,
      "ዚ": 1120,
      "ዝ": 1121,
      "የ": 1122,
      "ያ": 1123,
      "ይ": 1124,
      "ዮ": 1125,
      "ደ": 1126,
      "ዲ": 1127,
      "ዳ": 1128,
      "ዴ": 1129,
      "ድ": 1130,
      "ጅ": 1131,
      "ገ": 1132,
      "ጋ": 1133,
      "ግ": 1134,
      "ጎ": 1135,
      "ጠ": 1136,
      "ጡ": 1137,
      "ጤ": 1138,
      "ጥ": 1139,
      "ጻ": 1140,
      "ፅ": 1141,
      "ፉ": 1142,
      "ፋ": 1143,
      "ፍ": 1144,
      "ፓ": 1145,
      "።": 1146,
      "፣": 1147,
      "ᐛ": 1148,
      "ᕕ": 1149,
      "ᕗ": 1150,
      "ᗜ": 1151,
      "ᗷ": 1152,
      "ក": 1153,
      "ខ": 1154,
      "គ": 1155,
      "ង": 1156,
      "ច": 1157,
      "ឆ": 1158,
      "ជ": 1159,
      "ញ": 1160,
      "ដ": 1161,
      "ឌ": 1162,
      "ណ": 1163,
      "ត": 1164,
      "ថ": 1165,
      "ទ": 1166,
      "ធ": 1167,
      "ន": 1168,
      "ប": 1169,
      "ផ": 1170,
      "ព": 1171,
      "ភ": 1172,
      "ម": 1173,
      "យ": 1174,
      "រ": 1175,
      "ល": 1176,
      "វ": 1177,
      "ស": 1178,
      "ហ": 1179,
      "ឡ": 1180,
      "អ": 1181,
      "ឬ": 1182,
      "ា": 1183,
      "ិ": 1184,
      "ី": 1185,
      "ឹ": 1186,
      "ុ": 1187,
      "ូ": 1188,
      "ួ": 1189,
      "ើ": 1190,
      "ៀ": 1191,
      "េ": 1192,
      "ែ": 1193,
      "ៃ": 1194,
      "ោ": 1195,
      "ៅ": 1196,
      "ំ": 1197,
      "ៈ": 1198,
      "៉": 1199,
      "៊": 1200,
      "់": 1201,
      "៌": 1202,
      "៍": 1203,
      "្": 1204,
      "។": 1205,
      "៛": 1206,
      "ᴀ": 1207,
      "ᴄ": 1208,
      "ᴅ": 1209,
      "ᴇ": 1210,
      "ᴋ": 1211,
      "ᴍ": 1212,
      "ᴏ": 1213,
      "ᴘ": 1214,
      "ᴛ": 1215,
      "ᴜ": 1216,
      "ᴠ": 1217,
      "ᴡ": 1218,
      "ᴢ": 1219,
      "ᵈ": 1220,
      "ᵉ": 1221,
      "ᵍ": 1222,
      "ᵒ": 1223,
      "ᵗ": 1224,
      "ᵘ": 1225,
      "ᵛ": 1226,
      "ᵢ": 1227,
      "ᵣ": 1228,
      "ᵤ": 1229,
      "ᶿ": 1230,
      "ṛ": 1231,
      "ṣ": 1232,
      "ạ": 1233,
      "ả": 1234,
      "ấ": 1235,
      "ầ": 1236,
      "ẩ": 1237,
      "ẫ": 1238,
      "ậ": 1239,
      "ắ": 1240,
      "ằ": 1241,
      "ặ": 1242,
      "ẹ": 1243,
      "ẻ": 1244,
      "ẽ": 1245,
      "ế": 1246,
      "ề": 1247,
      "ể": 1248,
      "ễ": 1249,
      "ệ": 1250,
      "ỉ": 1251,
      "ị": 1252,
      "ọ": 1253,
      "ỏ": 1254,
      "ố": 1255,
      "ồ": 1256,
      "ổ": 1257,
      "ỗ": 1258,
      "ộ": 1259,
      "ớ": 1260,
      "ờ": 1261,
      "ở": 1262,
      "ỡ": 1263,
      "ợ": 1264,
      "ụ": 1265,
      "ủ": 1266,
      "ứ": 1267,
      "ừ": 1268,
      "ử": 1269,
      "ữ": 1270,
      "ự": 1271,
      "ỳ": 1272,
      "​": 1273,
      "‌": 1274,
      "‍": 1275,
      "‎": 1276,
      "‐": 1277,
      "‑": 1278,
      "‒": 1279,
      "–": 1280,
      "—": 1281,
      "―": 1282,
      "‖": 1283,
      "‘": 1284,
      "’": 1285,
      "‚": 1286,
      "“": 1287,
      "”": 1288,
      "„": 1289,
      "†": 1290,
      "•": 1291,
      "‣": 1292,
      "…": 1293,
      "‧": 1294,
      "‪": 1295,
      "‬": 1296,
      "‭": 1297,
      "″": 1298,
      "›": 1299,
      "※": 1300,
      "‼": 1301,
      "‾": 1302,
      "⁂": 1303,
      "⁄": 1304,
      "⁉": 1305,
      "⁙": 1306,
      "⁝": 1307,
      "⁞": 1308,
      "⁠": 1309,
      "⁣": 1310,
      "ⁱ": 1311,
      "⁻": 1312,
      "⁽": 1313,
      "⁾": 1314,
      "ⁿ": 1315,
      "₁": 1316,
      "₂": 1317,
      "₅": 1318,
      "ₐ": 1319,
      "ₑ": 1320,
      "ₒ": 1321,
      "ₖ": 1322,
      "ₘ": 1323,
      "ₙ": 1324,
      "ₛ": 1325,
      "₪": 1326,
      "€": 1327,
      "₹": 1328,
      "₿": 1329,
      "⃣": 1330,
      "ℂ": 1331,
      "℃": 1332,
      "ℎ": 1333,
      "№": 1334,
      "℗": 1335,
      "ℝ": 1336,
      "™": 1337,
      "ℭ": 1338,
      "ℹ": 1339,
      "←": 1340,
      "→": 1341,
      "↓": 1342,
      "↔": 1343,
      "↖": 1344,
      "↗": 1345,
      "↘": 1346,
      "↙": 1347,
      "↡": 1348,
      "↤": 1349,
      "↦": 1350,
      "↩": 1351,
      "↪": 1352,
      "↬": 1353,
      "↳": 1354,
      "↴": 1355,
      "↷": 1356,
      "⇊": 1357,
      "⇒": 1358,
      "⇛": 1359,
      "⇢": 1360,
      "⇨": 1361,
      "⇩": 1362,
      "⇾": 1363,
      "∆": 1364,
      "∑": 1365,
      "−": 1366,
      "∗": 1367,
      "√": 1368,
      "∝": 1369,
      "∠": 1370,
      "∫": 1371,
      "∭": 1372,
      "∰": 1373,
      "∻": 1374,
      "∼": 1375,
      "≈": 1376,
      "≍": 1377,
      "≠": 1378,
      "≡": 1379,
      "⊙": 1380,
      "⊥": 1381,
      "⊳": 1382,
      "⊶": 1383,
      "⋅": 1384,
      "⋆": 1385,
      "⌁": 1386,
      "⌒": 1387,
      "⌚": 1388,
      "⌛": 1389,
      "⌨": 1390,
      "〉": 1391,
      "⍟": 1392,
      "⎋": 1393,
      "⏏": 1394,
      "⏩": 1395,
      "⏬": 1396,
      "⏭": 1397,
      "⏮": 1398,
      "⏯": 1399,
      "⏰": 1400,
      "⏱": 1401,
      "⏲": 1402,
      "⏳": 1403,
      "⏺": 1404,
      "①": 1405,
      "②": 1406,
      "③": 1407,
      "ⓑ": 1408,
      "ⓒ": 1409,
      "ⓔ": 1410,
      "ⓘ": 1411,
      "ⓜ": 1412,
      "ⓢ": 1413,
      "─": 1414,
      "━": 1415,
      "│": 1416,
      "┉": 1417,
      "═": 1418,
      "║": 1419,
      "╔": 1420,
      "╗": 1421,
      "╚": 1422,
      "╝": 1423,
      "╠": 1424,
      "╣": 1425,
      "╦": 1426,
      "╩": 1427,
      "╰": 1428,
      "╾": 1429,
      "▀": 1430,
      "▃": 1431,
      "▍": 1432,
      "▎": 1433,
      "▒": 1434,
      "▓": 1435,
      "■": 1436,
      "▪": 1437,
      "▬": 1438,
      "▮": 1439,
      "▰": 1440,
      "▱": 1441,
      "▲": 1442,
      "△": 1443,
      "▶": 1444,
      "▷": 1445,
      "▸": 1446,
      "▹": 1447,
      "►": 1448,
      "▼": 1449,
      "▽": 1450,
      "◀": 1451,
      "◄": 1452,
      "◆": 1453,
      "◇": 1454,
      "◈": 1455,
      "◉": 1456,
      "○": 1457,
      "◍": 1458,
      "●": 1459,
      "◖": 1460,
      "◗": 1461,
      "◘": 1462,
      "◠": 1463,
      "◡": 1464,
      "◦": 1465,
      "◼": 1466,
      "◾": 1467,
      "☀": 1468,
      "☁": 1469,
      "☂": 1470,
      "☃": 1471,
      "★": 1472,
      "☆": 1473,
      "☎": 1474,
      "☏": 1475,
      "☑": 1476,
      "☔": 1477,
      "☕": 1478,
      "☗": 1479,
      "☘": 1480,
      "☛": 1481,
      "☝": 1482,
      "☞": 1483,
      "☟": 1484,
      "☠": 1485,
      "☮": 1486,
      "☯": 1487,
      "☹": 1488,
      "☺": 1489,
      "♀": 1490,
      "♂": 1491,
      "♎": 1492,
      "♓": 1493,
      "♡": 1494,
      "♥": 1495,
      "♦": 1496,
      "♨": 1497,
      "♪": 1498,
      "♫": 1499,
      "♬": 1500,
      "♯": 1501,
      "♻": 1502,
      "♾": 1503,
      "⚑": 1504,
      "⚓": 1505,
      "⚔": 1506,
      "⚕": 1507,
      "⚗": 1508,
      "⚙": 1509,
      "⚛": 1510,
      "⚜": 1511,
      "⚝": 1512,
      "⚠": 1513,
      "⚡": 1514,
      "⚤": 1515,
      "⚪": 1516,
      "⚫": 1517,
      "⚰": 1518,
      "⚽": 1519,
      "⚾": 1520,
      "⛄": 1521,
      "⛅": 1522,
      "⛔": 1523,
      "⛵": 1524,
      "⛽": 1525,
      "✂": 1526,
      "✅": 1527,
      "✆": 1528,
      "✈": 1529,
      "✉": 1530,
      "✊": 1531,
      "✋": 1532,
      "✌": 1533,
      "✍": 1534,
      "✎": 1535,
      "✏": 1536,
      "✒": 1537,
      "✓": 1538,
      "✔": 1539,
      "✗": 1540,
      "✜": 1541,
      "✤": 1542,
      "✦": 1543,
      "✧": 1544,
      "✨": 1545,
      "✩": 1546,
      "✪": 1547,
      "✫": 1548,
      "✮": 1549,
      "✰": 1550,
      "✳": 1551,
      "✴": 1552,
      "✷": 1553,
      "✸": 1554,
      "✿": 1555,
      "❀": 1556,
      "❄": 1557,
      "❅": 1558,
      "❇": 1559,
      "❋": 1560,
      "❌": 1561,
      "❏": 1562,
      "❐": 1563,
      "❓": 1564,
      "❗": 1565,
      "❘": 1566,
      "❜": 1567,
      "❝": 1568,
      "❞": 1569,
      "❣": 1570,
      "❤": 1571,
      "❥": 1572,
      "➊": 1573,
      "➋": 1574,
      "➌": 1575,
      "➍": 1576,
      "➔": 1577,
      "➕": 1578,
      "➖": 1579,
      "➗": 1580,
      "➙": 1581,
      "➛": 1582,
      "➜": 1583,
      "➝": 1584,
      "➞": 1585,
      "➟": 1586,
      "➠": 1587,
      "➡": 1588,
      "➢": 1589,
      "➣": 1590,
      "➤": 1591,
      "➥": 1592,
      "➦": 1593,
      "➨": 1594,
      "➪": 1595,
      "➭": 1596,
      "➯": 1597,
      "➱": 1598,
      "➼": 1599,
      "➽": 1600,
      "➾": 1601,
      "⟹": 1602,
      "⟿": 1603,
      "⠀": 1604,
      "⤟": 1605,
      "⤠": 1606,
      "⤴": 1607,
      "⤵": 1608,
      "⦿": 1609,
      "⬄": 1610,
      "⬅": 1611,
      "⬆": 1612,
      "⬇": 1613,
      "⬌": 1614,
      "⬛": 1615,
      "⬤": 1616,
      "⭐": 1617,
      "⭕": 1618,
      "⮞": 1619,
      "⯈": 1620,
      "⽴": 1621,
      "、": 1622,
      "。": 1623,
      "《": 1624,
      "》": 1625,
      "「": 1626,
      "」": 1627,
      "『": 1628,
      "』": 1629,
      "【": 1630,
      "】": 1631,
      "〖": 1632,
      "〗": 1633,
      "〰": 1634,
      "あ": 1635,
      "い": 1636,
      "う": 1637,
      "え": 1638,
      "お": 1639,
      "か": 1640,
      "が": 1641,
      "き": 1642,
      "く": 1643,
      "け": 1644,
      "こ": 1645,
      "ご": 1646,
      "さ": 1647,
      "ざ": 1648,
      "し": 1649,
      "じ": 1650,
      "す": 1651,
      "ず": 1652,
      "せ": 1653,
      "そ": 1654,
      "ぞ": 1655,
      "た": 1656,
      "だ": 1657,
      "ち": 1658,
      "っ": 1659,
      "つ": 1660,
      "て": 1661,
      "で": 1662,
      "と": 1663,
      "ど": 1664,
      "な": 1665,
      "に": 1666,
      "の": 1667,
      "は": 1668,
      "ば": 1669,
      "ひ": 1670,
      "び": 1671,
      "ま": 1672,
      "み": 1673,
      "め": 1674,
      "も": 1675,
      "や": 1676,
      "よ": 1677,
      "ら": 1678,
      "り": 1679,
      "る": 1680,
      "れ": 1681,
      "ろ": 1682,
      "わ": 1683,
      "を": 1684,
      "ん": 1685,
      "゚": 1686,
      "ア": 1687,
      "ィ": 1688,
      "イ": 1689,
      "ウ": 1690,
      "ェ": 1691,
      "エ": 1692,
      "ォ": 1693,
      "オ": 1694,
      "カ": 1695,
      "ガ": 1696,
      "ギ": 1697,
      "ク": 1698,
      "グ": 1699,
      "ケ": 1700,
      "ゲ": 1701,
      "コ": 1702,
      "サ": 1703,
      "シ": 1704,
      "ジ": 1705,
      "ス": 1706,
      "ズ": 1707,
      "セ": 1708,
      "ゾ": 1709,
      "タ": 1710,
      "ダ": 1711,
      "チ": 1712,
      "ッ": 1713,
      "ツ": 1714,
      "テ": 1715,
      "デ": 1716,
      "ト": 1717,
      "ド": 1718,
      "ナ": 1719,
      "ニ": 1720,
      "ノ": 1721,
      "ハ": 1722,
      "バ": 1723,
      "パ": 1724,
      "ビ": 1725,
      "フ": 1726,
      "ブ": 1727,
      "プ": 1728,
      "ヘ": 1729,
      "ペ": 1730,
      "ボ": 1731,
      "マ": 1732,
      "ミ": 1733,
      "ム": 1734,
      "メ": 1735,
      "モ": 1736,
      "ャ": 1737,
      "ュ": 1738,
      "ョ": 1739,
      "ヨ": 1740,
      "ラ": 1741,
      "リ": 1742,
      "ル": 1743,
      "レ": 1744,
      "ロ": 1745,
      "ン": 1746,
      "・": 1747,
      "ー": 1748,
      "ヽ": 1749,
      "一": 1750,
      "丁": 1751,
      "三": 1752,
      "上": 1753,
      "下": 1754,
      "不": 1755,
      "与": 1756,
      "专": 1757,
      "世": 1758,
      "业": 1759,
      "东": 1760,
      "丨": 1761,
      "个": 1762,
      "中": 1763,
      "为": 1764,
      "久": 1765,
      "么": 1766,
      "之": 1767,
      "也": 1768,
      "习": 1769,
      "书": 1770,
      "了": 1771,
      "予": 1772,
      "事": 1773,
      "二": 1774,
      "于": 1775,
      "互": 1776,
      "五": 1777,
      "亚": 1778,
      "些": 1779,
      "京": 1780,
      "人": 1781,
      "什": 1782,
      "今": 1783,
      "介": 1784,
      "从": 1785,
      "仕": 1786,
      "他": 1787,
      "付": 1788,
      "代": 1789,
      "以": 1790,
      "们": 1791,
      "件": 1792,
      "任": 1793,
      "休": 1794,
      "众": 1795,
      "优": 1796,
      "伙": 1797,
      "会": 1798,
      "伝": 1799,
      "传": 1800,
      "似": 1801,
      "但": 1802,
      "位": 1803,
      "佑": 1804,
      "体": 1805,
      "何": 1806,
      "余": 1807,
      "作": 1808,
      "你": 1809,
      "佳": 1810,
      "使": 1811,
      "來": 1812,
      "供": 1813,
      "侵": 1814,
      "便": 1815,
      "保": 1816,
      "俠": 1817,
      "信": 1818,
      "個": 1819,
      "倍": 1820,
      "們": 1821,
      "假": 1822,
      "偏": 1823,
      "做": 1824,
      "傳": 1825,
      "像": 1826,
      "儿": 1827,
      "元": 1828,
      "光": 1829,
      "免": 1830,
      "入": 1831,
      "內": 1832,
      "全": 1833,
      "公": 1834,
      "六": 1835,
      "兰": 1836,
      "共": 1837,
      "关": 1838,
      "其": 1839,
      "养": 1840,
      "内": 1841,
      "円": 1842,
      "写": 1843,
      "冰": 1844,
      "冷": 1845,
      "出": 1846,
      "分": 1847,
      "切": 1848,
      "划": 1849,
      "创": 1850,
      "初": 1851,
      "删": 1852,
      "別": 1853,
      "利": 1854,
      "别": 1855,
      "到": 1856,
      "制": 1857,
      "前": 1858,
      "創": 1859,
      "劉": 1860,
      "力": 1861,
      "加": 1862,
      "务": 1863,
      "劣": 1864,
      "动": 1865,
      "努": 1866,
      "動": 1867,
      "務": 1868,
      "勝": 1869,
      "包": 1870,
      "化": 1871,
      "区": 1872,
      "區": 1873,
      "千": 1874,
      "升": 1875,
      "午": 1876,
      "华": 1877,
      "单": 1878,
      "南": 1879,
      "博": 1880,
      "即": 1881,
      "却": 1882,
      "压": 1883,
      "原": 1884,
      "及": 1885,
      "反": 1886,
      "収": 1887,
      "发": 1888,
      "取": 1889,
      "口": 1890,
      "古": 1891,
      "可": 1892,
      "台": 1893,
      "史": 1894,
      "各": 1895,
      "合": 1896,
      "同": 1897,
      "名": 1898,
      "后": 1899,
      "向": 1900,
      "吗": 1901,
      "吝": 1902,
      "吧": 1903,
      "含": 1904,
      "听": 1905,
      "告": 1906,
      "员": 1907,
      "呢": 1908,
      "和": 1909,
      "咒": 1910,
      "咨": 1911,
      "品": 1912,
      "哈": 1913,
      "哟": 1914,
      "哥": 1915,
      "哦": 1916,
      "哪": 1917,
      "商": 1918,
      "問": 1919,
      "喜": 1920,
      "嘉": 1921,
      "器": 1922,
      "四": 1923,
      "回": 1924,
      "因": 1925,
      "团": 1926,
      "囲": 1927,
      "図": 1928,
      "国": 1929,
      "國": 1930,
      "園": 1931,
      "圖": 1932,
      "土": 1933,
      "圧": 1934,
      "在": 1935,
      "地": 1936,
      "圳": 1937,
      "场": 1938,
      "均": 1939,
      "坊": 1940,
      "坡": 1941,
      "坪": 1942,
      "型": 1943,
      "城": 1944,
      "培": 1945,
      "基": 1946,
      "堂": 1947,
      "報": 1948,
      "場": 1949,
      "填": 1950,
      "塾": 1951,
      "境": 1952,
      "增": 1953,
      "墨": 1954,
      "士": 1955,
      "声": 1956,
      "売": 1957,
      "変": 1958,
      "夏": 1959,
      "外": 1960,
      "多": 1961,
      "夠": 1962,
      "大": 1963,
      "天": 1964,
      "失": 1965,
      "奇": 1966,
      "奏": 1967,
      "奖": 1968,
      "奥": 1969,
      "女": 1970,
      "好": 1971,
      "如": 1972,
      "始": 1973,
      "姿": 1974,
      "婚": 1975,
      "子": 1976,
      "孔": 1977,
      "季": 1978,
      "学": 1979,
      "學": 1980,
      "宁": 1981,
      "它": 1982,
      "完": 1983,
      "定": 1984,
      "实": 1985,
      "客": 1986,
      "宣": 1987,
      "宮": 1988,
      "家": 1989,
      "容": 1990,
      "宾": 1991,
      "實": 1992,
      "寧": 1993,
      "对": 1994,
      "対": 1995,
      "射": 1996,
      "專": 1997,
      "對": 1998,
      "小": 1999,
      "少": 2000,
      "尔": 2001,
      "尖": 2002,
      "就": 2003,
      "尹": 2004,
      "尼": 2005,
      "局": 2006,
      "届": 2007,
      "展": 2008,
      "属": 2009,
      "山": 2010,
      "岛": 2011,
      "島": 2012,
      "川": 2013,
      "州": 2014,
      "工": 2015,
      "差": 2016,
      "市": 2017,
      "布": 2018,
      "师": 2019,
      "希": 2020,
      "師": 2021,
      "席": 2022,
      "常": 2023,
      "平": 2024,
      "年": 2025,
      "幸": 2026,
      "广": 2027,
      "底": 2028,
      "店": 2029,
      "度": 2030,
      "康": 2031,
      "廟": 2032,
      "廠": 2033,
      "建": 2034,
      "开": 2035,
      "式": 2036,
      "引": 2037,
      "张": 2038,
      "強": 2039,
      "强": 2040,
      "归": 2041,
      "彡": 2042,
      "形": 2043,
      "影": 2044,
      "役": 2045,
      "彼": 2046,
      "後": 2047,
      "得": 2048,
      "微": 2049,
      "德": 2050,
      "心": 2051,
      "必": 2052,
      "志": 2053,
      "応": 2054,
      "快": 2055,
      "念": 2056,
      "思": 2057,
      "急": 2058,
      "性": 2059,
      "息": 2060,
      "悉": 2061,
      "悲": 2062,
      "情": 2063,
      "惜": 2064,
      "惡": 2065,
      "想": 2066,
      "意": 2067,
      "感": 2068,
      "慶": 2069,
      "憩": 2070,
      "應": 2071,
      "成": 2072,
      "我": 2073,
      "或": 2074,
      "战": 2075,
      "戰": 2076,
      "房": 2077,
      "所": 2078,
      "手": 2079,
      "才": 2080,
      "打": 2081,
      "扮": 2082,
      "找": 2083,
      "承": 2084,
      "技": 2085,
      "把": 2086,
      "抖": 2087,
      "披": 2088,
      "拥": 2089,
      "择": 2090,
      "拼": 2091,
      "拿": 2092,
      "持": 2093,
      "指": 2094,
      "按": 2095,
      "挑": 2096,
      "授": 2097,
      "採": 2098,
      "接": 2099,
      "推": 2100,
      "提": 2101,
      "損": 2102,
      "搭": 2103,
      "播": 2104,
      "擁": 2105,
      "擇": 2106,
      "擊": 2107,
      "支": 2108,
      "攻": 2109,
      "放": 2110,
      "效": 2111,
      "教": 2112,
      "数": 2113,
      "整": 2114,
      "數": 2115,
      "文": 2116,
      "料": 2117,
      "斯": 2118,
      "新": 2119,
      "方": 2120,
      "於": 2121,
      "旅": 2122,
      "无": 2123,
      "日": 2124,
      "时": 2125,
      "昆": 2126,
      "昌": 2127,
      "明": 2128,
      "映": 2129,
      "是": 2130,
      "時": 2131,
      "晓": 2132,
      "普": 2133,
      "景": 2134,
      "智": 2135,
      "曲": 2136,
      "更": 2137,
      "書": 2138,
      "最": 2139,
      "月": 2140,
      "有": 2141,
      "服": 2142,
      "望": 2143,
      "期": 2144,
      "木": 2145,
      "未": 2146,
      "本": 2147,
      "机": 2148,
      "权": 2149,
      "材": 2150,
      "村": 2151,
      "条": 2152,
      "来": 2153,
      "東": 2154,
      "极": 2155,
      "构": 2156,
      "析": 2157,
      "枚": 2158,
      "果": 2159,
      "架": 2160,
      "查": 2161,
      "校": 2162,
      "核": 2163,
      "格": 2164,
      "梦": 2165,
      "械": 2166,
      "検": 2167,
      "業": 2168,
      "楽": 2169,
      "概": 2170,
      "様": 2171,
      "樂": 2172,
      "模": 2173,
      "樣": 2174,
      "次": 2175,
      "欢": 2176,
      "款": 2177,
      "歌": 2178,
      "止": 2179,
      "此": 2180,
      "武": 2181,
      "歳": 2182,
      "残": 2183,
      "段": 2184,
      "毎": 2185,
      "每": 2186,
      "比": 2187,
      "毕": 2188,
      "民": 2189,
      "気": 2190,
      "氣": 2191,
      "水": 2192,
      "永": 2193,
      "求": 2194,
      "江": 2195,
      "池": 2196,
      "決": 2197,
      "沒": 2198,
      "沙": 2199,
      "沢": 2200,
      "法": 2201,
      "波": 2202,
      "注": 2203,
      "泪": 2204,
      "泰": 2205,
      "洋": 2206,
      "洲": 2207,
      "活": 2208,
      "流": 2209,
      "浅": 2210,
      "浙": 2211,
      "海": 2212,
      "消": 2213,
      "涉": 2214,
      "淚": 2215,
      "深": 2216,
      "添": 2217,
      "清": 2218,
      "済": 2219,
      "温": 2220,
      "港": 2221,
      "游": 2222,
      "渾": 2223,
      "湖": 2224,
      "源": 2225,
      "滨": 2226,
      "漁": 2227,
      "演": 2228,
      "潘": 2229,
      "澎": 2230,
      "澳": 2231,
      "灣": 2232,
      "為": 2233,
      "然": 2234,
      "照": 2235,
      "熱": 2236,
      "燊": 2237,
      "片": 2238,
      "版": 2239,
      "牙": 2240,
      "物": 2241,
      "特": 2242,
      "犹": 2243,
      "独": 2244,
      "率": 2245,
      "王": 2246,
      "现": 2247,
      "珀": 2248,
      "班": 2249,
      "現": 2250,
      "理": 2251,
      "環": 2252,
      "瓜": 2253,
      "生": 2254,
      "産": 2255,
      "用": 2256,
      "由": 2257,
      "申": 2258,
      "电": 2259,
      "画": 2260,
      "界": 2261,
      "畑": 2262,
      "留": 2263,
      "略": 2264,
      "番": 2265,
      "異": 2266,
      "疑": 2267,
      "痛": 2268,
      "痺": 2269,
      "発": 2270,
      "發": 2271,
      "的": 2272,
      "益": 2273,
      "盖": 2274,
      "盤": 2275,
      "目": 2276,
      "盲": 2277,
      "直": 2278,
      "盾": 2279,
      "省": 2280,
      "看": 2281,
      "真": 2282,
      "瞬": 2283,
      "知": 2284,
      "短": 2285,
      "研": 2286,
      "破": 2287,
      "磁": 2288,
      "示": 2289,
      "社": 2290,
      "神": 2291,
      "祠": 2292,
      "福": 2293,
      "秀": 2294,
      "秋": 2295,
      "种": 2296,
      "科": 2297,
      "秒": 2298,
      "移": 2299,
      "程": 2300,
      "税": 2301,
      "積": 2302,
      "究": 2303,
      "空": 2304,
      "穿": 2305,
      "立": 2306,
      "站": 2307,
      "笔": 2308,
      "第": 2309,
      "筆": 2310,
      "等": 2311,
      "筑": 2312,
      "算": 2313,
      "管": 2314,
      "篇": 2315,
      "築": 2316,
      "米": 2317,
      "类": 2318,
      "精": 2319,
      "系": 2320,
      "約": 2321,
      "納": 2322,
      "素": 2323,
      "索": 2324,
      "細": 2325,
      "紹": 2326,
      "組": 2327,
      "結": 2328,
      "統": 2329,
      "継": 2330,
      "綜": 2331,
      "維": 2332,
      "網": 2333,
      "緊": 2334,
      "線": 2335,
      "總": 2336,
      "織": 2337,
      "纖": 2338,
      "纽": 2339,
      "线": 2340,
      "组": 2341,
      "细": 2342,
      "绍": 2343,
      "给": 2344,
      "统": 2345,
      "绩": 2346,
      "绵": 2347,
      "缺": 2348,
      "网": 2349,
      "罗": 2350,
      "美": 2351,
      "群": 2352,
      "義": 2353,
      "習": 2354,
      "翔": 2355,
      "老": 2356,
      "考": 2357,
      "者": 2358,
      "而": 2359,
      "耐": 2360,
      "聊": 2361,
      "联": 2362,
      "聖": 2363,
      "股": 2364,
      "育": 2365,
      "能": 2366,
      "脑": 2367,
      "膜": 2368,
      "至": 2369,
      "與": 2370,
      "興": 2371,
      "舊": 2372,
      "舒": 2373,
      "舞": 2374,
      "航": 2375,
      "般": 2376,
      "色": 2377,
      "节": 2378,
      "苏": 2379,
      "英": 2380,
      "莘": 2381,
      "莱": 2382,
      "获": 2383,
      "萄": 2384,
      "萱": 2385,
      "著": 2386,
      "葡": 2387,
      "蒙": 2388,
      "薄": 2389,
      "薪": 2390,
      "藝": 2391,
      "蜂": 2392,
      "蟻": 2393,
      "行": 2394,
      "衣": 2395,
      "补": 2396,
      "表": 2397,
      "裝": 2398,
      "製": 2399,
      "西": 2400,
      "要": 2401,
      "覆": 2402,
      "視": 2403,
      "觀": 2404,
      "规": 2405,
      "视": 2406,
      "觉": 2407,
      "角": 2408,
      "解": 2409,
      "訂": 2410,
      "計": 2411,
      "記": 2412,
      "訪": 2413,
      "設": 2414,
      "許": 2415,
      "試": 2416,
      "詳": 2417,
      "說": 2418,
      "課": 2419,
      "請": 2420,
      "謝": 2421,
      "識": 2422,
      "議": 2423,
      "護": 2424,
      "讓": 2425,
      "计": 2426,
      "让": 2427,
      "训": 2428,
      "讯": 2429,
      "记": 2430,
      "讲": 2431,
      "识": 2432,
      "试": 2433,
      "询": 2434,
      "详": 2435,
      "请": 2436,
      "读": 2437,
      "课": 2438,
      "谓": 2439,
      "象": 2440,
      "豫": 2441,
      "費": 2442,
      "貼": 2443,
      "資": 2444,
      "購": 2445,
      "贅": 2446,
      "负": 2447,
      "责": 2448,
      "贵": 2449,
      "费": 2450,
      "资": 2451,
      "赚": 2452,
      "赞": 2453,
      "起": 2454,
      "超": 2455,
      "趣": 2456,
      "跟": 2457,
      "路": 2458,
      "身": 2459,
      "軟": 2460,
      "載": 2461,
      "輔": 2462,
      "輕": 2463,
      "辺": 2464,
      "込": 2465,
      "辽": 2466,
      "达": 2467,
      "过": 2468,
      "迎": 2469,
      "运": 2470,
      "还": 2471,
      "这": 2472,
      "迪": 2473,
      "迫": 2474,
      "迹": 2475,
      "适": 2476,
      "选": 2477,
      "透": 2478,
      "這": 2479,
      "通": 2480,
      "造": 2481,
      "遊": 2482,
      "運": 2483,
      "過": 2484,
      "道": 2485,
      "達": 2486,
      "適": 2487,
      "選": 2488,
      "邦": 2489,
      "部": 2490,
      "都": 2491,
      "配": 2492,
      "酸": 2493,
      "醫": 2494,
      "里": 2495,
      "重": 2496,
      "野": 2497,
      "量": 2498,
      "金": 2499,
      "録": 2500,
      "鐵": 2501,
      "链": 2502,
      "销": 2503,
      "長": 2504,
      "长": 2505,
      "開": 2506,
      "閒": 2507,
      "間": 2508,
      "閱": 2509,
      "门": 2510,
      "闪": 2511,
      "问": 2512,
      "间": 2513,
      "队": 2514,
      "防": 2515,
      "阳": 2516,
      "阿": 2517,
      "限": 2518,
      "院": 2519,
      "除": 2520,
      "陪": 2521,
      "際": 2522,
      "隨": 2523,
      "雨": 2524,
      "雰": 2525,
      "電": 2526,
      "需": 2527,
      "露": 2528,
      "面": 2529,
      "韓": 2530,
      "音": 2531,
      "頁": 2532,
      "項": 2533,
      "題": 2534,
      "類": 2535,
      "页": 2536,
      "顶": 2537,
      "领": 2538,
      "频": 2539,
      "题": 2540,
      "風": 2541,
      "飛": 2542,
      "館": 2543,
      "首": 2544,
      "香": 2545,
      "马": 2546,
      "體": 2547,
      "高": 2548,
      "鹼": 2549,
      "黃": 2550,
      "ꜰ": 2551,
      "ꜱ": 2552,
      "가": 2553,
      "각": 2554,
      "감": 2555,
      "강": 2556,
      "개": 2557,
      "거": 2558,
      "게": 2559,
      "경": 2560,
      "계": 2561,
      "고": 2562,
      "골": 2563,
      "곳": 2564,
      "공": 2565,
      "과": 2566,
      "교": 2567,
      "구": 2568,
      "국": 2569,
      "군": 2570,
      "귀": 2571,
      "규": 2572,
      "그": 2573,
      "기": 2574,
      "김": 2575,
      "까": 2576,
      "꾸": 2577,
      "꿈": 2578,
      "나": 2579,
      "내": 2580,
      "너": 2581,
      "년": 2582,
      "녕": 2583,
      "노": 2584,
      "눈": 2585,
      "는": 2586,
      "늘": 2587,
      "니": 2588,
      "님": 2589,
      "닝": 2590,
      "다": 2591,
      "단": 2592,
      "대": 2593,
      "더": 2594,
      "데": 2595,
      "델": 2596,
      "동": 2597,
      "되": 2598,
      "두": 2599,
      "둥": 2600,
      "드": 2601,
      "들": 2602,
      "등": 2603,
      "떨": 2604,
      "뜬": 2605,
      "라": 2606,
      "란": 2607,
      "람": 2608,
      "래": 2609,
      "략": 2610,
      "량": 2611,
      "러": 2612,
      "럼": 2613,
      "레": 2614,
      "련": 2615,
      "령": 2616,
      "로": 2617,
      "론": 2618,
      "를": 2619,
      "리": 2620,
      "림": 2621,
      "립": 2622,
      "링": 2623,
      "마": 2624,
      "만": 2625,
      "말": 2626,
      "맛": 2627,
      "먹": 2628,
      "면": 2629,
      "명": 2630,
      "모": 2631,
      "무": 2632,
      "문": 2633,
      "물": 2634,
      "미": 2635,
      "바": 2636,
      "박": 2637,
      "반": 2638,
      "받": 2639,
      "방": 2640,
      "배": 2641,
      "백": 2642,
      "번": 2643,
      "범": 2644,
      "벨": 2645,
      "벳": 2646,
      "별": 2647,
      "봤": 2648,
      "부": 2649,
      "불": 2650,
      "비": 2651,
      "빈": 2652,
      "사": 2653,
      "산": 2654,
      "상": 2655,
      "색": 2656,
      "샛": 2657,
      "생": 2658,
      "서": 2659,
      "선": 2660,
      "설": 2661,
      "성": 2662,
      "세": 2663,
      "소": 2664,
      "손": 2665,
      "수": 2666,
      "숙": 2667,
      "순": 2668,
      "술": 2669,
      "스": 2670,
      "습": 2671,
      "승": 2672,
      "시": 2673,
      "식": 2674,
      "신": 2675,
      "실": 2676,
      "심": 2677,
      "싶": 2678,
      "싸": 2679,
      "아": 2680,
      "안": 2681,
      "앙": 2682,
      "야": 2683,
      "약": 2684,
      "양": 2685,
      "어": 2686,
      "얼": 2687,
      "엄": 2688,
      "업": 2689,
      "었": 2690,
      "에": 2691,
      "엔": 2692,
      "여": 2693,
      "역": 2694,
      "연": 2695,
      "영": 2696,
      "예": 2697,
      "오": 2698,
      "와": 2699,
      "왕": 2700,
      "왠": 2701,
      "요": 2702,
      "용": 2703,
      "우": 2704,
      "운": 2705,
      "원": 2706,
      "위": 2707,
      "윗": 2708,
      "유": 2709,
      "으": 2710,
      "은": 2711,
      "을": 2712,
      "의": 2713,
      "이": 2714,
      "인": 2715,
      "일": 2716,
      "있": 2717,
      "자": 2718,
      "작": 2719,
      "장": 2720,
      "재": 2721,
      "적": 2722,
      "전": 2723,
      "정": 2724,
      "제": 2725,
      "젝": 2726,
      "조": 2727,
      "주": 2728,
      "준": 2729,
      "중": 2730,
      "즈": 2731,
      "즘": 2732,
      "지": 2733,
      "집": 2734,
      "짓": 2735,
      "찐": 2736,
      "차": 2737,
      "찬": 2738,
      "찾": 2739,
      "척": 2740,
      "최": 2741,
      "츠": 2742,
      "칠": 2743,
      "침": 2744,
      "카": 2745,
      "커": 2746,
      "코": 2747,
      "콘": 2748,
      "쿠": 2749,
      "크": 2750,
      "키": 2751,
      "탄": 2752,
      "태": 2753,
      "탱": 2754,
      "터": 2755,
      "턴": 2756,
      "텐": 2757,
      "토": 2758,
      "통": 2759,
      "투": 2760,
      "트": 2761,
      "티": 2762,
      "팅": 2763,
      "파": 2764,
      "패": 2765,
      "포": 2766,
      "프": 2767,
      "픈": 2768,
      "플": 2769,
      "하": 2770,
      "학": 2771,
      "한": 2772,
      "핫": 2773,
      "해": 2774,
      "행": 2775,
      "험": 2776,
      "혁": 2777,
      "현": 2778,
      "협": 2779,
      "혜": 2780,
      "화": 2781,
      "환": 2782,
      "활": 2783,
      "회": 2784,
      "훈": 2785,
      "휴": 2786,
      "희": 2787,
      "": 2788,
      "": 2789,
      "": 2790,
      "": 2791,
      "": 2792,
      "": 2793,
      "": 2794,
      "": 2795,
      "": 2796,
      "ﬁ": 2797,
      "︎": 2798,
      "️": 2799,
      "︰": 2800,
      "︱": 2801,
      "﹏": 2802,
      "﻿": 2803,
      "！": 2804,
      "（": 2805,
      "）": 2806,
      "，": 2807,
      "／": 2808,
      "０": 2809,
      "１": 2810,
      "２": 2811,
      "：": 2812,
      "？": 2813,
      "＠": 2814,
      "ａ": 2815,
      "ｂ": 2816,
      "ｃ": 2817,
      "ｅ": 2818,
      "ｇ": 2819,
      "ｈ": 2820,
      "ｉ": 2821,
      "ｋ": 2822,
      "ｌ": 2823,
      "ｍ": 2824,
      "ｎ": 2825,
      "ｏ": 2826,
      "ｐ": 2827,
      "ｒ": 2828,
      "ｓ": 2829,
      "ｔ": 2830,
      "ｕ": 2831,
      "ｙ": 2832,
      "～": 2833,
      "｡": 2834,
      "･": 2835,
      "ﾟ": 2836,
      "￣": 2837,
      "￼": 2838,
      "�": 2839,
      "￾": 2840,
      "𓆩": 2841,
      "𓆪": 2842,
      "𝐀": 2843,
      "𝐁": 2844,
      "𝐂": 2845,
      "𝐃": 2846,
      "𝐄": 2847,
      "𝐅": 2848,
      "𝐆": 2849,
      "𝐇": 2850,
      "𝐈": 2851,
      "𝐉": 2852,
      "𝐊": 2853,
      "𝐋": 2854,
      "𝐌": 2855,
      "𝐍": 2856,
      "𝐎": 2857,
      "𝐏": 2858,
      "𝐐": 2859,
      "𝐑": 2860,
      "𝐒": 2861,
      "𝐓": 2862,
      "𝐔": 2863,
      "𝐕": 2864,
      "𝐖": 2865,
      "𝐗": 2866,
      "𝐘": 2867,
      "𝐙": 2868,
      "𝐚": 2869,
      "𝐛": 2870,
      "𝐜": 2871,
      "𝐝": 2872,
      "𝐞": 2873,
      "𝐟": 2874,
      "𝐠": 2875,
      "𝐡": 2876,
      "𝐢": 2877,
      "𝐣": 2878,
      "𝐤": 2879,
      "𝐥": 2880,
      "𝐦": 2881,
      "𝐧": 2882,
      "𝐨": 2883,
      "𝐩": 2884,
      "𝐪": 2885,
      "𝐫": 2886,
      "𝐬": 2887,
      "𝐭": 2888,
      "𝐮": 2889,
      "𝐯": 2890,
      "𝐰": 2891,
      "𝐱": 2892,
      "𝐲": 2893,
      "𝐳": 2894,
      "𝐸": 2895,
      "𝐻": 2896,
      "𝐾": 2897,
      "𝑇": 2898,
      "𝑎": 2899,
      "𝑐": 2900,
      "𝑑": 2901,
      "𝑒": 2902,
      "𝑓": 2903,
      "𝑔": 2904,
      "𝑖": 2905,
      "𝑘": 2906,
      "𝑙": 2907,
      "𝑚": 2908,
      "𝑛": 2909,
      "𝑜": 2910,
      "𝑝": 2911,
      "𝑟": 2912,
      "𝑠": 2913,
      "𝑡": 2914,
      "𝑣": 2915,
      "𝑤": 2916,
      "𝑥": 2917,
      "𝑨": 2918,
      "𝑩": 2919,
      "𝑪": 2920,
      "𝑫": 2921,
      "𝑬": 2922,
      "𝑭": 2923,
      "𝑯": 2924,
      "𝑰": 2925,
      "𝑳": 2926,
      "𝑴": 2927,
      "𝑵": 2928,
      "𝑶": 2929,
      "𝑷": 2930,
      "𝑹": 2931,
      "𝑺": 2932,
      "𝑻": 2933,
      "𝑼": 2934,
      "𝑽": 2935,
      "𝑾": 2936,
      "𝒀": 2937,
      "𝒂": 2938,
      "𝒃": 2939,
      "𝒄": 2940,
      "𝒅": 2941,
      "𝒆": 2942,
      "𝒇": 2943,
      "𝒈": 2944,
      "𝒉": 2945,
      "𝒊": 2946,
      "𝒌": 2947,
      "𝒍": 2948,
      "𝒎": 2949,
      "𝒏": 2950,
      "𝒐": 2951,
      "𝒑": 2952,
      "𝒓": 2953,
      "𝒔": 2954,
      "𝒕": 2955,
      "𝒖": 2956,
      "𝒗": 2957,
      "𝒘": 2958,
      "𝒙": 2959,
      "𝒚": 2960,
      "𝒞": 2961,
      "𝒟": 2962,
      "𝒶": 2963,
      "𝒸": 2964,
      "𝒾": 2965,
      "𝓁": 2966,
      "𝓂": 2967,
      "𝓃": 2968,
      "𝓇": 2969,
      "𝓈": 2970,
      "𝓉": 2971,
      "𝓐": 2972,
      "𝓑": 2973,
      "𝓒": 2974,
      "𝓓": 2975,
      "𝓔": 2976,
      "𝓕": 2977,
      "𝓘": 2978,
      "𝓙": 2979,
      "𝓚": 2980,
      "𝓜": 2981,
      "𝓟": 2982,
      "𝓢": 2983,
      "𝓣": 2984,
      "𝓤": 2985,
      "𝓦": 2986,
      "𝓨": 2987,
      "𝓪": 2988,
      "𝓫": 2989,
      "𝓬": 2990,
      "𝓭": 2991,
      "𝓮": 2992,
      "𝓯": 2993,
      "𝓰": 2994,
      "𝓱": 2995,
      "𝓲": 2996,
      "𝓴": 2997,
      "𝓵": 2998,
      "𝓶": 2999,
      "𝓷": 3000,
      "𝓸": 3001,
      "𝓹": 3002,
      "𝓻": 3003,
      "𝓼": 3004,
      "𝓽": 3005,
      "𝓾": 3006,
      "𝓿": 3007,
      "𝔀": 3008,
      "𝔂": 3009,
      "𝔇": 3010,
      "𝔞": 3011,
      "𝔠": 3012,
      "𝔢": 3013,
      "𝔤": 3014,
      "𝔥": 3015,
      "𝔦": 3016,
      "𝔩": 3017,
      "𝔪": 3018,
      "𝔬": 3019,
      "𝔭": 3020,
      "𝔯": 3021,
      "𝔰": 3022,
      "𝔱": 3023,
      "𝔶": 3024,
      "𝔻": 3025,
      "𝔼": 3026,
      "𝔽": 3027,
      "𝕀": 3028,
      "𝕂": 3029,
      "𝕃": 3030,
      "𝕊": 3031,
      "𝕋": 3032,
      "𝕐": 3033,
      "𝕒": 3034,
      "𝕓": 3035,
      "𝕔": 3036,
      "𝕕": 3037,
      "𝕖": 3038,
      "𝕗": 3039,
      "𝕘": 3040,
      "𝕙": 3041,
      "𝕚": 3042,
      "𝕜": 3043,
      "𝕝": 3044,
      "𝕞": 3045,
      "𝕟": 3046,
      "𝕠": 3047,
      "𝕡": 3048,
      "𝕣": 3049,
      "𝕤": 3050,
      "𝕥": 3051,
      "𝕦": 3052,
      "𝕮": 3053,
      "𝕵": 3054,
      "𝕿": 3055,
      "𝖆": 3056,
      "𝖊": 3057,
      "𝖌": 3058,
      "𝖍": 3059,
      "𝖎": 3060,
      "𝖑": 3061,
      "𝖒": 3062,
      "𝖓": 3063,
      "𝖔": 3064,
      "𝖗": 3065,
      "𝖚": 3066,
      "𝖠": 3067,
      "𝖦": 3068,
      "𝖯": 3069,
      "𝖺": 3070,
      "𝖻": 3071,
      "𝖼": 3072,
      "𝖽": 3073,
      "𝖾": 3074,
      "𝖿": 3075,
      "𝗀": 3076,
      "𝗁": 3077,
      "𝗂": 3078,
      "𝗄": 3079,
      "𝗅": 3080,
      "𝗆": 3081,
      "𝗇": 3082,
      "𝗈": 3083,
      "𝗉": 3084,
      "𝗋": 3085,
      "𝗌": 3086,
      "𝗍": 3087,
      "𝗎": 3088,
      "𝗏": 3089,
      "𝗒": 3090,
      "𝗔": 3091,
      "𝗕": 3092,
      "𝗖": 3093,
      "𝗗": 3094,
      "𝗘": 3095,
      "𝗙": 3096,
      "𝗚": 3097,
      "𝗛": 3098,
      "𝗜": 3099,
      "𝗝": 3100,
      "𝗞": 3101,
      "𝗟": 3102,
      "𝗠": 3103,
      "𝗡": 3104,
      "𝗢": 3105,
      "𝗣": 3106,
      "𝗤": 3107,
      "𝗥": 3108,
      "𝗦": 3109,
      "𝗧": 3110,
      "𝗨": 3111,
      "𝗩": 3112,
      "𝗪": 3113,
      "𝗫": 3114,
      "𝗬": 3115,
      "𝗭": 3116,
      "𝗮": 3117,
      "𝗯": 3118,
      "𝗰": 3119,
      "𝗱": 3120,
      "𝗲": 3121,
      "𝗳": 3122,
      "𝗴": 3123,
      "𝗵": 3124,
      "𝗶": 3125,
      "𝗷": 3126,
      "𝗸": 3127,
      "𝗹": 3128,
      "𝗺": 3129,
      "𝗻": 3130,
      "𝗼": 3131,
      "𝗽": 3132,
      "𝗿": 3133,
      "𝘀": 3134,
      "𝘁": 3135,
      "𝘂": 3136,
      "𝘃": 3137,
      "𝘄": 3138,
      "𝘅": 3139,
      "𝘆": 3140,
      "𝘇": 3141,
      "𝘈": 3142,
      "𝘉": 3143,
      "𝘊": 3144,
      "𝘋": 3145,
      "𝘍": 3146,
      "𝘐": 3147,
      "𝘒": 3148,
      "𝘓": 3149,
      "𝘔": 3150,
      "𝘕": 3151,
      "𝘗": 3152,
      "𝘘": 3153,
      "𝘙": 3154,
      "𝘚": 3155,
      "𝘛": 3156,
      "𝘝": 3157,
      "𝘠": 3158,
      "𝘢": 3159,
      "𝘣": 3160,
      "𝘤": 3161,
      "𝘥": 3162,
      "𝘦": 3163,
      "𝘧": 3164,
      "𝘨": 3165,
      "𝘩": 3166,
      "𝘪": 3167,
      "𝘬": 3168,
      "𝘭": 3169,
      "𝘮": 3170,
      "𝘯": 3171,
      "𝘰": 3172,
      "𝘱": 3173,
      "𝘳": 3174,
      "𝘴": 3175,
      "𝘵": 3176,
      "𝘶": 3177,
      "𝘷": 3178,
      "𝘸": 3179,
      "𝘺": 3180,
      "𝘼": 3181,
      "𝘽": 3182,
      "𝘾": 3183,
      "𝘿": 3184,
      "𝙀": 3185,
      "𝙁": 3186,
      "𝙂": 3187,
      "𝙃": 3188,
      "𝙄": 3189,
      "𝙆": 3190,
      "𝙇": 3191,
      "𝙈": 3192,
      "𝙉": 3193,
      "𝙊": 3194,
      "𝙋": 3195,
      "𝙌": 3196,
      "𝙍": 3197,
      "𝙎": 3198,
      "𝙏": 3199,
      "𝙐": 3200,
      "𝙑": 3201,
      "𝙒": 3202,
      "𝙔": 3203,
      "𝙖": 3204,
      "𝙗": 3205,
      "𝙘": 3206,
      "𝙙": 3207,
      "𝙚": 3208,
      "𝙛": 3209,
      "𝙜": 3210,
      "𝙝": 3211,
      "𝙞": 3212,
      "𝙟": 3213,
      "𝙠": 3214,
      "𝙡": 3215,
      "𝙢": 3216,
      "𝙣": 3217,
      "𝙤": 3218,
      "𝙥": 3219,
      "𝙧": 3220,
      "𝙨": 3221,
      "𝙩": 3222,
      "𝙪": 3223,
      "𝙫": 3224,
      "𝙬": 3225,
      "𝙭": 3226,
      "𝙮": 3227,
      "𝙰": 3228,
      "𝙳": 3229,
      "𝙿": 3230,
      "𝚃": 3231,
      "𝚊": 3232,
      "𝚋": 3233,
      "𝚌": 3234,
      "𝚎": 3235,
      "𝚏": 3236,
      "𝚑": 3237,
      "𝚒": 3238,
      "𝚔": 3239,
      "𝚕": 3240,
      "𝚖": 3241,
      "𝚗": 3242,
      "𝚘": 3243,
      "𝚛": 3244,
      "𝚜": 3245,
      "𝚝": 3246,
      "𝚞": 3247,
      "𝚟": 3248,
      "𝚢": 3249,
      "𝟎": 3250,
      "𝟏": 3251,
      "𝟐": 3252,
      "𝟑": 3253,
      "𝟒": 3254,
      "𝟓": 3255,
      "𝟔": 3256,
      "𝟕": 3257,
      "𝟖": 3258,
      "𝟗": 3259,
      "𝟘": 3260,
      "𝟙": 3261,
      "𝟡": 3262,
      "𝟬": 3263,
      "𝟭": 3264,
      "𝟮": 3265,
      "𝟯": 3266,
      "𝟰": 3267,
      "𝟱": 3268,
      "𝟲": 3269,
      "𝟳": 3270,
      "𝟴": 3271,
      "𝟵": 3272,
      "🄰": 3273,
      "🄱": 3274,
      "🄲": 3275,
      "🄳": 3276,
      "🄴": 3277,
      "🄵": 3278,
      "🄶": 3279,
      "🄷": 3280,
      "🄸": 3281,
      "🄻": 3282,
      "🄼": 3283,
      "🄽": 3284,
      "🄾": 3285,
      "🄿": 3286,
      "🅁": 3287,
      "🅂": 3288,
      "🅃": 3289,
      "🅄": 3290,
      "🅅": 3291,
      "🅆": 3292,
      "🅈": 3293,
      "🅉": 3294,
      "🅐": 3295,
      "🅑": 3296,
      "🅒": 3297,
      "🅔": 3298,
      "🅗": 3299,
      "🅘": 3300,
      "🅙": 3301,
      "🅚": 3302,
      "🅛": 3303,
      "🅜": 3304,
      "🅝": 3305,
      "🅞": 3306,
      "🅟": 3307,
      "🅡": 3308,
      "🅢": 3309,
      "🅣": 3310,
      "🅤": 3311,
      "🅦": 3312,
      "🅰": 3313,
      "🅲": 3314,
      "🅳": 3315,
      "🅴": 3316,
      "🅵": 3317,
      "🅷": 3318,
      "🅸": 3319,
      "🅹": 3320,
      "🅺": 3321,
      "🅻": 3322,
      "🅼": 3323,
      "🅽": 3324,
      "🅾": 3325,
      "🅿": 3326,
      "🆀": 3327,
      "🆁": 3328,
      "🆂": 3329,
      "🆃": 3330,
      "🆅": 3331,
      "🆈": 3332,
      "🆎": 3333,
      "🆓": 3334,
      "🆕": 3335,
      "🆗": 3336,
      "🆘": 3337,
      "🆙": 3338,
      "🆚": 3339,
      "🇦": 3340,
      "🇧": 3341,
      "🇨": 3342,
      "🇩": 3343,
      "🇪": 3344,
      "🇫": 3345,
      "🇬": 3346,
      "🇭": 3347,
      "🇮": 3348,
      "🇯": 3349,
      "🇰": 3350,
      "🇱": 3351,
      "🇲": 3352,
      "🇳": 3353,
      "🇴": 3354,
      "🇵": 3355,
      "🇷": 3356,
      "🇸": 3357,
      "🇹": 3358,
      "🇺": 3359,
      "🇽": 3360,
      "🇾": 3361,
      "🇿": 3362,
      "🌀": 3363,
      "🌄": 3364,
      "🌅": 3365,
      "🌈": 3366,
      "🌉": 3367,
      "🌊": 3368,
      "🌌": 3369,
      "🌍": 3370,
      "🌎": 3371,
      "🌏": 3372,
      "🌐": 3373,
      "🌑": 3374,
      "🌕": 3375,
      "🌙": 3376,
      "🌚": 3377,
      "🌝": 3378,
      "🌞": 3379,
      "🌟": 3380,
      "🌠": 3381,
      "🌡": 3382,
      "🌱": 3383,
      "🌲": 3384,
      "🌳": 3385,
      "🌴": 3386,
      "🌵": 3387,
      "🌷": 3388,
      "🌸": 3389,
      "🌹": 3390,
      "🌺": 3391,
      "🌻": 3392,
      "🌼": 3393,
      "🌽": 3394,
      "🌾": 3395,
      "🌿": 3396,
      "🍀": 3397,
      "🍁": 3398,
      "🍂": 3399,
      "🍃": 3400,
      "🍄": 3401,
      "🍅": 3402,
      "🍇": 3403,
      "🍈": 3404,
      "🍉": 3405,
      "🍊": 3406,
      "🍋": 3407,
      "🍌": 3408,
      "🍍": 3409,
      "🍎": 3410,
      "🍏": 3411,
      "🍑": 3412,
      "🍒": 3413,
      "🍓": 3414,
      "🍕": 3415,
      "🍖": 3416,
      "🍗": 3417,
      "🍟": 3418,
      "🍡": 3419,
      "🍦": 3420,
      "🍧": 3421,
      "🍪": 3422,
      "🍬": 3423,
      "🍭": 3424,
      "🍯": 3425,
      "🍰": 3426,
      "🍱": 3427,
      "🍳": 3428,
      "🍷": 3429,
      "🍺": 3430,
      "🍻": 3431,
      "🍾": 3432,
      "🍿": 3433,
      "🎀": 3434,
      "🎁": 3435,
      "🎂": 3436,
      "🎆": 3437,
      "🎇": 3438,
      "🎈": 3439,
      "🎉": 3440,
      "🎊": 3441,
      "🎒": 3442,
      "🎓": 3443,
      "🎖": 3444,
      "🎙": 3445,
      "🎚": 3446,
      "🎛": 3447,
      "🎞": 3448,
      "🎢": 3449,
      "🎤": 3450,
      "🎥": 3451,
      "🎦": 3452,
      "🎧": 3453,
      "🎨": 3454,
      "🎩": 3455,
      "🎬": 3456,
      "🎭": 3457,
      "🎮": 3458,
      "🎯": 3459,
      "🎲": 3460,
      "🎳": 3461,
      "🎴": 3462,
      "🎵": 3463,
      "🎶": 3464,
      "🎸": 3465,
      "🎹": 3466,
      "🎼": 3467,
      "🎾": 3468,
      "🏀": 3469,
      "🏁": 3470,
      "🏃": 3471,
      "🏄": 3472,
      "🏅": 3473,
      "🏆": 3474,
      "🏇": 3475,
      "🏈": 3476,
      "🏉": 3477,
      "🏊": 3478,
      "🏋": 3479,
      "🏍": 3480,
      "🏎": 3481,
      "🏏": 3482,
      "🏓": 3483,
      "🏗": 3484,
      "🏘": 3485,
      "🏙": 3486,
      "🏛": 3487,
      "🏝": 3488,
      "🏟": 3489,
      "🏠": 3490,
      "🏡": 3491,
      "🏢": 3492,
      "🏥": 3493,
      "🏦": 3494,
      "🏪": 3495,
      "🏫": 3496,
      "🏭": 3497,
      "🏰": 3498,
      "🏴": 3499,
      "🏵": 3500,
      "🏷": 3501,
      "🏸": 3502,
      "🏹": 3503,
      "🏺": 3504,
      "🏻": 3505,
      "🏼": 3506,
      "🏽": 3507,
      "🏾": 3508,
      "🏿": 3509,
      "🐆": 3510,
      "🐈": 3511,
      "🐉": 3512,
      "🐊": 3513,
      "🐋": 3514,
      "🐍": 3515,
      "🐎": 3516,
      "🐑": 3517,
      "🐓": 3518,
      "🐔": 3519,
      "🐛": 3520,
      "🐢": 3521,
      "🐣": 3522,
      "🐤": 3523,
      "🐥": 3524,
      "🐦": 3525,
      "🐧": 3526,
      "🐨": 3527,
      "🐫": 3528,
      "🐭": 3529,
      "🐯": 3530,
      "🐰": 3531,
      "🐱": 3532,
      "🐳": 3533,
      "🐶": 3534,
      "🐷": 3535,
      "🐸": 3536,
      "🐹": 3537,
      "🐼": 3538,
      "🐾": 3539,
      "👀": 3540,
      "👁": 3541,
      "👂": 3542,
      "👃": 3543,
      "👆": 3544,
      "👇": 3545,
      "👈": 3546,
      "👉": 3547,
      "👊": 3548,
      "👋": 3549,
      "👌": 3550,
      "👍": 3551,
      "👎": 3552,
      "👏": 3553,
      "👐": 3554,
      "👑": 3555,
      "👓": 3556,
      "👔": 3557,
      "👕": 3558,
      "👖": 3559,
      "👚": 3560,
      "👜": 3561,
      "👣": 3562,
      "👤": 3563,
      "👥": 3564,
      "👦": 3565,
      "👧": 3566,
      "👨": 3567,
      "👩": 3568,
      "👪": 3569,
      "👫": 3570,
      "👬": 3571,
      "👭": 3572,
      "👮": 3573,
      "👷": 3574,
      "👻": 3575,
      "👽": 3576,
      "👾": 3577,
      "👿": 3578,
      "💀": 3579,
      "💁": 3580,
      "💃": 3581,
      "💅": 3582,
      "💉": 3583,
      "💊": 3584,
      "💌": 3585,
      "💎": 3586,
      "💐": 3587,
      "💓": 3588,
      "💔": 3589,
      "💕": 3590,
      "💖": 3591,
      "💗": 3592,
      "💘": 3593,
      "💙": 3594,
      "💚": 3595,
      "💛": 3596,
      "💜": 3597,
      "💝": 3598,
      "💞": 3599,
      "💟": 3600,
      "💠": 3601,
      "💡": 3602,
      "💢": 3603,
      "💤": 3604,
      "💥": 3605,
      "💦": 3606,
      "💧": 3607,
      "💪": 3608,
      "💫": 3609,
      "💬": 3610,
      "💭": 3611,
      "💯": 3612,
      "💰": 3613,
      "💲": 3614,
      "💳": 3615,
      "💵": 3616,
      "💸": 3617,
      "💹": 3618,
      "💺": 3619,
      "💻": 3620,
      "💼": 3621,
      "💽": 3622,
      "💾": 3623,
      "📀": 3624,
      "📁": 3625,
      "📂": 3626,
      "📃": 3627,
      "📄": 3628,
      "📅": 3629,
      "📆": 3630,
      "📈": 3631,
      "📉": 3632,
      "📊": 3633,
      "📋": 3634,
      "📌": 3635,
      "📍": 3636,
      "📎": 3637,
      "📏": 3638,
      "📐": 3639,
      "📑": 3640,
      "📒": 3641,
      "📓": 3642,
      "📔": 3643,
      "📕": 3644,
      "📖": 3645,
      "📗": 3646,
      "📘": 3647,
      "📙": 3648,
      "📚": 3649,
      "📛": 3650,
      "📜": 3651,
      "📝": 3652,
      "📞": 3653,
      "📟": 3654,
      "📡": 3655,
      "📢": 3656,
      "📣": 3657,
      "📥": 3658,
      "📦": 3659,
      "📧": 3660,
      "📨": 3661,
      "📩": 3662,
      "📫": 3663,
      "📬": 3664,
      "📭": 3665,
      "📮": 3666,
      "📰": 3667,
      "📱": 3668,
      "📲": 3669,
      "📳": 3670,
      "📵": 3671,
      "📶": 3672,
      "📷": 3673,
      "📸": 3674,
      "📹": 3675,
      "📺": 3676,
      "📻": 3677,
      "📼": 3678,
      "📽": 3679,
      "🔃": 3680,
      "🔄": 3681,
      "🔅": 3682,
      "🔆": 3683,
      "🔈": 3684,
      "🔉": 3685,
      "🔊": 3686,
      "🔋": 3687,
      "🔌": 3688,
      "🔍": 3689,
      "🔎": 3690,
      "🔐": 3691,
      "🔑": 3692,
      "🔒": 3693,
      "🔓": 3694,
      "🔔": 3695,
      "🔕": 3696,
      "🔖": 3697,
      "🔗": 3698,
      "🔘": 3699,
      "🔙": 3700,
      "🔚": 3701,
      "🔜": 3702,
      "🔝": 3703,
      "🔟": 3704,
      "🔢": 3705,
      "🔥": 3706,
      "🔦": 3707,
      "🔧": 3708,
      "🔨": 3709,
      "🔩": 3710,
      "🔪": 3711,
      "🔫": 3712,
      "🔬": 3713,
      "🔭": 3714,
      "🔮": 3715,
      "🔯": 3716,
      "🔰": 3717,
      "🔳": 3718,
      "🔴": 3719,
      "🔵": 3720,
      "🔶": 3721,
      "🔷": 3722,
      "🔸": 3723,
      "🔹": 3724,
      "🔺": 3725,
      "🔻": 3726,
      "🔼": 3727,
      "🔽": 3728,
      "🕉": 3729,
      "🕊": 3730,
      "🕑": 3731,
      "🕒": 3732,
      "🕓": 3733,
      "🕗": 3734,
      "🕘": 3735,
      "🕯": 3736,
      "🕶": 3737,
      "🕸": 3738,
      "🕹": 3739,
      "🕺": 3740,
      "🖇": 3741,
      "🖊": 3742,
      "🖋": 3743,
      "🖌": 3744,
      "🖍": 3745,
      "🖐": 3746,
      "🖕": 3747,
      "🖤": 3748,
      "🖥": 3749,
      "🖨": 3750,
      "🖱": 3751,
      "🖼": 3752,
      "🗂": 3753,
      "🗄": 3754,
      "🗑": 3755,
      "🗒": 3756,
      "🗓": 3757,
      "🗝": 3758,
      "🗞": 3759,
      "🗣": 3760,
      "🗨": 3761,
      "🗳": 3762,
      "🗺": 3763,
      "🗾": 3764,
      "😀": 3765,
      "😁": 3766,
      "😂": 3767,
      "😃": 3768,
      "😄": 3769,
      "😅": 3770,
      "😆": 3771,
      "😇": 3772,
      "😈": 3773,
      "😉": 3774,
      "😊": 3775,
      "😋": 3776,
      "😌": 3777,
      "😍": 3778,
      "😎": 3779,
      "😏": 3780,
      "😓": 3781,
      "😔": 3782,
      "😕": 3783,
      "😖": 3784,
      "😗": 3785,
      "😘": 3786,
      "😙": 3787,
      "😚": 3788,
      "😛": 3789,
      "😜": 3790,
      "😝": 3791,
      "😞": 3792,
      "😡": 3793,
      "😢": 3794,
      "😧": 3795,
      "😨": 3796,
      "😫": 3797,
      "😬": 3798,
      "😭": 3799,
      "😮": 3800,
      "😯": 3801,
      "😰": 3802,
      "😱": 3803,
      "😲": 3804,
      "😳": 3805,
      "😵": 3806,
      "😶": 3807,
      "😷": 3808,
      "😹": 3809,
      "😺": 3810,
      "😽": 3811,
      "🙂": 3812,
      "🙃": 3813,
      "🙄": 3814,
      "🙅": 3815,
      "🙇": 3816,
      "🙈": 3817,
      "🙋": 3818,
      "🙌": 3819,
      "🙎": 3820,
      "🙏": 3821,
      "🚀": 3822,
      "🚁": 3823,
      "🚂": 3824,
      "🚆": 3825,
      "🚉": 3826,
      "🚋": 3827,
      "🚑": 3828,
      "🚒": 3829,
      "🚘": 3830,
      "🚚": 3831,
      "🚛": 3832,
      "🚜": 3833,
      "🚞": 3834,
      "🚢": 3835,
      "🚤": 3836,
      "🚥": 3837,
      "🚧": 3838,
      "🚨": 3839,
      "🚩": 3840,
      "🚪": 3841,
      "🚫": 3842,
      "🚰": 3843,
      "🚲": 3844,
      "🚴": 3845,
      "🚵": 3846,
      "🚶": 3847,
      "🚸": 3848,
      "🛁": 3849,
      "🛃": 3850,
      "🛍": 3851,
      "🛎": 3852,
      "🛑": 3853,
      "🛒": 3854,
      "🛜": 3855,
      "🛠": 3856,
      "🛡": 3857,
      "🛬": 3858,
      "🛰": 3859,
      "🛵": 3860,
      "🛸": 3861,
      "🟠": 3862,
      "🟡": 3863,
      "🟢": 3864,
      "🟣": 3865,
      "🟤": 3866,
      "🟥": 3867,
      "🟦": 3868,
      "🟧": 3869,
      "🟩": 3870,
      "🟪": 3871,
      "🡆": 3872,
      "🤍": 3873,
      "🤎": 3874,
      "🤑": 3875,
      "🤒": 3876,
      "🤓": 3877,
      "🤔": 3878,
      "🤖": 3879,
      "🤗": 3880,
      "🤘": 3881,
      "🤙": 3882,
      "🤚": 3883,
      "🤝": 3884,
      "🤞": 3885,
      "🤟": 3886,
      "🤠": 3887,
      "🤣": 3888,
      "🤩": 3889,
      "🤪": 3890,
      "🤫": 3891,
      "🤬": 3892,
      "🤭": 3893,
      "🤯": 3894,
      "🤰": 3895,
      "🤳": 3896,
      "🤵": 3897,
      "🤷": 3898,
      "🤾": 3899,
      "🥀": 3900,
      "🥁": 3901,
      "🥃": 3902,
      "🥇": 3903,
      "🥈": 3904,
      "🥉": 3905,
      "🥊": 3906,
      "🥋": 3907,
      "🥏": 3908,
      "🥒": 3909,
      "🥔": 3910,
      "🥕": 3911,
      "🥗": 3912,
      "🥚": 3913,
      "🥢": 3914,
      "🥧": 3915,
      "🥭": 3916,
      "🥰": 3917,
      "🥲": 3918,
      "🥳": 3919,
      "🥶": 3920,
      "🥹": 3921,
      "🥺": 3922,
      "🥼": 3923,
      "🥽": 3924,
      "🥾": 3925,
      "🦄": 3926,
      "🦆": 3927,
      "🦊": 3928,
      "🦍": 3929,
      "🦘": 3930,
      "🦙": 3931,
      "🦚": 3932,
      "🦜": 3933,
      "🦞": 3934,
      "🦠": 3935,
      "🦧": 3936,
      "🦶": 3937,
      "🦷": 3938,
      "🦸": 3939,
      "🦾": 3940,
      "🧊": 3941,
      "🧍": 3942,
      "🧐": 3943,
      "🧑": 3944,
      "🧒": 3945,
      "🧕": 3946,
      "🧘": 3947,
      "🧛": 3948,
      "🧜": 3949,
      "🧠": 3950,
      "🧡": 3951,
      "🧢": 3952,
      "🧧": 3953,
      "🧩": 3954,
      "🧪": 3955,
      "🧫": 3956,
      "🧬": 3957,
      "🧮": 3958,
      "🧯": 3959,
      "🧰": 3960,
      "🧱": 3961,
      "🧲": 3962,
      "🧶": 3963,
      "🧸": 3964,
      "🧽": 3965,
      "🧾": 3966,
      "🧿": 3967,
      "🩳": 3968,
      "🩸": 3969,
      "🩺": 3970,
      "🪀": 3971,
      "🪄": 3972,
      "🪐": 3973,
      "🪔": 3974,
      "🪙": 3975,
      "🪜": 3976,
      "🪥": 3977,
      "🪶": 3978,
      "🪷": 3979,
      "🫁": 3980,
      "🫂": 3981,
      "🫖": 3982,
      "🫶": 3983,
      "--": 3984,
      "in": 3985,
      "an": 3986,
      "er": 3987,
      "th": 3988,
      "on": 3989,
      "st": 3990,
      "en": 3991,
      "at": 3992,
      "ou": 3993,
      "or": 3994,
      "----": 3995,
      "tt": 3996,
      "ar": 3997,
      "ps": 3998,
      "al": 3999,
      "//": 4000,
      "ch": 4001,
      "om": 4002,
      "htt": 4003,
      "://": 4004,
      "ce": 4005,
      "https": 4006,
      "la": 4007,
      "es": 4008,
      "ion": 4009,
      "ic": 4010,
      "sc": 4011,
      "ww": 4012,
      "com": 4013,
      "it": 4014,
      "be": 4015,
      "li": 4016,
      "you": 4017,
      "le": 4018,
      "re": 4019,
      "am": 4020,
      "is": 4021,
      "tu": 4022,
      "de": 4023,
      "the": 4024,
      "ing": 4025,
      "==": 4026,
      "to": 4027,
      "and": 4028,
      "ss": 4029,
      "ed": 4030,
      "ien": 4031,
      "__": 4032,
      "--------": 4033,
      "ience": 4034,
      "of": 4035,
      "science": 4036,
      "ma": 4037,
      "youtu": 4038,
      "for": 4039,
      "ne": 4040,
      "ct": 4041,
      "ol": 4042,
      "vi": 4043,
      "lass": 4044,
      "se": 4045,
      "class": 4046,
      "..": 4047,
      "ap": 4048,
      "www": 4049,
      "ent": 4050,
      "list": 4051,
      "te": 4052,
      "sh": 4053,
      "ation": 4054,
      "pr": 4055,
      "ow": 4056,
      "di": 4057,
      "youtube": 4058,
      "ex": 4059,
      "gr": 4060,
      "il": 4061,
      "su": 4062,
      "ir": 4063,
      "pl": 4064,
      "as": 4065,
      "ve": 4066,
      "====": 4067,
      "bo": 4068,
      "20": 4069,
      "____": 4070,
      "us": 4071,
      "et": 4072,
      "pla": 4073,
      "im": 4074,
      "ly": 4075,
      "ter": 4076,
      "**": 4077,
      "ad": 4078,
      "vide": 4079,
      "qu": 4080,
      "----------------": 4081,
      "video": 4082,
      "un": 4083,
      "ri": 4084,
      "10": 4085,
      "ra": 4086,
      "og": 4087,
      "wi": 4088,
      "em": 4089,
      "ph": 4090,
      "play": 4091,
      "ics": 4092,
      "our": 4093,
      "ot": 4094,
      "ys": 4095,
      "fa": 4096,
      "ok": 4097,
      "est": 4098,
      "playlist": 4099,
      "ist": 4100,
      "ab": 4101,
      "pro": 4102,
      "ur": 4103,
      "lin": 4104,
      "con": 4105,
      "math": 4106,
      "ul": 4107,
      "we": 4108,
      "ac": 4109,
      "chan": 4110,
      "gram": 4111,
      "ers": 4112,
      "ge": 4113,
      "are": 4114,
      "book": 4115,
      "by": 4116,
      "wh": 4117,
      "ut": 4118,
      "um": 4119,
      "....": 4120,
      "phys": 4121,
      "ort": 4122,
      "this": 4123,
      "ke": 4124,
      "olog": 4125,
      "me": 4126,
      "bi": 4127,
      "gh": 4128,
      "ud": 4129,
      "exam": 4130,
      "all": 4131,
      "with": 4132,
      "ry": 4133,
      "op": 4134,
      "ay": 4135,
      "uc": 4136,
      "nel": 4137,
      "sub": 4138,
      "202": 4139,
      "je": 4140,
      "channel": 4141,
      "▬▬": 4142,
      "ology": 4143,
      "========": 4144,
      "par": 4145,
      "mo": 4146,
      "id": 4147,
      "per": 4148,
      "bit": 4149,
      "atch": 4150,
      "estion": 4151,
      "ity": 4152,
      "physics": 4153,
      "eng": 4154,
      "maths": 4155,
      "inst": 4156,
      "ial": 4157,
      "chem": 4158,
      "question": 4159,
      "________": 4160,
      ":-": 4161,
      "ant": 4162,
      "ical": 4163,
      "lo": 4164,
      "ate": 4165,
      "ess": 4166,
      "****": 4167,
      "ver": 4168,
      "tr": 4169,
      "indi": 4170,
      "he": 4171,
      "my": 4172,
      "act": 4173,
      "sir": 4174,
      "fr": 4175,
      "if": 4176,
      "link": 4177,
      "chap": 4178,
      "ine": 4179,
      "ore": 4180,
      "chapter": 4181,
      "so": 4182,
      "stud": 4183,
      "iv": 4184,
      "co": 4185,
      "sp": 4186,
      "comp": 4187,
      "out": 4188,
      "chemist": 4189,
      "go": 4190,
      "ha": 4191,
      "chemistry": 4192,
      "ment": 4193,
      "face": 4194,
      "up": 4195,
      "agram": 4196,
      "po": 4197,
      "ard": 4198,
      "--------------------------------": 4199,
      "12": 4200,
      "med": 4201,
      "00": 4202,
      "ro": 4203,
      "fe": 4204,
      "instagram": 4205,
      "pre": 4206,
      "scri": 4207,
      "ill": 4208,
      "ta": 4209,
      "facebook": 4210,
      "new": 4211,
      "watch": 4212,
      "ks": 4213,
      "app": 4214,
      "ach": 4215,
      "oun": 4216,
      "subscri": 4217,
      "ive": 4218,
      "jo": 4219,
      "arn": 4220,
      "http": 4221,
      "res": 4222,
      "one": 4223,
      "11": 4224,
      "your": 4225,
      "ject": 4226,
      "videos": 4227,
      "ght": 4228,
      "ssc": 4229,
      "wor": 4230,
      "pa": 4231,
      "du": 4232,
      "biology": 4233,
      "tech": 4234,
      "port": 4235,
      "how": 4236,
      "learn": 4237,
      "ere": 4238,
      "ies": 4239,
      "low": 4240,
      "net": 4241,
      "form": 4242,
      "not": 4243,
      "that": 4244,
      "do": 4245,
      "ents": 4246,
      "▀▀": 4247,
      "da": 4248,
      "gu": 4249,
      "ction": 4250,
      "ll": 4251,
      "hindi": 4252,
      "subscribe": 4253,
      "gen": 4254,
      "ts": 4255,
      "ear": 4256,
      "sy": 4257,
      "more": 4258,
      "cb": 4259,
      "........": 4260,
      "tter": 4261,
      "ree": 4262,
      "od": 4263,
      "cour": 4264,
      "can": 4265,
      "ans": 4266,
      "nc": 4267,
      "ade": 4268,
      "questions": 4269,
      "get": 4270,
      "hi": 4271,
      "▬▬▬▬": 4272,
      "any": 4273,
      "gk": 4274,
      "mat": 4275,
      "art": 4276,
      "top": 4277,
      "ert": 4278,
      "ld": 4279,
      "what": 4280,
      "from": 4281,
      "now": 4282,
      "ck": 4283,
      "ple": 4284,
      "af": 4285,
      "ance": 4286,
      "pap": 4287,
      "part": 4288,
      "ise": 4289,
      "ig": 4290,
      "der": 4291,
      "use": 4292,
      "bs": 4293,
      "techn": 4294,
      "ound": 4295,
      "cl": 4296,
      "will": 4297,
      "twi": 4298,
      "ank": 4299,
      "lab": 4300,
      "================": 4301,
      "twitter": 4302,
      "ag": 4303,
      "line": 4304,
      "ele": 4305,
      "engine": 4306,
      "vis": 4307,
      "ite": 4308,
      "exper": 4309,
      "str": 4310,
      "educ": 4311,
      "ther": 4312,
      "about": 4313,
      "grou": 4314,
      "board": 4315,
      "ome": 4316,
      "ful": 4317,
      "________________": 4318,
      "ka": 4319,
      "ions": 4320,
      "free": 4321,
      "fol": 4322,
      "fi": 4323,
      "ins": 4324,
      "cbse": 4325,
      "sol": 4326,
      "19": 4327,
      "gy": 4328,
      "ick": 4329,
      "av": 4330,
      "study": 4331,
      "********": 4332,
      "short": 4333,
      "lish": 4334,
      "zn": 4335,
      "lec": 4336,
      "ase": 4337,
      "paper": 4338,
      "wal": 4339,
      "engineer": 4340,
      "own": 4341,
      "pe": 4342,
      "follow": 4343,
      "classes": 4344,
      "dr": 4345,
      "like": 4346,
      "group": 4347,
      "gl": 4348,
      "no": 4349,
      "education": 4350,
      "iz": 4351,
      "disc": 4352,
      "cont": 4353,
      "off": 4354,
      "ind": 4355,
      "ew": 4356,
      "nt": 4357,
      "neet": 4358,
      "10th": 4359,
      "ture": 4360,
      "import": 4361,
      "ncert": 4362,
      "dat": 4363,
      "ber": 4364,
      "join": 4365,
      "hy": 4366,
      "्र": 4367,
      "fun": 4368,
      "elect": 4369,
      "pt": 4370,
      "inter": 4371,
      "medi": 4372,
      "english": 4373,
      "gener": 4374,
      "mot": 4375,
      "tra": 4376,
      "ti": 4377,
      "engineering": 4378,
      "important": 4379,
      "hel": 4380,
      "ous": 4381,
      "acade": 4382,
      "teach": 4383,
      "cial": 4384,
      "ak": 4385,
      "mag": 4386,
      "tele": 4387,
      "amzn": 4388,
      "online": 4389,
      "ved": 4390,
      "ep": 4391,
      "mar": 4392,
      "technology": 4393,
      "sch": 4394,
      "psc": 4395,
      "ication": 4396,
      "pur": 4397,
      "work": 4398,
      "ory": 4399,
      "➙➙": 4400,
      "course": 4401,
      "electr": 4402,
      "cre": 4403,
      "के": 4404,
      "bu": 4405,
      "ff": 4406,
      "pc": 4407,
      "pw": 4408,
      "2022": 4409,
      "telegram": 4410,
      "ds": 4411,
      "here": 4412,
      "rb": 4413,
      "mi": 4414,
      "mc": 4415,
      "az": 4416,
      "👇👇": 4417,
      "live": 4418,
      "test": 4419,
      "students": 4420,
      "ser": 4421,
      "del": 4422,
      "prepar": 4423,
      "cur": 4424,
      "pu": 4425,
      "way": 4426,
      "col": 4427,
      "cy": 4428,
      "el": 4429,
      "best": 4430,
      "ai": 4431,
      "tim": 4432,
      "lah": 4433,
      "batch": 4434,
      "br": 4435,
      "academy": 4436,
      "bas": 4437,
      "view": 4438,
      "des": 4439,
      "able": 4440,
      "project": 4441,
      "ses": 4442,
      "know": 4443,
      "less": 4444,
      "har": 4445,
      "experim": 4446,
      "fair": 4447,
      "man": 4448,
      "have": 4449,
      "led": 4450,
      "very": 4451,
      "ated": 4452,
      "general": 4453,
      "cess": 4454,
      "°°": 4455,
      "ip": 4456,
      "comm": 4457,
      "stat": 4458,
      "plan": 4459,
      "fo": 4460,
      "org": 4461,
      "▀▀▀▀": 4462,
      "कर": 4463,
      "pd": 4464,
      "ca": 4465,
      "dy": 4466,
      "life": 4467,
      "ice": 4468,
      "ty": 4469,
      "2021": 4470,
      "preparation": 4471,
      "24": 4472,
      "fir": 4473,
      "ें": 4474,
      "spe": 4475,
      "wallah": 4476,
      "ju": 4477,
      "full": 4478,
      "down": 4479,
      "18": 4480,
      "answ": 4481,
      "exams": 4482,
      "pract": 4483,
      "ign": 4484,
      "ik": 4485,
      "ary": 4486,
      "jee": 4487,
      "ms": 4488,
      "its": 4489,
      "bl": 4490,
      "bh": 4491,
      "wa": 4492,
      "year": 4493,
      "ide": 4494,
      "bra": 4495,
      "ution": 4496,
      "curr": 4497,
      "learning": 4498,
      "llab": 4499,
      "mu": 4500,
      "end": 4501,
      "ens": 4502,
      "ार": 4503,
      "llabus": 4504,
      "2023": 4505,
      "au": 4506,
      "ool": 4507,
      "...": 4508,
      "day": 4509,
      "other": 4510,
      "ition": 4511,
      "right": 4512,
      "vel": 4513,
      "ang": 4514,
      "ान": 4515,
      "webs": 4516,
      "os": 4517,
      "syllabus": 4518,
      "make": 4519,
      "pm": 4520,
      "cu": 4521,
      "ack": 4522,
      "्य": 4523,
      "icks": 4524,
      "lesson": 4525,
      "data": 4526,
      "ci": 4527,
      "whi": 4528,
      "14": 4529,
      "share": 4530,
      "help": 4531,
      "load": 4532,
      "amil": 4533,
      "cop": 4534,
      "than": 4535,
      "ari": 4536,
      "ble": 4537,
      "iss": 4538,
      "................": 4539,
      "website": 4540,
      "notes": 4541,
      "uter": 4542,
      "rrb": 4543,
      "under": 4544,
      "news": 4545,
      "antu": 4546,
      "na": 4547,
      "ces": 4548,
      "ong": 4549,
      "sa": 4550,
      "comple": 4551,
      "2024": 4552,
      "school": 4553,
      "computer": 4554,
      "ya": 4555,
      "ef": 4556,
      "also": 4557,
      "current": 4558,
      "produ": 4559,
      "medium": 4560,
      "stem": 4561,
      "num": 4562,
      "uk": 4563,
      "download": 4564,
      "12th": 4565,
      "15": 4566,
      "csir": 4567,
      "tures": 4568,
      "▬▬▬▬▬▬▬▬": 4569,
      "icial": 4570,
      "model": 4571,
      "sk": 4572,
      "ations": 4573,
      "esh": 4574,
      "ster": 4575,
      "लि": 4576,
      "age": 4577,
      "magnet": 4578,
      "cr": 4579,
      "ia": 4580,
      "shorts": 4581,
      "ev": 4582,
      "copy": 4583,
      "वि": 4584,
      "ient": 4585,
      "क्": 4586,
      "tricks": 4587,
      "please": 4588,
      "ob": 4589,
      "social": 4590,
      "ish": 4591,
      "mail": 4592,
      "deta": 4593,
      "sing": 4594,
      "----------------------------------------------------------------": 4595,
      "30": 4596,
      "mcq": 4597,
      "ctor": 4598,
      "goog": 4599,
      "google": 4600,
      "sapp": 4601,
      "xt": 4602,
      "home": 4603,
      "electric": 4604,
      "eas": 4605,
      "13": 4606,
      "tv": 4607,
      "time": 4608,
      "pdf": 4609,
      "ivers": 4610,
      "most": 4611,
      "lu": 4612,
      "••": 4613,
      "whatsapp": 4614,
      "stand": 4615,
      "cra": 4616,
      "subject": 4617,
      "als": 4618,
      "which": 4619,
      "univers": 4620,
      "sim": 4621,
      "ational": 4622,
      "tw": 4623,
      "colle": 4624,
      "र्": 4625,
      "min": 4626,
      "rail": 4627,
      "cts": 4628,
      "sup": 4629,
      "ater": 4630,
      "world": 4631,
      "car": 4632,
      "ame": 4633,
      "16": 4634,
      "jan": 4635,
      "ids": 4636,
      "ason": 4637,
      "से": 4638,
      "2019": 4639,
      "vedantu": 4640,
      "care": 4641,
      "has": 4642,
      "series": 4643,
      "::": 4644,
      "inform": 4645,
      "ii": 4646,
      "gs": 4647,
      "kh": 4648,
      "miss": 4649,
      "courses": 4650,
      "ough": 4651,
      "lectures": 4652,
      "pat": 4653,
      "ba": 4654,
      "ntpc": 4655,
      "gd": 4656,
      "copyright": 4657,
      "some": 4658,
      "ence": 4659,
      "official": 4660,
      "their": 4661,
      "visit": 4662,
      "ni": 4663,
      "india": 4664,
      "system": 4665,
      "don": 4666,
      "vd": 4667,
      "amaz": 4668,
      "ute": 4669,
      "sm": 4670,
      "mus": 4671,
      "light": 4672,
      "है": 4673,
      "cal": 4674,
      "thes": 4675,
      "detail": 4676,
      "railway": 4677,
      "complete": 4678,
      "tor": 4679,
      "2020": 4680,
      "9th": 4681,
      "unacademy": 4682,
      "ho": 4683,
      "ass": 4684,
      "prof": 4685,
      "pol": 4686,
      "aq": 4687,
      "ran": 4688,
      "ref": 4689,
      "vision": 4690,
      "program": 4691,
      "medic": 4692,
      "si": 4693,
      "को": 4694,
      "tn": 4695,
      "प्र": 4696,
      "ded": 4697,
      "m_": 4698,
      "cent": 4699,
      "gg": 4700,
      "only": 4701,
      "का": 4702,
      "vir": 4703,
      "py": 4704,
      "||": 4705,
      "page": 4706,
      "iit": 4707,
      "motiv": 4708,
      "ath": 4709,
      "lice": 4710,
      "answer": 4711,
      "mater": 4712,
      "university": 4713,
      "cor": 4714,
      "hum": 4715,
      "kar": 4716,
      "int": 4717,
      "found": 4718,
      "33": 4719,
      "thr": 4720,
      "pk": 4721,
      "che": 4722,
      "mathe": 4723,
      "cgl": 4724,
      "content": 4725,
      "****************": 4726,
      "erc": 4727,
      "les": 4728,
      "every": 4729,
      "rel": 4730,
      "diff": 4731,
      "mon": 4732,
      "~~": 4733,
      "17": 4734,
      "chemical": 4735,
      "mic": 4736,
      "police": 4737,
      "books": 4738,
      "sl": 4739,
      "पर": 4740,
      "================================": 4741,
      "pi": 4742,
      "information": 4743,
      "click": 4744,
      "experiment": 4745,
      "material": 4746,
      "over": 4747,
      "की": 4748,
      "come": 4749,
      "aw": 4750,
      "tri": 4751,
      "exerc": 4752,
      "➙➙➙➙": 4753,
      "mathemat": 4754,
      "store": 4755,
      "cul": 4756,
      "atom": 4757,
      "but": 4758,
      "dou": 4759,
      "grap": 4760,
      "ession": 4761,
      "/@": 4762,
      "class10": 4763,
      "fin": 4764,
      "ding": 4765,
      "ification": 4766,
      "mk": 4767,
      "alth": 4768,
      "cam": 4769,
      "organ": 4770,
      "support": 4771,
      "music": 4772,
      "ener": 4773,
      "tutor": 4774,
      "01": 4775,
      "gre": 4776,
      "conce": 4777,
      "water": 4778,
      "25": 4779,
      "coun": 4780,
      "easy": 4781,
      "practice": 4782,
      "fu": 4783,
      "details": 4784,
      "mem": 4785,
      "tamil": 4786,
      "adity": 4787,
      "ator": 4788,
      "comment": 4789,
      "educational": 4790,
      "ash": 4791,
      "affair": 4792,
      "king": 4793,
      "ure": 4794,
      "earch": 4795,
      "ga": 4796,
      "previ": 4797,
      "medicine": 4798,
      "qn": 4799,
      "________________________________": 4800,
      "expla": 4801,
      "cell": 4802,
      "research": 4803,
      "07": 4804,
      "tet": 4805,
      "high": 4806,
      "gur": 4807,
      "through": 4808,
      "real": 4809,
      "super": 4810,
      "vs": 4811,
      "utions": 4812,
      "affairs": 4813,
      "hist": 4814,
      "set": 4815,
      "ould": 4816,
      "find": 4817,
      "gt": 4818,
      "experiments": 4819,
      "energy": 4820,
      "yt": 4821,
      "ledge": 4822,
      "wise": 4823,
      "foundation": 4824,
      "show": 4825,
      "में": 4826,
      "स्": 4827,
      "read": 4828,
      "ption": 4829,
      "solution": 4830,
      "exercise": 4831,
      "health": 4832,
      "knowledge": 4833,
      "uss": 4834,
      "teaching": 4835,
      "ने": 4836,
      "thing": 4837,
      "sure": 4838,
      "ye": 4839,
      "ki": 4840,
      "ati": 4841,
      "°°°°": 4842,
      "sur": 4843,
      "first": 4844,
      "react": 4845,
      "adda": 4846,
      "scient": 4847,
      "ship": 4848,
      "used": 4849,
      "sab": 4850,
      "cle": 4851,
      "reg": 4852,
      "lat": 4853,
      "equ": 4854,
      "brains": 4855,
      "utm_": 4856,
      "doub": 4857,
      "object": 4858,
      "ply": 4859,
      "pres": 4860,
      "who": 4861,
      "differ": 4862,
      "quiz": 4863,
      "ue": 4864,
      "zy": 4865,
      "mathematics": 4866,
      "met": 4867,
      "they": 4868,
      "contact": 4869,
      "these": 4870,
      "---": 4871,
      "50": 4872,
      "gc": 4873,
      "upsc": 4874,
      "tro": 4875,
      "tal": 4876,
      "ls": 4877,
      "previous": 4878,
      "plus": 4879,
      "nur": 4880,
      "motion": 4881,
      "pers": 4882,
      "topic": 4883,
      "lc": 4884,
      "ht": 4885,
      "history": 4886,
      "gar": 4887,
      "back": 4888,
      "std": 4889,
      "firm": 4890,
      "kr": 4891,
      "laim": 4892,
      "ative": 4893,
      "ek": 4894,
      "cover": 4895,
      "human": 4896,
      "bal": 4897,
      "11th": 4898,
      "!!": 4899,
      "number": 4900,
      "physical": 4901,
      "02": 4902,
      "zh": 4903,
      "jr": 4904,
      "ner": 4905,
      "char": 4906,
      "ily": 4907,
      "vo": 4908,
      "sport": 4909,
      "ny": 4910,
      "process": 4911,
      "_con": 4912,
      "vdnt": 4913,
      "ving": 4914,
      "xy": 4915,
      "check": 4916,
      "mal": 4917,
      "lecture": 4918,
      "kids": 4919,
      "instit": 4920,
      "ub": 4921,
      "99": 4922,
      "ments": 4923,
      "ज्": 4924,
      "using": 4925,
      "activ": 4926,
      "iq": 4927,
      "anim": 4928,
      "firmation": 4929,
      "gate": 4930,
      "ah": 4931,
      "ific": 4932,
      "_confirmation": 4933,
      "sub_confirmation": 4934,
      "08": 4935,
      "into": 4936,
      "frien": 4937,
      "लिए": 4938,
      "ities": 4939,
      "student": 4940,
      "made": 4941,
      "let": 4942,
      "pow": 4943,
      "trick": 4944,
      "reason": 4945,
      "tutorial": 4946,
      "z7": 4947,
      "05": 4948,
      "sam": 4949,
      "grade": 4950,
      "िय": 4951,
      "such": 4952,
      "aditya": 4953,
      "adv": 4954,
      "ons": 4955,
      "after": 4956,
      "edin": 4957,
      "▀▀▀▀▀▀▀▀": 4958,
      "nd": 4959,
      "ज्ञ": 4960,
      "discuss": 4961,
      "ja": 4962,
      "was": 4963,
      "college": 4964,
      "g_": 4965,
      "design": 4966,
      "zz": 4967,
      "edu": 4968,
      "2018": 4969,
      "22": 4970,
      "wb": 4971,
      "क्ष": 4972,
      "hand": 4973,
      "chsl": 4974,
      "red": 4975,
      "mit": 4976,
      "gmail": 4977,
      "mr": 4978,
      "44": 4979,
      "tips": 4980,
      "ft": 4981,
      "ranjan": 4982,
      "ज्ञान": 4983,
      "bq": 4984,
      "compet": 4985,
      "solutions": 4986,
      "linkedin": 4987,
      "dig": 4988,
      "ility": 4989,
      "disclaim": 4990,
      "career": 4991,
      "motivation": 4992,
      "ular": 4993,
      "topics": 4994,
      "log": 4995,
      "nursing": 4996,
      "ala": 4997,
      "fh": 4998,
      "sabaq": 4999,
      "भी": 5000,
      "intro": 5001,
      "सा": 5002,
      "ko": 5003,
      "03": 5004,
      "ste": 5005,
      "medical": 5006,
      "code": 5007,
      "disclaimer": 5008,
      "explain": 5009,
      "thanks": 5010,
      "dav": 5011,
      "physicswallah": 5012,
      "wr": 5013,
      "where": 5014,
      "itive": 5015,
      "plo": 5016,
      "interest": 5017,
      "ib": 5018,
      "23": 5019,
      "purpo": 5020,
      "09": 5021,
      "many": 5022,
      "stu": 5023,
      "shot": 5024,
      "unit": 5025,
      "bon": 5026,
      "plication": 5027,
      "good": 5028,
      "updat": 5029,
      "air": 5030,
      "her": 5031,
      "just": 5032,
      "आप": 5033,
      "latest": 5034,
      "ope": 5035,
      "cs": 5036,
      "understand": 5037,
      "bsc": 5038,
      "revision": 5039,
      "247": 5040,
      "well": 5041,
      "ru": 5042,
      "practical": 5043,
      "his": 5044,
      "gn": 5045,
      "wv": 5046,
      "ankit": 5047,
      "ace": 5048,
      "blo": 5049,
      "sour": 5050,
      "ना": 5051,
      "she": 5052,
      "exampur": 5053,
      "mission": 5054,
      "lf": 5055,
      "dri": 5056,
      "_k": 5057,
      "ants": 5058,
      "power": 5059,
      "36": 5060,
      "nat": 5061,
      "2z": 5062,
      "struc": 5063,
      "mp": 5064,
      "incl": 5065,
      "anal": 5066,
      "cond": 5067,
      "ali": 5068,
      "basic": 5069,
      "06": 5070,
      "devel": 5071,
      "develop": 5072,
      "विज्ञान": 5073,
      "ges": 5074,
      "dis": 5075,
      "them": 5076,
      "goo": 5077,
      "zo": 5078,
      "िक": 5079,
      "master": 5080,
      "xq": 5081,
      "ml": 5082,
      "jq": 5083,
      "aching": 5084,
      "term": 5085,
      "ating": 5086,
      "state": 5087,
      "04": 5088,
      "special": 5089,
      "institute": 5090,
      "law": 5091,
      "):": 5092,
      "win": 5093,
      "্য": 5094,
      "there": 5095,
      "sal": 5096,
      "national": 5097,
      "non": 5098,
      "thank": 5099,
      "adda247": 5100,
      "electricity": 5101,
      "media": 5102,
      "key": 5103,
      "ের": 5104,
      "links": 5105,
      "apps": 5106,
      "then": 5107,
      "duction": 5108,
      "uni": 5109,
      "aj": 5110,
      "mach": 5111,
      "train": 5112,
      "amazon": 5113,
      "watching": 5114,
      "eld": 5115,
      "answers": 5116,
      "tur": 5117,
      "reasoning": 5118,
      "mad": 5119,
      "start": 5120,
      "conne": 5121,
      "based": 5122,
      "different": 5123,
      "level": 5124,
      "proble": 5125,
      "din": 5126,
      "ves": 5127,
      "when": 5128,
      "29": 5129,
      "69": 5130,
      "val": 5131,
      "ital": 5132,
      "্র": 5133,
      "friends": 5134,
      "today": 5135,
      "shar": 5136,
      "ित": 5137,
      "commun": 5138,
      "8th": 5139,
      "ograp": 5140,
      "ism": 5141,
      "ிய": 5142,
      "fb": 5143,
      "need": 5144,
      "38": 5145,
      "luc": 5146,
      "wo": 5147,
      "xx": 5148,
      "👇👇👇👇": 5149,
      "zu": 5150,
      "const": 5151,
      "ian": 5152,
      "dio": 5153,
      "telu": 5154,
      "kn": 5155,
      "want": 5156,
      "ᴏɴ": 5157,
      "indian": 5158,
      "••••": 5159,
      "32": 5160,
      "why": 5161,
      "35": 5162,
      "ctet": 5163,
      "sw": 5164,
      "vol": 5165,
      "ার": 5166,
      "telugu": 5167,
      "avai": 5168,
      "availab": 5169,
      "ann": 5170,
      "strate": 5171,
      "------------------------------------------------": 5172,
      "++": 5173,
      "person": 5174,
      "mer": 5175,
      "food": 5176,
      "date": 5177,
      "take": 5178,
      "ie": 5179,
      "fect": 5180,
      "34": 5181,
      "cc": 5182,
      "coaching": 5183,
      "provide": 5184,
      "zx": 5185,
      "alam": 5186,
      "ana": 5187,
      "raj": 5188,
      "istics": 5189,
      "field": 5190,
      "ict": 5191,
      "force": 5192,
      "see": 5193,
      "tain": 5194,
      "teachers": 5195,
      "simple": 5196,
      "sound": 5197,
      "dex": 5198,
      "related": 5199,
      "fy": 5200,
      "/?": 5201,
      "typ": 5202,
      "va": 5203,
      "vari": 5204,
      "available": 5205,
      "vers": 5206,
      "ல்": 5207,
      "body": 5208,
      "ors": 5209,
      "war": 5210,
      "bihar": 5211,
      "karsh": 5212,
      "structure": 5213,
      "bank": 5214,
      "dra": 5215,
      "nam": 5216,
      "utkarsh": 5217,
      "27": 5218,
      "ates": 5219,
      "ight": 5220,
      "pts": 5221,
      "hu": 5222,
      "chat": 5223,
      "ji": 5224,
      "dire": 5225,
      "class9": 5226,
      "count": 5227,
      "explan": 5228,
      "wel": 5229,
      "bet": 5230,
      "access": 5231,
      "bus": 5232,
      "adu": 5233,
      "ada": 5234,
      "dp": 5235,
      "matter": 5236,
      "objective": 5237,
      "ze": 5238,
      "और": 5239,
      "omet": 5240,
      "ula": 5241,
      "working": 5242,
      "daily": 5243,
      "facts": 5244,
      "kf": 5245,
      "two": 5246,
      "86": 5247,
      "gq": 5248,
      "37": 5249,
      "bre": 5250,
      "ᴛᴇ": 5251,
      "................................": 5252,
      "teacher": 5253,
      "45": 5254,
      "iness": 5255,
      "jar": 5256,
      "ky": 5257,
      "papers": 5258,
      "application": 5259,
      "hai": 5260,
      "्या": 5261,
      "ream": 5262,
      "::::": 5263,
      "connect": 5264,
      "projects": 5265,
      "buil": 5266,
      ").": 5267,
      "roj": 5268,
      "21": 5269,
      "may": 5270,
      "cn": 5271,
      "magnetbrains": 5272,
      "pn": 5273,
      "ink": 5274,
      "cut": 5275,
      "call": 5276,
      "dh": 5277,
      "mb": 5278,
      "experience": 5279,
      "vy": 5280,
      "pum": 5281,
      "below": 5282,
      "ctions": 5283,
      "love": 5284,
      "oh": 5285,
      "press": 5286,
      "ुर": 5287,
      "requ": 5288,
      "post": 5289,
      "dies": 5290,
      "pli": 5291,
      "ों": 5292,
      "––": 5293,
      "ben": 5294,
      "giv": 5295,
      "updates": 5296,
      "yj": 5297,
      "या": 5298,
      "்க": 5299,
      "gi": 5300,
      "ings": 5301,
      "ns": 5302,
      "entr": 5303,
      "28": 5304,
      "activity": 5305,
      "……": 5306,
      "mechan": 5307,
      "guru": 5308,
      "gyan": 5309,
      "𝐨𝐧": 5310,
      "qs": 5311,
      "76": 5312,
      "वा": 5313,
      "opt": 5314,
      "amazing": 5315,
      "add": 5316,
      "statistics": 5317,
      "subjects": 5318,
      "trans": 5319,
      "mains": 5320,
      "concepts": 5321,
      "arch": 5322,
      "geograp": 5323,
      "करें": 5324,
      "lt": 5325,
      "quer": 5326,
      "pan": 5327,
      "pir": 5328,
      "fav": 5329,
      "introduction": 5330,
      "each": 5331,
      "notification": 5332,
      "100": 5333,
      "क्षा": 5334,
      "main": 5335,
      "ning": 5336,
      "सं": 5337,
      "place": 5338,
      "explanation": 5339,
      "buy": 5340,
      "machine": 5341,
      "icul": 5342,
      "business": 5343,
      "sslc": 5344,
      "ᴀɴ": 5345,
      "give": 5346,
      "future": 5347,
      "source": 5348,
      "55": 5349,
      "jm": 5350,
      "ual": 5351,
      "ups": 5352,
      "welcome": 5353,
      "qf": 5354,
      "cri": 5355,
      "ला": 5356,
      "-------": 5357,
      ";;": 5358,
      "mul": 5359,
      "qual": 5360,
      "publ": 5361,
      "team": 5362,
      "rojgar": 5363,
      "edit": 5364,
      "bat": 5365,
      "lm": 5366,
      "session": 5367,
      "entrance": 5368,
      "श्": 5369,
      "ம்": 5370,
      "competitive": 5371,
      "rank": 5372,
      "purposes": 5373,
      "ules": 5374,
      "48": 5375,
      "ले": 5376,
      "cer": 5377,
      "plw": 5378,
      "ku": 5379,
      "vil": 5380,
      "47": 5381,
      "vt": 5382,
      "fil": 5383,
      "ysis": 5384,
      "ker": 5385,
      "bang": 5386,
      "jj": 5387,
      "suc": 5388,
      "md": 5389,
      "kum": 5390,
      "look": 5391,
      "molec": 5392,
      "table": 5393,
      "delhi": 5394,
      "26": 5395,
      "cet": 5396,
      "personal": 5397,
      "40": 5398,
      "ias": 5399,
      "edus": 5400,
      "next": 5401,
      "91": 5402,
      "formula": 5403,
      "marks": 5404,
      "includ": 5405,
      "ते": 5406,
      "்த": 5407,
      "oc": 5408,
      "text": 5409,
      "3d": 5410,
      "section": 5411,
      "lucent": 5412,
      "ani": 5413,
      "space": 5414,
      "vac": 5415,
      "old": 5416,
      "ox": 5417,
      "ush": 5418,
      "olar": 5419,
      "name": 5420,
      "advance": 5421,
      "famil": 5422,
      "training": 5423,
      "zc": 5424,
      "production": 5425,
      "𝐞𝐬": 5426,
      "bers": 5427,
      "cir": 5428,
      "ement": 5429,
      "ween": 5430,
      "lan": 5431,
      "family": 5432,
      "qq": 5433,
      "),": 5434,
      "sun": 5435,
      "plat": 5436,
      "been": 5437,
      "oll": 5438,
      "status": 5439,
      "between": 5440,
      "tre": 5441,
      "second": 5442,
      "subscription": 5443,
      "7th": 5444,
      "bio": 5445,
      "admission": 5446,
      "patre": 5447,
      "bri": 5448,
      "98": 5449,
      "bc": 5450,
      "file": 5451,
      "patreon": 5452,
      "त्": 5453,
      "ता": 5454,
      "ination": 5455,
      "kes": 5456,
      "expl": 5457,
      "envir": 5458,
      "provi": 5459,
      "star": 5460,
      "imp": 5461,
      "▬▬▬▬▬▬▬▬▬▬▬▬▬▬▬▬": 5462,
      "ɪs": 5463,
      "scientist": 5464,
      "ending": 5465,
      "types": 5466,
      "ential": 5467,
      "dist": 5468,
      "environ": 5469,
      "resul": 5470,
      "aa": 5471,
      "jy": 5472,
      "geography": 5473,
      "cap": 5474,
      "box": 5475,
      "ople": 5476,
      "utr": 5477,
      "plg": 5478,
      "pak": 5479,
      "pf": 5480,
      "calcul": 5481,
      "io": 5482,
      "58": 5483,
      "বি": 5484,
      "review": 5485,
      "ness": 5486,
      "micro": 5487,
      "sports": 5488,
      "strategy": 5489,
      "gam": 5490,
      "हम": 5491,
      "mass": 5492,
      "people": 5493,
      "oo": 5494,
      "tem": 5495,
      "ney": 5496,
      "ask": 5497,
      "xc": 5498,
      "ines": 5499,
      "ball": 5500,
      "📚👉": 5501,
      "inte": 5502,
      "ancy": 5503,
      "viral": 5504,
      "song": 5505,
      "पुर": 5506,
      "phar": 5507,
      "qr": 5508,
      "onelink": 5509,
      "standard": 5510,
      "environment": 5511,
      "46": 5512,
      "pl9": 5513,
      "bd": 5514,
      "ways": 5515,
      "email": 5516,
      "ature": 5517,
      "limit": 5518,
      "years": 5519,
      "xj": 5520,
      "jour": 5521,
      "joy": 5522,
      "scientific": 5523,
      "hs": 5524,
      "mart": 5525,
      "हा": 5526,
      "tun": 5527,
      "materials": 5528,
      "platform": 5529,
      "pho": 5530,
      "reaction": 5531,
      "bab": 5532,
      "nit": 5533,
      "que": 5534,
      "prep": 5535,
      "organic": 5536,
      "रा": 5537,
      "ae": 5538,
      "draw": 5539,
      "indu": 5540,
      "descri": 5541,
      "guide": 5542,
      "ude": 5543,
      "sb": 5544,
      "°°°°°°°°": 5545,
      "ming": 5546,
      "chil": 5547,
      "peri": 5548,
      "sn": 5549,
      "𝐢𝐧": 5550,
      "m5": 5551,
      "pect": 5552,
      "पा": 5553,
      "rc": 5554,
      "scholar": 5555,
      "community": 5556,
      "skill": 5557,
      "analysis": 5558,
      "por": 5559,
      "reet": 5560,
      "sof": 5561,
      "concept": 5562,
      "nq": 5563,
      "gujar": 5564,
      "➙➙➙➙➙➙➙➙": 5565,
      "mind": 5566,
      "ward": 5567,
      "foc": 5568,
      "ideas": 5569,
      "~~~~": 5570,
      "49": 5571,
      "forget": 5572,
      "ain": 5573,
      "pass": 5574,
      "77": 5575,
      "000": 5576,
      "51": 5577,
      "shop": 5578,
      "wm": 5579,
      "lead": 5580,
      "ee": 5581,
      "ʀᴏ": 5582,
      "boards": 5583,
      "वी": 5584,
      "smart": 5585,
      "multi": 5586,
      "x0": 5587,
      "z9": 5588,
      "jobs": 5589,
      "``": 5590,
      "dc": 5591,
      "⇾⇾": 5592,
      "𝐚𝐫": 5593,
      "vigyan": 5594,
      "infr": 5595,
      "malay": 5596,
      "son": 5597,
      "vc": 5598,
      "beng": 5599,
      "6ow": 5600,
      "stay": 5601,
      "dec": 5602,
      "proper": 5603,
      "cast": 5604,
      "vice": 5605,
      "khan": 5606,
      "ety": 5607,
      "jh": 5608,
      "56": 5609,
      "lic": 5610,
      "xe": 5611,
      "fast": 5612,
      "allow": 5613,
      "does": 5614,
      "present": 5615,
      "bar": 5616,
      "open": 5617,
      "1h": 5618,
      "ural": 5619,
      "ible": 5620,
      "diy": 5621,
      "malayalam": 5622,
      "6th": 5623,
      "fl": 5624,
      "ire": 5625,
      "commer": 5626,
      "पू": 5627,
      "bot": 5628,
      "self": 5629,
      "rs": 5630,
      "2ziq": 5631,
      "change": 5632,
      "plw2ziq": 5633,
      "plw2ziq6ow": 5634,
      "mh": 5635,
      "tit": 5636,
      "def": 5637,
      "pg": 5638,
      "qy": 5639,
      "crash": 5640,
      "econ": 5641,
      "इस": 5642,
      "contr": 5643,
      "ান": 5644,
      "photo": 5645,
      "era": 5646,
      "san": 5647,
      "sign": 5648,
      "sum": 5649,
      "mark": 5650,
      "dd": 5651,
      "hit": 5652,
      "blog": 5653,
      "kit": 5654,
      "mv": 5655,
      "infring": 5656,
      "compound": 5657,
      "hau": 5658,
      "gv": 5659,
      "fore": 5660,
      "following": 5661,
      "xw": 5662,
      "around": 5663,
      "channels": 5664,
      "making": 5665,
      "step": 5666,
      "udy": 5667,
      "great": 5668,
      "drive": 5669,
      "hope": 5670,
      "mah": 5671,
      "gradu": 5672,
      "game": 5673,
      "dia": 5674,
      "earth": 5675,
      "interview": 5676,
      "pl0": 5677,
      "39": 5678,
      "ug": 5679,
      "econom": 5680,
      "vive": 5681,
      "resour": 5682,
      "mitt": 5683,
      "k4": 5684,
      "kw": 5685,
      "prim": 5686,
      "poly": 5687,
      "mkm": 5688,
      "pharma": 5689,
      "ord": 5690,
      "issu": 5691,
      "should": 5692,
      "vid": 5693,
      "pod": 5694,
      "bangla": 5695,
      "meth": 5696,
      "guy": 5697,
      "્ર": 5698,
      "ally": 5699,
      "zq": 5700,
      "hl": 5701,
      "री": 5702,
      "ᴏʀ": 5703,
      "epis": 5704,
      "crit": 5705,
      "nov": 5706,
      "fx": 5707,
      "jam": 5708,
      "cause": 5709,
      "ane": 5710,
      "fer": 5711,
      "tgt": 5712,
      "etc": 5713,
      "success": 5714,
      "ति": 5715,
      "bb": 5716,
      "vidy": 5717,
      "constable": 5718,
      "𝐚𝐭": 5719,
      "ider": 5720,
      "wy": 5721,
      "ize": 5722,
      "60": 5723,
      "qv": 5724,
      "tten": 5725,
      "perform": 5726,
      "प्रश्": 5727,
      "digital": 5728,
      "favor": 5729,
      "ugc": 5730,
      "cred": 5731,
      "mm": 5732,
      "grow": 5733,
      "ims": 5734,
      "ton": 5735,
      "method": 5736,
      "pot": 5737,
      "सी": 5738,
      "sugg": 5739,
      "vlog": 5740,
      "zl": 5741,
      "season": 5742,
      "हैं": 5743,
      "88": 5744,
      "——": 5745,
      "doctor": 5746,
      "त्र": 5747,
      "bell": 5748,
      "action": 5749,
      "much": 5750,
      "langu": 5751,
      "plgmkm": 5752,
      "hauzh": 5753,
      "plgmkmhauzh": 5754,
      "lection": 5755,
      "ast": 5756,
      "दे": 5757,
      "kj": 5758,
      "long": 5759,
      "ng": 5760,
      "sr": 5761,
      "account": 5762,
      "html": 5763,
      "including": 5764,
      "ᴛʜ": 5765,
      "nutr": 5766,
      "period": 5767,
      "मा": 5768,
      "effect": 5769,
      "development": 5770,
      "limited": 5771,
      "ᴛɪ": 5772,
      "➖➖": 5773,
      "subscriber": 5774,
      "path": 5775,
      "speed": 5776,
      "edusmart": 5777,
      "pon": 5778,
      "ples": 5779,
      "aut": 5780,
      "bk": 5781,
      "refer": 5782,
      "ˍˍ": 5783,
      "wif": 5784,
      "_sir": 5785,
      "enjoy": 5786,
      "g_z7": 5787,
      "aka": 5788,
      "reactions": 5789,
      "g_z7fh": 5790,
      "52": 5791,
      "ram": 5792,
      "pl9g_z7fh": 5793,
      "d7": 5794,
      "pp": 5795,
      "motor": 5796,
      "stor": 5797,
      "dj": 5798,
      "blood": 5799,
      "_as": 5800,
      "bx": 5801,
      "cat": 5802,
      "week": 5803,
      "********************************": 5804,
      "dam": 5805,
      "inal": 5806,
      "scholarship": 5807,
      "tok": 5808,
      "might": 5809,
      "ger": 5810,
      "iy": 5811,
      "lv": 5812,
      "uv": 5813,
      "2nd": 5814,
      "ال": 5815,
      "job": 5816,
      "manag": 5817,
      "tting": 5818,
      "𝐞𝐫": 5819,
      "last": 5820,
      "sha": 5821,
      "metals": 5822,
      "sheet": 5823,
      "spot": 5824,
      "civil": 5825,
      "pub": 5826,
      "oper": 5827,
      "sem": 5828,
      "phone": 5829,
      "mix": 5830,
      "iting": 5831,
      "kaise": 5832,
      "1st": 5833,
      "oma": 5834,
      "equations": 5835,
      "would": 5836,
      "ही": 5837,
      "dee": 5838,
      "road": 5839,
      "bt": 5840,
      "cli": 5841,
      "vent": 5842,
      "view_as": 5843,
      "zw": 5844,
      "ount": 5845,
      "2y": 5846,
      "imag": 5847,
      "ometry": 5848,
      "istudy": 5849,
      "vivek": 5850,
      "gas": 5851,
      "pet": 5852,
      "company": 5853,
      "atoms": 5854,
      "3o": 5855,
      "kg": 5856,
      "nx": 5857,
      "tar": 5858,
      "pos": 5859,
      "assist": 5860,
      "wifistudy": 5861,
      "79": 5862,
      "lg": 5863,
      "product": 5864,
      "df": 5865,
      "hr": 5866,
      "dur": 5867,
      "ey": 5868,
      "कि": 5869,
      "ारी": 5870,
      "ped": 5871,
      "42": 5872,
      "ax": 5873,
      "===": 5874,
      "mq": 5875,
      "even": 5876,
      "studies": 5877,
      "report": 5878,
      "pal": 5879,
      "public": 5880,
      "deep": 5881,
      "try": 5882,
      "wri": 5883,
      "shi": 5884,
      "trending": 5885,
      "ose": 5886,
      "profession": 5887,
      "59": 5888,
      "kin": 5889,
      "numer": 5890,
      "जा": 5891,
      "mcqs": 5892,
      "annada": 5893,
      "ever": 5894,
      "works": 5895,
      "profit": 5896,
      "্যা": 5897,
      "ix": 5898,
      "்ப": 5899,
      "sto": 5900,
      "cx": 5901,
      "ties": 5902,
      "agan": 5903,
      "hal": 5904,
      "nu": 5905,
      "ten": 5906,
      "theory": 5907,
      "gov": 5908,
      "oth": 5909,
      "px": 5910,
      "madhy": 5911,
      "queries": 5912,
      "natural": 5913,
      "helps": 5914,
      "3e": 5915,
      "नल": 5916,
      "chapters": 5917,
      "kumar": 5918,
      "tin": 5919,
      "various": 5920,
      "31": 5921,
      "electron": 5922,
      "gw": 5923,
      "⟿⟿": 5924,
      "things": 5925,
      "doubtn": 5926,
      "vacancy": 5927,
      "commerce": 5928,
      "jt": 5929,
      "green": 5930,
      "n69": 5931,
      "artic": 5932,
      "ile": 5933,
      "bw": 5934,
      "fq": 5935,
      "problem": 5936,
      "ली": 5937,
      "plpum": 5938,
      "keep": 5939,
      "bqm5": 5940,
      "problems": 5941,
      "n69bqm5": 5942,
      "plpumn69bqm5": 5943,
      "ili": 5944,
      "quality": 5945,
      "7y": 5946,
      "cpo": 5947,
      "্ত": 5948,
      "lines": 5949,
      "roid": 5950,
      "balance": 5951,
      "order": 5952,
      "nav": 5953,
      "हो": 5954,
      "coming": 5955,
      "playlists": 5956,
      "ister": 5957,
      "examपुर": 5958,
      "carbon": 5959,
      "heart": 5960,
      "जी": 5961,
      "ियो": 5962,
      "9e": 5963,
      "ode": 5964,
      "clear": 5965,
      "focus": 5966,
      "ester": 5967,
      "dep": 5968,
      "camp": 5969,
      "8f": 5970,
      "প্র": 5971,
      "type": 5972,
      "beli": 5973,
      "head": 5974,
      "pq": 5975,
      "singh": 5976,
      "spec": 5977,
      "crack": 5978,
      "benef": 5979,
      "written": 5980,
      "doubtnut": 5981,
      "87": 5982,
      "ross": 5983,
      "𝐚𝐥": 5984,
      "web": 5985,
      "stream": 5986,
      "member": 5987,
      "_science": 5988,
      "zk": 5989,
      "atur": 5990,
      "prom": 5991,
      "jk": 5992,
      "ted": 5993,
      "without": 5994,
      "प्रश्न": 5995,
      "mx": 5996,
      "------------------------": 5997,
      "static": 5998,
      "omen": 5999,
      "esc": 6000,
      "vices": 6001,
      "language": 6002,
      "zf": 6003,
      "zv": 6004,
      "𝐮𝐫": 6005,
      "lif": 6006,
      "example": 6007,
      "move": 6008,
      "bile": 6009,
      "param": 6010,
      "gujarati": 6011,
      "hind": 6012,
      "think": 6013,
      "cel": 6014,
      "forms": 6015,
      "ave": 6016,
      "acid": 6017,
      "produce": 6018,
      "𝐚𝐧": 6019,
      "story": 6020,
      "chand": 6021,
      "plants": 6022,
      "ota": 6023,
      "partic": 6024,
      "direct": 6025,
      "xam": 6026,
      "za": 6027,
      "ᴇʟ": 6028,
      "gover": 6029,
      "covered": 6030,
      "▀▀▀▀▀▀▀▀▀▀▀▀▀▀▀▀": 6031,
      "user": 6032,
      "impro": 6033,
      "ages": 6034,
      "molecules": 6035,
      "sin": 6036,
      "ouse": 6037,
      "ale": 6038,
      "scienceand": 6039,
      "ɴᴇʟ": 6040,
      "ʜᴀɴ": 6041,
      "sciences": 6042,
      "doubts": 6043,
      "prepare": 6044,
      "ʜᴀɴɴᴇʟ": 6045,
      "pay": 6046,
      "ᴇs": 6047,
      "ᴘʀᴏ": 6048,
      "ii_k": 6049,
      "yjii_k": 6050,
      "pl0yjii_k": 6051,
      "resources": 6052,
      "pl0yjii_kls": 6053,
      "nal": 6054,
      "apple": 6055,
      "happ": 6056,
      "mg": 6057,
      "amik": 6058,
      "ukwv": 6059,
      "month": 6060,
      "mw": 6061,
      "expert": 6062,
      "hello": 6063,
      "kfid": 6064,
      "rankers": 6065,
      "ukwvkfid": 6066,
      "_b": 6067,
      "ris": 6068,
      "squ": 6069,
      "सम": 6070,
      "brain": 6071,
      "hibit": 6072,
      "53": 6073,
      "க்க": 6074,
      "gon": 6075,
      "score": 6076,
      "কর": 6077,
      "solved": 6078,
      "funny": 6079,
      "magic": 6080,
      "suggestion": 6081,
      "better": 6082,
      "madhyamik": 6083,
      "create": 6084,
      "utm_medium": 6085,
      "ியல்": 6086,
      "mea": 6087,
      "cuet": 6088,
      "================================================": 6089,
      "2q": 6090,
      "zt": 6091,
      "zuxq": 6092,
      "tests": 6093,
      "plyzuxq": 6094,
      "kntt": 6095,
      "••••••••": 6096,
      "plyzuxqkntt": 6097,
      "3r": 6098,
      "clo": 6099,
      "j6": 6100,
      "recor": 6101,
      "tnpsc": 6102,
      "kq": 6103,
      "puzz": 6104,
      "guruk": 6105,
      "land": 6106,
      "icse": 6107,
      "lar": 6108,
      "pack": 6109,
      "ക്": 6110,
      "thi": 6111,
      "ttle": 6112,
      "cho": 6113,
      "called": 6114,
      "because": 6115,
      "moder": 6116,
      "description": 6117,
      "gagan": 6118,
      "aren": 6119,
      "tool": 6120,
      "insp": 6121,
      "talk": 6122,
      "orig": 6123,
      "big": 6124,
      "products": 6125,
      "ners": 6126,
      "rah": 6127,
      "control": 6128,
      "men": 6129,
      "sst": 6130,
      "poss": 6131,
      "point": 6132,
      "gir": 6133,
      "hn": 6134,
      "index": 6135,
      "prat": 6136,
      "govern": 6137,
      "appro": 6138,
      "physi": 6139,
      "vr": 6140,
      "itch": 6141,
      "95": 6142,
      "न्": 6143,
      "innov": 6144,
      "processes": 6145,
      "numerical": 6146,
      "i_": 6147,
      "jx": 6148,
      "lli": 6149,
      "pl9g_z7fhmo": 6150,
      "eric": 6151,
      "abad": 6152,
      "cse": 6153,
      "ven": 6154,
      "nutrition": 6155,
      "jn": 6156,
      "ready": 6157,
      "gree": 6158,
      "tik": 6159,
      "indust": 6160,
      "oy": 6161,
      "incre": 6162,
      "ological": 6163,
      "mock": 6164,
      "card": 6165,
      "𝐢𝐜": 6166,
      "mahar": 6167,
      "marath": 6168,
      "3w": 6169,
      "_m": 6170,
      "roll": 6171,
      "sclass": 6172,
      "enter": 6173,
      "flow": 6174,
      "bed": 6175,
      "bn": 6176,
      "dq": 6177,
      "anti": 6178,
      "करने": 6179,
      "skills": 6180,
      "thon": 6181,
      "room": 6182,
      "bla": 6183,
      "aran": 6184,
      "gurukul": 6185,
      "80": 6186,
      "fit": 6187,
      "reproduction": 6188,
      "edical": 6189,
      "mechanical": 6190,
      "explained": 6191,
      "oe": 6192,
      "rele": 6193,
      "emer": 6194,
      "यो": 6195,
      "tutorials": 6196,
      "cons": 6197,
      "xs": 6198,
      "👉🏻": 6199,
      "movi": 6200,
      "lessons": 6201,
      "given": 6202,
      "jf": 6203,
      "prin": 6204,
      "tware": 6205,
      "far": 6206,
      "ended": 6207,
      "track": 6208,
      "organis": 6209,
      "हि": 6210,
      "dn": 6211,
      "chall": 6212,
      "exhibit": 6213,
      "groups": 6214,
      "provided": 6215,
      "3q": 6216,
      "सक": 6217,
      "verse": 6218,
      "​​": 6219,
      "alp": 6220,
      "bin": 6221,
      "dw": 6222,
      "ired": 6223,
      "usp": 6224,
      "mobile": 6225,
      "defence": 6226,
      "boo": 6227,
      "area": 6228,
      "function": 6229,
      "while": 6230,
      "result": 6231,
      "hard": 6232,
      "↬↬": 6233,
      "examination": 6234,
      "57": 6235,
      "glo": 6236,
      "jv": 6237,
      "zr": 6238,
      "डियो": 6239,
      "must": 6240,
      "maharash": 6241,
      "aspir": 6242,
      "ifi": 6243,
      "jc": 6244,
      "kp": 6245,
      "ust": 6246,
      "modern": 6247,
      "ssc_": 6248,
      "ral": 6249,
      "fact": 6250,
      "creative": 6251,
      "_in": 6252,
      "won": 6253,
      "ify": 6254,
      "ifas": 6255,
      "aiims": 6256,
      "bengali": 6257,
      "ength": 6258,
      "e1": 6259,
      "107": 6260,
      "active": 6261,
      "final": 6262,
      "maharashtra": 6263,
      "vq": 6264,
      "++++": 6265,
      "solve": 6266,
      "small": 6267,
      "दि": 6268,
      "android": 6269,
      "search": 6270,
      "istan": 6271,
      "loc": 6272,
      "utm_source": 6273,
      "addition": 6274,
      "episode": 6275,
      "f4": 6276,
      "ʀɪ": 6277,
      "fac": 6278,
      "software": 6279,
      "db": 6280,
      "ंक": 6281,
      "कक्षा": 6282,
      "::::::::": 6283,
      "kid": 6284,
      "𝐨𝐫": 6285,
      "cou": 6286,
      "stra": 6287,
      "kerala": 6288,
      "advanced": 6289,
      "gb": 6290,
      "43": 6291,
      "government": 6292,
      "nor": 6293,
      "icon": 6294,
      "utes": 6295,
      "audio": 6296,
      "90": 6297,
      "han": 6298,
      "atory": 6299,
      "charge": 6300,
      "childr": 6301,
      "/-": 6302,
      "cm": 6303,
      "note": 6304,
      "simpli": 6305,
      "kind": 6306,
      "ric": 6307,
      "්‍": 6308,
      "degree": 6309,
      "ron": 6310,
      "going": 6311,
      "robot": 6312,
      "guid": 6313,
      "discord": 6314,
      "33r": 6315,
      "qnv": 6316,
      "xh": 6317,
      "update": 6318,
      "bly": 6319,
      "break": 6320,
      "rap": 6321,
      "दी": 6322,
      "ional": 6323,
      "র্": 6324,
      "3n": 6325,
      "jw": 6326,
      "python": 6327,
      "mitted": 6328,
      "children": 6329,
      "spr": 6330,
      "motivational": 6331,
      "த்த": 6332,
      "grav": 6333,
      "78": 6334,
      "sq": 6335,
      "uplo": 6336,
      "jl": 6337,
      "ground": 6338,
      "escience": 6339,
      "flu": 6340,
      "behind": 6341,
      "raction": 6342,
      "topper": 6343,
      "elements": 6344,
      "ators": 6345,
      "dise": 6346,
      "सभी": 6347,
      "્ય": 6348,
      "ument": 6349,
      "offer": 6350,
      "fla": 6351,
      "vk": 6352,
      "!!!": 6353,
      "75": 6354,
      "itation": 6355,
      "ases": 6356,
      "paign": 6357,
      "interesting": 6358,
      "treat": 6359,
      "ती": 6360,
      "-----": 6361,
      "both": 6362,
      "feel": 6363,
      "ᴛɪᴏɴ": 6364,
      "uses": 6365,
      "73": 6366,
      "plant": 6367,
      "plqnv": 6368,
      "craft": 6369,
      "33rzx": 6370,
      "plqnv33rzx": 6371,
      "become": 6372,
      "___": 6373,
      "2025": 6374,
      "gency": 6375,
      "technic": 6376,
      "vin": 6377,
      "doubt": 6378,
      "dl": 6379,
      "j5": 6380,
      "feed": 6381,
      "agr": 6382,
      "ras": 6383,
      "ites": 6384,
      "libr": 6385,
      "graph": 6386,
      "yy": 6387,
      "𝐥𝐚": 6388,
      "prote": 6389,
      "campaign": 6390,
      "wl": 6391,
      "ডি": 6392,
      "ன்": 6393,
      "att": 6394,
      "lling": 6395,
      "ized": 6396,
      "tiktok": 6397,
      "gal": 6398,
      "understanding": 6399,
      "explore": 6400,
      "potential": 6401,
      "eve": 6402,
      "percent": 6403,
      "discover": 6404,
      "oj": 6405,
      "quick": 6406,
      "…………": 6407,
      "𝐞𝐥": 6408,
      "electrical": 6409,
      "otherwise": 6410,
      "2c": 6411,
      "ள்": 6412,
      "lay": 6413,
      "physic": 6414,
      "mean": 6415,
      "dynam": 6416,
      "z6": 6417,
      "defin": 6418,
      "tiny": 6419,
      "colleges": 6420,
      "41": 6421,
      "kb": 6422,
      "center": 6423,
      "zaz": 6424,
      "गा": 6425,
      "મા": 6426,
      "being": 6427,
      "images": 6428,
      "oud": 6429,
      "angle": 6430,
      ";;;;": 6431,
      "periodic": 6432,
      "exhibition": 6433,
      "mir": 6434,
      "url": 6435,
      "pressure": 6436,
      "pratap": 6437,
      "sen": 6438,
      "नि": 6439,
      "living": 6440,
      "ushan": 6441,
      "pb": 6442,
      "ability": 6443,
      "––––": 6444,
      "properties": 6445,
      "journey": 6446,
      "physiology": 6447,
      "pri": 6448,
      "________________________________________": 6449,
      "duc": 6450,
      "oci": 6451,
      "pv": 6452,
      "management": 6453,
      "વિ": 6454,
      "diagram": 6455,
      "assistant": 6456,
      "54": 6457,
      "dg": 6458,
      "ham": 6459,
      "nice": 6460,
      "pop": 6461,
      "zg": 6462,
      "bhushan": 6463,
      "cells": 6464,
      "plqnv33rzx1h": 6465,
      "ken": 6466,
      "rnc": 6467,
      "ग्र": 6468,
      "ensive": 6469,
      "graduate": 6470,
      "_r": 6471,
      "नी": 6472,
      "𝐞𝐧": 6473,
      "unch": 6474,
      "numbers": 6475,
      "2x": 6476,
      "gether": 6477,
      "activities": 6478,
      "familyguy": 6479,
      "fc": 6480,
      "hor": 6481,
      "odia": 6482,
      "ora": 6483,
      "qx": 6484,
      "together": 6485,
      "facul": 6486,
      "zazb": 6487,
      "2t": 6488,
      "cks": 6489,
      "z8": 6490,
      "kv": 6491,
      "றி": 6492,
      "doc": 6493,
      "stru": 6494,
      "basics": 6495,
      "everyone": 6496,
      "2n": 6497,
      "ordin": 6498,
      "before": 6499,
      "र्ण": 6500,
      "beg": 6501,
      "pl86": 6502,
      "pw_": 6503,
      "ार्": 6504,
      "patter": 6505,
      "x0rnc": 6506,
      "pl86x0rnc": 6507,
      "pl86x0rncqn": 6508,
      "cert": 6509,
      "fat": 6510,
      "lot": 6511,
      "put": 6512,
      "------": 6513,
      "labor": 6514,
      "5q": 6515,
      "kx": 6516,
      "yn": 6517,
      "चै": 6518,
      "sample": 6519,
      "withankit": 6520,
      "nih": 6521,
      "utm_campaign": 6522,
      "cg": 6523,
      "dar": 6524,
      "ization": 6525,
      "build": 6526,
      "scientists": 6527,
      "comed": 6528,
      "js": 6529,
      "jun": 6530,
      "mam": 6531,
      "pen": 6532,
      "iti": 6533,
      "essions": 6534,
      "technical": 6535,
      "sharing": 6536,
      "dss": 6537,
      "hol": 6538,
      "apply": 6539,
      "loss": 6540,
      "possible": 6541,
      "ified": 6542,
      "zb": 6543,
      "pcs": 6544,
      "known": 6545,
      "करे": 6546,
      "aur": 6547,
      "cv": 6548,
      "fv": 6549,
      "য়": 6550,
      "ogen": 6551,
      "aya": 6552,
      "associ": 6553,
      "ভি": 6554,
      "মা": 6555,
      "shid": 6556,
      "improve": 6557,
      "zm": 6558,
      "fects": 6559,
      "मान": 6560,
      "ume": 6561,
      "regard": 6562,
      "icism": 6563,
      "youth": 6564,
      "cool": 6565,
      "tractor": 6566,
      "reporting": 6567,
      "িক": 6568,
      "3v": 6569,
      "ும்": 6570,
      "class12": 6571,
      "june": 6572,
      "podcast": 6573,
      "others": 6574,
      "emergency": 6575,
      "এর": 6576,
      "howto": 6577,
      "fili": 6578,
      "1976": 6579,
      "2o": 6580,
      "same": 6581,
      "quantu": 6582,
      "96": 6583,
      "tm": 6584,
      "forens": 6585,
      "fire": 6586,
      "iction": 6587,
      "semester": 6588,
      "benefits": 6589,
      "dm": 6590,
      "বে": 6591,
      "max": 6592,
      "heat": 6593,
      "िया": 6594,
      "purpose": 6595,
      ",#": 6596,
      "2e": 6597,
      "ban": 6598,
      "house": 6599,
      "days": 6600,
      "वर्": 6601,
      "anc": 6602,
      "scienceandfun": 6603,
      "_season": 6604,
      "ojo": 6605,
      "ape": 6606,
      "familyguy_season": 6607,
      "pab": 6608,
      "ese": 6609,
      "ને": 6610,
      "nature": 6611,
      "via": 6612,
      "created": 6613,
      "dinesh": 6614,
      "mts": 6615,
      "z0": 6616,
      "ero": 6617,
      "olution": 6618,
      "jg": 6619,
      "jay": 6620,
      "resist": 6621,
      "musc": 6622,
      "पूर्ण": 6623,
      "dream": 6624,
      "ration": 6625,
      "quir": 6626,
      "centre": 6627,
      "वीडियो": 6628,
      "dsssb": 6629,
      "quantum": 6630,
      "ones": 6631,
      "dipl": 6632,
      "credit": 6633,
      "library": 6634,
      "3g": 6635,
      "hq": 6636,
      "round": 6637,
      "yq": 6638,
      "awaren": 6639,
      "animal": 6640,
      "measure": 6641,
      "awareness": 6642,
      "j4": 6643,
      "neer": 6644,
      "soli": 6645,
      "igshid": 6646,
      "services": 6647,
      "believe": 6648,
      "scope": 6649,
      "ley": 6650,
      "hydr": 6651,
      "स्ट": 6652,
      "-------------------------------------------------------": 6653,
      "9r": 6654,
      "run": 6655,
      "sat": 6656,
      "hw": 6657,
      "organisms": 6658,
      "2017": 6659,
      "affili": 6660,
      "criticism": 6661,
      "bution": 6662,
      "d4": 6663,
      "side": 6664,
      "prash": 6665,
      "times": 6666,
      "winner": 6667,
      "b7": 6668,
      "cp": 6669,
      "dk": 6670,
      "sar": 6671,
      "international": 6672,
      "gcse": 6673,
      "gle": 6674,
      "ird": 6675,
      "thesis": 6676,
      "clin": 6677,
      "शि": 6678,
      "स्थ": 6679,
      "dexam": 6680,
      "allowance": 6681,
      "चैनल": 6682,
      "2f": 6683,
      "classification": 6684,
      "whe": 6685,
      "clus": 6686,
      "2r": 6687,
      "gor": 6688,
      "***": 6689,
      "color": 6690,
      "professional": 6691,
      "forensic": 6692,
      "👉👉": 6693,
      "plnq": 6694,
      "polity": 6695,
      "xxz9": 6696,
      "plnqxxz9": 6697,
      "plnqxxz9to": 6698,
      "ima": 6699,
      "না": 6700,
      "three": 6701,
      "atic": 6702,
      "reh": 6703,
      "gets": 6704,
      "hosp": 6705,
      "atomic": 6706,
      "animals": 6707,
      "p7": 6708,
      "yw": 6709,
      "programming": 6710,
      "परी": 6711,
      "sessions": 6712,
      "ina": 6713,
      "counse": 6714,
      "84": 6715,
      "cad": 6716,
      "ɴᴛ": 6717,
      "acids": 6718,
      "tran": 6719,
      "useful": 6720,
      "academic": 6721,
      "2m": 6722,
      "89": 6723,
      "1000": 6724,
      "ident": 6725,
      "providing": 6726,
      "iled": 6727,
      "ints": 6728,
      "tum": 6729,
      "acter": 6730,
      "agnet": 6731,
      "notifications": 6732,
      "provides": 6733,
      "global": 6734,
      "1l": 6735,
      "vn": 6736,
      "inject": 6737,
      "जीव": 6738,
      "neeraj": 6739,
      "a_": 6740,
      "tton": 6741,
      "lied": 6742,
      "ये": 6743,
      "maj": 6744,
      "respon": 6745,
      "ious": 6746,
      "q4": 6747,
      "=======": 6748,
      "opath": 6749,
      "discount": 6750,
      "viveksir": 6751,
      "princi": 6752,
      "eu": 6753,
      "those": 6754,
      "preli": 6755,
      "agar": 6756,
      "economics": 6757,
      "performance": 6758,
      "aspirants": 6759,
      "66": 6760,
      "base": 6761,
      "লো": 6762,
      "geni": 6763,
      "building": 6764,
      "kan": 6765,
      "probab": 6766,
      "----------------------------------------": 6767,
      "deepak": 6768,
      "during": 6769,
      "8h": 6770,
      "ren": 6771,
      "were": 6772,
      "class11": 6773,
      "permitted": 6774,
      "ारे": 6775,
      "akash": 6776,
      "kannada": 6777,
      "wn": 6778,
      "ym": 6779,
      "प्": 6780,
      "সা": 6781,
      "ically": 6782,
      "परीक्षा": 6783,
      "9n": 6784,
      "wil": 6785,
      "වි": 6786,
      "competition": 6787,
      "infringing": 6788,
      "k0": 6789,
      "मे": 6790,
      "ency": 6791,
      "enroll": 6792,
      "fur": 6793,
      "nlm": 6794,
      "soci": 6795,
      "portun": 6796,
      "diploma": 6797,
      "वं": 6798,
      "recomm": 6799,
      "featur": 6800,
      "contin": 6801,
      "पाठ": 6802,
      "bpsc": 6803,
      "ffic": 6804,
      "mini": 6805,
      "brid": 6806,
      "compounds": 6807,
      "ctors": 6808,
      "systems": 6809,
      "placement": 6810,
      "intelli": 6811,
      "square": 6812,
      "8x": 6813,
      "bse": 6814,
      "gan": 6815,
      "mf": 6816,
      "always": 6817,
      "opportun": 6818,
      "लिंक": 6819,
      "favorite": 6820,
      "icated": 6821,
      "iter": 6822,
      "ncbi": 6823,
      "rrbntpc": 6824,
      "campus": 6825,
      "omagnet": 6826,
      "exc": 6827,
      "vedic": 6828,
      "explains": 6829,
      "register": 6830,
      "x7": 6831,
      "तर": 6832,
      "ᴄᴏɴ": 6833,
      "ᴄʜᴀɴɴᴇʟ": 6834,
      "commons": 6835,
      ",,": 6836,
      "xv": 6837,
      "गण": 6838,
      "ᴀɢ": 6839,
      "ᴀᴄ": 6840,
      "itions": 6841,
      "z4": 6842,
      "ques": 6843,
      "common": 6844,
      "3f": 6845,
      "uf": 6846,
      "zs": 6847,
      "cted": 6848,
      "magnetic": 6849,
      "hom": 6850,
      "pabbly": 6851,
      "यन": 6852,
      "pltv": 6853,
      "word": 6854,
      "zi": 6855,
      "න්": 6856,
      "⇢⇢": 6857,
      "𝐌𝐀": 6858,
      "lak4": 6859,
      "lez7": 6860,
      "cbt": 6861,
      "pltvlak4": 6862,
      "pltvlak4lez7": 6863,
      "ters": 6864,
      "weight": 6865,
      "bases": 6866,
      "editor": 6867,
      "सकते": 6868,
      "அறி": 6869,
      "rajas": 6870,
      "ट्र": 6871,
      "thor": 6872,
      "alge": 6873,
      "offline": 6874,
      "pyq": 6875,
      "everything": 6876,
      "dom": 6877,
      "ln": 6878,
      "𝐞𝐝": 6879,
      "plw2ziq6owlo": 6880,
      "3u": 6881,
      "jb": 6882,
      "lap": 6883,
      "programs": 6884,
      "entertain": 6885,
      "1y": 6886,
      "sty": 6887,
      "condu": 6888,
      "algebra": 6889,
      "##": 6890,
      "ந்த": 6891,
      "chi": 6892,
      "tex": 6893,
      "strong": 6894,
      "xr": 6895,
      "sscgd": 6896,
      "injection": 6897,
      "q1": 6898,
      "cha": 6899,
      "produc": 6900,
      "electromagnet": 6901,
      "equation": 6902,
      "pande": 6903,
      "guidance": 6904,
      "rajasthan": 6905,
      ".,": 6906,
      "3h": 6907,
      "ging": 6908,
      "xn": 6909,
      "tual": 6910,
      "trigon": 6911,
      "गणित": 6912,
      "a4": 6913,
      "tery": 6914,
      "ডিও": 6915,
      "_t": 6916,
      "juni": 6917,
      "मह": 6918,
      "ought": 6919,
      "1f": 6920,
      "ucle": 6921,
      "easily": 6922,
      "designed": 6923,
      "cham": 6924,
      "ravi": 6925,
      "issues": 6926,
      "case": 6927,
      "examples": 6928,
      "reflection": 6929,
      "70": 6930,
      "ैसे": 6931,
      "feature": 6932,
      "foot": 6933,
      "reading": 6934,
      "original": 6935,
      "rahul": 6936,
      "host": 6937,
      "relation": 6938,
      "3c": 6939,
      "gp": 6940,
      "mor": 6941,
      "little": 6942,
      "constru": 6943,
      "statute": 6944,
      "bul": 6945,
      "ec": 6946,
      "ाम": 6947,
      "𝐢𝐬": 6948,
      "youtub": 6949,
      "3k": 6950,
      "lr": 6951,
      "ப்ப": 6952,
      "ரு": 6953,
      "orts": 6954,
      "subst": 6955,
      "bud": 6956,
      "fli": 6957,
      "saf": 6958,
      "uh": 6959,
      "লি": 6960,
      "techni": 6961,
      "2v": 6962,
      "💠💠": 6963,
      "8k": 6964,
      "ql": 6965,
      "info": 6966,
      "त्व": 6967,
      "prelims": 6968,
      "bf": 6969,
      "qt": 6970,
      "yal": 6971,
      "respect": 6972,
      "krit": 6973,
      "rojgarwithankit": 6974,
      "அறிவ": 6975,
      "could": 6976,
      "etic": 6977,
      "ivity": 6978,
      "------------------------------------------------------------------------": 6979,
      "sources": 6980,
      "mil": 6981,
      "effects": 6982,
      "affiliate": 6983,
      "hospital": 6984,
      "8_": 6985,
      "gm": 6986,
      "ium": 6987,
      "──": 6988,
      "cost": 6989,
      "fundam": 6990,
      "tier": 6991,
      "helpful": 6992,
      "3s": 6993,
      "kim": 6994,
      "xi": 6995,
      "▬▬▬▬▬▬": 6996,
      "insider": 6997,
      "camera": 6998,
      "market": 6999,
      "dv": 7000,
      "nucle": 7001,
      "𝐢𝐨𝐧": 7002,
      "onesh": 7003,
      "consu": 7004,
      "देख": 7005,
      "ভিডিও": 7006,
      "2k": 7007,
      "qw": 7008,
      "ತ್": 7009,
      "sele": 7010,
      "purch": 7011,
      "discussed": 7012,
      "junior": 7013,
      "बा": 7014,
      "ences": 7015,
      "mod": 7016,
      "required": 7017,
      "marathon": 7018,
      "anatom": 7019,
      "arts": 7020,
      "200": 7021,
      "electro": 7022,
      "kya": 7023,
      "along": 7024,
      "schedu": 7025,
      "boar": 7026,
      "anskrit": 7027,
      "pump": 7028,
      "bur": 7029,
      "akh": 7030,
      "स्त": 7031,
      "youtubesh": 7032,
      "_ankit": 7033,
      "ov": 7034,
      "functions": 7035,
      "zj": 7036,
      "ford": 7037,
      "funda": 7038,
      "ios": 7039,
      "ogy": 7040,
      "updated": 7041,
      "योज": 7042,
      "oneshot": 7043,
      "9y": 7044,
      "radi": 7045,
      "opal": 7046,
      "oney": 7047,
      "regular": 7048,
      "difference": 7049,
      "5l": 7050,
      "hc": 7051,
      "்ட": 7052,
      "━━": 7053,
      "rav": 7054,
      "shows": 7055,
      "pakistan": 7056,
      "comedy": 7057,
      "plqf": 7058,
      "````": 7059,
      "fundament": 7060,
      "kt": 7061,
      "plc": 7062,
      "lock": 7063,
      "97": 7064,
      "gad": 7065,
      "enge": 7066,
      "maths_": 7067,
      "guys": 7068,
      "button": 7069,
      "''": 7070,
      "americ": 7071,
      "aves": 7072,
      "banking": 7073,
      "movie": 7074,
      "bha": 7075,
      "dsc": 7076,
      "done": 7077,
      "fn": 7078,
      "एवं": 7079,
      "~~~~~~~~": 7080,
      "titude": 7081,
      "upload": 7082,
      "anatomy": 7083,
      "_x": 7084,
      "mom": 7085,
      "𝐨𝐮𝐫": 7086,
      "achie": 7087,
      "syn": 7088,
      "results": 7089,
      "°°°°°°°°°°°°°°°°": 7090,
      "tinyurl": 7091,
      "howtofunda": 7092,
      "solid": 7093,
      "2s": 7094,
      "dt": 7095,
      "iculum": 7096,
      "chandra": 7097,
      "agricul": 7098,
      "begin": 7099,
      "image": 7100,
      "g8": 7101,
      "lw": 7102,
      "vx": 7103,
      "પ્ર": 7104,
      "extra": 7105,
      "ours": 7106,
      "myster": 7107,
      "upsssc": 7108,
      "3t": 7109,
      "pad": 7110,
      "rw": 7111,
      "uy": 7112,
      "shortcut": 7113,
      "jq51": 7114,
      "puzzle": 7115,
      "2b": 7116,
      "bhar": 7117,
      "mill": 7118,
      "rzy": 7119,
      "unlimited": 7120,
      "coordin": 7121,
      "𝐞𝐬𝐭": 7122,
      "nda": 7123,
      "कार": 7124,
      "रे": 7125,
      "conf": 7126,
      "newton": 7127,
      "yezo": 7128,
      "faculty": 7129,
      "boardexam": 7130,
      "plqfyezo": 7131,
      "plqfyezojq51": 7132,
      "rrc": 7133,
      "अप": 7134,
      "मै": 7135,
      "👇👇👇": 7136,
      "plo3": 7137,
      "circu": 7138,
      "टे": 7139,
      "ama": 7140,
      "express": 7141,
      "refraction": 7142,
      "surface": 7143,
      "vic": 7144,
      "maha": 7145,
      "percentage": 7146,
      "fill": 7147,
      "ट्": 7148,
      "ense": 7149,
      "ises": 7150,
      "depart": 7151,
      "ray": 7152,
      "biom": 7153,
      "jeff": 7154,
      "equip": 7155,
      "battery": 7156,
      "target": 7157,
      "ux": 7158,
      "અને": 7159,
      "still": 7160,
      "pls": 7161,
      "past": 7162,
      "cloud": 7163,
      "engineers": 7164,
      "pattern": 7165,
      "had": 7166,
      "mand": 7167,
      "द्": 7168,
      "हु": 7169,
      "পর": 7170,
      "য়ে": 7171,
      "erk": 7172,
      "stom": 7173,
      "vest": 7174,
      "turn": 7175,
      "environmental": 7176,
      "cw": 7177,
      "effic": 7178,
      "f8": 7179,
      "jz": 7180,
      "ling": 7181,
      "pharmacy": 7182,
      "issue": 7183,
      "ˍˍˍˍ": 7184,
      "tools": 7185,
      "aap": 7186,
      "fk": 7187,
      "launch": 7188,
      "class_": 7189,
      "gau": 7190,
      "j7": 7191,
      "बै": 7192,
      "mos": 7193,
      "curriculum": 7194,
      "laws": 7195,
      "allah": 7196,
      "pl4": 7197,
      "intended": 7198,
      "iw": 7199,
      "pic": 7200,
      "sle": 7201,
      "तो": 7202,
      "studying": 7203,
      "night": 7204,
      "g_rzy": 7205,
      "_bg_rzy": 7206,
      "plo3_bg_rzy": 7207,
      "6l": 7208,
      "pgt": 7209,
      "म्": 7210,
      "upcoming": 7211,
      "preparing": 7212,
      "profess": 7213,
      "gnm": 7214,
      "features": 7215,
      "3y": 7216,
      "cand": 7217,
      "van": 7218,
      "ंग": 7219,
      "भा": 7220,
      "વા": 7221,
      "really": 7222,
      "bro": 7223,
      "jp": 7224,
      "sanskrit": 7225,
      "exclus": 7226,
      "complex": 7227,
      "xk": 7228,
      "ene": 7229,
      "polit": 7230,
      "winners": 7231,
      "mber": 7232,
      "imojo": 7233,
      "abs": 7234,
      "mn": 7235,
      "vit": 7236,
      "🔆🔆": 7237,
      "psy": 7238,
      "true": 7239,
      "detailed": 7240,
      "animation": 7241,
      "योजना": 7242,
      "তে": 7243,
      "nee": 7244,
      "cret": 7245,
      "homeopath": 7246,
      "आपको": 7247,
      "bridge": 7248,
      "_with": 7249,
      "mt": 7250,
      "𝐏𝐫": 7251,
      "grammar": 7252,
      "ives": 7253,
      "nitin": 7254,
      "fitness": 7255,
      "3x": 7256,
      "g5": 7257,
      "jeet": 7258,
      "cycle": 7259,
      "discussion": 7260,
      "write": 7261,
      "starting": 7262,
      "ables": 7263,
      "auto": 7264,
      "class10science": 7265,
      "paramedical": 7266,
      "youtubeshorts": 7267,
      "bach": 7268,
      "𝐂𝐇": 7269,
      "ats": 7270,
      "meet": 7271,
      "applied": 7272,
      "pure": 7273,
      "pandey": 7274,
      "kir": 7275,
      "kare": 7276,
      "ক্": 7277,
      "anch": 7278,
      "deli": 7279,
      "compreh": 7280,
      "profile": 7281,
      "effective": 7282,
      "2a": 7283,
      "hil": 7284,
      "too": 7285,
      "shom": 7286,
      "mode": 7287,
      "worksheet": 7288,
      "handwritten": 7289,
      "probability": 7290,
      "trigonometry": 7291,
      "abo": 7292,
      "west": 7293,
      "सब": 7294,
      "𝐀𝐋": 7295,
      "+-": 7296,
      "লা": 7297,
      "theor": 7298,
      "talks": 7299,
      "stories": 7300,
      "black": 7301,
      "plnqxxz9tojm": 7302,
      "exclusive": 7303,
      "2d": 7304,
      "94": 7305,
      "hp": 7306,
      "ছে": 7307,
      "iksha": 7308,
      "csirnet": 7309,
      "distance": 7310,
      "integr": 7311,
      "𝐚𝐭𝐢𝐨𝐧": 7312,
      "accounting": 7313,
      "treatment": 7314,
      "uit": 7315,
      "mast": 7316,
      "gear": 7317,
      "fully": 7318,
      "award": 7319,
      "query": 7320,
      "2w": 7321,
      "j1": 7322,
      "अध": 7323,
      "𝐚𝐝": 7324,
      "plr": 7325,
      "study91": 7326,
      "surround": 7327,
      "games": 7328,
      "polytechnic": 7329,
      "%%": 7330,
      "🌟🌟": 7331,
      "third": 7332,
      "parts": 7333,
      "respir": 7334,
      "solving": 7335,
      "ava": 7336,
      "dedicated": 7337,
      "disease": 7338,
      "3a": 7339,
      "eam": 7340,
      "sli": 7341,
      "্ব": 7342,
      "strength": 7343,
      "drawing": 7344,
      "74": 7345,
      "got": 7346,
      "ith": 7347,
      "oring": 7348,
      "lig": 7349,
      "selection": 7350,
      "sho": 7351,
      "gaming": 7352,
      "qe": 7353,
      "edia": 7354,
      "counselling": 7355,
      "_2022": 7356,
      "∼∻": 7357,
      "∼∼∻": 7358,
      "across": 7359,
      "mathsby": 7360,
      "=-": 7361,
      "p1": 7362,
      "army": 7363,
      "applications": 7364,
      "articles": 7365,
      "चे": 7366,
      "सि": 7367,
      "leading": 7368,
      "growth": 7369,
      "major": 7370,
      "ર્": 7371,
      "து": 7372,
      "stop": 7373,
      "network": 7374,
      "friend": 7375,
      "kz": 7376,
      "pul": 7377,
      "जि": 7378,
      "𝐚𝐦": 7379,
      "prakash": 7380,
      "crazy": 7381,
      "started": 7382,
      "vl": 7383,
      "var": 7384,
      "vert": 7385,
      "fication": 7386,
      "g6": 7387,
      "j0": 7388,
      "sou": 7389,
      "xf": 7390,
      "રણ": 7391,
      "స్": 7392,
      "क्ला": 7393,
      "professor": 7394,
      "64": 7395,
      "gf": 7396,
      "yan": 7397,
      "by_": 7398,
      "biological": 7399,
      "ncer": 7400,
      "ibps": 7401,
      "article": 7402,
      "அறிவியல்": 7403,
      "q8": 7404,
      "bel": 7405,
      "rest": 7406,
      "phen": 7407,
      "looking": 7408,
      "laptop": 7409,
      "kl": 7410,
      "oon": 7411,
      "ws": 7412,
      "govt": 7413,
      "polic": 7414,
      "ibility": 7415,
      "ebook": 7416,
      "j_": 7417,
      "nh": 7418,
      "एक": 7419,
      "रू": 7420,
      "revol": 7421,
      "________________________________________________": 7422,
      "6h": 7423,
      "igh": 7424,
      "ड़": 7425,
      "rece": 7426,
      "shala": 7427,
      "cancer": 7428,
      "universe": 7429,
      "industry": 7430,
      "dynamics": 7431,
      "department": 7432,
      "3l": 7433,
      "4u": 7434,
      "mes": 7435,
      "asa": 7436,
      "rock": 7437,
      "distri": 7438,
      "𝐢𝐧𝐠": 7439,
      "comprehensive": 7440,
      "city": 7441,
      "gx": 7442,
      "নি": 7443,
      "ɪɴ": 7444,
      "𝒆𝒓": 7445,
      "neur": 7446,
      "हिं": 7447,
      "fan": 7448,
      "তি": 7449,
      "goal": 7450,
      "duce": 7451,
      "calculation": 7452,
      "महत्व": 7453,
      "g0": 7454,
      "lor": 7455,
      "zp": 7456,
      "dual": 7457,
      "interactive": 7458,
      "gives": 7459,
      "➖➖➖➖": 7460,
      "eamcet": 7461,
      "fam": 7462,
      "m4": 7463,
      "pinterest": 7464,
      "rot": 7465,
      "rwa": 7466,
      "classroom": 7467,
      "bhu": 7468,
      "range": 7469,
      "multiple": 7470,
      "6y": 7471,
      "him": 7472,
      "pun": 7473,
      "ror": 7474,
      "w0": 7475,
      "বা": 7476,
      "ന്": 7477,
      "comb": 7478,
      "film": 7479,
      "rpf": 7480,
      "कैसे": 7481,
      "words": 7482,
      "⇾⇾⇾⇾": 7483,
      "𝐞𝐥𝐥": 7484,
      "dna": 7485,
      "comes": 7486,
      "pair": 7487,
      "planet": 7488,
      "ᴛᴇᴅ": 7489,
      "connected": 7490,
      "pedag": 7491,
      "civ": 7492,
      "qh": 7493,
      "ʟʟ": 7494,
      "ᴀʟ": 7495,
      "ᴀᴜ": 7496,
      "ᴄᴀ": 7497,
      "ᴅᴇ": 7498,
      "ᴅᴜ": 7499,
      "ᴇʙ": 7500,
      "ᴏᴋ": 7501,
      "ᴏᴜ": 7502,
      "ᴠɪ": 7503,
      "★★": 7504,
      "𝐬𝐬": 7505,
      "lim": 7506,
      "rev": 7507,
      "tage": 7508,
      "airforce": 7509,
      "ᴛᴇɴᴛ": 7510,
      "ᴛʜɪs": 7511,
      "pl0yjii_klsgr": 7512,
      "ᴄᴏɴᴛᴇɴᴛ": 7513,
      "+-+-": 7514,
      "ouch": 7515,
      "ulation": 7516,
      "uck": 7517,
      "rrbje": 7518,
      "fields": 7519,
      "राज": 7520,
      "919": 7521,
      "_y": 7522,
      "भार": 7523,
      "another": 7524,
      "demo": 7525,
      "never": 7526,
      "division": 7527,
      "phy": 7528,
      "bhati": 7529,
      "salts": 7530,
      "wonder": 7531,
      "tne": 7532,
      "हे": 7533,
      "𝐈𝐧": 7534,
      "lip": 7535,
      "liqu": 7536,
      "did": 7537,
      "exp": 7538,
      "expect": 7539,
      "gence": 7540,
      "————": 7541,
      "⟿⟿⟿⟿": 7542,
      "महत्वपूर्ण": 7543,
      "1j": 7544,
      "गी": 7545,
      "मि": 7546,
      "seem": 7547,
      "uptet": 7548,
      "higher": 7549,
      "writing": 7550,
      "boxing": 7551,
      "achieve": 7552,
      "𝐢𝐭": 7553,
      "covers": 7554,
      "dan": 7555,
      "fra": 7556,
      "पे": 7557,
      "chen": 7558,
      "ogn": 7559,
      "aye": 7560,
      "लिक": 7561,
      "background": 7562,
      "blocks": 7563,
      "rojgar_with": 7564,
      "construction": 7565,
      "n4": 7566,
      "solar": 7567,
      "drop": 7568,
      "schedule": 7569,
      "ged": 7570,
      "oz": 7571,
      "vg": 7572,
      "🔥🔥": 7573,
      "rec": 7574,
      "tel": 7575,
      "changes": 7576,
      "tags": 7577,
      "contri": 7578,
      "gaganpratap": 7579,
      "further": 7580,
      "rojgar_with_ankit": 7581,
      "bad": 7582,
      "fall": 7583,
      "rit": 7584,
      "𝐋𝐈": 7585,
      "stic": 7586,
      "generation": 7587,
      "pedagogy": 7588,
      "cq": 7589,
      "hot": 7590,
      "sand": 7591,
      "scre": 7592,
      "spir": 7593,
      "परि": 7594,
      "electronics": 7595,
      "bom": 7596,
      "hsc": 7597,
      "चा": 7598,
      "dim": 7599,
      "datascience": 7600,
      "obs": 7601,
      "tha": 7602,
      "ata": 7603,
      "chool": 7604,
      "tains": 7605,
      "service": 7606,
      "memes": 7607,
      "wood": 7608,
      "nw": 7609,
      "invest": 7610,
      "speak": 7611,
      "sleep": 7612,
      ".\"": 7613,
      "gart": 7614,
      "qb": 7615,
      "𝐜𝐞": 7616,
      "player": 7617,
      "acks": 7618,
      "kinder": 7619,
      "numericals": 7620,
      "producer": 7621,
      "_p": 7622,
      "_s": 7623,
      "इन": 7624,
      "element": 7625,
      "version": 7626,
      "publication": 7627,
      "∼∼∻∼∼∻": 7628,
      "eye": 7629,
      "⤠⤠": 7630,
      "owd7": 7631,
      "plxc": 7632,
      "ime": 7633,
      "states": 7634,
      "ारा": 7635,
      "zcowd7": 7636,
      "child": 7637,
      "plxczcowd7": 7638,
      "b0": 7639,
      "hun": 7640,
      "जु": 7641,
      "biot": 7642,
      "minute": 7643,
      "wards": 7644,
      "2p": 7645,
      "nan": 7646,
      "ont": 7647,
      "sex": 7648,
      "ased": 7649,
      "abhi": 7650,
      ".....": 7651,
      "clean": 7652,
      "advant": 7653,
      "▀▀▀▀▀▀▀▀▀▀▀▀▀▀▀▀▀▀▀▀▀▀▀▀": 7654,
      "society": 7655,
      "▬▬▬▬▬▬▬": 7656,
      "हिंदी": 7657,
      "c7": 7658,
      "cry": 7659,
      "ients": 7660,
      "ilities": 7661,
      "compos": 7662,
      "challeng": 7663,
      "agriculture": 7664,
      "hic": 7665,
      "jab": 7666,
      "kota": 7667,
      "alakh": 7668,
      "doing": 7669,
      "gles": 7670,
      "arith": 7671,
      "4k": 7672,
      "f7": 7673,
      "ष्": 7674,
      "scert": 7675,
      "ists": 7676,
      "licens": 7677,
      "inspir": 7678,
      "revolution": 7679,
      "den": 7680,
      "টি": 7681,
      "◆◆": 7682,
      "leave": 7683,
      "quant": 7684,
      "role": 7685,
      "sscchsl": 7686,
      "10thclass": 7687,
      "generator": 7688,
      "steps": 7689,
      "interested": 7690,
      "frequ": 7691,
      "সম": 7692,
      "insta": 7693,
      "educators": 7694,
      "multiplication": 7695,
      "blogspot": 7696,
      "5x": 7697,
      "pin": 7698,
      "toys": 7699,
      "tell": 7700,
      "byju": 7701,
      "root": 7702,
      "rect": 7703,
      "remember": 7704,
      "impact": 7705,
      "innovation": 7706,
      "ट्स": 7707,
      "garten": 7708,
      "1x": 7709,
      "fd": 7710,
      "j8": 7711,
      "kalam": 7712,
      "uq": 7713,
      "ವಿ": 7714,
      "️⃣": 7715,
      "ini": 7716,
      "ends": 7717,
      "oke": 7718,
      "indivi": 7719,
      "pdz": 7720,
      "director": 7721,
      "................................................................": 7722,
      "molecular": 7723,
      "_science_": 7724,
      "rics": 7725,
      "𝟐𝟎": 7726,
      "shu": 7727,
      "compon": 7728,
      "mary": 7729,
      "krish": 7730,
      "jrf": 7731,
      "purchase": 7732,
      "85": 7733,
      "waves": 7734,
      "𝐧𝐥": 7735,
      "anu": 7736,
      "combo": 7737,
      "php": 7738,
      "few": 7739,
      "document": 7740,
      "consult": 7741,
      "gadgets": 7742,
      "kindergarten": 7743,
      "pmc": 7744,
      "lak": 7745,
      "ited": 7746,
      "mbbs": 7747,
      "gaurav": 7748,
      "_d": 7749,
      "a1": 7750,
      "fm": 7751,
      "women": 7752,
      "इं": 7753,
      "लो": 7754,
      "lax": 7755,
      "lis": 7756,
      "sets": 7757,
      "shan": 7758,
      "************": 7759,
      "unique": 7760,
      "=======================================================": 7761,
      "approach": 7762,
      "_e": 7763,
      "q0": 7764,
      "yog": 7765,
      "isha": 7766,
      "contents": 7767,
      "cd": 7768,
      "ril": 7769,
      "zd": 7770,
      "दा": 7771,
      "wave": 7772,
      "skin": 7773,
      "क्लिक": 7774,
      "missions": 7775,
      "pie": 7776,
      "साथ": 7777,
      "salt": 7778,
      "👇👇👇👇👇👇👇👇": 7779,
      "हमारे": 7780,
      ":)": 7781,
      "hon": 7782,
      "money": 7783,
      "n3": 7784,
      "say": 7785,
      "zero": 7786,
      "في": 7787,
      "ைய": 7788,
      "geometry": 7789,
      "minutes": 7790,
      "recorded": 7791,
      "8w": 7792,
      "core": 7793,
      "𝐀𝐓": 7794,
      "invent": 7795,
      "ising": 7796,
      "coding": 7797,
      "mkxj": 7798,
      "comments": 7799,
      "hab": 7800,
      "km": 7801,
      "q5": 7802,
      "v6": 7803,
      "उत्": 7804,
      "contain": 7805,
      "dule": 7806,
      "constit": 7807,
      "tuned": 7808,
      "pl4pdz": 7809,
      "pl4pdzmkxj": 7810,
      "2l": 7811,
      "xii": 7812,
      "রা": 7813,
      "🙏🙏": 7814,
      "reach": 7815,
      "park": 7816,
      "inside": 7817,
      "formulas": 7818,
      "vh": 7819,
      "istration": 7820,
      "module": 7821,
      "due": 7822,
      "salary": 7823,
      "bharat": 7824,
      "bes": 7825,
      "wind": 7826,
      "within": 7827,
      "yourself": 7828,
      "bring": 7829,
      "========================================": 7830,
      "pubmed": 7831,
      "produced": 7832,
      "300": 7833,
      "essential": 7834,
      "करण": 7835,
      "specific": 7836,
      "regarding": 7837,
      "2h": 7838,
      "d0": 7839,
      "mid": 7840,
      "tc": 7841,
      "bey": 7842,
      "aptitude": 7843,
      "pll": 7844,
      "straight": 7845,
      "6t": 7846,
      "cross": 7847,
      "nir": 7848,
      "rad": 7849,
      "ल्": 7850,
      "fees": 7851,
      "्यू": 7852,
      "prime": 7853,
      "exciting": 7854,
      "techniques": 7855,
      "▀▀▀▀▀▀▀▀▀▀▀▀▀▀▀▀▀▀▀▀▀▀▀▀▀▀": 7856,
      "cen": 7857,
      "ih": 7858,
      "xl": 7859,
      "ंध": 7860,
      "जान": 7861,
      "ങ്": 7862,
      "umb": 7863,
      "adeep": 7864,
      "temper": 7865,
      "methods": 7866,
      "above": 7867,
      "3m": 7868,
      "ത്": 7869,
      "makes": 7870,
      "pln": 7871,
      "ries": 7872,
      "perfect": 7873,
      "bits": 7874,
      "bhopal": 7875,
      "evolution": 7876,
      "सायन": 7877,
      "••••••••••••••••": 7878,
      "circuit": 7879,
      "9w": 7880,
      "f0": 7881,
      "mess": 7882,
      "tom": 7883,
      "ಗಳ": 7884,
      "lex": 7885,
      "quar": 7886,
      "ension": 7887,
      "publish": 7888,
      "muscle": 7889,
      "intelligence": 7890,
      "rum": 7891,
      "था": 7892,
      "////": 7893,
      "formed": 7894,
      "odes": 7895,
      "bravo": 7896,
      "adityaran": 7897,
      "stock": 7898,
      "navy": 7899,
      "f6": 7900,
      "गे": 7901,
      "thin": 7902,
      "clerk": 7903,
      "blue": 7904,
      "hero": 7905,
      "communication": 7906,
      "volume": 7907,
      "favour": 7908,
      "්‍ය": 7909,
      "500": 7910,
      "b5": 7911,
      "bay": 7912,
      "কে": 7913,
      "esome": 7914,
      "usion": 7915,
      "unlock": 7916,
      "uppolice": 7917,
      "character": 7918,
      "analyt": 7919,
      "priv": 7920,
      "plk": 7921,
      "contains": 7922,
      "ache": 7923,
      "travel": 7924,
      "march": 7925,
      "0l": 7926,
      "2u": 7927,
      "tty": 7928,
      "termin": 7929,
      "means": 7930,
      "groupd": 7931,
      "offers": 7932,
      "mkr": 7933,
      "valu": 7934,
      "transport": 7935,
      "1k": 7936,
      "bing": 7937,
      "match": 7938,
      "nl": 7939,
      "क्या": 7940,
      "மு": 7941,
      "ាន": 7942,
      "្រ": 7943,
      "🌹🌹": 7944,
      "sel": 7945,
      "iron": 7946,
      "byj": 7947,
      "testing": 7948,
      "autom": 7949,
      "celer": 7950,
      "ssc_cgl": 7951,
      "්‍ර": 7952,
      "rt": 7953,
      "sens": 7954,
      "𝐞𝐦": 7955,
      "𝐭𝐚": 7956,
      "alex": 7957,
      "amps": 7958,
      "total": 7959,
      "ultim": 7960,
      "interaction": 7961,
      "र्स": 7962,
      "lights": 7963,
      "credits": 7964,
      "ग्राम": 7965,
      "मान्य": 7966,
      "resistance": 7967,
      "93": 7968,
      "aver": 7969,
      "band": 7970,
      "ech": 7971,
      "m8": 7972,
      "வர": 7973,
      "hek": 7974,
      "strateg": 7975,
      "calculate": 7976,
      "simplification": 7977,
      "feedback": 7978,
      "\"\"": 7979,
      "rol": 7980,
      "xu": 7981,
      "rain": 7982,
      "internet": 7983,
      "manish": 7984,
      "consider": 7985,
      "entertainment": 7986,
      "nm": 7987,
      "gain": 7988,
      "digest": 7989,
      "capac": 7990,
      "𝐞𝐧𝐜𝐞": 7991,
      "masters": 7992,
      "2j": 7993,
      "p_": 7994,
      "near": 7995,
      "accor": 7996,
      "cook": 7997,
      "visual": 7998,
      "curi": 7999,
      "--------------------------------------------------------": 8000,
      "pathshala": 8001,
      "depend": 8002,
      "f5": 8003,
      "jd": 8004,
      "vu": 8005,
      "অধ": 8006,
      "tually": 8007,
      "acceler": 8008,
      "getting": 8009,
      "hair": 8010,
      "artif": 8011,
      "cbseclass10": 8012,
      "brand": 8013,
      "bachel": 8014,
      "मु": 8015,
      "তা": 8016,
      "advice": 8017,
      "awesome": 8018,
      "metal": 8019,
      "include": 8020,
      "needs": 8021,
      "challenge": 8022,
      "b6": 8023,
      "ior": 8024,
      "lens": 8025,
      "ashish": 8026,
      "country": 8027,
      "position": 8028,
      "किसी": 8029,
      "↬↬↬↬": 8030,
      "artificial": 8031,
      "_8": 8032,
      "qc": 8033,
      "wt": 8034,
      "angles": 8035,
      "tube": 8036,
      "dece": 8037,
      "map": 8038,
      "importantquestions": 8039,
      "transform": 8040,
      "textbook": 8041,
      "iu": 8042,
      "സ്": 8043,
      "arr": 8044,
      "radio": 8045,
      "soon": 8046,
      "technolog": 8047,
      "wbbse": 8048,
      "bengal": 8049,
      "allahabad": 8050,
      "aud": 8051,
      "fs": 8052,
      "hd": 8053,
      "rom": 8054,
      "z1": 8055,
      "pl8f": 8056,
      "essay": 8057,
      "royal": 8058,
      "iller": 8059,
      "revise": 8060,
      "eth": 8061,
      "sil": 8062,
      "swe": 8063,
      "আলো": 8064,
      "સ્": 8065,
      "ான": 8066,
      "ica": 8067,
      "and10": 8068,
      "instru": 8069,
      "trust": 8070,
      "pkart": 8071,
      "सामान्य": 8072,
      "studi": 8073,
      "includes": 8074,
      "ships": 8075,
      "movement": 8076,
      "sprint": 8077,
      "flipkart": 8078,
      "mpsc": 8079,
      "লে": 8080,
      "dev": 8081,
      "exe": 8082,
      "voc": 8083,
      "block": 8084,
      "options": 8085,
      "referral": 8086,
      "political": 8087,
      "bm": 8088,
      "ei": 8089,
      "kri": 8090,
      "nadu": 8091,
      "rk": 8092,
      "x4": 8093,
      "कृ": 8094,
      "lives": 8095,
      "having": 8096,
      "takes": 8097,
      "something": 8098,
      "soundcloud": 8099,
      "journal": 8100,
      "snap": 8101,
      "rapid": 8102,
      "rh": 8103,
      "tissue": 8104,
      "𝐅𝐨𝐫": 8105,
      "inc": 8106,
      "value": 8107,
      "clips": 8108,
      "prashant": 8109,
      "continu": 8110,
      "-~~": 8111,
      "bor": 8112,
      "bir": 8113,
      "karn": 8114,
      "p8": 8115,
      "uary": 8116,
      "👆👆": 8117,
      "diet": 8118,
      "plh": 8119,
      "super_": 8120,
      "psych": 8121,
      "1_": 8122,
      "four": 8123,
      "glass": 8124,
      "las": 8125,
      "grad": 8126,
      "ils": 8127,
      "pha": 8128,
      "acy": 8129,
      "idea": 8130,
      "equipment": 8131,
      "arithmet": 8132,
      "ultimate": 8133,
      "dha": 8134,
      "gun": 8135,
      "wish": 8136,
      "बंध": 8137,
      "য়া": 8138,
      "boy": 8139,
      "branch": 8140,
      "bles": 8141,
      "ission": 8142,
      "hands": 8143,
      "hydrogen": 8144,
      "k6": 8145,
      "wan": 8146,
      "ും": 8147,
      "save": 8148,
      "eval": 8149,
      "healthy": 8150,
      "sharma": 8151,
      "safety": 8152,
      "coordination": 8153,
      "kal": 8154,
      "p0": 8155,
      "q7": 8156,
      "rate": 8157,
      "site": 8158,
      "t_": 8159,
      "stick": 8160,
      "liye": 8161,
      "price": 8162,
      "etics": 8163,
      "iiit": 8164,
      "::::::::::::::::": 8165,
      "surroundings": 8166,
      "b4": 8167,
      "kd": 8168,
      "सु": 8169,
      "edition": 8170,
      "admissions": 8171,
      "hey": 8172,
      "zes": 8173,
      "print": 8174,
      "plbo": 8175,
      "jwm": 8176,
      "oxy": 8177,
      "p4": 8178,
      "टर": 8179,
      "ন্": 8180,
      "ના": 8181,
      "ங்க": 8182,
      "class8": 8183,
      "drives": 8184,
      "booster": 8185,
      "screen": 8186,
      "kas": 8187,
      "nbc": 8188,
      "uch": 8189,
      "𝐞𝐩": 8190,
      "ctive": 8191,
      "mechanics": 8192,
      "balloon": 8193,
      "fundamental": 8194,
      "fre": 8195,
      "वे": 8196,
      "शा": 8197,
      "ars": 8198,
      "alle": 8199,
      "toppers": 8200,
      "pix": 8201,
      "coura": 8202,
      "super_tet": 8203,
      "arithmetic": 8204,
      "gold": 8205,
      "sit": 8206,
      "wu": 8207,
      "क्र": 8208,
      "ில்": 8209,
      "fort": 8210,
      "oly": 8211,
      "ext": 8212,
      "ift": 8213,
      "however": 8214,
      "ohit": 8215,
      "months": 8216,
      "400": 8217,
      "entire": 8218,
      "units": 8219,
      "mein": 8220,
      "ances": 8221,
      "peb": 8222,
      "author": 8223,
      "sahil": 8224,
      "whole": 8225,
      "_kannada": 8226,
      "quiry": 8227,
      "december": 8228,
      "3j": 8229,
      "rx": 8230,
      "ond": 8231,
      "chy": 8232,
      "asing": 8233,
      "admin": 8234,
      "ucu": 8235,
      "ials": 8236,
      "els": 8237,
      "easi": 8238,
      "upsi": 8239,
      "circle": 8240,
      "laboratory": 8241,
      "average": 8242,
      "bachelor": 8243,
      "away": 8244,
      "mht": 8245,
      "p5": 8246,
      "नो": 8247,
      "remo": 8248,
      "_______": 8249,
      "rich": 8250,
      "wide": 8251,
      "acs": 8252,
      "early": 8253,
      "arti": 8254,
      "disco": 8255,
      "charges": 8256,
      ";;;;;;;;": 8257,
      "popular": 8258,
      "z5": 8259,
      "कु": 8260,
      "কি": 8261,
      "ক্ত": 8262,
      "already": 8263,
      "choice": 8264,
      "pl9g_z7fhmoss": 8265,
      "recommend": 8266,
      "भारत": 8267,
      "adityaranjan": 8268,
      "7n": 8269,
      "dro": 8270,
      "जन": 8271,
      "கு": 8272,
      "ಕ್": 8273,
      "ාව": 8274,
      "combin": 8275,
      "forces": 8276,
      "seb": 8277,
      "cardi": 8278,
      "▬▬▬▬▬▬▬▬▬▬▬▬▬▬▬▬▬▬▬▬▬▬▬": 8279,
      "american": 8280,
      "डा": 8281,
      "plv": 8282,
      "urdu": 8283,
      "john": 8284,
      "depth": 8285,
      "ങ്ങ": 8286,
      "3p": 8287,
      "nai": 8288,
      "दो": 8289,
      "infin": 8290,
      "atta": 8291,
      "pradeep": 8292,
      "ayan": 8293,
      "ssccgl": 8294,
      "circul": 8295,
      "normal": 8296,
      "whether": 8297,
      "recr": 8298,
      "since": 8299,
      "অধ্যা": 8300,
      "0x": 8301,
      "1c": 8302,
      "eb": 8303,
      "ʜᴀ": 8304,
      "invol": 8305,
      "thought": 8306,
      "class10th": 8307,
      "oken": 8308,
      "weigh": 8309,
      "endra": 8310,
      "puzzles": 8311,
      "policy": 8312,
      "yle": 8313,
      "तै": 8314,
      "হয়ে": 8315,
      "learnwith": 8316,
      "pecial": 8317,
      "timest": 8318,
      "ার্": 8319,
      "border": 8320,
      "hack": 8321,
      "ිය": 8322,
      "science_": 8323,
      "shiv": 8324,
      "linear": 8325,
      "front": 8326,
      "athlet": 8327,
      "expected": 8328,
      "3i": 8329,
      "lun": 8330,
      "yl": 8331,
      "wire": 8332,
      "importance": 8333,
      "nios": 8334,
      "jail": 8335,
      "secondary": 8336,
      "vidyak": 8337,
      "plgmkmhauzhqs": 8338,
      "++++++++": 8339,
      "mirror": 8340,
      "5m": 8341,
      "सर": 8342,
      "lau": 8343,
      "dear": 8344,
      "otes": 8345,
      "points": 8346,
      "aff": 8347,
      "dress": 8348,
      "viewers": 8349,
      "--------------------------------------------------------------------------------------------------------": 8350,
      "sabaqpk": 8351,
      "plw2ziq6owlow": 8352,
      "1u": 8353,
      "cds": 8354,
      "nom": 8355,
      "ಾನ": 8356,
      "𝒊𝒂": 8357,
      "stet": 8358,
      "letter": 8359,
      "aga": 8360,
      "spect": 8361,
      "flower": 8362,
      "……………………": 8363,
      "certific": 8364,
      "तैय": 8365,
      "3z": 8366,
      "_link": 8367,
      "hours": 8368,
      "jha": 8369,
      "ping": 8370,
      "wk": 8371,
      "attri": 8372,
      "young": 8373,
      "demon": 8374,
      "areas": 8375,
      "trad": 8376,
      "digit": 8377,
      "obser": 8378,
      "65": 8379,
      "ket": 8380,
      "mine": 8381,
      "ಸ್": 8382,
      "∭∭": 8383,
      "➤➤": 8384,
      "encoura": 8385,
      "phd": 8386,
      "phase": 8387,
      "3rd": 8388,
      "ancient": 8389,
      "electromagnetic": 8390,
      "efficient": 8391,
      "according": 8392,
      "0a": 8393,
      "8b": 8394,
      "bol": 8395,
      "f9": 8396,
      "pcb": 8397,
      "once": 8398,
      "reli": 8399,
      "adav": 8400,
      "--------------------------------------------------------------------------------": 8401,
      "kumjwm": 8402,
      "civics": 8403,
      "plbokumjwm": 8404,
      "plbokumjwmth": 8405,
      "5y": 8406,
      "hance": 8407,
      "msc": 8408,
      "vb": 8409,
      "choo": 8410,
      "beaut": 8411,
      "listen": 8412,
      "veloc": 8413,
      "experts": 8414,
      "insight": 8415,
      "purohit": 8416,
      "wallahpw": 8417,
      "condition": 8418,
      "बैच": 8419,
      "रो": 8420,
      "manu": 8421,
      "single": 8422,
      "_in_": 8423,
      "𝐨𝐮𝐫𝐬": 8424,
      "discovery": 8425,
      "blip": 8426,
      "z_": 8427,
      "reduce": 8428,
      "die": 8429,
      "iles": 8430,
      "abhis": 8431,
      "aded": 8432,
      "assam": 8433,
      "explor": 8434,
      "spotify": 8435,
      "lifescience": 8436,
      "additional": 8437,
      "biomedical": 8438,
      "67": 8439,
      "📍📍": 8440,
      "inste": 8441,
      "igur": 8442,
      "𝐚𝐫𝐭": 8443,
      "operation": 8444,
      "gravity": 8445,
      "genius": 8446,
      "temperature": 8447,
      "হয়েছে": 8448,
      "velocity": 8449,
      "cate": 8450,
      "🌱🌱": 8451,
      "ery": 8452,
      "tham": 8453,
      "mediate": 8454,
      "desh": 8455,
      "explaination": 8456,
      "editing": 8457,
      "_mseem": 8458,
      "_in_kannada": 8459,
      "𝐏𝐫𝐞𝐩": 8460,
      "pl8f_mseem": 8461,
      "pl8f_mseemlg": 8462,
      "ked": 8463,
      "kvs": 8464,
      "thy": 8465,
      "onom": 8466,
      "opin": 8467,
      "ides": 8468,
      "taken": 8469,
      "plyzuxqknttra": 8470,
      "diagrams": 8471,
      "individual": 8472,
      "blippi": 8473,
      "1t": 8474,
      "fg": 8475,
      "fish": 8476,
      "s7": 8477,
      "এই": 8478,
      "ட்ட": 8479,
      "enses": 8480,
      "ems": 8481,
      "ival": 8482,
      "sky": 8483,
      "====================================": 8484,
      "members": 8485,
      "lifest": 8486,
      "recruit": 8487,
      "\".": 8488,
      "_n": 8489,
      "fri": 8490,
      "nes": 8491,
      "ोड": 8492,
      "𝐂𝐨𝐮𝐫𝐬": 8493,
      "𝐜𝐭": 8494,
      "eno": 8495,
      "alpha": 8496,
      "unt": 8497,
      "116": 8498,
      "toppr": 8499,
      "hary": 8500,
      "𝐚𝐫𝐚𝐭𝐢𝐨𝐧": 8501,
      "*👌": 8502,
      "??": 8503,
      "astr": 8504,
      "𝒊𝒔": 8505,
      "𝒓𝒆": 8506,
      "👌*": 8507,
      "ाने": 8508,
      "copyrighted": 8509,
      "assign": 8510,
      "tural": 8511,
      "shomus": 8512,
      "composition": 8513,
      "private": 8514,
      "61": 8515,
      "rr": 8516,
      "ston": 8517,
      "isla": 8518,
      "terms": 8519,
      "schools": 8520,
      "donate": 8521,
      "tripod": 8522,
      "quizzes": 8523,
      "exampurofficial": 8524,
      "happy": 8525,
      "করা": 8526,
      "gravitation": 8527,
      "𝐢𝐬𝐭": 8528,
      "liquid": 8529,
      "choose": 8530,
      "earn": 8531,
      "liter": 8532,
      "nin": 8533,
      "तथा": 8534,
      "𝐢𝐠": 8535,
      "traction": 8536,
      "succe": 8537,
      "summary": 8538,
      "sinh": 8539,
      "boost": 8540,
      "principle": 8541,
      "rocket": 8542,
      "technologies": 8543,
      "𝐏𝐫𝐞𝐩𝐚𝐫𝐚𝐭𝐢𝐨𝐧": 8544,
      "5th": 8545,
      "71": 8546,
      "oq": 8547,
      "tic": 8548,
      "দের": 8549,
      "ভা": 8550,
      "𝐓𝐞𝐬𝐭": 8551,
      "arg": 8552,
      "repe": 8553,
      "ision": 8554,
      "shown": 8555,
      "pra": 8556,
      "bigg": 8557,
      "============": 8558,
      "comput": 8559,
      "hypo": 8560,
      "preparations": 8561,
      "htas": 8562,
      "weekly": 8563,
      "release": 8564,
      "lou": 8565,
      "टी": 8566,
      "පා": 8567,
      "ange": 8568,
      "plq": 8569,
      "hear": 8570,
      "craf": 8571,
      "humans": 8572,
      "principles": 8573,
      "opportunities": 8574,
      "shomusbiology": 8575,
      "0t": 8576,
      "9t": 8577,
      "जो": 8578,
      "𝐃𝐨": 8579,
      "𝗼𝗿": 8580,
      "script": 8581,
      "illu": 8582,
      "matri": 8583,
      "izing": 8584,
      "breath": 8585,
      "infringement": 8586,
      "્યુ": 8587,
      "විද": 8588,
      "ganit": 8589,
      "punjab": 8590,
      "3b": 8591,
      "4g": 8592,
      "92": 8593,
      "_h": 8594,
      "send": 8595,
      "।।": 8596,
      "দে": 8597,
      "𝗦𝘂": 8598,
      "𝗶𝗻": 8599,
      "inary": 8600,
      "ench": 8601,
      "dest": 8602,
      "plz": 8603,
      "quad": 8604,
      "artist": 8605,
      "fight": 8606,
      "nie": 8607,
      "pire": 8608,
      "culture": 8609,
      "direction": 8610,
      "asked": 8611,
      "homeopathic": 8612,
      "byjus": 8613,
      "vidyakul": 8614,
      "8u": 8615,
      "_ay": 8616,
      "sᴇ": 8617,
      "wq": 8618,
      "𝐨𝐮": 8619,
      "separ": 8620,
      "central": 8621,
      "ytchannel": 8622,
      "warder": 8623,
      "plo3_bg_rzy1": 8624,
      "𝐈𝐧𝐭": 8625,
      "ক্তি": 8626,
      "lifestyle": 8627,
      "5n": 8628,
      "5s": 8629,
      "8y": 8630,
      "cing": 8631,
      "cere": 8632,
      "k7": 8633,
      "nip": 8634,
      "ற்": 8635,
      "𝐜𝐞𝐬": 8636,
      "𝑪𝒐": 8637,
      "𝒕𝒉": 8638,
      "arthi": 8639,
      "aman": 8640,
      "diam": 8641,
      "adal": 8642,
      "ologist": 8643,
      "➙➙➙➙➙➙➙➙➙➙➙➙": 8644,
      "➙➙➙➙➙➙➙➙➙➙➙➙➙➙➙➙➙➙➙➙": 8645,
      "risk": 8646,
      "वर्त": 8647,
      "respiration": 8648,
      "strategies": 8649,
      "9f": 8650,
      "ipo": 8651,
      "kk": 8652,
      "o_": 8653,
      "ʙᴜ": 8654,
      "बो": 8655,
      "ાર": 8656,
      "⚝⚝": 8657,
      "𝒕𝒔": 8658,
      "plcn": 8659,
      "phil": 8660,
      "moving": 8661,
      "tru": 8662,
      "guess": 8663,
      "educator": 8664,
      "gujarat": 8665,
      "episodes": 8666,
      "vlogs": 8667,
      "ക്ക": 8668,
      "sᴛ": 8669,
      "wx": 8670,
      "यहा": 8671,
      "স্": 8672,
      "ᴘᴘ": 8673,
      "𝒍𝒂": 8674,
      "arjun": 8675,
      "plans": 8676,
      "actually": 8677,
      "premi": 8678,
      "workout": 8679,
      "batches": 8680,
      "difficul": 8681,
      "require": 8682,
      "membership": 8683,
      "𝐞𝐥𝐥𝐢𝐠": 8684,
      "𝐈𝐧𝐭𝐞𝐥𝐥𝐢𝐠": 8685,
      "𝐈𝐧𝐭𝐞𝐥𝐥𝐢𝐠𝐞𝐧𝐜𝐞": 8686,
      "6n": 8687,
      "aɴ": 8688,
      "aʟʟ": 8689,
      "bow": 8690,
      "cʜᴀɴɴᴇʟ": 8691,
      "dit": 8692,
      "fᴀᴄ": 8693,
      "gʀᴏ": 8694,
      "oid": 8695,
      "tʜ": 8696,
      "vous": 8697,
      "wʜᴀ": 8698,
      "zone": 8699,
      "ɢᴀʟ": 8700,
      "ɪᴍ": 8701,
      "ɪᴢ": 8702,
      "ɪᴛᴇᴅ": 8703,
      "ɴᴏ": 8704,
      "ɴᴀᴜ": 8705,
      "ʀᴀ": 8706,
      "ʀᴛ": 8707,
      "ʙʏ": 8708,
      "ʜɪ": 8709,
      "ʟʏ": 8710,
      "ᴅɪ": 8711,
      "ᴇᴅ": 8712,
      "ᴇɢᴀʟ": 8713,
      "ᴍᴀ": 8714,
      "ᴍᴏ": 8715,
      "ᴏꜰ": 8716,
      "ᴏᴏᴋ": 8717,
      "ᴛsa": 8718,
      "ᴜᴘ": 8719,
      "𝐏𝐌𝐀": 8720,
      "𝐕𝐞𝐫": 8721,
      "𝐛𝐚𝐥": 8722,
      "𝑶𝒕𝒉": 8723,
      "𝒍𝒆": 8724,
      "𝗗𝗔": 8725,
      "sci": 8726,
      "and_": 8727,
      "shay": 8728,
      "geo": 8729,
      "anyone": 8730,
      "harsh": 8731,
      "optional": 8732,
      "ᴀɴᴅ": 8733,
      "edusmar": 8734,
      "signific": 8735,
      "ᴏʀɪᴢ": 8736,
      "ᴛʜᴏʀɪᴢ": 8737,
      "edusmartfacebook": 8738,
      "edusmartwhatsapp": 8739,
      "directly": 8740,
      "pl0yjii_klsgq": 8741,
      "antibiot": 8742,
      "ᴀɢᴇ": 8743,
      "ᴄᴀᴛɪᴏɴ": 8744,
      "ᴇʙᴏᴏᴋ": 8745,
      "ᴏᴜʀ": 8746,
      "ᴠɪᴅᴇ": 8747,
      "𝐅𝐨𝐫𝐜𝐞𝐬": 8748,
      "aɴʏ": 8749,
      "fᴀᴄᴇʙᴏᴏᴋ": 8750,
      "gʀᴏᴜᴘ": 8751,
      "wʜᴀᴛsa": 8752,
      "ɴᴏᴛ": 8753,
      "ɴᴀᴜᴛʜᴏʀɪᴢ": 8754,
      "𝐕𝐞𝐫𝐛𝐚𝐥": 8755,
      "𝑶𝒕𝒉𝒆𝒓": 8756,
      "wʜᴀᴛsaᴘᴘ": 8757,
      "ɴᴀᴜᴛʜᴏʀɪᴢᴇᴅ": 8758,
      "0w": 8759,
      "920": 8760,
      "bert": 8761,
      "u4": 8762,
      "vation": 8763,
      "✔📚": 8764,
      "➝➝": 8765,
      "china": 8766,
      "clar": 8767,
      "বিজ": 8768,
      "leader": 8769,
      "aim": 8770,
      "hh": 8771,
      "yo": 8772,
      "ان": 8773,
      "उप": 8774,
      "anm": 8775,
      "cept": 8776,
      "engg": 8777,
      "paid": 8778,
      "eyes": 8779,
      "responsi": 8780,
      "victers": 8781,
      "distribution": 8782,
      "7t": 8783,
      "l2": 8784,
      "rq": 8785,
      "تح": 8786,
      "cele": 8787,
      "everyday": 8788,
      "guruji": 8789,
      "primary": 8790,
      "opportunity": 8791,
      "licensed": 8792,
      ".)": 8793,
      "0v": 8794,
      "4m": 8795,
      "_maths": 8796,
      "a0": 8797,
      "kari": 8798,
      "ske": 8799,
      "गर": 8800,
      "यू": 8801,
      "্ঞ": 8802,
      "alk": 8803,
      "represent": 8804,
      "toff": 8805,
      "address": 8806,
      "rak": 8807,
      "ult": 8808,
      "friction": 8809,
      "upp": 8810,
      "commission": 8811,
      "austr": 8812,
      "event": 8813,
      "templ": 8814,
      "baby": 8815,
      "vidyarthi": 8816,
      "𝐥𝐚𝐬𝐬": 8817,
      "तैयारी": 8818,
      "5g": 8819,
      "6x": 8820,
      "fw": 8821,
      "sav": 8822,
      "usu": 8823,
      "inv": 8824,
      "aries": 8825,
      "prad": 8826,
      "exercises": 8827,
      "handle": 8828,
      "speedy": 8829,
      "mystery": 8830,
      "9d": 8831,
      "evidyarthi": 8832,
      "mans": 8833,
      "nik": 8834,
      "मी": 8835,
      "ுவ": 8836,
      "📚📚": 8837,
      "algor": 8838,
      "compar": 8839,
      "sequ": 8840,
      "strict": 8841,
      "informational": 8842,
      "electronic": 8843,
      "ncerts": 8844,
      "abhishek": 8845,
      "4h": 8846,
      "e0": 8847,
      "hold": 8848,
      "भौ": 8849,
      "டி": 8850,
      "enhance": 8851,
      "towards": 8852,
      "pline": 8853,
      "progr": 8854,
      "ucgv": 8855,
      "events": 8856,
      "दिए": 8857,
      "maxim": 8858,
      "oxygen": 8859,
      "g4": 8860,
      "lh": 8861,
      "vv": 8862,
      "டு": 8863,
      "ishadal": 8864,
      "poll": 8865,
      "steam": 8866,
      "mahishadal": 8867,
      "large": 8868,
      "ள்ள": 8869,
      "execut": 8870,
      "9q": 8871,
      "bil": 8872,
      "claim": 8873,
      "eks": 8874,
      "yr": 8875,
      "विष": 8876,
      "objects": 8877,
      "animated": 8878,
      "songs": 8879,
      "half": 8880,
      "algorith": 8881,
      "62": 8882,
      "9s": 8883,
      "ians": 8884,
      "🪶◍": 8885,
      "ino": 8886,
      "tup": 8887,
      "tuition": 8888,
      "2016": 8889,
      "adap": 8890,
      "phere": 8891,
      "spons": 8892,
      "careers": 8893,
      "vivek_sir": 8894,
      "appropri": 8895,
      "रूर": 8896,
      "combination": 8897,
      "capacit": 8898,
      "ips": 8899,
      "ರ್": 8900,
      "𝐂𝐈": 8901,
      "𝐒𝐈": 8902,
      "𝐜𝐡": 8903,
      "psi": 8904,
      "class7": 8905,
      "cambridge": 8906,
      "optics": 8907,
      "passion": 8908,
      "synthesis": 8909,
      "𝐂𝐨𝐮𝐫𝐬𝐞": 8910,
      "8n": 8911,
      "9g": 8912,
      "ler": 8913,
      "तिक": 8914,
      "पी": 8915,
      "grif": 8916,
      "vector": 8917,
      "byviveksir": 8918,
      "install": 8919,
      "tau": 8920,
      "aging": 8921,
      "workshop": 8922,
      "ensity": 8923,
      "custom": 8924,
      "wbcs": 8925,
      "million": 8926,
      "আলোচ": 8927,
      "डाउ": 8928,
      "sinhala": 8929,
      "বিজ্ঞ": 8930,
      "foun": 8931,
      "rd": 8932,
      "ध्य": 8933,
      "𝐢𝐫": 8934,
      "among": 8935,
      "abh": 8936,
      "prevent": 8937,
      "option": 8938,
      "plgmkmhauzhq": 8939,
      "definition": 8940,
      "नीचे": 8941,
      "=-=-": 8942,
      "thinking": 8943,
      "बंधित": 8944,
      "weightage": 8945,
      "timestamps": 8946,
      "6q": 8947,
      "gj": 8948,
      "gup": 8949,
      "qm": 8950,
      "rati": 8951,
      "sach": 8952,
      "மி": 8953,
      "𝐌𝐄": 8954,
      "espn": 8955,
      "plj": 8956,
      "taking": 8957,
      "offic": 8958,
      "files": 8959,
      "▬▬▬▬▬▬▬▬▬▬▬▬▬▬▬▬▬▬▬▬▬▬▬▬": 8960,
      "increase": 8961,
      "વિદ": 8962,
      "પ્રક": 8963,
      "විද්‍ය": 8964,
      "বিজ্ঞান": 8965,
      "1s": 8966,
      "aan": 8967,
      "n9": 8968,
      "quora": 8969,
      "twitch": 8970,
      "disha": 8971,
      "batt": 8972,
      "sandeep": 8973,
      "analytics": 8974,
      ")-": 8975,
      "size": 8976,
      "vvi": 8977,
      "बहु": 8978,
      "ர்": 8979,
      "ored": 8980,
      "beha": 8981,
      "scienceproject": 8982,
      "vijay": 8983,
      "ently": 8984,
      "sugar": 8985,
      "white": 8986,
      "heli": 8987,
      "french": 8988,
      "appear": 8989,
      "lessonplan": 8990,
      "models": 8991,
      "विध": 8992,
      "jais": 8993,
      "davguru": 8994,
      "plyzuxqknttrb": 8995,
      "breaking": 8996,
      "spirit": 8997,
      "➙➙➙➙➙➙➙➙➙➙➙➙➙➙➙➙➙➙➙➙➙➙": 8998,
      "𝗗𝗔𝗩": 8999,
      "𝐂𝐈𝐀𝐋": 9000,
      "0y": 9001,
      "6s": 9002,
      "flo": 9003,
      "गत": 9004,
      "𝐞𝐭": 9005,
      "often": 9006,
      "excret": 9007,
      "pyqs": 9008,
      "giving": 9009,
      "नलोड": 9010,
      "illustr": 9011,
      "appropriate": 9012,
      "डाउनलोड": 9013,
      "d8": 9014,
      "rpsc": 9015,
      "नही": 9016,
      "icif": 9017,
      "iry": 9018,
      "rid": 9019,
      "......": 9020,
      "mention": 9021,
      "paint": 9022,
      "voice": 9023,
      "tempt": 9024,
      "license": 9025,
      "fxicif": 9026,
      "recruitment": 9027,
      "plcnfxicif": 9028,
      "5c": 9029,
      "6a": 9030,
      "lon": 9031,
      "oil": 9032,
      "vw": 9033,
      "सू": 9034,
      "પર": 9035,
      "𝐂𝐥𝐚𝐬𝐬": 9036,
      "alter": 9037,
      "mas": 9038,
      "cting": 9039,
      "olutions": 9040,
      "ysir": 9041,
      "fee": 9042,
      "pred": 9043,
      "bharti": 9044,
      "----------------------------------------------------------------------------------------": 9045,
      "virtual": 9046,
      "highly": 9047,
      "promot": 9048,
      "cadre": 9049,
      "⇢⇢⇢⇢": 9050,
      "_exam": 9051,
      "পা": 9052,
      "combat": 9053,
      "lekh": 9054,
      "diag": 9055,
      ".......": 9056,
      "bonding": 9057,
      "giri": 9058,
      "kindly": 9059,
      "0s": 9060,
      "4th": 9061,
      "कारी": 9062,
      "शन": 9063,
      "edge": 9064,
      "necess": 9065,
      "compe": 9066,
      "genetics": 9067,
      "qualified": 9068,
      "clip": 9069,
      "professionals": 9070,
      "recogn": 9071,
      "অধ্যায়": 9072,
      "tour": 9073,
      "wall": 9074,
      "ঙ্": 9075,
      "chain": 9076,
      "excel": 9077,
      "mental": 9078,
      "aqa": 9079,
      "aditya_": 9080,
      "transl": 9081,
      "certain": 9082,
      "particles": 9083,
      "happen": 9084,
      "cardboard": 9085,
      "ट्रिक": 9086,
      "lekhpal": 9087,
      "_official": 9088,
      "b8": 9089,
      "d2": 9090,
      "uz": 9091,
      "yang": 9092,
      "बन": 9093,
      "പ്": 9094,
      "init": 9095,
      "decor": 9096,
      "forkids": 9097,
      "ghter": 9098,
      "portion": 9099,
      "angana": 9100,
      "archite": 9101,
      "movies": 9102,
      "diseases": 9103,
      "clinical": 9104,
      "स्थान": 9105,
      "components": 9106,
      "drivesdk": 9107,
      "68": 9108,
      "hindu": 9109,
      "rules": 9110,
      "tl": 9111,
      "v7": 9112,
      "𝐎𝐑": 9113,
      "atp": 9114,
      "attempt": 9115,
      "physics_": 9116,
      "tak": 9117,
      "joinchat": 9118,
      "merch": 9119,
      "ference": 9120,
      "respective": 9121,
      "aditya_ranjan": 9122,
      "bp": 9123,
      "u_": 9124,
      "ની": 9125,
      "𝗹𝗮": 9126,
      "chak": 9127,
      "shift": 9128,
      "exchange": 9129,
      "plsp": 9130,
      "pher": 9131,
      "disci": 9132,
      "push": 9133,
      "nervous": 9134,
      "reference": 9135,
      "positive": 9136,
      "––––––––": 9137,
      "wild": 9138,
      "crafts": 9139,
      "behavi": 9140,
      "/+": 9141,
      "9v": 9142,
      "dance": 9143,
      "length": 9144,
      "pj": 9145,
      "ona": 9146,
      "endo": 9147,
      "degre": 9148,
      "eter": 9149,
      "rial": 9150,
      "drama": 9151,
      "anger": 9152,
      "numberblocks": 9153,
      "typing": 9154,
      "experiences": 9155,
      "paypal": 9156,
      "क्लास": 9157,
      "6v": 9158,
      "9x": 9159,
      "ज्या": 9160,
      "बि": 9161,
      "සර": 9162,
      "📲(": 9163,
      "ataka": 9164,
      "2014": 9165,
      "ghat": 9166,
      "sym": 9167,
      "court": 9168,
      "wali": 9169,
      "universities": 9170,
      "class9science": 9171,
      "inspire": 9172,
      "2i": 9173,
      "5r": 9174,
      "dad": 9175,
      "ost": 9176,
      "ote": 9177,
      "row": 9178,
      "neph": 9179,
      "seen": 9180,
      "unes": 9181,
      "factors": 9182,
      "pard": 9183,
      "moon": 9184,
      "anything": 9185,
      "class10maths": 9186,
      "registration": 9187,
      "valid": 9188,
      "────": 9189,
      "nippard": 9190,
      "degrees": 9191,
      "5h": 9192,
      "6g": 9193,
      "9l": 9194,
      "eco": 9195,
      "fj": 9196,
      "oa": 9197,
      "rup": 9198,
      "টা": 9199,
      "𝐨𝐢𝐧": 9200,
      "lete": 9201,
      "reproduce": 9202,
      "determin": 9203,
      "ander": 9204,
      "subscribing": 9205,
      "odisha": 9206,
      "plane": 9207,
      "memor": 9208,
      "switch": 9209,
      "हास": 9210,
      "فيز": 9211,
      "certificate": 9212,
      "0q": 9213,
      "1e": 9214,
      "6e": 9215,
      "b07": 9216,
      "eat": 9217,
      "nn": 9218,
      "pion": 9219,
      "utt": 9220,
      "forum": 9221,
      "secon": 9222,
      "shap": 9223,
      "plu": 9224,
      "formation": 9225,
      "thermo": 9226,
      "ntpcchemistry": 9227,
      "warri": 9228,
      "marathi": 9229,
      "executive": 9230,
      "css": 9231,
      "rg": 9232,
      "जरूर": 9233,
      "द्य": 9234,
      "▰▱": 9235,
      "lets": 9236,
      "ands": 9237,
      "lower": 9238,
      "matric": 9239,
      "तिहास": 9240,
      "telangana": 9241,
      "frequency": 9242,
      "acceleration": 9243,
      "pebbles": 9244,
      "celebr": 9245,
      "➙➙➙➙➙➙➙➙➙➙➙➙➙➙➙➙➙➙➙➙➙➙➙": 9246,
      "5t": 9247,
      "afr": 9248,
      "gta": 9249,
      "v4": 9250,
      "टि": 9251,
      "𝐉𝐨𝐢𝐧": 9252,
      "chlor": 9253,
      "lift": 9254,
      "toy": 9255,
      "andre": 9256,
      "tee": 9257,
      "dium": 9258,
      "proce": 9259,
      "mathsclass": 9260,
      "club": 9261,
      "overview": 9262,
      "avee": 9263,
      "chandrainstitute": 9264,
      "_mains": 9265,
      "fly": 9266,
      "jhuman": 9267,
      "uw": 9268,
      "ક્": 9269,
      "𝟗𝟗": 9270,
      "staff": 9271,
      "ita": 9272,
      "remix": 9273,
      "unboxing": 9274,
      "fix": 9275,
      "neet2024": 9276,
      "ureka": 9277,
      "mppsc": 9278,
      "magnetbrainsbhopal": 9279,
      "soft": 9280,
      "_r_": 9281,
      "💠💠💠💠": 9282,
      "टेली": 9283,
      "griffin": 9284,
      "hota": 9285,
      "ું": 9286,
      "𝐨𝐦": 9287,
      "arm": 9288,
      "relax": 9289,
      "isi": 9290,
      "mash": 9291,
      "users": 9292,
      "rist": 9293,
      "ucs": 9294,
      "local": 9295,
      "guaran": 9296,
      "owner": 9297,
      "iksh": 9298,
      "fuel": 9299,
      "healthcare": 9300,
      "360": 9301,
      "sounds": 9302,
      "biotechnology": 9303,
      "relev": 9304,
      "measurement": 9305,
      "mate": 9306,
      "તિ": 9307,
      "𝐨𝐥": 9308,
      "mac": 9309,
      "class9th": 9310,
      "wiki": 9311,
      "0029": 9312,
      "र्ड": 9313,
      "stuff": 9314,
      "trying": 9315,
      "9n10": 9316,
      "ভিডিওর": 9317,
      "mansi": 9318,
      "टेलीग्राम": 9319,
      "a7": 9320,
      "bill": 9321,
      "ebooks": 9322,
      "g1": 9323,
      "lk": 9324,
      "rj": 9325,
      "som": 9326,
      "ීම": 9327,
      "thom": 9328,
      "stone": 9329,
      "didi": 9330,
      "learnoh": 9331,
      "intern": 9332,
      "median": 9333,
      "particular": 9334,
      "nuclear": 9335,
      "message": 9336,
      "manufac": 9337,
      "විද්‍යාව": 9338,
      "initial": 9339,
      "learnohub": 9340,
      "vard": 9341,
      "𝐎𝐧𝐥": 9342,
      "liver": 9343,
      "vikr": 9344,
      "abv": 9345,
      "perks": 9346,
      "pages": 9347,
      "again": 9348,
      "cutoff": 9349,
      "प्रा": 9350,
      "samache": 9351,
      "powerful": 9352,
      "running": 9353,
      "pradesh": 9354,
      "আলোচনা": 9355,
      "1n": 9356,
      "9c": 9357,
      "9m": 9358,
      "_i": 9359,
      "_u": 9360,
      "broad": 9361,
      "hem": 9362,
      "mist": 9363,
      "च्": 9364,
      "ඩම": 9365,
      "𝐒𝐢𝐫": 9366,
      "edureka": 9367,
      "shor": 9368,
      "god": 9369,
      "mcat": 9370,
      "----------------------------------------------------": 9371,
      "crashcourse": 9372,
      "━━━━": 9373,
      "ˍˍˍˍˍˍˍˍ": 9374,
      "පාඩම": 9375,
      "8q": 9376,
      "ders": 9377,
      "gest": 9378,
      "gment": 9379,
      "hv": 9380,
      "jai": 9381,
      "pac": 9382,
      "yam": 9383,
      "इतिहास": 9384,
      "👉🏼": 9385,
      "stack": 9386,
      "compla": 9387,
      "lem": 9388,
      "dead": 9389,
      "veer": 9390,
      "meditation": 9391,
      "previou": 9392,
      "analy": 9393,
      "levels": 9394,
      "द्ध": 9395,
      "beyond": 9396,
      "تحفيز": 9397,
      "touch": 9398,
      "पर्": 9399,
      "్ర": 9400,
      "aro": 9401,
      "cexam": 9402,
      "devices": 9403,
      "adh": 9404,
      "emplo": 9405,
      "plement": 9406,
      "magnets": 9407,
      "infinity": 9408,
      "learnwithmansi": 9409,
      "diagno": 9410,
      "2g": 9411,
      "bhai": 9412,
      "fem": 9413,
      "hur": 9414,
      "rand": 9415,
      "sbi": 9416,
      "🔹🔹": 9417,
      "enth": 9418,
      "orient": 9419,
      "chris": 9420,
      "scien": 9421,
      "apee": 9422,
      "ilar": 9423,
      "suit": 9424,
      "doi": 9425,
      "derabad": 9426,
      "copyrights": 9427,
      "adven": 9428,
      "sexual": 9429,
      "attribution": 9430,
      "ncertsolutions": 9431,
      "1r": 9432,
      "bam": 9433,
      "gation": 9434,
      "xg": 9435,
      "ंड": 9436,
      "रसायन": 9437,
      "থা": 9438,
      "শ্": 9439,
      "ත්": 9440,
      "𝐁𝐀𝐓": 9441,
      "𝐃𝐈": 9442,
      "𝐅𝐚": 9443,
      "𝐩𝐩": 9444,
      "arth": 9445,
      "itunes": 9446,
      "sever": 9447,
      "apy": 9448,
      "prot": 9449,
      "mathstr": 9450,
      "spread": 9451,
      "1611": 9452,
      "economic": 9453,
      "vidyapee": 9454,
      "productive": 9455,
      "kriya": 9456,
      "psychology": 9457,
      "𝐁𝐀𝐓𝐂𝐇": 9458,
      "vidyapeeth": 9459,
      ".:": 9460,
      "83": 9461,
      "cil": 9462,
      "gala": 9463,
      "अभी": 9464,
      "ncs": 9465,
      "safe": 9466,
      "plusone": 9467,
      "rankersgurukul": 9468,
      "spring": 9469,
      "मुख": 9470,
      "karnataka": 9471,
      "-~": 9472,
      "1i": 9473,
      "5yy": 9474,
      "6r": 9475,
      "_ap": 9476,
      "eh": 9477,
      "hen": 9478,
      "sind": 9479,
      "xog": 9480,
      "िकी": 9481,
      "𝐋𝐀": 9482,
      "𝐕𝐄": 9483,
      "aral": 9484,
      "device": 9485,
      "lyrics": 9486,
      "rohit": 9487,
      "triangle": 9488,
      "shared": 9489,
      "polynom": 9490,
      "************************************************": 9491,
      "ukwvkfidaf": 9492,
      "जानकारी": 9493,
      "officer": 9494,
      "seconds": 9495,
      "_q": 9496,
      "dog": 9497,
      "jal": 9498,
      "mun": 9499,
      "अभ": 9500,
      "व्": 9501,
      "ತಿ": 9502,
      "್ಲ": 9503,
      "്യ": 9504,
      "𝐍𝐒": 9505,
      "scen": 9506,
      "recent": 9507,
      "ows": 9508,
      "ryf": 9509,
      "्रा": 9510,
      "onlineclasses": 9511,
      "patient": 9512,
      "pl9g_z7fhmosr": 9513,
      "ತ್ರ": 9514,
      "sweet": 9515,
      "844": 9516,
      "aks": 9517,
      "oi": 9518,
      "तु": 9519,
      "কা": 9520,
      "☀☀": 9521,
      "✸✸": 9522,
      "exist": 9523,
      "unya": 9524,
      "mechy": 9525,
      "parents": 9526,
      "gue": 9527,
      "glue": 9528,
      "hyderabad": 9529,
      "creating": 9530,
      "evs": 9531,
      "rule": 9532,
      "````````": 9533,
      "vikram": 9534,
      "mechymanish": 9535,
      "1v": 9536,
      "6k": 9537,
      "7q": 9538,
      "bv": 9539,
      "wg": 9540,
      "را": 9541,
      "अगर": 9542,
      "ત્ર": 9543,
      "𝐩𝐞": 9544,
      "icate": 9545,
      "secur": 9546,
      "excell": 9547,
      "ado": 9548,
      "pariksha": 9549,
      "useum": 9550,
      "blr": 9551,
      "supporting": 9552,
      "title": 9553,
      "girls": 9554,
      "𝐞𝐧𝐭": 9555,
      "ಗಳು": 9556,
      "against": 9557,
      "वर्तन": 9558,
      "बोर्ड": 9559,
      "ratio": 9560,
      "complaints": 9561,
      "bbc": 9562,
      "evid": 9563,
      "o4": 9564,
      "somet": 9565,
      "उन": 9566,
      "खा": 9567,
      "ন্য": 9568,
      "নের": 9569,
      "tuk": 9570,
      "anda": 9571,
      "sep": 9572,
      "shall": 9573,
      "2000": 9574,
      "igcse": 9575,
      "र्म": 9576,
      "developed": 9577,
      "mechanism": 9578,
      "हमारी": 9579,
      "cryst": 9580,
      "विषय": 9581,
      "4d": 9582,
      "_6": 9583,
      "bhi": 9584,
      "hub": 9585,
      "nv": 9586,
      "வி": 9587,
      "aling": 9588,
      "legal": 9589,
      "deb": 9590,
      "maker": 9591,
      "neg": 9592,
      "plp": 9593,
      "docs": 9594,
      "mates": 9595,
      "deriv": 9596,
      "prepared": 9597,
      "fluid": 9598,
      "meaning": 9599,
      "candid": 9600,
      "ற்ற": 9601,
      "w8": 9602,
      "z2": 9603,
      "𝐭𝐡": 9604,
      "𝗶𝘁": 9605,
      "𝘀𝘀": 9606,
      "arab": 9607,
      "plx": 9608,
      "mel": 9609,
      "myth": 9610,
      "chapter1": 9611,
      "similar": 9612,
      "paramjeet": 9613,
      "ssc_chsl": 9614,
      "south": 9615,
      "राजस्थान": 9616,
      "challenges": 9617,
      "demonstr": 9618,
      "abvmu": 9619,
      "sindh": 9620,
      "sank": 9621,
      "wp": 9622,
      "ংক": 9623,
      "වසර": 9624,
      "plm": 9625,
      "antra": 9626,
      "compil": 9627,
      "format": 9628,
      "colour": 9629,
      "generalscience": 9630,
      "rights": 9631,
      "undergraduate": 9632,
      "corpor": 9633,
      "greater": 9634,
      "covering": 9635,
      "display": 9636,
      "critical": 9637,
      "associate": 9638,
      "शिक्ष": 9639,
      "𝐋𝐈𝐕𝐄": 9640,
      "haryana": 9641,
      "gory": 9642,
      "hob": 9643,
      "jit": 9644,
      "lok": 9645,
      "oce": 9646,
      "pend": 9647,
      "till": 9648,
      "zation": 9649,
      "stri": 9650,
      "ato": 9651,
      "atmos": 9652,
      "sciencefun": 9653,
      "weap": 9654,
      "subtraction": 9655,
      "mentor": 9656,
      "hydro": 9657,
      "completely": 9658,
      "posts": 9659,
      "btc": 9660,
      "favourite": 9661,
      "दोस्त": 9662,
      "बहुत": 9663,
      "ज्यादा": 9664,
      "9u": 9665,
      "cla": 9666,
      "cture": 9667,
      "kap": 9668,
      "mers": 9669,
      "nasa": 9670,
      "o7": 9671,
      "গু": 9672,
      "𝐒𝐂": 9673,
      "𝐤𝐮": 9674,
      "𝙞𝙩": 9675,
      "independ": 9676,
      "scis": 9677,
      "ots": 9678,
      "paralle": 9679,
      "indiab": 9680,
      "affect": 9681,
      "sonu": 9682,
      "presented": 9683,
      "pl86x0rncqng": 9684,
      "clinic": 9685,
      ",,,,": 9686,
      "buddies": 9687,
      "कुछ": 9688,
      "plcnfxicifzl": 9689,
      "cm_": 9690,
      "eli": 9691,
      "jmy": 9692,
      "عل": 9693,
      "तक": 9694,
      "இந்த": 9695,
      "𝐂𝐆": 9696,
      "𝐫𝐚𝐦": 9697,
      "𝗿𝗶": 9698,
      "esaral": 9699,
      "lest": 9700,
      "recharge": 9701,
      "toon": 9702,
      "vii": 9703,
      "istic": 9704,
      "fresh": 9705,
      "goes": 9706,
      "collabor": 9707,
      "osis": 9708,
      "संबंधित": 9709,
      "માં": 9710,
      "association": 9711,
      "recommended": 9712,
      "beginners": 9713,
      "পরি": 9714,
      "vitam": 9715,
      "royalty": 9716,
      "easier": 9717,
      "samacheer": 9718,
      "𝐂𝐆𝐋": 9719,
      "jur": 9720,
      "pz0": 9721,
      "ua": 9722,
      "ओं": 9723,
      "য়ন": 9724,
      "ாத": 9725,
      "ක්": 9726,
      "forest": 9727,
      "shape": 9728,
      "pression": 9729,
      "sures": 9730,
      "changing": 9731,
      "mole": 9732,
      "heav": 9733,
      "door": 9734,
      "neet_": 9735,
      "collection": 9736,
      "programme": 9737,
      "कोशि": 9738,
      "double": 9739,
      "designs": 9740,
      "minds": 9741,
      "controll": 9742,
      "ramanu": 9743,
      "autocad": 9744,
      "ligibility": 9745,
      "tneb": 9746,
      "plxczcowd7ai": 9747,
      "minecraft": 9748,
      "necessary": 9749,
      "_of": 9750,
      "aar": 9751,
      "bacter": 9752,
      "jum": 9753,
      "m3": 9754,
      "museum": 9755,
      "nick": 9756,
      "sak": 9757,
      "tion": 9758,
      "अं": 9759,
      "हर": 9760,
      "ម្": 9761,
      "ano": 9762,
      "ena": 9763,
      "scale": 9764,
      "ung": 9765,
      "examin": 9766,
      "fection": 9767,
      "ldc": 9768,
      "ruhs": 9769,
      "fbise": 9770,
      "axu": 9771,
      "્યા": 9772,
      "tumblr": 9773,
      "needed": 9774,
      "𝟐𝟎𝟐": 9775,
      "0g": 9776,
      "5d": 9777,
      "_l": 9778,
      "kam": 9779,
      "ring": 9780,
      "ಪ್": 9781,
      "හා": 9782,
      "reve": 9783,
      "repair": 9784,
      "amount": 9785,
      "conser": 9786,
      "examwinner": 9787,
      "computers": 9788,
      "correct": 9789,
      "machines": 9790,
      "👇👇👇👇👇👇": 9791,
      "constant": 9792,
      "plw2ziq6owlou": 9793,
      "interviews": 9794,
      "simplilearn": 9795,
      "marketing": 9796,
      "ತ್ತ": 9797,
      "moments": 9798,
      "%%%%": 9799,
      "mathsbygaganpratap": 9800,
      "laksh": 9801,
      "nephron": 9802,
      "4iit": 9803,
      "ake": 9804,
      "ett": 9805,
      "tam": 9806,
      "यह": 9807,
      "ets": 9808,
      "kee": 9809,
      "uc3": 9810,
      "actions": 9811,
      "prec": 9812,
      "bute": 9813,
      "memory": 9814,
      "membr": 9815,
      "foundation4iit": 9816,
      "utm_content": 9817,
      "keywords": 9818,
      "uploaded": 9819,
      "style": 9820,
      "भाग": 9821,
      "🔆🔆🔆🔆": 9822,
      "यहाँ": 9823,
      "indiabud": 9824,
      "cm_sw": 9825,
      "hop": 9826,
      "java": 9827,
      "tict": 9828,
      "দ্": 9829,
      "পর্": 9830,
      "වන": 9831,
      "𝐁𝐲": 9832,
      "🤑🤑": 9833,
      "anies": 9834,
      "enable": 9835,
      "ara": 9836,
      "2015": 9837,
      "faster": 9838,
      "helpline": 9839,
      "iii": 9840,
      "reality": 9841,
      "happens": 9842,
      "technician": 9843,
      "abhikriya": 9844,
      "digestive": 9845,
      "evidence": 9846,
      "tictac": 9847,
      "4r": 9848,
      "4y": 9849,
      "63": 9850,
      "6o": 9851,
      "ecat": 9852,
      "lq": 9853,
      "lz": 9854,
      "mj": 9855,
      "mud": 9856,
      "बे": 9857,
      "️https": 9858,
      "𝗖𝗹𝗮": 9859,
      "initi": 9860,
      "stain": 9861,
      "labs": 9862,
      "olym": 9863,
      "vibr": 9864,
      "prize": 9865,
      "boot": 9866,
      "emot": 9867,
      "hain": 9868,
      "vishal": 9869,
      "bhun": 9870,
      "magnetism": 9871,
      "universal": 9872,
      "कोर्स": 9873,
      "discusses": 9874,
      "built": 9875,
      "origin": 9876,
      "graphics": 9877,
      "advantages": 9878,
      "नोट्स": 9879,
      "encourage": 9880,
      "भौतिक": 9881,
      "𝗖𝗹𝗮𝘀𝘀": 9882,
      "olympi": 9883,
      "cf": 9884,
      "fest": 9885,
      "ij": 9886,
      "lum": 9887,
      "pz": 9888,
      "ढ़": 9889,
      "ழ்": 9890,
      "●●": 9891,
      "⤟⇾⇾": 9892,
      "⤠⤟⇾⇾": 9893,
      "chart": 9894,
      "physicsguru": 9895,
      "chapterwise": 9896,
      "cos": 9897,
      "david": 9898,
      "147": 9899,
      "computerscience": 9900,
      "gaar": 9901,
      "vsat": 9902,
      "bones": 9903,
      "turing": 9904,
      "𝐚𝐭𝐜𝐡": 9905,
      "close": 9906,
      "situ": 9907,
      "hypothesis": 9908,
      "્યુત": 9909,
      "arjuna": 9910,
      "વિદ્યુત": 9911,
      "7o": 9912,
      "_channel": 9913,
      "bak": 9914,
      "cz": 9915,
      "eligibility": 9916,
      "f_": 9917,
      "sd": 9918,
      "vm": 9919,
      "wom": 9920,
      "xz": 9921,
      "टा": 9922,
      "ுக்க": 9923,
      "𝐁𝐚𝐭𝐜𝐡": 9924,
      "enu": 9925,
      "dive": 9926,
      "plastic": 9927,
      "urr": 9928,
      "optim": 9929,
      "railways": 9930,
      "annual": 9931,
      "reviews": 9932,
      "ukwvkfida": 9933,
      "industrial": 9934,
      "flash": 9935,
      "regards": 9936,
      "phenomen": 9937,
      "पर्क": 9938,
      "7w": 9939,
      "7x": 9940,
      "aid": 9941,
      "nk": 9942,
      "oso": 9943,
      "न्य": 9944,
      "𝐒𝐭": 9945,
      "𝗼𝗻": 9946,
      "alia": 9947,
      "secret": 9948,
      "gry": 9949,
      "untuk": 9950,
      "pain": 9951,
      "learners": 9952,
      "syear": 9953,
      "partner": 9954,
      "cbseclass9": 9955,
      "views": 9956,
      "mann": 9957,
      "ignited": 9958,
      "infringe": 9959,
      "ukwvkfidac": 9960,
      "protein": 9961,
      "+-+-+-+-": 9962,
      "constitutes": 9963,
      "pollution": 9964,
      "gupta": 9965,
      "security": 9966,
      "olympiad": 9967,
      "nr": 9968,
      "tree": 9969,
      "खरी": 9970,
      "𝐒𝐞𝐫": 9971,
      "inhindi": 9972,
      "alco": 9973,
      "ention": 9974,
      "ucial": 9975,
      "studio": 9976,
      "displacement": 9977,
      "audience": 9978,
      "athletes": 9979,
      "cm_sw_r_": 9980,
      "tictaclearn": 9981,
      "1q": 9982,
      "5e": 9983,
      "8r": 9984,
      ":--": 9985,
      "pil": 9986,
      "ंत्र": 9987,
      "नु": 9988,
      "કર": 9989,
      "ಿಯ": 9990,
      "್ನ": 9991,
      "𝗵𝗮": 9992,
      "influ": 9993,
      "sts": 9994,
      "especial": 9995,
      "liked": 9996,
      "ison": 9997,
      "bottle": 9998,
      "shortvideo": 9999,
      "waste": 10000,
      "crucial": 10001,
      "wars": 10002,
      "enjoyed": 10003,
      "kinetic": 10004,
      "particip": 10005,
      "receive": 10006,
      "valuable": 10007,
      "oly5yy": 10008,
      "plspoly5yy": 10009,
      "_apa_": 10010,
      "plspoly5yyuv": 10011,
      "0m": 10012,
      "g3": 10013,
      "och": 10014,
      "qd": 10015,
      "zer": 10016,
      "निय": 10017,
      "மைய": 10018,
      "station": 10019,
      "deled": 10020,
      "seek": 10021,
      "shiksha": 10022,
      "advis": 10023,
      "genetic": 10024,
      "wa_apa_": 10025,
      "𝐨𝐧𝐭𝐚": 10026,
      "villa": 10027,
      "ocj": 10028,
      "resource": 10029,
      "जाए": 10030,
      "monthly": 10031,
      "plqnv33rzx1hd": 10032,
      "dark": 10033,
      "selves": 10034,
      "studios": 10035,
      "b07y": 10036,
      "relevant": 10037,
      "cm_sw_r_wa_apa_": 10038,
      "𝐨𝐧𝐭𝐚𝐜𝐭": 10039,
      "dx": 10040,
      "ால்": 10041,
      "expo": 10042,
      "factor": 10043,
      "getty": 10044,
      "kevin": 10045,
      "parent": 10046,
      "upboard": 10047,
      "anya": 10048,
      "conditions": 10049,
      "hs6": 10050,
      "doctors": 10051,
      "​​​​": 10052,
      "dynamic": 10053,
      "সায়ন": 10054,
      "--------------------------------------------------------------------------": 10055,
      "centu": 10056,
      "computing": 10057,
      "खरीद": 10058,
      "6f": 10059,
      "_2021": 10060,
      "ethi": 10061,
      "k_": 10062,
      "pbs": 10063,
      "schem": 10064,
      "sate": 10065,
      "ware": 10066,
      "yi": 10067,
      "गए": 10068,
      "छा": 10069,
      "फे": 10070,
      "ಾರ": 10071,
      "ില": 10072,
      "𝐅𝐎𝐑": 10073,
      "belong": 10074,
      "adhy": 10075,
      "ragd": 10076,
      "abay": 10077,
      "covid": 10078,
      "preci": 10079,
      "helping": 10080,
      "collections": 10081,
      "ashu": 10082,
      "reddit": 10083,
      "variety": 10084,
      "transfer": 10085,
      "calculus": 10086,
      "operator": 10087,
      "measurements": 10088,
      "9198": 10089,
      "मिल": 10090,
      "significant": 10091,
      "uttar": 10092,
      "bhunesh": 10093,
      "0r": 10094,
      "adi": 10095,
      "bg": 10096,
      "bright": 10097,
      "nar": 10098,
      "ock": 10099,
      "செ": 10100,
      "ிற": 10101,
      "ിയ": 10102,
      "scal": 10103,
      "sciencefair": 10104,
      "concer": 10105,
      "else": 10106,
      "----------------------------------------------------------------------------------------------------------------": 10107,
      "winning": 10108,
      "commercial": 10109,
      "plgmkmhauzhqr": 10110,
      "quickly": 10111,
      "quiries": 10112,
      "relationship": 10113,
      "morning": 10114,
      "absor": 10115,
      "krishna": 10116,
      "vocab": 10117,
      "mentioned": 10118,
      "previousyear": 10119,
      "fing": 10120,
      "n_": 10121,
      "nation": 10122,
      "sed": 10123,
      "vj": 10124,
      "left": 10125,
      "race": 10126,
      "instant": 10127,
      "******": 10128,
      "iful": 10129,
      "cycl": 10130,
      "brown": 10131,
      "245": 10132,
      "newsletter": 10133,
      "संपर्क": 10134,
      "-------------------------------": 10135,
      "factory": 10136,
      "deliver": 10137,
      "dimens": 10138,
      "pixabay": 10139,
      "difficult": 10140,
      "shayari": 10141,
      "नहीं": 10142,
      "1d": 10143,
      "4e": 10144,
      "6m": 10145,
      "dle": 10146,
      "fert": 10147,
      "qk": 10148,
      "tlm": 10149,
      "ब्": 10150,
      "পে": 10151,
      "বং": 10152,
      "►►": 10153,
      "amoe": 10154,
      "eda": 10155,
      "--------------------": 10156,
      "mathss": 10157,
      "uments": 10158,
      "coach": 10159,
      "new_": 10160,
      "ानी": 10161,
      "skjha": 10162,
      "graphy": 10163,
      "diabet": 10164,
      "𝐚𝐧𝐭": 10165,
      "innovative": 10166,
      "योग": 10167,
      "লিংক": 10168,
      "ന്ന": 10169,
      "bombay": 10170,
      "female": 10171,
      "several": 10172,
      "polynomials": 10173,
      "82": 10174,
      "9j": 10175,
      "dhar": 10176,
      "f2": 10177,
      "पु": 10178,
      "ண்ட": 10179,
      "ട്": 10180,
      "කර": 10181,
      "𝐒𝐎": 10182,
      "amrit": 10183,
      "dete": 10184,
      "urs": 10185,
      "utili": 10186,
      "idence": 10187,
      "hia": 10188,
      "stress": 10189,
      "bust": 10190,
      "tries": 10191,
      "आपका": 10192,
      "mainly": 10193,
      "allows": 10194,
      "successful": 10195,
      "catal": 10196,
      "suggestions": 10197,
      "kidney": 10198,
      "certification": 10199,
      "स्था": 10200,
      "investig": 10201,
      "advantage": 10202,
      "4q": 10203,
      "7h": 10204,
      "9i": 10205,
      "eg": 10206,
      "mics": 10207,
      "mba": 10208,
      "sik": 10209,
      "tcs": 10210,
      "tissues": 10211,
      "vp": 10212,
      "yor": 10213,
      "कला": 10214,
      "vivi": 10215,
      "prab": 10216,
      "divide": 10217,
      "imes": 10218,
      "chance": 10219,
      "owners": 10220,
      "currently": 10221,
      "simply": 10222,
      "missed": 10223,
      "प्रति": 10224,
      "photosynthesis": 10225,
      "hitesh": 10226,
      "primitive": 10227,
      "hormon": 10228,
      "⤠⤠⤠⤠": 10229,
      "alcohol": 10230,
      "ethiop": 10231,
      "-:": 10232,
      "9a": 10233,
      "9h": 10234,
      "9o": 10235,
      "uded": 10236,
      "জি": 10237,
      "sco": 10238,
      "neutr": 10239,
      "______": 10240,
      "uppsc": 10241,
      "hindimedium": 10242,
      "assess": 10243,
      "ியியல்": 10244,
      "luck": 10245,
      "huge": 10246,
      "navod": 10247,
      "𝐢𝐜𝐞": 10248,
      "definite": 10249,
      "selected": 10250,
      "chennai": 10251,
      "plxczcowd7a": 10252,
      "जुड़": 10253,
      "philoso": 10254,
      "scishow": 10255,
      "satell": 10256,
      "1ww": 10257,
      "b_": 10258,
      "blow": 10259,
      "dvd": 10260,
      "eur": 10261,
      "five": 10262,
      "iot": 10263,
      "rise": 10264,
      "বু": 10265,
      "𝐒𝐒𝐂": 10266,
      "offi": 10267,
      "utor": 10268,
      "tvnews": 10269,
      "mathematical": 10270,
      "physicalscience": 10271,
      "आपके": 10272,
      "economy": 10273,
      "increasing": 10274,
      "physician": 10275,
      "kiran": 10276,
      "ক্ষ": 10277,
      "contribut": 10278,
      "beautiful": 10279,
      "4az": 10280,
      "_by_": 10281,
      "bj": 10282,
      "bone": 10283,
      "c6": 10284,
      "gz": 10285,
      "jer": 10286,
      "jen": 10287,
      "mis": 10288,
      "vas": 10289,
      "𝐂𝐨𝐦": 10290,
      "𝐍𝐄": 10291,
      "induction": 10292,
      "atics": 10293,
      "scienceexperiment": 10294,
      "april": 10295,
      "robo": 10296,
      "logical": 10297,
      "powered": 10298,
      "489": 10299,
      "हमसे": 10300,
      "satis": 10301,
      "####": 10302,
      "~~~~~~~~~~~~~~~~": 10303,
      "combined": 10304,
      "hacker": 10305,
      "assamese": 10306,
      "especially": 10307,
      "4i": 10308,
      "_maths_": 10309,
      "density": 10310,
      "gall": 10311,
      "kc": 10312,
      "l0": 10313,
      "qg": 10314,
      "rick": 10315,
      "sri": 10316,
      "बना": 10317,
      "ensure": 10318,
      "scin": 10319,
      "ised": 10320,
      "apan": 10321,
      "shak": 10322,
      "divers": 10323,
      "abc": 10324,
      "anka": 10325,
      "walk": 10326,
      "currentaffairs": 10327,
      "fyp": 10328,
      "wordpress": 10329,
      "න්න": 10330,
      "editorial": 10331,
[...]
